<unk>	0
<s>	0
</s>	0
<0x00>	0
<0x01>	0
<0x02>	0
<0x03>	0
<0x04>	0
<0x05>	0
<0x06>	0
<0x07>	0
<0x08>	0
<0x09>	0
<0x0A>	0
<0x0B>	0
<0x0C>	0
<0x0D>	0
<0x0E>	0
<0x0F>	0
<0x10>	0
<0x11>	0
<0x12>	0
<0x13>	0
<0x14>	0
<0x15>	0
<0x16>	0
<0x17>	0
<0x18>	0
<0x19>	0
<0x1A>	0
<0x1B>	0
<0x1C>	0
<0x1D>	0
<0x1E>	0
<0x1F>	0
<0x20>	0
<0x21>	0
<0x22>	0
<0x23>	0
<0x24>	0
<0x25>	0
<0x26>	0
<0x27>	0
<0x28>	0
<0x29>	0
<0x2A>	0
<0x2B>	0
<0x2C>	0
<0x2D>	0
<0x2E>	0
<0x2F>	0
<0x30>	0
<0x31>	0
<0x32>	0
<0x33>	0
<0x34>	0
<0x35>	0
<0x36>	0
<0x37>	0
<0x38>	0
<0x39>	0
<0x3A>	0
<0x3B>	0
<0x3C>	0
<0x3D>	0
<0x3E>	0
<0x3F>	0
<0x40>	0
<0x41>	0
<0x42>	0
<0x43>	0
<0x44>	0
<0x45>	0
<0x46>	0
<0x47>	0
<0x48>	0
<0x49>	0
<0x4A>	0
<0x4B>	0
<0x4C>	0
<0x4D>	0
<0x4E>	0
<0x4F>	0
<0x50>	0
<0x51>	0
<0x52>	0
<0x53>	0
<0x54>	0
<0x55>	0
<0x56>	0
<0x57>	0
<0x58>	0
<0x59>	0
<0x5A>	0
<0x5B>	0
<0x5C>	0
<0x5D>	0
<0x5E>	0
<0x5F>	0
<0x60>	0
<0x61>	0
<0x62>	0
<0x63>	0
<0x64>	0
<0x65>	0
<0x66>	0
<0x67>	0
<0x68>	0
<0x69>	0
<0x6A>	0
<0x6B>	0
<0x6C>	0
<0x6D>	0
<0x6E>	0
<0x6F>	0
<0x70>	0
<0x71>	0
<0x72>	0
<0x73>	0
<0x74>	0
<0x75>	0
<0x76>	0
<0x77>	0
<0x78>	0
<0x79>	0
<0x7A>	0
<0x7B>	0
<0x7C>	0
<0x7D>	0
<0x7E>	0
<0x7F>	0
<0x80>	0
<0x81>	0
<0x82>	0
<0x83>	0
<0x84>	0
<0x85>	0
<0x86>	0
<0x87>	0
<0x88>	0
<0x89>	0
<0x8A>	0
<0x8B>	0
<0x8C>	0
<0x8D>	0
<0x8E>	0
<0x8F>	0
<0x90>	0
<0x91>	0
<0x92>	0
<0x93>	0
<0x94>	0
<0x95>	0
<0x96>	0
<0x97>	0
<0x98>	0
<0x99>	0
<0x9A>	0
<0x9B>	0
<0x9C>	0
<0x9D>	0
<0x9E>	0
<0x9F>	0
<0xA0>	0
<0xA1>	0
<0xA2>	0
<0xA3>	0
<0xA4>	0
<0xA5>	0
<0xA6>	0
<0xA7>	0
<0xA8>	0
<0xA9>	0
<0xAA>	0
<0xAB>	0
<0xAC>	0
<0xAD>	0
<0xAE>	0
<0xAF>	0
<0xB0>	0
<0xB1>	0
<0xB2>	0
<0xB3>	0
<0xB4>	0
<0xB5>	0
<0xB6>	0
<0xB7>	0
<0xB8>	0
<0xB9>	0
<0xBA>	0
<0xBB>	0
<0xBC>	0
<0xBD>	0
<0xBE>	0
<0xBF>	0
<0xC0>	0
<0xC1>	0
<0xC2>	0
<0xC3>	0
<0xC4>	0
<0xC5>	0
<0xC6>	0
<0xC7>	0
<0xC8>	0
<0xC9>	0
<0xCA>	0
<0xCB>	0
<0xCC>	0
<0xCD>	0
<0xCE>	0
<0xCF>	0
<0xD0>	0
<0xD1>	0
<0xD2>	0
<0xD3>	0
<0xD4>	0
<0xD5>	0
<0xD6>	0
<0xD7>	0
<0xD8>	0
<0xD9>	0
<0xDA>	0
<0xDB>	0
<0xDC>	0
<0xDD>	0
<0xDE>	0
<0xDF>	0
<0xE0>	0
<0xE1>	0
<0xE2>	0
<0xE3>	0
<0xE4>	0
<0xE5>	0
<0xE6>	0
<0xE7>	0
<0xE8>	0
<0xE9>	0
<0xEA>	0
<0xEB>	0
<0xEC>	0
<0xED>	0
<0xEE>	0
<0xEF>	0
<0xF0>	0
<0xF1>	0
<0xF2>	0
<0xF3>	0
<0xF4>	0
<0xF5>	0
<0xF6>	0
<0xF7>	0
<0xF8>	0
<0xF9>	0
<0xFA>	0
<0xFB>	0
<0xFC>	0
<0xFD>	0
<0xFE>	0
<0xFF>	0
▁	-2.40193
,	-2.70088
:	-3.34972
1	-3.4109
(	-3.47629
。	-3.52892
2	-3.94681
3	-4.26203
▁=	-4.31781
4	-4.33981
0	-4.4127
)	-4.44483
5	-4.49552
]	-4.54871
▁```	-4.56326
8	-4.63923
9	-4.64673
7	-4.655
6	-4.65822
▁'	-4.66913
[	-4.70359
▁#	-4.70954
_	-4.77599
.	-4.7768
int	-4.8776
▁pr	-4.91587
▁[	-5.00882
):	-5.01597
':	-5.15722
▁问题	-5.17402
▁解	-5.18854
▁return	-5.21402
▁代码	-5.23791
python	-5.24066
',	-5.27566
▁def	-5.28429
▁in	-5.30981
i	-5.31556
?	-5.36119
n	-5.36482
▁if	-5.47044
子	-5.47657
句	-5.4906
-	-5.50364
▁for	-5.52368
音	-5.64534
],	-5.65855
拼	-5.6589
arr	-5.66856
self	-5.71125
▁arr	-5.71829
s	-5.80031
'	-5.85215
▁i	-5.86351
▁n	-6.00641
))	-6.07302
range	-6.11624
▁+	-6.21294
▁result	-6.21484
▁s	-6.24723
O	-6.26021
j	-6.32626
),	-6.34997
▁b	-6.36761
+	-6.41801
▁x	-6.42159
('	-6.43296
▁len	-6.44604
root	-6.47906
lst	-6.49073
()	-6.49749
▁{'	-6.50466
▁-	-6.52722
结果为	-6.53439
')	-6.55116
▁==	-6.55231
x	-6.57041
=	-6.59235
}	-6.59434
▁dp	-6.61539
f	-6.62722
([	-6.62853
d	-6.65542
)。	-6.67274
!	-6.69689
sort	-6.71366
▁('	-6.73515
in	-6.74762
▁max	-6.74894
val	-6.78911
的	-6.79001
小	-6.82949
w	-6.84316
▁lst	-6.84635
、	-6.85116
▁count	-6.86296
][	-6.86878
items	-6.87108
▁+=	-6.91478
▁<=	-6.91638
a	-6.93726
])	-6.93876
b	-6.93951
▁a	-6.95351
▁['	-6.97168
▁target	-6.98179
append	-6.98219
▁<	-6.99827
▁else	-7.00466
r	-7.012
sum	-7.02348
dp	-7.02908
▁None	-7.03568
order	-7.04109
呀	-7.06774
);	-7.07933
▁while	-7.12068
left	-7.12235
▁[[	-7.12476
]))	-7.1362
▁{	-7.14281
▁*	-7.16121
▁import	-7.16245
item	-7.16713
Python	-7.18194
时间	-7.18431
t	-7.18433
ch	-7.19004
k	-7.20653
]。	-7.21326
▁visited	-7.21585
用	-7.21625
right	-7.21818
=[	-7.22778
node	-7.23563
;	-7.23706
list	-7.25007
/	-7.25539
▁is	-7.25985
使用	-7.28696
▁root	-7.28895
fib	-7.28993
l	-7.30056
▁d	-7.30278
age	-7.30946
请	-7.31374
xiǎo	-7.33044
y	-7.3307
▁j	-7.33875
▁%	-7.35117
__	-7.3516
▁>	-7.35248
reverse	-7.37634
如何实现	-7.37837
▁not	-7.38328
]]	-7.38601
吗	-7.39919
▁的	-7.40052
='	-7.40966
▁hi	-7.41449
和	-7.42297
it	-7.42436
▁c	-7.43109
果	-7.43404
▁total	-7.4356
D	-7.44094
▁cur	-7.44485
排序	-7.45125
苹果	-7.46362
)=	-7.46705
数	-7.4715
B	-7.4723
▁mid	-7.47266
修复	-7.47654
len	-7.48478
▁错误代码	-7.48489
gcd	-7.48958
栈	-7.49342
▁(	-7.50124
花	-7.50859
st	-7.53484
result	-7.53551
▁w	-7.53687
▁val	-7.54521
▁collections	-7.56999
C	-7.57173
next	-7.58106
add	-7.58565
时	-7.59697
▁fib	-7.59884
▁你	-7.60766
不	-7.62013
如何用	-7.62023
元素	-7.62675
▁from	-7.62798
']	-7.64483
▁right	-7.6471
▁和	-7.64898
▁问	-7.6492
A	-7.65033
▁排序结果为	-7.66193
▁curr	-7.66303
函数	-7.66512
'))	-7.6664
就是	-7.67298
▁mx	-7.67499
▁l	-7.68166
data	-7.68329
max	-7.6881
葡萄	-7.68867
香蕉	-7.69226
]:	-7.69242
▁class	-7.69758
无	-7.69831
对	-7.69834
▁men	-7.71198
▁key	-7.71684
end	-7.71762
期	-7.7213
mid	-7.72179
▁__	-7.72344
^	-7.72422
▁f	-7.72647
al	-7.73072
道	-7.73365
tā	-7.73416
桃	-7.73694
樱	-7.73694
右	-7.74337
日	-7.74578
左	-7.7462
head	-7.74629
count	-7.74992
知	-7.75785
queue	-7.77387
m	-7.78518
▁end	-7.78619
'],	-7.78661
str	-7.78688
表示	-7.79883
}')	-7.80189
▁修复后	-7.80378
是一种	-7.80503
sorted	-7.81131
▁left	-7.81369
idx	-7.81378
heapify	-7.81474
比较	-7.81545
▁v	-7.81597
▁elif	-7.81766
▁row	-7.83274
递归	-7.83303
dict	-7.8362
get	-7.85072
▁ch	-7.85403
▁**	-7.85586
根	-7.85911
▁lo	-7.86874
为	-7.87717
答	-7.87756
[:	-7.89405
ar	-7.899
._	-7.90015
pop	-7.90249
factor	-7.90499
le	-7.90613
更	-7.91047
matrix	-7.91185
▁r	-7.91241
graph	-7.91446
在	-7.91868
)]	-7.93246
None	-7.94902
c	-7.95063
min	-7.95246
再	-7.9545
de	-7.95651
▁defaultdict	-7.95891
会	-7.97391
▁deque	-7.98034
后	-7.98134
▁[]	-7.98491
source	-7.99548
log	-7.99786
▁half	-7.99796
▁prev	-7.99838
▁stack	-8.00455
▁中	-8.01068
节点	-8.01173
▁[('	-8.0149
▁merge	-8.01658
▁Counter	-8.02138
ow	-8.02243
▁insert	-8.02248
▁reverse	-8.02473
F	-8.02545
错误	-8.03137
▁q	-8.03172
▁neighbor	-8.04288
zip	-8.06427
▁set	-8.06549
is	-8.06703
▁False	-8.06841
nǐ	-8.06899
▁//	-8.06912
▁largest	-8.07439
▁xué	-8.07622
mo	-8.07755
插入	-8.0787
height	-8.08046
me	-8.08689
▁True	-8.08829
▁min	-8.08862
width	-8.08959
▁修复方法	-8.09004
fs	-8.11037
前	-8.115
wǒ	-8.11559
▁values	-8.12243
实现	-8.12604
largest	-8.12724
capacity	-8.12868
▁/	-8.13091
True	-8.136
weights	-8.13604
▁k	-8.13858
ing	-8.13934
push	-8.14049
▁方法	-8.14891
enumerate	-8.15209
出	-8.15353
循环	-8.17108
}。	-8.17257
访问	-8.17468
cur	-8.18123
valid	-8.19262
en	-8.2021
检查	-8.20549
▁@	-8.21559
no	-8.2163
长度	-8.21802
的倍数	-8.21834
价值	-8.21835
selection	-8.21846
ack	-8.21862
g	-8.21864
ending	-8.21896
aps	-8.22034
▁and	-8.22148
so	-8.22179
far	-8.22199
ary	-8.22611
▁ws	-8.22869
是	-8.23084
ive	-8.23104
set	-8.24588
大	-8.24736
▁!=	-8.2482
▁exp	-8.24876
▁Python	-8.25641
ana	-8.25939
遍历	-8.26705
▁flat	-8.27225
split	-8.27249
并	-8.27407
e	-8.27684
返回	-8.27858
'])	-8.28389
▁new	-8.28643
▁TypeError	-8.29149
▁words	-8.30004
一	-8.30438
▁是	-8.30883
或	-8.31277
▁capacity	-8.31683
ub	-8.32644
▁实现	-8.32739
空	-8.32905
[-	-8.33101
(*	-8.33147
ear	-8.33286
▁bà	-8.33775
oi	-8.34133
nce	-8.34277
▁graph	-8.34532
习	-8.34657
▁queue	-8.35898
量	-8.36113
处理	-8.36164
词	-8.36187
:])	-8.37403
链表	-8.37687
u	-8.37744
加	-8.37988
BST	-8.38062
▁shī	-8.38164
索引	-8.38382
han	-8.38507
转	-8.38611
▁nested	-8.3916
▁')	-8.39728
num	-8.39815
lo	-8.4026
writer	-8.4064
按	-8.40703
original	-8.40888
▁sum	-8.41383
▁quick	-8.41773
amount	-8.42056
默认值	-8.42317
黄色	-8.42499
heapq	-8.4272
on	-8.4274
进	-8.42883
文件	-8.43849
▁mā	-8.44442
行	-8.44472
isten	-8.44538
▁di	-8.4482
有	-8.44919
nums	-8.44973
橙色	-8.44997
入	-8.45003
from	-8.46244
**	-8.46373
▁sorted	-8.46526
粉色	-8.46564
▁start	-8.4694
写	-8.47306
base	-8.47403
ty	-8.47702
每次	-8.48113
keys	-8.4864
total	-8.48969
func	-8.49122
▁y	-8.49165
将	-8.49497
以下代码	-8.49539
读取	-8.49572
▁with	-8.49615
ext	-8.49711
gen	-8.49834
index	-8.49836
盘	-8.50142
快	-8.50559
移动	-8.50628
容量	-8.50629
求数组	-8.50632
FizzBuzz	-8.50638
子数组	-8.5071
最小值	-8.50802
反转	-8.50825
约	-8.50832
▁->	-8.50884
▁māo	-8.50936
▁auxiliary	-8.50954
E	-8.51026
popleft	-8.51066
palindrome	-8.51268
▁TreeNode	-8.51375
ra	-8.51437
等于	-8.51477
]);	-8.51504
蓝色	-8.51564
▁或	-8.51573
▁ends	-8.51606
nex	-8.51665
▁pairs	-8.51836
紫色	-8.52065
starts	-8.52114
号	-8.52122
▁p	-8.52573
▁pre	-8.52787
▁-=	-8.52868
▁as	-8.5297
];	-8.53076
▁log	-8.5326
▁except	-8.53282
▁time	-8.53344
emp	-8.53393
列表	-8.53621
绿色	-8.53797
多	-8.53956
▁seen	-8.54064
▁pivot	-8.54118
所以大家都喜欢	-8.5475
▁items	-8.54888
做	-8.55105
value	-8.55344
红色	-8.5538
结果	-8.55596
参数	-8.55714
<	-8.56373
▁la	-8.56628
se	-8.56865
▁csv	-8.56913
成	-8.57037
▁en	-8.57196
gram	-8.57237
以	-8.57391
q	-8.57592
]+	-8.5781
求	-8.58278
了	-8.58474
ivi	-8.58781
阶	-8.5905
lambda	-8.5905
出现次数	-8.5905
平均值	-8.59051
flat	-8.59104
▁writer	-8.59379
开心	-8.59906
jiě	-8.59942
创建	-8.59978
line	-8.60223
▁是否为	-8.60253
▁gǒu	-8.60486
)、	-8.60673
异常	-8.60917
ble	-8.60956
条件	-8.62101
之	-8.6255
p	-8.62659
*	-8.62738
▁的最大	-8.62814
mèi	-8.63046
先	-8.63128
{	-8.63337
▁m	-8.63523
bà	-8.63878
贪心	-8.64026
少	-8.64396
最大和	-8.64538
原	-8.65486
值	-8.65564
必须	-8.65742
gē	-8.65829
nǎi	-8.6584
ind	-8.65875
与	-8.66119
从	-8.66173
one	-8.66735
查找	-8.66738
时间复杂度	-8.6683
ement	-8.6699
乘	-8.67237
正确	-8.67992
如何	-8.68038
▁zuò	-8.68056
lǎo	-8.681
分	-8.68179
统计	-8.68239
自动	-8.68249
手动	-8.6825
边界	-8.68302
字母	-8.685
())	-8.68629
tóng	-8.68697
方法	-8.69311
csv	-8.69364
er	-8.69367
try	-8.69456
▁对	-8.69636
到	-8.69805
yé	-8.69993
low	-8.70253
▁data	-8.70292
rect	-8.70331
P	-8.70478
stats	-8.70565
name	-8.70567
字符串	-8.7106
调整	-8.71074
▁num	-8.71154
ba	-8.71184
▁float	-8.72345
▁next	-8.72495
类型	-8.72652
问题	-8.72962
括号	-8.7318
▁xǐ	-8.73293
sta	-8.73889
)?	-8.74092
真	-8.74112
五	-8.74188
岁	-8.74234
练	-8.74252
结构	-8.74522
有序	-8.74737
join	-8.74794
mā	-8.75052
▁age	-8.75129
▁míng	-8.75673
个	-8.76076
dì	-8.76158
子树值	-8.7643
ci	-8.77057
afe	-8.77327
选	-8.77528
我今年	-8.77536
(['	-8.77577
v	-8.77797
▁msg	-8.77803
以下代码报	-8.78094
function	-8.78377
Pythonic	-8.78378
CSV	-8.78381
chain	-8.78408
▁IndexError	-8.7842
▁jiě	-8.78424
ding	-8.78593
price	-8.78668
▁raise	-8.78672
▁global	-8.78681
▁shallow	-8.78688
▁KeyError	-8.78693
co	-8.78921
▁dict	-8.7901
▁or	-8.79953
等	-8.80118
target	-8.80193
▁sh	-8.80641
▁hóng	-8.80678
▁mèi	-8.81524
只	-8.81666
▁chars	-8.81863
▁Rectangle	-8.81909
顶	-8.82077
▁lines	-8.82094
avg	-8.82124
neighbor	-8.82197
start	-8.82339
▁copy	-8.82752
通过	-8.82968
cnt	-8.83001
所有	-8.83367
V	-8.83845
体	-8.83955
▁gē	-8.84067
heap	-8.84152
▁nǎi	-8.84195
LI	-8.85052
▁po	-8.85119
ate	-8.85332
集合	-8.85602
据	-8.85891
找到	-8.85955
ion	-8.86074
空间	-8.86102
执行	-8.86251
逐个	-8.8686
重量	-8.86878
ng	-8.86908
内	-8.87165
算法	-8.87165
▁matrix	-8.87179
类	-8.87226
列表推导式	-8.8732
走	-8.87466
背包	-8.87471
合并	-8.87796
▁yé	-8.88212
串	-8.8836
由	-8.88396
四	-8.89497
ǔ	-8.89549
换	-8.89621
未	-8.89645
模块	-8.89645
I	-8.89923
ange	-8.89974
nt	-8.90003
app	-8.9006
切片	-8.90279
▁有	-8.90416
去重	-8.90514
指向	-8.90637
中序	-8.91212
Fizz	-8.91215
Buzz	-8.91215
尾	-8.91227
结束时间	-8.91227
物品	-8.91228
如何在列表	-8.91228
层移到	-8.91228
最优价值为	-8.91228
硬币	-8.91228
cache	-8.91228
score	-8.91229
冒泡排序	-8.91233
peek	-8.91233
选取	-8.91237
]*(	-8.91268
▁original	-8.91271
口	-8.9137
▁|	-8.914
)):	-8.91502
▁Queue	-8.91524
▁Stack	-8.91524
已	-8.91534
维护	-8.91548
到已排序	-8.91725
整数	-8.91793
水	-8.91869
回文	-8.9187
owe	-8.91901
heappop	-8.91902
▁Node	-8.91956
▁>=	-8.92292
coins	-8.92318
前序	-8.92356
记	-8.92512
)))	-8.92619
字典	-8.92687
▁[]}	-8.93025
ru	-8.93113
▁[];	-8.93239
是否匹配	-8.93623
放	-8.93666
调用	-8.93764
数据	-8.93784
一个	-8.93869
窗	-8.94137
重复计算	-8.94215
ac	-8.94614
S	-8.94749
W	-8.95131
比	-8.95286
分组	-8.95439
建议	-8.96131
开	-8.96169
▁[]):	-8.9629
▁groups	-8.96321
▁complement	-8.96365
对象	-8.96462
▁unique	-8.96732
False	-8.96971
应	-8.96997
blue	-8.97141
airs	-8.97446
mb	-8.97524
方向	-8.97922
ry	-8.98213
于放	-8.98713
▁步	-8.98777
性	-8.99133
公	-8.99158
▁S	-8.99193
是否	-8.99294
导致	-8.99538
于	-8.99592
米	-8.99773
ction	-8.99947
总和	-9.00016
off	-9.00585
很	-9.00838
▁re	-9.01383
记录	-9.0164
节省内存	-9.01641
开始	-9.02027
最坏	-9.0271
生成器	-9.02904
修改	-9.03065
uǒ	-9.03408
式	-9.03417
树	-9.03423
hello	-9.03788
装饰器	-9.03837
茶	-9.03949
中	-9.04136
参数指定	-9.04149
辗转相除法	-9.04149
项	-9.04149
如何对列表	-9.0415
先判断	-9.04161
两个数	-9.04169
▁展平	-9.04536
▁zi	-9.04832
元音	-9.04909
▁{}	-9.05418
orld	-9.0546
finally	-9.0562
▁amount	-9.05654
避免	-9.06024
▁heapq	-9.06279
关键字	-9.06733
步	-9.06839
do	-9.07598
重	-9.07747
kwargs	-9.07846
args	-9.07884
key	-9.07941
鸟	-9.08112
计算	-9.08378
▁functools	-9.08615
'{	-9.0908
))]	-9.09285
nested	-9.09436
▁push	-9.09482
av	-9.09585
计数	-9.10014
();	-9.10015
itertools	-9.10026
time	-9.10029
vowels	-9.10049
▁xiào	-9.10106
数字	-9.10151
▁weights	-9.10254
慢	-9.10327
越界	-9.10445
wraps	-9.1065
two	-9.11573
小红	-9.11981
▁_	-9.12218
Hello	-9.12471
ù	-9.12471
包	-9.12896
带	-9.13125
推荐	-9.13195
质	-9.13206
序列	-9.13649
拼接	-9.13705
▁分组	-9.13706
text	-9.13998
种方法	-9.14025
▁去重	-9.14169
书	-9.14196
后序	-9.14524
ē	-9.15087
草	-9.1552
小明	-9.15768
quick	-9.15908
队列	-9.16093
百科	-9.16494
▁line	-9.1667
'?	-9.16963
息	-9.17317
远	-9.17622
)+	-9.17881
Error	-9.1793
信息	-9.18153
string	-9.18239
车	-9.18367
手	-9.18511
['	-9.1871
风	-9.18756
直接	-9.18956
优化	-9.18987
逻辑	-9.1899
capitalize	-9.18991
丢失精度	-9.18991
抛出	-9.18991
U	-9.18991
"""	-9.18991
property	-9.18991
如何统计字符串	-9.18991
避免递归的	-9.18991
被改	-9.18991
filepath	-9.18991
年龄必须	-9.18991
添加	-9.18992
赋值	-9.18992
遵循	-9.18992
副作用	-9.18992
命名规范	-9.18993
逐行	-9.18993
之间	-9.18995
最大	-9.18998
perimeter	-9.18998
数据验证	-9.18998
oca	-9.18999
比较运算符	-9.19012
分词	-9.1903
大写	-9.19042
质数	-9.1905
area	-9.19054
如何实现一个	-9.19063
应使用	-9.19073
用循环	-9.19188
▁耗时	-9.19221
▁中每个单词	-9.19283
▁wrapper	-9.19298
▁reader	-9.1931
▁deep	-9.19384
alc	-9.19548
▁而非	-9.199
file	-9.19928
▁中的	-9.20103
最	-9.20151
rt	-9.20363
鱼	-9.20512
平均	-9.20635
字	-9.20675
事	-9.20687
作	-9.20996
timer	-9.21013
终	-9.21102
除法	-9.21264
报错	-9.21402
▁大于	-9.21986
人	-9.22417
二就是	-9.22554
安全	-9.22721
二叉搜索树	-9.22799
稳定排序	-9.22855
火	-9.2348
每	-9.23706
▁grouped	-9.24096
▁ValueError	-9.24129
但	-9.24401
▁deepcopy	-9.24483
三就是	-9.24564
▁F	-9.24767
ost	-9.24905
关	-9.24935
组	-9.25179
适	-9.25316
度	-9.25493
脚	-9.25576
pri	-9.25624
起	-9.26587
太阳	-9.2686
效	-9.26863
hé	-9.27253
▁ná	-9.27277
佳	-9.27788
快速排序	-9.27799
外	-9.28224
身	-9.2823
得到	-9.28263
▁vowels	-9.28812
▁itertools	-9.28851
雪	-9.28907
配合	-9.29174
顺序	-9.29176
▁h	-9.29653
▁two	-9.29782
面	-9.29978
选择	-9.30107
动态规划	-9.30112
关键	-9.30167
请介绍一下	-9.30271
】	-9.30585
▁【	-9.3075
é	-9.30808
可用	-9.31312
acti	-9.31377
山	-9.31438
人物	-9.31545
哈希表	-9.32033
▁列表推导式	-9.32145
是什么	-9.32212
笔	-9.32825
是的	-9.32844
基准	-9.32977
高	-9.33431
所需	-9.33951
exp	-9.34057
deque	-9.34179
▁value	-9.34233
L	-9.34328
ap	-9.34358
层	-9.34438
最短路径	-9.34441
▁个	-9.34593
▁sòng	-9.34764
▁g	-9.34868
规律	-9.34931
cs	-9.34956
▁huān	-9.35087
óng	-9.35291
el	-9.35382
cie	-9.35553
雨	-9.35777
位置	-9.35914
军	-9.36113
ada	-9.36229
▁jī	-9.3625
持	-9.36423
iǎo	-9.36523
月亮	-9.36592
▁node	-9.36592
▁item	-9.36839
受	-9.36879
交	-9.36919
基例	-9.36929
ǒu	-9.36931
变	-9.37387
Data	-9.37435
序	-9.37635
▁yóu	-9.37739
▁C	-9.3778
化	-9.37876
取	-9.3792
里	-9.38135
可	-9.3869
存储	-9.38964
益	-9.38964
样	-9.39137
▁bāng	-9.39295
缩小	-9.39479
数据和	-9.39574
合	-9.39575
▁L	-9.39779
▁huà	-9.39834
封装	-9.39999
建	-9.4051
DFS	-9.40511
BFS	-9.40511
即	-9.40519
▁hē	-9.40525
椅子	-9.40721
▁kāi	-9.4083
▁wán	-9.40836
ope	-9.41023
ě	-9.41024
艺术	-9.4104
适合连通性判断	-9.41043
每天	-9.4106
红	-9.41128
飞	-9.41268
桌子	-9.4132
▁zhàn	-9.4137
▁tiào	-9.41372
动	-9.41373
gra	-9.41417
▁sǎo	-9.41516
代	-9.41552
▁wèn	-9.41876
▁zǒu	-9.41876
▁tīng	-9.41894
▁排序	-9.41898
渐	-9.42095
恒	-9.42096
循	-9.42097
利用	-9.42113
地	-9.42192
位	-9.42609
当前	-9.42611
unique	-9.42742
下	-9.42784
▁zhǎo	-9.42958
except	-9.42993
▁循环	-9.43079
▁kàn	-9.43495
▁zhǒng	-9.43503
▁yú	-9.43506
回溯	-9.43702
形成	-9.43703
//	-9.43887
河	-9.4389
▁zhī	-9.4401
▁pǎo	-9.44037
▁chàng	-9.44041
去	-9.44092
相	-9.4471
坚持	-9.44785
无权图	-9.44786
适合求	-9.44799
▁width	-9.44906
▁height	-9.45204
增	-9.45332
连续	-9.45333
中序遍历	-9.45552
新	-9.45602
ǐ	-9.4561
▁xiǎng	-9.45728
rec	-9.45776
实例	-9.45882
▁更	-9.45894
▁mǐ	-9.46238
▁guān	-9.46417
单	-9.4642
意	-9.46431
堆排序	-9.4645
列	-9.46507
计数排序	-9.46513
%	-9.4667
▁pá	-9.46733
▁chī	-9.46744
▁yǎng	-9.46789
中国	-9.46963
婷	-9.4699
惯	-9.4699
杰	-9.4699
us	-9.47069
滑	-9.47187
world	-9.47402
世界遗产	-9.47547
有什么	-9.47693
家	-9.47842
同一	-9.47844
▁append	-9.47943
发	-9.48106
可用记忆化优化	-9.4811
翻	-9.48111
是整	-9.48261
冲突	-9.48675
队列是先进先出	-9.48676
互	-9.48676
栈是后进先出	-9.48676
最大堆	-9.4868
▁ài	-9.48872
零	-9.48935
▁shuō	-9.49003
最小堆	-9.49244
用队列逐层	-9.49244
本	-9.49364
减	-9.49812
名	-9.49813
怎	-9.49815
merge	-9.49844
Counter	-9.50162
判断	-9.50215
insert	-9.50273
键	-9.50548
唱	-9.50609
▁dá	-9.50723
pivot	-9.50889
每次比较中间元素	-9.50967
范围	-9.50967
不断	-9.50974
活动选择	-9.50976
values	-9.50994
mx	-9.50996
float	-9.5106
complement	-9.51144
groups	-9.51225
seen	-9.51257
的最大	-9.51302
嵌套列表推导式展平	-9.51549
全局	-9.51697
transposed	-9.51741
▁生	-9.51764
merged	-9.51899
学校	-9.5196
差集	-9.51966
交集	-9.51968
并集	-9.51973
时返回	-9.52027
沿一条路径	-9.52133
无限	-9.52134
拓扑排序	-9.52134
转换	-9.52423
coin	-9.52447
程	-9.52512
公园	-9.52632
华	-9.5271
但访问需遍历	-9.52722
末	-9.52723
细	-9.52723
rate	-9.52934
▁dà	-9.53035
▁kū	-9.53097
长	-9.53129
非	-9.5331
异	-9.53313
格	-9.53314
机	-9.53427
方	-9.53469
!=	-9.53471
lis	-9.53479
爬	-9.53811
维	-9.53909
分治法	-9.53909
危险	-9.53911
归并排序	-9.53918
fla	-9.53952
丽	-9.53979
明	-9.54017
▁Is	-9.54187
自身	-9.54366
素	-9.54416
ū	-9.54445
门	-9.54511
每个值	-9.54645
星星	-9.54763
我	-9.54862
将每个	-9.55009
标	-9.5511
引用	-9.55171
城	-9.55229
到底	-9.55275
重要	-9.5528
o	-9.55385
▁dú	-9.55446
un	-9.55617
最长公共子序列	-9.55669
核	-9.55717
▁结果为	-9.55924
所以	-9.55978
▁fàng	-9.56063
哭	-9.56231
率	-9.56318
别	-9.56318
燕	-9.56326
芳	-9.56326
相邻	-9.56328
得	-9.56539
yield	-9.5654
words	-9.56759
结	-9.56848
í	-9.56859
伟	-9.5694
re	-9.57001
th	-9.57213
▁xiě	-9.57261
▁mài	-9.57273
能	-9.57362
with	-9.57459
下一	-9.57493
决定	-9.57557
刚	-9.57557
各	-9.57557
一步	-9.57598
云	-9.57729
近	-9.58151
乱	-9.58178
轮	-9.58179
用递归或栈	-9.58609
ro	-9.58652
be	-9.58703
部分	-9.58705
避免重复	-9.5873
助	-9.58822
什么	-9.59021
游	-9.59212
字符	-9.59244
楼	-9.59314
有多少	-9.59366
▁mǎi	-9.59412
置	-9.59424
递	-9.59431
拆	-9.59431
密度	-9.59432
查看	-9.59433
菜	-9.59447
▁的最长	-9.59459
ords	-9.59929
Al	-9.5998
ile	-9.59982
ōng	-9.60045
圆	-9.60069
保护	-9.60116
一次	-9.60179
跳	-9.60333
ist	-9.60524
的最	-9.60553
iàn	-9.60656
重复	-9.60682
在有序列表	-9.60686
目标柱	-9.60687
每个	-9.60688
活动	-9.60693
梯	-9.60694
运算	-9.60696
层汉诺塔	-9.607
柱	-9.60701
凑	-9.60701
求和得	-9.60702
除以长度	-9.60702
先进先出	-9.60702
凑出金额	-9.60702
后进先出	-9.60702
如何合并字典	-9.60702
如何将二维列表	-9.60702
如何按值对字典	-9.60702
如何用递归反转字符串	-9.60702
如何用递归实现快速幂运算	-9.60702
如何用递归求列表	-9.60702
如何用递归求斐波那契数列第	-9.60702
如何用递归解决	-9.60702
如何用递归计算	-9.60702
如何统计列表	-9.60702
如何计算列表	-9.60702
如何转置矩阵	-9.60702
如需保持顺序可用	-9.60702
找到目标在索引	-9.60702
斐波那契	-9.60702
最多选	-9.60702
有哪些方法可以反转列表	-9.60702
朴	-9.60702
用三个指针	-9.60702
给定硬币面额	-9.60702
辅	-9.60702
K	-9.60703
打印	-9.60703
最大值	-9.60704
层汉诺塔需要	-9.60704
如何将列表	-9.60705
堆顶	-9.60705
用列表的	-9.60716
如何在有序列表	-9.60719
到目标柱	-9.6072
得平均值	-9.60721
ordered	-9.60723
在数组	-9.60723
排序部分的	-9.60738
最大值为	-9.6074
找到索引	-9.60744
按值	-9.60759
遍历列表	-9.60772
会打	-9.60774
部分的	-9.60777
最大和为	-9.6078
CS	-9.60781
对集合	-9.60795
最小值为	-9.60819
推荐用	-9.60819
二叉树	-9.60827
▁&	-9.60861
▁原地	-9.60924
▁对称差	-9.60954
spl	-9.60955
▁均为	-9.60964
▁中找和为	-9.60972
▁简洁写法	-9.60972
▁新的头节点	-9.60985
▁迭代法时间	-9.60985
▁链表插入删除	-9.60994
▁中二分搜索目标	-9.61
▁中线性搜索目标	-9.61
▁中搜索不存在的目标	-9.61009
weight	-9.6103
▁xīng	-9.61049
实现单	-9.61061
香	-9.61089
▁中长度	-9.6109
▁fēi	-9.61279
接收	-9.61342
双指针	-9.61343
判断括号字符串	-9.61343
如何判断字符串	-9.61343
如何实现图的广度优先搜索	-9.61343
如何实现图的深度优先搜索	-9.61343
建堆后堆顶为	-9.61343
私有属性	-9.61343
频	-9.61344
统计字符	-9.61362
子序列	-9.61369
插入平均	-9.6139
如何实现二叉搜索树	-9.61431
如何使用	-9.61516
▁的堆	-9.61587
▁原数组	-9.61595
▁有序输出	-9.61613
▁原地建堆	-9.61614
▁双指针法	-9.61614
▁'{'}	-9.61614
▁插入序列	-9.61618
▁堆顶最小值	-9.61627
▁'([{':	-9.61634
com	-9.61643
▁'}':	-9.61721
▁{')':	-9.61773
语句	-9.61806
盖	-9.61988
yī	-9.61995
可变	-9.62005
▁建堆	-9.6206
▁保持顺序	-9.62152
ne	-9.62194
▁注意	-9.62317
▁yán	-9.62339
▁'[',	-9.62378
ity	-9.6248
▁break	-9.62581
dL	-9.62759
▁']':	-9.62773
tio	-9.62972
解析	-9.63291
▁ji	-9.63374
rad	-9.63381
行为	-9.63418
pen	-9.63438
},	-9.63465
黄	-9.63717
一样	-9.63728
copy	-9.63762
也可	-9.63908
确保	-9.6395
属性和	-9.63954
▁xi	-9.63961
龙	-9.6408
也	-9.6418
作为	-9.6419
打	-9.64579
线	-9.64605
旧	-9.64624
▁种	-9.64643
妈妈	-9.64695
始	-9.65164
过	-9.65172
()。	-9.65204
个人	-9.65245
提	-9.65269
适合处理大数据流	-9.65278
惰性	-9.65279
产出值	-9.65292
▁'(',	-9.65352
几	-9.65653
没有	-9.65993
爸爸	-9.66279
]]?	-9.66588
路	-9.67019
▁简洁	-9.67232
小猫	-9.67241
含	-9.67304
▁coin	-9.67793
吃	-9.67871
喝	-9.67962
拉	-9.67981
欧	-9.6799
轻	-9.68209
为什么	-9.68211
▁setdefault	-9.68293
]}。	-9.68357
'。	-9.6851
广	-9.68679
依	-9.6868
强	-9.6868
首	-9.6868
▁lis	-9.68736
马	-9.69027
▁共	-9.69097
}?	-9.69205
▁也可	-9.69235
热	-9.69249
情况	-9.69365
cl	-9.6965
▁并集	-9.70274
▁差集	-9.70275
▁交集	-9.70275
▁时返回	-9.70415
▁transposed	-9.70547
解包	-9.70654
完整	-9.70774
共享	-9.70776
船	-9.70849
原函数	-9.70914
▁merged	-9.7122
眼	-9.71297
在函数定义时	-9.71486
场景	-9.71486
:]);	-9.71506
公共方法	-9.71613
deepcopy	-9.71719
]}	-9.7198
石	-9.72094
▁BFS	-9.72212
▁DFS	-9.72213
鸭	-9.72397
▁');	-9.72839
域	-9.72917
留	-9.7292
同	-9.72971
绿	-9.731
因	-9.73436
▁可用	-9.73573
销	-9.73645
除	-9.73777
灯	-9.7414
))))	-9.74239
千	-9.74368
真正	-9.74375
编	-9.74376
]))]	-9.7438
坏	-9.74517
共	-9.74618
▁我	-9.74659
指	-9.74734
穿	-9.74798
裸	-9.75109
捕获	-9.7511
捕获具体异常	-9.75111
反转字符串	-9.75168
如何处理	-9.75276
低	-9.75303
桥	-9.75361
否则	-9.75489
引	-9.75778
提供	-9.75851
牛	-9.76014
collections	-9.76236
lement	-9.76473
符	-9.76584
发现	-9.76588
壮	-9.7659
完成	-9.76598
的作用	-9.76615
声	-9.77018
糖	-9.77079
row	-9.771
defaultdict	-9.77249
头	-9.77318
产出	-9.77334
衣	-9.77349
满足	-9.7735
短	-9.77403
大数据	-9.77407
数量	-9.7754
▁heap	-9.77571
鹅	-9.77759
七	-9.77835
TypeError	-9.77902
初	-9.78106
释放资源	-9.78107
逗号	-9.78107
偶数	-9.78107
获取	-9.78108
▁找到	-9.78221
the	-9.78337
心	-9.78444
平方	-9.78537
Rectangle	-9.78578
chars	-9.78704
functools	-9.78845
配对	-9.78875
什么是	-9.78911
z	-9.78934
ValueError	-9.78951
grouped	-9.79008
setdefault	-9.79301
房子	-9.79417
act	-9.79488
people	-9.79559
lines	-9.79576
更新计数器	-9.79581
elapsed	-9.79589
▁avg	-9.796
只是引用	-9.79619
失	-9.79639
word	-9.79784
▁yá	-9.8027
钟	-9.80359
保	-9.80404
▁cnt	-9.80534
简洁	-9.80811
世界	-9.81939
年	-9.81975
健	-9.81983
输入	-9.81983
防御	-9.81988
会被	-9.82038
小狗	-9.82089
熊	-9.82198
田	-9.82366
')]	-9.82464
次	-9.82622
AE	-9.82629
猫	-9.82641
设计	-9.82777
甜	-9.83504
羊	-9.83511
可以	-9.83699
%。	-9.84074
票	-9.84131
死	-9.84384
én	-9.8475
速度	-9.84789
蛋	-9.84803
▁cl	-9.84882
睡	-9.84936
累	-9.85177
装	-9.85193
继承	-9.85195
划	-9.85197
打开	-9.85237
需要用	-9.85281
美丽	-9.85403
老师	-9.85415
ou	-9.85425
ice	-9.85469
蛇	-9.85469
叶	-9.85744
ke	-9.85758
则	-9.86015
白	-9.86021
来	-9.86133
汽车	-9.86187
不能直接	-9.86282
脸	-9.86347
同学	-9.86693
第	-9.86812
适合	-9.86817
义	-9.86836
显	-9.86841
替	-9.86842
闭	-9.86843
矮	-9.86867
eij	-9.86892
酒	-9.8691
hai	-9.86989
áng	-9.86995
牙	-9.87207
▁base	-9.87307
大海	-9.87395
推	-9.8764
Di	-9.87669
以下代码想打印列表	-9.87676
区别	-9.8768
不能到	-9.87688
效率	-9.87689
需用	-9.87703
但有	-9.87716
▁应为	-9.87897
▁转换或	-9.87946
的元	-9.87953
厂	-9.88212
较	-9.88386
计	-9.88458
存在	-9.88474
运算符	-9.88481
验证	-9.88504
函数内修改全局变量	-9.88511
访问不存在的键	-9.88512
校	-9.88513
省内存	-9.88514
副	-9.88514
嵌套结构	-9.88515
掩	-9.88515
请解释面向对象中的	-9.88516
丢失小数部分	-9.88516
仔	-9.88516
以下代码在条件中误用	-9.88516
以下代码想判断	-9.88516
以下函数使用可变默认参数	-9.88516
修改全局变量	-9.88516
如何在遍历列表	-9.88516
如何将字符串	-9.88516
如何将嵌套列表	-9.88516
如何用列表推导式对	-9.88516
如何用迭代方式求斐波那契数列第	-9.88516
如何用迭代方式计算	-9.88516
如需浮点结果用	-9.88516
忘	-9.88516
最大索引为	-9.88516
永	-9.88516
滤	-9.88516
目标是累加到	-9.88516
请解释以下	-9.88516
败	-9.88516
默认参数	-9.88516
这段代码	-9.88516
浮点	-9.88517
验	-9.88517
Z	-9.88517
反了	-9.88517
审查	-9.88517
纯	-9.88518
nboundLocalError	-9.88518
嵌套结构需要	-9.88518
访问不存在的键会报	-9.88519
如何用两个列表	-9.88521
请解释什么是	-9.88521
函数内修改全局变量需用	-9.88521
以下	-9.88526
xxs	-9.88528
判断数字	-9.88533
ound	-9.88535
鸡	-9.88536
aei	-9.88537
数不能	-9.88554
不存在	-9.88562
hang	-9.88578
()}'	-9.88591
字典为	-9.88617
实现求	-9.88628
代码	-9.88641
})'	-9.88651
city	-9.88654
以下代码在	-9.88663
列表为	-9.88668
耳	-9.88673
▁改进	-9.88695
用字典	-9.88708
用列表推导式	-9.88719
ero	-9.8872
▁缺少	-9.88728
=[]):	-9.88752
▁应该用	-9.88759
▁优化后	-9.88766
明亮	-9.88776
▁不受影响	-9.88778
▁转为列表	-9.88778
▁除零错误	-9.88778
▁也可以用	-9.88778
▁原始代码	-9.88778
▁是否大于	-9.88779
▁逻辑反了	-9.88779
▁嵌套推导式	-9.8879
▁待审查代码	-9.8879
▁计算平均值	-9.88794
并排序	-9.88794
▁改进后	-9.88795
▁指定起始索引	-9.88799
▁条件中应使用	-9.88799
▁使用生成器	-9.88815
▁使用生成器表达式	-9.88816
▁正常	-9.88889
eep	-9.89215
ob	-9.89244
给	-9.89325
保证	-9.89365
']}	-9.90209
街	-9.90278
__}	-9.90345
和字符	-9.90439
xError	-9.90676
深	-9.90837
▁浅拷贝	-9.9093
▁深拷贝	-9.90934
xt	-9.91381
▁*=	-9.91542
店	-9.91573
visi	-9.91704
诗	-9.91949
检查是否	-9.92045
旗	-9.92432
看	-9.92464
自	-9.93022
叶子	-9.93163
No	-9.93433
▁合法	-9.94164
三	-9.94322
='',	-9.94409
米饭	-9.94532
():	-9.94687
天空	-9.94772
ài	-9.95131
('{	-9.95152
▁t	-9.95745
▁tóu	-9.95831
sl	-9.95892
东	-9.96043
狮	-9.96191
ab	-9.96665
ict	-9.96785
,==	-9.96814
mi	-9.971
lc	-9.97326
▁word	-9.97442
▁píng	-9.97679
法	-9.97894
}'))	-9.97963
鼓	-9.98091
▁只是引用	-9.98283
▁会	-9.98313
▁elapsed	-9.9832
▁更新计数器	-9.98328
▁people	-9.98356
玩	-9.9843
温暖	-9.98706
八	-9.98747
,//	-9.99346
({	-9.99676
▁转换	-9.99714
美	-10.0006
站	-10.0022
▁除	-10.0059
▁yield	-10.0075
肉	-10.0092
村	-10.013
合法	-10.0131
六	-10.0166
虎	-10.0188
坐	-10.0195
定	-10.0204
冰	-10.0205
史	-10.0239
▁出	-10.0244
▁liàng	-10.0329
工程	-10.0336
▁关键	-10.0382
兔	-10.0397
假	-10.0443
盐	-10.0451
▁pop	-10.0503
▁判断	-10.0524
:]	-10.057
▁越界	-10.0618
ú	-10.0683
州	-10.07
:]:	-10.0712
就	-10.0729
á	-10.0737
▁wraps	-10.0768
快乐	-10.0793
▁[])	-10.0795
iǎn	-10.0858
如	-10.09
abc	-10.091
▁计数	-10.0929
▁/。	-10.0972
▁'{	-10.0976
蓝	-10.1003
ā	-10.1022
可爱	-10.1026
▁chuán	-10.1053
天	-10.1056
iter	-10.1063
h	-10.1108
▁切片	-10.1113
▁^	-10.1116
▁ha	-10.1122
]?	-10.1128
ver	-10.113
▁tiá	-10.1197
熊猫	-10.1204
è	-10.1205
想	-10.1206
ǎng	-10.1252
子类	-10.1258
身体	-10.1259
▁xu	-10.1268
酸	-10.128
内存	-10.1329
数组	-10.1349
ǎo	-10.1358
▁o	-10.1361
▁head	-10.1391
藏	-10.1437
典籍	-10.1437
节日	-10.144
ve	-10.1474
瓜	-10.1493
▁比	-10.1494
鞋	-10.15
bi	-10.1522
通	-10.1541
杭州	-10.1547
北京	-10.1547
▁fàn	-10.1579
▁yǐ	-10.1583
hē	-10.161
▁mǎ	-10.1638
▁stats	-10.1655
器	-10.1658
南	-10.1768
元组	-10.178
)]。	-10.1781
▁rect	-10.1791
uán	-10.1792
▁因为	-10.1795
▁fáng	-10.1814
家里	-10.1849
▁A	-10.1873
▁gōng	-10.1922
▁yuè	-10.1929
▁shu	-10.1932
▁参数	-10.1951
▁xiǎo	-10.1974
iáo	-10.1998
特	-10.1999
学	-10.2034
▁zhuō	-10.2035
ec	-10.2041
di	-10.2106
部	-10.2114
奇	-10.2115
▁func	-10.2135
four	-10.2155
eve	-10.2155
)])	-10.2183
three	-10.2211
扩展	-10.2233
hān	-10.2306
R	-10.2316
国	-10.235
▁D	-10.2353
▁yǎn	-10.2384
▁de	-10.2392
狗	-10.2393
安静	-10.2422
huāng	-10.2422
▁默认值	-10.2446
你	-10.2448
因为	-10.2458
ink	-10.2553
要	-10.2576
▁B	-10.2577
▁keys	-10.258
▁fē	-10.2595
建筑	-10.2595
▁tiān	-10.2631
碗	-10.2649
和与	-10.2651
山上	-10.2669
ss	-10.2699
画	-10.2777
烧	-10.2797
fā	-10.2833
区	-10.2842
vi	-10.2889
▁xīn	-10.2898
考古	-10.297
黑	-10.2974
▁zh	-10.3023
不能	-10.3058
ple	-10.3068
气	-10.3094
杯子	-10.3109
海	-10.3214
被	-10.3217
▁错误	-10.3223
用于	-10.3242
èr	-10.3246
rac	-10.3249
读	-10.3259
▁qì	-10.326
▁huā	-10.3358
自然	-10.3359
眼睛	-10.3364
sān	-10.3378
▁tài	-10.3397
▁guā	-10.3478
笑	-10.3483
拿	-10.3484
ò	-10.3493
sì	-10.3496
wǔ	-10.3534
date	-10.36
图	-10.3616
著	-10.3627
小狗很	-10.3699
不同	-10.3734
去河边	-10.3748
允许	-10.3765
冷	-10.3831
大象	-10.3875
brown	-10.3883
听	-10.3898
汉	-10.3902
占	-10.3904
注	-10.4044
月	-10.4055
bf	-10.4068
▁three	-10.4071
还是	-10.4092
▁four	-10.4142
腿	-10.4187
都	-10.4291
小猫很	-10.4324
其	-10.4332
石头	-10.4358
Re	-10.4377
ader	-10.4379
的反义词是	-10.4395
:.	-10.44
ur	-10.4455
凉	-10.4474
fo	-10.4487
父类	-10.4515
```	-10.4519
兔子	-10.4591
ona	-10.4594
他	-10.4595
规模	-10.4628
西	-10.4643
古	-10.4696
解	-10.4726
九	-10.4767
节	-10.4775
青	-10.478
位于	-10.4784
她	-10.4871
序遍历	-10.4876
色	-10.4969
药	-10.5004
iào	-10.5033
脱	-10.5086
翅膀	-10.5088
耳朵	-10.509
su	-10.5094
朵花	-10.5127
tu	-10.5209
文	-10.5229
▁fo	-10.5231
说	-10.5248
操作	-10.5249
稳定的	-10.5279
▁==。	-10.5305
乌龟	-10.5317
▁ni	-10.5388
级	-10.541
优势	-10.541
尾巴	-10.541
神	-10.5415
不会	-10.5536
块石头	-10.5552
动物	-10.5563
生	-10.5609
乐	-10.5631
棵树	-10.5648
▁tóng	-10.5653
fig	-10.5714
辆车	-10.5717
狮子	-10.5717
条鱼	-10.5722
相等	-10.5727
▁e	-10.5731
最优	-10.5739
Machine	-10.5741
天然	-10.5741
医学	-10.5741
著名	-10.5742
▁brown	-10.5766
sh	-10.5778
我坐	-10.5802
支笔	-10.5833
gor	-10.5842
颗星星	-10.5897
生成器表达式	-10.5909
经	-10.5948
明代	-10.595
}:	-10.597
多少	-10.601
我开	-10.603
我拿	-10.6042
很好	-10.6057
把椅子	-10.6058
京	-10.6083
定义	-10.6083
河流	-10.6083
pr	-10.6086
▁时	-10.6104
▁''	-10.6106
张桌子	-10.6112
我喜欢	-10.6126
很热	-10.6156
本书	-10.6209
我写	-10.622
还	-10.6221
典	-10.6253
切	-10.6256
表	-10.6291
我想	-10.6306
个球	-10.6391
洗	-10.6396
我笑	-10.6405
个碗	-10.6424
ǎi	-10.6426
科技	-10.6437
青铜	-10.6437
文明	-10.6438
蜜蜂	-10.648
([-	-10.6518
好呀	-10.6519
▁如果	-10.6548
只狗	-10.6559
多态	-10.6577
个杯子	-10.66
养	-10.661
队	-10.6618
资源	-10.6618
完全	-10.6619
解决	-10.6619
我织	-10.6731
是冷的	-10.6737
ent	-10.675
只猫	-10.6802
居	-10.6804
民	-10.6804
造	-10.6804
石窟	-10.6804
抽象类	-10.6804
▁zhǐ	-10.6825
▁你在	-10.6835
流	-10.6844
我吃	-10.6851
点	-10.6986
只鸟	-10.7007
我喝	-10.7039
跑	-10.7091
我扫	-10.7092
or	-10.7134
需	-10.7172
向	-10.7183
搜索	-10.7185
亚	-10.7185
布	-10.7185
angle	-10.7186
平均情况	-10.7188
为元	-10.7192
tri	-10.7231
▁P	-10.7241
可达	-10.7261
球	-10.7276
总	-10.7307
是相反的	-10.7361
山峰	-10.7381
提高	-10.7383
做什么	-10.7438
清	-10.7454
eader	-10.7521
我做	-10.7526
堆	-10.7562
佛教	-10.7581
全长约	-10.7581
武	-10.7581
那就是比较	-10.7581
四川	-10.7581
成都	-10.7584
我很	-10.7585
小明很	-10.7587
我说	-10.7589
▁如果不是很	-10.7604
我养	-10.7634
▁使用	-10.7658
我走	-10.7663
老虎	-10.7701
▁lǎo	-10.7731
沙	-10.7732
蚂蚁	-10.7752
喜欢	-10.7771
我画	-10.7777
立	-10.7785
文化	-10.7786
fi	-10.7805
我关	-10.7832
▁他去	-10.7928
需要	-10.7942
▁六	-10.7952
我看	-10.796
rd	-10.7983
群	-10.7993
▁小狗去	-10.8001
我游	-10.8052
ma	-10.8079
大于	-10.811
不是	-10.8151
▁二	-10.8167
短的	-10.8185
主	-10.8201
宫	-10.8206
景	-10.8206
制	-10.8206
▁小猫去	-10.8226
暗	-10.8228
▁七	-10.8238
江	-10.8269
我学	-10.8289
我跳	-10.8348
好	-10.8366
我种	-10.8375
li	-10.8386
我帮	-10.8395
快速	-10.8419
删除	-10.842
当	-10.8421
退化为	-10.8422
战国	-10.8423
哈希	-10.8423
我站	-10.8453
很多	-10.8455
很凉	-10.8484
我答	-10.8486
上	-10.8505
间	-10.8593
二	-10.8611
惰性求值	-10.8645
迹	-10.8646
生成	-10.8648
很重	-10.8669
硬	-10.8721
▁九	-10.8761
支持	-10.8818
▁三	-10.8834
丝绸之路	-10.8835
我读	-10.8853
金	-10.8868
很新	-10.8869
价	-10.8871
迭代	-10.8873
望	-10.8873
什么时候用	-10.8873
哪里	-10.8873
在函数调用	-10.8875
解包为	-10.8886
很可爱	-10.8895
▁小红去	-10.8909
很轻	-10.8915
很大	-10.8948
一端	-10.8976
我跑	-10.8977
else	-10.9011
甜的	-10.9091
秦	-10.9096
冷的	-10.9101
复	-10.9104
塑	-10.9105
洲	-10.9105
称	-10.9105
影响	-10.9105
关系	-10.9106
汉字	-10.9107
起始	-10.9109
很慢	-10.9123
个苹果	-10.9134
窄的	-10.9135
长颈鹿	-10.9138
我送	-10.9167
我哭	-10.9211
是轻的	-10.9252
▁world	-10.9265
grap	-10.9297
两	-10.9312
食	-10.9343
仍	-10.9343
主要	-10.9344
竹子	-10.9385
支持多	-10.9401
fun	-10.944
if	-10.9448
ca	-10.9452
great	-10.9457
▁八	-10.9466
睡觉	-10.9496
我找	-10.9506
我爬	-10.9539
反义词	-10.9541
竹	-10.9545
列入	-10.9547
火是热的	-10.9554
ue	-10.9559
我玩	-10.9563
味	-10.9583
豪	-10.9587
色彩	-10.9587
北魏	-10.9587
平衡	-10.9588
缀	-10.9588
在一起	-10.9591
人文	-10.9603
类的	-10.9616
我洗	-10.9622
薄	-10.9634
我唱	-10.9635
(),	-10.9649
科学	-10.9682
很蓝	-10.9683
适用于	-10.9692
软的	-10.9692
▁你喜欢	-10.9694
return	-10.9746
▁我去	-10.9779
去学校	-10.9816
而	-10.9837
锁	-10.9837
观	-10.9837
念	-10.9837
克	-10.9837
皇	-10.9837
饮	-10.9837
甲骨文	-10.9837
西汉	-10.9838
两种	-10.9838
我听	-10.9869
很甜	-10.989
▁他要	-10.9915
东西	-10.9963
我放	-10.9994
。'	-11.0006
àn	-11.0059
GIL	-11.0065
精	-11.0078
射	-11.0092
境	-11.0094
兵马俑	-11.0094
致	-11.0094
#	-11.0096
▁gè	-11.0112
▁tiáo	-11.0124
蝴蝶	-11.0157
厚的	-11.0196
丑的	-11.0256
很远	-11.0258
我爱	-11.0297
很白	-11.0306
光	-11.0318
怎么	-11.0337
形	-11.0344
▁你去	-11.0351
运	-11.0351
防	-11.0354
撰	-11.0357
宋应星	-11.0357
探	-11.0357
分析	-11.0357
随机	-11.0357
olle	-11.0357
系统	-11.0357
不一定	-11.0371
快的	-11.0379
是慢的	-11.0388
ith	-11.0416
新的	-11.0433
历法	-11.0449
我飞	-11.0456
元素为	-11.0477
很黑	-11.0478
种	-11.0495
▁她去	-11.0506
red	-11.0511
我问	-11.0524
两个	-11.0563
▁五	-11.0564
很矮	-11.0622
集	-11.0622
连接	-11.0627
绑	-11.0628
隐	-11.0628
常用于	-11.0629
不同的	-11.0649
性和	-11.0674
贵	-11.0674
然后	-11.0681
▁四	-11.0703
一个函数	-11.0735
十就是	-11.0812
))。	-11.0816
现	-11.0902
释	-11.0902
海拔约	-11.0905
丝	-11.0905
驱	-11.0905
宏	-11.0905
天工开物	-11.0905
单例模式	-11.0905
圳	-11.0905
密集型	-11.0905
CPU	-11.0906
硬的	-11.0906
很香	-11.091
位置参数	-11.0916
干	-11.0917
关键字参数	-11.0919
多线程	-11.0927
rr	-11.0929
吃饭	-11.098
长的	-11.0989
gre	-11.1014
简单	-11.1036
全局最优	-11.1049
很高	-11.1054
▁这	-11.106
小的	-11.109
是软的	-11.1119
元	-11.1145
今	-11.1163
博弈	-11.1191
('()(){}'))	-11.1191
万平方	-11.1191
明清	-11.1192
深入	-11.1198
问	-11.1207
▁'()(){}'	-11.1245
亮	-11.131
生成器是	-11.1314
饭	-11.1334
▁great	-11.1347
冬天	-11.1383
der	-11.1383
底	-11.1403
▁fun	-11.1454
美的	-11.1463
文物	-11.1472
边	-11.1473
实	-11.1482
获	-11.1484
情	-11.1484
宝	-11.1484
北宋	-11.1485
忧	-11.1485
码	-11.1485
M	-11.1485
传说	-11.1485
最优子结构和重叠子问题	-11.1485
覆	-11.1485
映	-11.1485
终止	-11.1486
黑白	-11.1486
▁不	-11.1492
def	-11.1497
发源	-11.1499
狮真	-11.1518
是小的	-11.153
重的	-11.1532
入非遗	-11.1547
音乐	-11.1552
大的	-11.1573
▁小明去	-11.1579
不可	-11.1704
{'	-11.1729
方法控制	-11.1736
慢的	-11.1766
昆虫	-11.1788
至	-11.1788
思	-11.1788
者	-11.1788
如何按年龄降序对人员列表	-11.1788
药物	-11.1788
起源	-11.1789
为主	-11.1793
面真	-11.1802
长河	-11.1838
十	-11.1844
热的	-11.1874
湿	-11.195
我买	-11.1963
文学	-11.1981
农	-11.2029
苦的	-11.2052
可能	-11.2094
目标	-11.2099
刻	-11.21
丰富	-11.21
墓	-11.21
貌	-11.21
瓷器	-11.21
象征	-11.21
半部分	-11.21
如何按薪资升序对人员列表	-11.21
陕西	-11.21
闻名	-11.2101
长江	-11.2104
书法	-11.2105
中心	-11.2105
an	-11.213
写成	-11.213
来了	-11.2138
用方	-11.2144
:=	-11.2145
上海	-11.215
个元	-11.225
字典键	-11.2328
子问题	-11.2341
▁fin	-11.2344
角	-11.2357
猴子	-11.2365
接	-11.2387
象	-11.2416
理	-11.2422
祭	-11.2423
丹	-11.2423
版	-11.2423
任	-11.2423
书画	-11.2425
天体	-11.2427
中医	-11.2427
沉	-11.2446
是重的	-11.2467
▁pià	-11.2469
城真	-11.2484
间复杂度衡量算法	-11.2484
最早	-11.2507
间随输入规模的增长关系	-11.2525
▁十	-11.2638
亮的	-11.2649
父	-11.2676
原始	-11.2691
它	-11.2696
植物	-11.2729
医	-11.2752
北	-11.2755
松	-11.2756
亲	-11.2756
野	-11.2756
本草纲目	-11.2756
团圆	-11.2756
联	-11.2756
传统	-11.2756
太阳系	-11.2756
如何按年龄升序对人员列表	-11.2756
路径	-11.2756
论	-11.2757
清理	-11.2757
回退	-11.2757
世界最大	-11.2764
门真	-11.2765
▁zhāng	-11.2774
冰是冷的	-11.2777
深拷贝	-11.2814
浅拷贝	-11.2815
宽	-11.2849
轻的	-11.2881
苦	-11.2888
就是有六	-11.29
就是有七	-11.29
就是有九	-11.2903
软	-11.2904
就是有八	-11.2913
藏高原	-11.2917
很长	-11.2919
就是有十	-11.2929
在使用	-11.2951
危险的	-11.3095
遗	-11.31
局	-11.3101
洞	-11.3101
蜜	-11.3101
响	-11.3101
超	-11.3101
口径	-11.3101
卫星	-11.3101
李时珍	-11.3101
甘	-11.3101
常用	-11.3105
工艺	-11.3106
走路	-11.3126
break	-11.3132
丝绸	-11.3133
我卖	-11.3144
酒真	-11.3155
黑树	-11.3171
忙的	-11.3213
错	-11.3222
有趣	-11.3259
hǎ	-11.3275
冒泡	-11.3337
相对	-11.3384
就是有四	-11.3409
见	-11.3452
军阵	-11.3456
邻	-11.3457
依赖	-11.3458
即使发生异常也	-11.3458
恢	-11.3458
蜂	-11.3458
跨	-11.3458
缓	-11.3458
季节	-11.3458
故宫	-11.3458
用途	-11.3458
绕	-11.3458
飘	-11.3458
夫	-11.3458
王	-11.3458
五岳	-11.3458
就是有三	-11.3458
广度优先搜索	-11.3459
逐层	-11.3459
就是有二	-11.3459
发现于	-11.3464
始于	-11.3465
哪个	-11.3466
就是有五	-11.3468
头真	-11.3469
ABC	-11.347
▁收集多余的	-11.3475
车真	-11.3476
双音	-11.3488
阳	-11.3531
▁因为苹果很	-11.3551
苹果真	-11.3562
公园真	-11.3596
春	-11.3628
▁ti	-11.3631
古代	-11.3659
多种	-11.368
臭的	-11.3682
瘦的	-11.3718
ǒ	-11.3722
瘦	-11.3747
空间复杂度	-11.3786
漏	-11.3801
风很	-11.381
抽象	-11.3827
收	-11.3828
敦煌莫高窟	-11.3828
规范	-11.3828
生旦净丑	-11.3828
灵活	-11.3829
唐	-11.3829
安阳	-11.3829
农业手工	-11.3829
额	-11.3829
典型应用包括	-11.3829
世界最长	-11.3829
工艺百科	-11.383
千年	-11.383
改写	-11.383
云海	-11.3831
写实	-11.3831
的两	-11.3846
厂真	-11.3847
鹅真	-11.3892
马真	-11.3905
是红色的	-11.3905
▁因为碗很	-11.3915
夏天	-11.3929
风真	-11.393
▁因为狗很	-11.3972
▁fr	-11.3977
tho	-11.3986
树叶	-11.3991
用大	-11.3995
ta	-11.4001
▁因为桌子很	-11.4002
▁因为椅子很	-11.4008
▁因为笔很	-11.403
▁因为人很	-11.4046
▁因为鱼很	-11.4053
使	-11.4075
@	-11.4105
可作	-11.4111
第一	-11.4116
sin	-11.4123
▁因为鸟很	-11.4127
▁因为树很	-11.4174
地理	-11.4177
法时	-11.4194
利	-11.4201
去公园	-11.4211
工	-11.4212
址	-11.4213
横	-11.4213
浓	-11.4213
商代	-11.4213
隧	-11.4213
办	-11.4213
continue	-11.4213
删除均为	-11.4214
上下文管理器	-11.4214
修身	-11.4214
水利	-11.4215
中国画	-11.4216
河南	-11.4216
插入删除	-11.4218
旗真	-11.4223
铁是重的	-11.4224
田真	-11.4224
房子真	-11.4225
船真	-11.4229
石真	-11.4229
pass	-11.4229
▁比较两个对象	-11.423
中药	-11.4232
当前循环	-11.4234
for	-11.4254
值对	-11.4284
的前	-11.4299
ht	-11.4299
▁因为猫很	-11.4301
没	-11.4301
胖的	-11.4315
宽的	-11.4323
==	-11.4343
▁因为车很	-11.4376
注意	-11.441
门很	-11.4452
水很	-11.4472
香的	-11.4511
装饰器是	-11.4555
mm	-11.4592
厚	-11.4594
证	-11.4612
传	-11.4613
安	-11.4613
栖	-11.4613
乌	-11.4613
壁画	-11.4613
乡	-11.4613
稀	-11.4613
礼	-11.4613
FAST	-11.4613
▁因为杯子很	-11.4615
深度	-11.4618
羊真	-11.4621
汽车真	-11.4622
路真	-11.4631
小猫真	-11.4632
容易	-11.4634
茶真	-11.4638
▁[-	-11.4644
另	-11.4665
狮很	-11.4666
黄山	-11.4675
是快的	-11.4676
耳真	-11.4685
要开灯	-11.472
旧的	-11.4726
▁因为书很	-11.4728
是热的	-11.4763
文字	-11.4786
暗的	-11.4796
nd	-11.4816
修	-11.4861
哪些	-11.4911
llow	-11.4919
si	-11.4926
界	-11.4936
就是有一	-11.4973
▁因为花很	-11.5005
归并	-11.5026
伤	-11.5026
让	-11.5027
考	-11.5029
功	-11.503
余	-11.503
苏轼	-11.503
聚	-11.503
西安临潼	-11.503
秦陵陪葬	-11.503
珍	-11.503
曾侯乙编钟	-11.503
农历	-11.503
工蜂	-11.503
大足石刻	-11.503
务	-11.503
如何按薪资降序对人员列表	-11.503
独	-11.503
太极拳	-11.503
山西	-11.5033
na	-11.5035
兔真	-11.5037
票真	-11.5039
灯真	-11.5043
桥真	-11.5043
小狗真	-11.5048
比较中	-11.5078
che	-11.5087
▁太阳	-11.5126
纸	-11.5133
用来	-11.5177
困难	-11.5217
▁我在家里	-11.529
ex	-11.5317
随输入规模的增长关系	-11.5329
▁不是	-11.5336
非遗	-11.5373
语	-11.542
开灯	-11.542
双	-11.5421
▁gu	-11.5452
张	-11.5457
断	-11.546
趣	-11.5462
极	-11.5464
万	-11.5464
湖	-11.5464
贸易	-11.5465
贾	-11.5465
测	-11.5465
市	-11.5465
投	-11.5465
横贯	-11.5465
府	-11.5465
二十四节气	-11.5465
便	-11.5465
纪	-11.5465
浪漫主义	-11.5465
('({[]})'))	-11.5465
问题分解为	-11.5466
溢出	-11.5467
的毛	-11.5467
瓜真	-11.5474
天空真	-11.5478
心真	-11.548
你跑	-11.5481
椅子真	-11.5483
眼真	-11.5485
发真	-11.5489
是深的	-11.5503
▁'({[]})'	-11.5513
牙真	-11.5545
表示数量	-11.5547
熊真	-11.5549
▁一	-11.5549
所以不	-11.5563
应用	-11.5564
星星真	-11.5569
桌子真	-11.5577
▁piàn	-11.5586
ract	-11.5587
世界第	-11.5591
手真	-11.5604
电	-11.5605
og	-11.5623
窗真	-11.5637
是暗的	-11.5668
是硬的	-11.5713
端	-11.5714
一只	-11.5715
复杂度衡量算法	-11.5724
叫	-11.574
世界最	-11.5803
就是有	-11.5809
进入	-11.5814
彩	-11.5919
虑	-11.5919
采	-11.5919
战略	-11.5919
围棋	-11.5919
卷	-11.5919
京杭大运河	-11.5919
峡谷	-11.5919
逸	-11.5919
恒星	-11.5919
旷达	-11.5919
嘴	-11.5919
港珠澳大桥	-11.5919
成都平原	-11.5919
陶	-11.5919
司马迁	-11.5919
——	-11.5919
收集	-11.5919
('([)]'))	-11.5919
盛唐	-11.5919
水系	-11.592
生物多样性	-11.592
笔墨	-11.592
云南	-11.5922
小狗想	-11.5922
文人	-11.5923
同学真	-11.593
票号	-11.5931
米饭真	-11.5932
大海真	-11.5932
严重	-11.5932
鸡真	-11.5932
▁bǎ	-11.5932
鞋真	-11.5933
▁你在家里	-11.5934
▁你在山上	-11.5934
▁你在学校	-11.5935
▁你在公园	-11.5935
鸭真	-11.5936
虎真	-11.5937
妈妈真	-11.5938
通道	-11.5938
河真	-11.594
菜真	-11.5942
米真	-11.5948
干的	-11.5958
▁'([)]'	-11.5965
小于	-11.597
递归需	-11.597
将列表	-11.5973
作用	-11.5988
控制	-11.5999
街真	-11.6004
衣服	-11.6011
▁我在山上	-11.6021
▁我在学校	-11.6021
▁我在公园	-11.6021
面很	-11.6024
小狗开	-11.6036
小猫笑	-11.6039
开凿	-11.6045
iv	-11.6073
的东西	-11.6149
相同	-11.6157
所以要	-11.6171
im	-11.6176
臭	-11.6183
那	-11.6208
水色	-11.6245
外面	-11.6287
new	-11.6292
是亮的	-11.6301
矮的	-11.6319
复杂度	-11.6327
忙	-11.634
在书包里	-11.6342
天黑了	-11.6345
块	-11.6353
到最	-11.6359
窄	-11.638
逐	-11.6391
彩虹	-11.6392
墨	-11.6393
信	-11.6394
止	-11.6395
导	-11.6395
文献	-11.6395
术	-11.6395
材	-11.6395
反映	-11.6395
淡	-11.6395
寿命约	-11.6395
兽	-11.6395
岸	-11.6395
神农架	-11.6395
县	-11.6395
唯一	-11.6395
雄	-11.6395
H	-11.6396
杜甫	-11.6396
象棋	-11.6396
逼	-11.6396
骤	-11.6396
('(){}[]'))	-11.6396
('{{}}()'))	-11.6396
中秋节	-11.6396
精美	-11.6396
春节	-11.6396
实学	-11.6396
流经	-11.6396
面积	-11.6396
东汉	-11.6397
五千年	-11.6397
飞天	-11.6398
小狗走	-11.6405
蛇真	-11.6405
中国与	-11.6408
学校真	-11.6409
月亮真	-11.6411
小明种	-11.6412
鸟真	-11.6422
分类	-11.6423
上的	-11.6441
件	-11.6442
▁'(){}[]'	-11.6443
▁'{{}}()'	-11.6443
月亮很	-11.6448
将问题	-11.646
函数调用	-11.6463
酒很	-11.6491
牛真	-11.6502
浅的	-11.6519
▁石头	-11.6554
鼓真	-11.6563
他喝	-11.6569
你唱	-11.6576
红茶	-11.6611
tem	-11.6636
nc	-11.6664
京剧	-11.6756
雪很	-11.677
和边	-11.679
如何实现二叉	-11.6796
能在	-11.681
追	-11.6822
最后	-11.6822
城很	-11.6831
花真	-11.6838
▁这个粉色的	-11.6871
严	-11.6881
常	-11.6886
兴	-11.6889
治	-11.6894
积	-11.6894
宝库	-11.6895
促进	-11.6895
钙化	-11.6895
散	-11.6895
四库全书	-11.6895
都江堰	-11.6895
众多	-11.6896
三星堆	-11.6896
沈括	-11.6896
肚子饿了	-11.6896
湖北	-11.6896
广度优先	-11.6896
深度优先	-11.6896
泰山	-11.6896
它们都是	-11.6896
食物	-11.6896
石头是硬的	-11.6896
优先	-11.6896
流域	-11.6897
交流	-11.6898
什么是哈希表	-11.6898
她哭	-11.6898
可以吃	-11.6899
小红玩	-11.6901
发明	-11.6902
堆是	-11.6904
钟真	-11.6906
你做	-11.6907
方式	-11.6907
▁她在屋里	-11.6907
▁你在水边	-11.6908
▁他在水边	-11.6908
▁她在水边	-11.6908
▁我在水边	-11.6908
▁她在家里	-11.6908
▁她在路上	-11.6908
▁他在家里	-11.6908
▁她在山上	-11.6908
▁他在山上	-11.6908
▁她在公园	-11.6908
▁她在学校	-11.6908
▁他在公园	-11.6908
▁她在屋外	-11.6908
▁他在屋外	-11.6908
▁他在屋里	-11.6908
▁他在树下	-11.6908
▁他在学校	-11.6908
▁他在路上	-11.6908
▁我在屋里	-11.6908
▁我在屋外	-11.6908
▁我在树下	-11.6908
▁你在路上	-11.6908
▁朋友在屋里	-11.6908
▁朋友在路上	-11.6908
▁小明在屋里	-11.6908
▁小鱼在屋里	-11.6908
▁小鸟在屋里	-11.6909
▁爸爸在屋里	-11.6909
▁小明在水边	-11.6909
▁小狗在水边	-11.6909
▁小猫在水边	-11.6909
▁小红在水边	-11.6909
▁小鱼在公园	-11.6909
▁小鱼在屋外	-11.6909
▁小鱼在树下	-11.6909
▁小鱼在路上	-11.6909
▁小鸟在树下	-11.6909
▁小鸟在水边	-11.6909
▁他在草地上	-11.6909
▁同学在家里	-11.6909
▁同学在水边	-11.6909
▁同学在路上	-11.6909
▁妈妈在水边	-11.6909
▁小猫在路上	-11.6909
▁小鱼在家里	-11.6909
▁小鱼在山上	-11.6909
▁小鱼在水边	-11.6909
▁小鸟在屋外	-11.6909
▁朋友在公园	-11.6909
▁朋友在学校	-11.6909
▁朋友在家里	-11.6909
▁朋友在屋外	-11.6909
▁朋友在山上	-11.6909
▁朋友在树下	-11.6909
▁朋友在水边	-11.6909
▁爸爸在水边	-11.6909
▁老师在水边	-11.6909
▁同学在公园	-11.6909
▁同学在学校	-11.6909
▁同学在山上	-11.6909
▁她在草地上	-11.6909
▁妈妈在路上	-11.6909
▁小鱼在学校	-11.6909
▁老师在路上	-11.6909
▁同学在屋外	-11.6909
▁同学在屋里	-11.6909
▁同学在树下	-11.6909
▁妈妈在屋外	-11.6909
▁小狗在家里	-11.6909
▁小狗在山上	-11.6909
▁老师在屋外	-11.6909
▁妈妈在山上	-11.6909
▁妈妈在树下	-11.6909
▁我在草地上	-11.6909
▁爸爸在屋外	-11.6909
▁妈妈在家里	-11.6909
▁妈妈在屋里	-11.6909
▁小明在家里	-11.6909
▁小明在山上	-11.6909
▁小狗在树下	-11.6909
▁小猫在家里	-11.6909
▁爸爸在家里	-11.6909
▁爸爸在山上	-11.6909
▁老师在山上	-11.6909
▁小狗在公园	-11.6909
▁小猫在屋外	-11.6909
▁小猫在山上	-11.6909
▁老师在家里	-11.6909
▁妈妈在公园	-11.6909
▁小明在屋外	-11.6909
▁小明在公园	-11.6909
▁小明在树下	-11.6909
▁小鸟在家里	-11.6909
▁小明在学校	-11.6909
▁小红在家里	-11.6909
▁小红在屋外	-11.6909
▁爸爸在公园	-11.6909
▁爸爸在学校	-11.6909
▁小猫在公园	-11.6909
▁老师在公园	-11.6909
▁老师在学校	-11.6909
▁小红在山上	-11.6909
▁小红在屋里	-11.6909
▁小狗在屋外	-11.6909
▁小鸟在公园	-11.6909
▁小鸟在学校	-11.6909
▁小鸟在山上	-11.6909
▁小狗在屋里	-11.6909
▁小红在公园	-11.6909
▁你在草地上	-11.6909
遍历适合	-11.6909
▁小狗在学校	-11.6909
▁老师在屋里	-11.6909
▁小猫在草地上	-11.6909
▁小鱼在草地上	-11.6909
▁小鸟在草地上	-11.6909
▁同学在草地上	-11.6909
▁小明在草地上	-11.6909
▁小狗在草地上	-11.6909
▁老师在草地上	-11.6909
▁妈妈在草地上	-11.6909
▁小红在草地上	-11.6909
▁朋友在草地上	-11.6909
▁爸爸在草地上	-11.6909
▁妈妈在学校	-11.691
▁小明在路上	-11.691
▁小猫在屋里	-11.691
▁你在屋外	-11.691
▁爸爸在路上	-11.691
▁你在树下	-11.691
▁小猫在学校	-11.691
▁小狗在路上	-11.691
▁小红在学校	-11.6911
小明放	-11.6912
百	-11.6913
雪真	-11.6913
太阳真	-11.6913
▁小鸟在路上	-11.6913
▁小红在路上	-11.6914
书真	-11.6915
草真	-11.6925
雨真	-11.6928
▁我在路上	-11.6928
口真	-11.693
店真	-11.6935
▁你在屋里	-11.6936
图的	-11.6938
星星很	-11.6938
石很	-11.6942
▁老师在树下	-11.6943
▁爸爸在树下	-11.6952
▁她在树下	-11.6965
村真	-11.6989
▁小猫在树下	-11.6995
蛋真	-11.6998
衣真	-11.7009
糖真	-11.7011
机真	-11.703
▁小红在树下	-11.7035
下面	-11.7035
只猫就是	-11.705
只狗就是	-11.7052
用列表	-11.7059
▁语句	-11.7091
ti	-11.71
水真	-11.7107
她喝	-11.7118
并行	-11.7123
目	-11.7178
很烫	-11.7188
床	-11.7197
在地上	-11.7215
温度	-11.7217
▁这个紫色的	-11.7242
用递归	-11.7247
要喝水	-11.7274
要吃饭	-11.7276
高的	-11.7287
融化	-11.7296
黄河	-11.7337
而非	-11.7342
房子很	-11.7367
落	-11.7395
很少	-11.7397
块石头就是	-11.7408
爱	-11.7408
推导式	-11.741
irs	-11.7415
颗星星就是	-11.7417
改	-11.7419
故	-11.742
确	-11.7421
闻	-11.7421
环	-11.7421
徽	-11.7422
柳	-11.7422
针灸	-11.7422
仪	-11.7422
丽江古城	-11.7422
殷墟	-11.7422
湛	-11.7422
生产	-11.7422
像	-11.7422
纳西	-11.7422
全球	-11.7422
倍	-11.7422
全书	-11.7423
小猫吃	-11.7427
高速	-11.7428
下游	-11.7429
李白	-11.7429
盐真	-11.7431
是大的	-11.7435
京剧脸谱	-11.7436
洗手	-11.7437
笔真	-11.7439
夜晚	-11.744
nter	-11.7441
老师真	-11.7443
小猫跑	-11.7453
路很	-11.7459
之一	-11.748
相反的	-11.7481
它们	-11.7519
马很	-11.7558
▁猫	-11.7588
只鸟就是	-11.7596
鱼真	-11.7606
学校很	-11.7624
▁小红	-11.7641
并用	-11.7669
最优解	-11.7699
厂很	-11.7715
很冷	-11.7727
las	-11.774
▁冰	-11.7745
是湿的	-11.7759
容易的	-11.776
火真	-11.7787
把椅子就是	-11.7834
▁这个红色的	-11.7843
辆车就是	-11.7854
条鱼就是	-11.7863
另一	-11.7905
要穿衣服	-11.7924
房	-11.7933
线程	-11.794
▁这个	-11.7943
发光	-11.7954
生活在	-11.7959
半	-11.7976
删	-11.7976
创	-11.7976
航	-11.7977
高峰	-11.7977
马王堆	-11.7977
珠穆朗玛峰	-11.7977
炮	-11.7977
云冈石窟	-11.7977
叠	-11.7977
技艺	-11.7977
饮品	-11.7977
三江并流	-11.7977
齐民要术	-11.7977
坡	-11.7977
士	-11.7977
楚	-11.7977
苏州园林	-11.7977
繁	-11.7977
良渚古城	-11.7977
儒	-11.7977
徐霞客	-11.7977
永乐大典	-11.7977
讲究	-11.7977
迎	-11.7977
龙门石窟	-11.7977
传世	-11.7977
识	-11.7977
→	-11.7977
单例	-11.7977
北斗导航	-11.7977
状态	-11.7977
平遥古城	-11.7977
姐姐问	-11.7977
复制	-11.7978
小猫飞	-11.7978
棉花是软的	-11.7978
武术	-11.7978
的地方	-11.7978
西湖	-11.7978
浇水	-11.7978
小明找	-11.7978
你洗	-11.7979
解释	-11.7981
小明说	-11.7981
是绿色的	-11.7981
张桌子就是	-11.7984
▁这个黄色的	-11.7989
山水	-11.7994
是凉的	-11.7994
薄的	-11.7995
生活	-11.7996
棵树就是	-11.7998
云真	-11.8
叶真	-11.8
变量	-11.8004
脚真	-11.8009
龙真	-11.801
才	-11.8013
公园很	-11.8033
上是	-11.8039
头很	-11.8041
朵花就是	-11.8046
rog	-11.8055
exi	-11.8065
▁中列表	-11.8067
湿的	-11.8069
很亮	-11.807
要洗手	-11.8102
农学	-11.8107
雨很	-11.8116
本书就是	-11.8138
支笔就是	-11.8144
出门	-11.8152
是不	-11.8166
鸟在	-11.8179
是干的	-11.8202
木	-11.8213
浅	-11.8216
灯很	-11.8216
加二等于	-11.8252
兔很	-11.8262
铁	-11.8279
汽车很	-11.828
牙很	-11.8283
温泉	-11.8285
](	-11.8292
是长的	-11.8303
雪是白色的	-11.833
瓜很	-11.8333
的中文是	-11.8354
闲	-11.8362
她画	-11.8376
po	-11.8379
为地球	-11.8429
船很	-11.8462
融	-11.85
是白色的	-11.8505
个杯子就是	-11.8556
个球就是	-11.856
筑	-11.8565
窟	-11.8565
弯	-11.8565
营	-11.8565
湖泊	-11.8565
帛	-11.8565
坝	-11.8565
笋	-11.8565
圣	-11.8565
衰	-11.8565
准	-11.8565
地震	-11.8565
始凿	-11.8565
溪	-11.8565
语言	-11.8565
华佗	-11.8565
郑和宝船	-11.8565
网	-11.8565
耕	-11.8566
郁	-11.8566
酿	-11.8566
绝	-11.8566
蚕	-11.8566
武夷山	-11.8566
九寨沟	-11.8566
('((()))'))	-11.8566
('({[}])'))	-11.8566
肃	-11.8566
哥哥问	-11.8566
指针	-11.8566
保存完	-11.8569
生长	-11.8569
秦代军	-11.8569
小红读	-11.8571
太阳很	-11.8574
▁bēi	-11.8575
个碗就是	-11.8583
小狗做	-11.8583
刀	-11.8594
爸爸真	-11.8595
山真	-11.8599
rev	-11.8603
▁'({[}])'	-11.8609
▁'((()))'	-11.8609
树真	-11.8611
旗很	-11.8625
▁zhòng	-11.8632
▁高铁	-11.8655
变成水	-11.8674
,**	-11.8682
深的	-11.8689
▁shuāng	-11.8691
地球	-11.8706
很快	-11.8744
wi	-11.8757
和重	-11.8782
耳很	-11.8808
苹果很	-11.8822
则搜	-11.8865
ite	-11.8876
地上	-11.8894
鹅很	-11.8916
困难的	-11.8939
北方	-11.8951
他吃	-11.8979
柔和	-11.8988
田很	-11.9016
圆的	-11.9027
保持顺序	-11.9029
▁狗	-11.9088
要穿厚衣服	-11.9091
椅子很	-11.9099
猴	-11.9125
插	-11.915
老鼠	-11.9154
▁这个黑色的	-11.916
着	-11.9169
脸谱	-11.9173
全	-11.9174
话	-11.9181
扫	-11.9181
柔	-11.9185
科	-11.9189
排	-11.9189
直	-11.919
若	-11.919
粉	-11.919
忠	-11.919
折	-11.919
俱	-11.919
命名	-11.919
丝绸之路经济带	-11.919
补充	-11.919
酚	-11.919
戏	-11.919
气候	-11.919
大熊猫国家公园	-11.919
巨著	-11.919
丛	-11.919
沸	-11.9191
油	-11.9191
演	-11.9191
政	-11.9191
楚辞	-11.9191
砚	-11.9191
红楼梦	-11.9191
古琴	-11.9191
困了	-11.9191
布达拉宫	-11.9191
蜗牛是慢的	-11.9191
偏	-11.9191
交通工具	-11.9191
二分搜索	-11.9191
哈	-11.9191
曼	-11.9191
视	-11.9191
奶奶帮	-11.9191
感觉	-11.9191
清明节	-11.9191
降序	-11.9191
你们拿	-11.9191
雅鲁藏布江	-11.9191
爷爷拿	-11.9191
高温	-11.9191
属于	-11.9191
故事	-11.9192
他问	-11.9192
她听	-11.9192
你们吃	-11.9193
他想	-11.9193
出土	-11.9193
你们写	-11.9195
弟弟游	-11.9197
同学跳	-11.9197
同学爬	-11.9197
很高兴	-11.9199
米很	-11.9199
肉真	-11.9202
端午节屈原	-11.9204
秦俑	-11.9212
妈妈学	-11.9216
我在	-11.922
桥很	-11.9221
你放	-11.9239
写字	-11.9243
好了	-11.9267
加零等于	-11.9273
在有序	-11.9274
较小	-11.9276
会烫伤	-11.9276
ig	-11.9298
▁这是什么	-11.93
手很	-11.9306
是高的	-11.9308
安全的	-11.9319
对列表	-11.9321
果真	-11.9336
下的	-11.9342
的解	-11.9358
云很	-11.9383
减一等于	-11.9389
落下	-11.939
减二等于	-11.9419
hi	-11.9431
加三等于	-11.9486
碎	-11.9494
声音	-11.9496
镜	-11.9499
同学很	-11.951
搜	-11.9526
鞋很	-11.9537
▁你会	-11.956
有的	-11.9568
雪人	-11.9581
河边	-11.9583
▁球	-11.9598
会唱歌	-11.9603
是黑色的	-11.9607
鼻子	-11.9616
▁今天	-11.9625
是矮的	-11.9651
熊很	-11.9664
眼很	-11.9683
要打伞	-11.9687
你喝	-11.9693
天空很	-11.9701
妈妈做	-11.971
▁棉花	-11.9743
公共	-11.9744
▁杯子	-11.9753
到上	-11.9759
高铁	-11.9767
小红放	-11.9817
春天	-11.983
羊很	-11.9839
具	-11.9855
川	-11.9856
上下文管理	-11.9856
母	-11.9856
议	-11.9856
印	-11.9857
退	-11.9857
氢	-11.9857
氦	-11.9857
禅	-11.9857
盼	-11.9857
托	-11.9857
敦煌	-11.9857
纵	-11.9857
势	-11.9857
地动仪	-11.9857
寄	-11.9857
莫高窟壁画	-11.9857
弈	-11.9857
距	-11.9857
吸	-11.9857
坑	-11.9857
沟	-11.9857
雕刻精	-11.9857
张衡	-11.9857
秘	-11.9857
阖	-11.9857
赛	-11.9857
泥	-11.9857
弟弟送	-11.9857
我们找	-11.9857
flattened	-11.9857
二维列表	-11.9857
协	-11.9857
钱	-11.9857
哥哥喜欢	-11.9857
姐姐学	-11.9857
奶奶拿	-11.9857
试	-11.9858
深度优先搜索	-11.9858
奶奶吃	-11.9858
释放	-11.986
小猫喜欢	-11.986
老师洗	-11.986
南方	-11.9862
你爬	-11.9863
▁这是	-11.9867
时速	-11.9871
脸真	-11.9889
热了	-11.9896
看山	-11.99
店很	-11.9909
▁kē	-11.9917
五大	-11.9921
▁GIL	-11.9935
鱼很	-11.9943
▁这个灰色的	-11.9949
鸭很	-12.0015
态	-12.0016
行时	-12.0021
虎很	-12.0027
小明走	-12.0039
西边	-12.0076
个苹果就是	-12.0085
很美	-12.0101
唱歌	-12.0136
()}	-12.0137
为字典	-12.0158
票很	-12.0171
还是先	-12.0171
闲的	-12.0186
pairs	-12.0201
就要	-12.0204
起来	-12.0206
她开	-12.0214
长城	-12.0274
鱼在水里	-12.0288
桌子很	-12.029
来不	-12.0375
走了	-12.0385
晒太阳	-12.0425
很小	-12.0438
小狗读	-12.044
小明跑	-12.044
白鸭	-12.0484
小明飞	-12.0496
▁桌子	-12.0498
鸡很	-12.0501
机很	-12.0519
针	-12.0531
▁这个绿色的	-12.0544
精神	-12.055
暖	-12.0556
织	-12.0562
车很	-12.0566
归	-12.0568
生物多样	-12.057
历	-12.057
起床	-12.0571
殿	-12.0571
夜	-12.0571
杖	-12.0571
佚	-12.0571
辑	-12.0571
易	-12.0571
怪	-12.0571
粹	-12.0571
泛	-12.0571
现存	-12.0571
罗	-12.0571
饼	-12.0571
赏	-12.0571
宋	-12.0571
续	-12.0571
麻	-12.0571
浩	-12.0571
帙	-12.0571
彩池	-12.0571
雅	-12.0571
城墙	-12.0571
岩	-12.0572
怀	-12.0572
姐姐扫	-12.0572
太阳落山了	-12.0572
便宜	-12.0572
羽毛是轻的	-12.0572
爸爸送	-12.0572
小猫买	-12.0572
你们玩	-12.0572
力气	-12.0572
奶奶喝	-12.0572
你们走	-12.0572
口渴了	-12.0572
汽车是快的	-12.0573
太阳是亮的	-12.0573
主义	-12.0573
生病	-12.0574
吃月	-12.0575
小狗拿	-12.0575
七天	-12.0575
爸爸拿	-12.0576
他唱	-12.0576
同学站	-12.0576
老师坐	-12.0576
老师玩	-12.0576
被列	-12.0577
爸爸喝	-12.0579
爷爷爱	-12.0597
菜很	-12.0598
牛很	-12.0607
▁笔	-12.0611
村很	-12.0612
要小心	-12.0631
▁人有	-12.064
个值	-12.0645
ECD	-12.0645
很软	-12.0665
少老师	-12.0674
糖很	-12.0676
在体育场	-12.0708
圆旗	-12.0714
在椅子下	-12.0715
街很	-12.0725
大船	-12.0738
大海很	-12.0789
ehc	-12.0813
妈妈很	-12.0818
DEB	-12.0839
一周有	-12.0843
ha	-12.0875
减三等于	-12.0878
黄鸡	-12.0903
在杯子里	-12.0916
往	-12.0917
加四等于	-12.0928
ni	-12.0932
加一等于	-12.094
木头	-12.0945
要小心走	-12.095
她爱	-12.0952
▁为什么	-12.0962
高鸭	-12.0963
▁十个	-12.0978
少鹅	-12.0992
屋里	-12.0992
小明吃	-12.1021
▁树	-12.1042
是瘦的	-12.1051
坏老师	-12.1059
心很	-12.1074
太阳很亮	-12.1096
明亮灯	-12.112
▁下雨了	-12.1177
天气	-12.1179
是紫色的	-12.118
河很	-12.1196
我穿	-12.1202
细菌	-12.1211
西瓜	-12.1231
空气	-12.1249
少牙	-12.1255
茶很	-12.126
她拿	-12.1274
他站	-12.1281
小红跑	-12.1281
旧牙	-12.1287
口很	-12.1303
书里有	-12.1311
op	-12.1313
恢复	-12.1317
存	-12.1331
配	-12.1335
土	-12.1337
破	-12.1339
赋	-12.1339
业	-12.1339
些	-12.134
遗产	-12.134
杭	-12.134
何	-12.134
资	-12.1341
梦	-12.1341
袍	-12.1341
葬	-12.1341
围	-12.1341
蜀	-12.1341
伍	-12.1341
禾	-12.1341
澳	-12.1341
阁	-12.1341
港珠	-12.1341
辞	-12.1341
辨	-12.1341
仅	-12.1341
瀑	-12.1341
普	-12.1341
离骚	-12.1341
攻	-12.1341
典型应用	-12.1341
此	-12.1341
水经注	-12.1341
庆	-12.1341
崽	-12.1341
幼	-12.1341
筛	-12.1341
我们养	-12.1341
妹妹跑	-12.1341
我们听	-12.1341
我们画	-12.1341
我们坐	-12.1341
航海	-12.1341
哥哥喝	-12.1341
奶奶游	-12.1341
妹妹跳	-12.1341
你们帮	-12.1341
草很	-12.1342
哥哥笑	-12.1342
小红扫	-12.1342
弟弟买	-12.1343
你种	-12.1343
同学说	-12.1344
弟弟答	-12.1344
小猫洗	-12.1344
姐姐放	-12.1344
老师拿	-12.1345
小狗画	-12.1345
小明喜欢	-12.1345
他哭	-12.1345
小猫画	-12.1345
老师看	-12.1346
小红种	-12.1346
同学吃	-12.1348
小明想	-12.1349
小狗爬	-12.1349
小明坐	-12.135
始建	-12.1351
妈妈唱	-12.1351
爸爸飞	-12.1352
弟弟走	-12.1354
小红飞	-12.1358
小明跳	-12.1367
但不	-12.1374
精度	-12.1386
爸爸笑	-12.1388
和短	-12.1403
妈妈读	-12.1403
个对象	-12.1407
是旧的	-12.1411
钟很	-12.1431
复杂	-12.1438
冰很冷	-12.1449
小明画	-12.1459
▁六个	-12.1463
天亮了	-12.149
花很	-12.1499
小衣	-12.1536
▁书	-12.154
水很烫	-12.1541
你关	-12.1551
是甜的	-12.1564
飞机	-12.1566
吹	-12.1575
烫	-12.1616
卜	-12.1619
是否为	-12.1641
晒	-12.1649
是丑的	-12.165
冷了	-12.1655
是美的	-12.1678
ia	-12.1679
她看	-12.1683
▁九个	-12.169
ēn	-12.1699
鼓很	-12.1704
到了	-12.1721
da	-12.1726
凌	-12.1759
是橙色的	-12.178
小明喝	-12.178
喝水	-12.1843
CBA	-12.1859
老师很	-12.1862
热量	-12.1865
历史	-12.187
盒子	-12.1871
米饭很	-12.1879
湿了	-12.1895
▁鸟	-12.1902
黄色的	-12.1903
cb	-12.1908
是蓝色的	-12.1908
鸟很	-12.1921
▁椅子	-12.1925
df	-12.1926
窗很	-12.1932
才能	-12.1944
妈妈洗	-12.1951
▁中找	-12.1987
▁七个	-12.2013
AEC	-12.2031
融化了	-12.204
和热	-12.2069
十五	-12.2069
你喜欢	-12.2076
找	-12.2142
整	-12.2148
沉下去	-12.215
力	-12.2163
蛋很	-12.2165
小猫爱	-12.2169
小猫玩	-12.2169
衣很	-12.217
饿了	-12.217
你游	-12.2172
小猫游	-12.2173
该	-12.2173
有四条腿	-12.2173
老	-12.2173
谱	-12.2173
和慢不	-12.2174
瓷	-12.2174
秋	-12.2174
陕	-12.2174
休息	-12.2174
尝	-12.2174
林	-12.2174
洋	-12.2174
龟	-12.2174
省	-12.2174
基	-12.2174
奸	-12.2174
瓶	-12.2174
甲	-12.2174
挫	-12.2174
骨	-12.2174
施	-12.2174
欧班列	-12.2174
溶	-12.2174
洛	-12.2174
寒	-12.2174
殖	-12.2174
牙齿	-12.2174
室	-12.2174
的反方向是	-12.2174
仙	-12.2174
姐姐找	-12.2174
奶奶送	-12.2174
他们扫	-12.2174
哥哥织	-12.2174
导航	-12.2174
弟弟找	-12.2174
呢	-12.2174
▁为什么我们要	-12.2174
姐姐养	-12.2174
爷爷喜欢	-12.2174
姐姐拿	-12.2174
妹妹喜欢	-12.2174
爷爷洗	-12.2174
弟弟跑	-12.2174
同学送	-12.2174
夜晚是暗的	-12.2174
小明送	-12.2174
哥哥坐	-12.2174
爷爷玩	-12.2174
姐姐喝	-12.2174
他们玩	-12.2174
重叠子问题	-12.2174
回家	-12.2174
文具	-12.2175
冬天很冷	-12.2175
爷爷爬	-12.2175
我们跳	-12.2175
老师帮	-12.2175
我们哭	-12.2175
因为手上有细菌	-12.2175
同学织	-12.2175
姐姐做	-12.2175
桌子是家具	-12.2175
从高处	-12.2175
外科	-12.2175
弟弟放	-12.2175
月球	-12.2175
他们写	-12.2176
他养	-12.2176
节气	-12.2176
哥哥答	-12.2176
上学	-12.2176
他拿	-12.2176
因为火很热	-12.2176
奶奶答	-12.2176
两个列表	-12.2177
▁小明去公园	-12.2177
妹妹答	-12.2177
她玩	-12.2177
柜子	-12.2178
苹果是水果	-12.2178
妈妈听	-12.2179
姐姐关	-12.2179
下西	-12.2179
爸爸画	-12.2179
他们听	-12.218
妹妹放	-12.218
可以泡茶	-12.218
姐姐游	-12.2181
小猫走	-12.2181
你哭	-12.2181
你飞	-12.2183
受伤	-12.2183
壮丽	-12.2183
妹妹游	-12.2184
小猫爬	-12.2185
你们看	-12.2185
你们开	-12.2187
她走	-12.2189
妹妹看	-12.2191
ce	-12.2192
妹妹爱	-12.2195
人有两只	-12.2197
小狗游	-12.2199
山顶	-12.2202
体重	-12.2205
小明帮	-12.2207
ge	-12.2207
大同	-12.2207
的东西有	-12.2209
火很	-12.221
你们爱	-12.2218
书写	-12.2218
▁九个人	-12.2228
▁三个人	-12.223
爸爸很	-12.2232
▁八个人	-12.2232
黄龙	-12.2232
岁了	-12.2236
升	-12.2236
三个	-12.224
FCA	-12.2251
吹风扇	-12.2253
小明读	-12.2261
他走	-12.229
少书	-12.229
▁五个人	-12.2293
三只	-12.2305
▁六个人	-12.2314
同学画	-12.2316
老师种	-12.2323
▁四个人	-12.2325
▁小鸟飞	-12.2326
▁二个人	-12.2338
小猫跳	-12.2349
▁夏天	-12.236
在客厅	-12.2368
老师喝	-12.2377
蓝鼓	-12.2387
▁七个人	-12.2405
▁十个人	-12.2411
条	-12.2421
▁一个人	-12.244
刷牙	-12.2457
天气变	-12.2468
胖	-12.247
四只	-12.2481
一天	-12.2493
是家具	-12.2494
好吃	-12.254
旧厂	-12.2548
减四等于	-12.2554
加五等于	-12.2591
小明关	-12.2597
▁小猫	-12.2619
小猫开	-12.2622
ag	-12.2631
大家	-12.2635
在河边	-12.2643
看到了	-12.2666
落下来	-12.2669
是厚的	-12.2672
BEA	-12.2693
可爱椅子	-12.272
颜色	-12.2725
在手里会	-12.2758
ef	-12.2759
小红帮	-12.276
▁西瓜	-12.2778
可以看	-12.2798
酸兔	-12.2809
长米饭	-12.2814
是空	-12.2818
新街	-12.2832
白街	-12.2841
我们开	-12.2845
fr	-12.2892
ad	-12.2916
慢蛋	-12.2928
多雪	-12.2932
是臭的	-12.2935
可爱肉	-12.2938
棉花	-12.2941
▁乌龟	-12.2944
白天	-12.2952
大菜	-12.2956
妹妹开	-12.2959
大天空	-12.2975
小红去	-12.2978
的属性	-12.2989
晚上	-12.3029
慢汽车	-12.3031
远船	-12.3032
CB	-12.304
挂	-12.3043
反	-12.3078
坏衣	-12.3078
小糖	-12.308
认	-12.3081
▁我切	-12.3082
陵陪葬	-12.3083
是典型	-12.3083
祖冲之	-12.3083
连通	-12.3083
于春秋	-12.3083
佛	-12.3083
帽子	-12.3083
姐姐卖	-12.3083
你们卖	-12.3083
考察	-12.3083
爷爷送	-12.3083
姐姐送	-12.3083
他卖	-12.3083
弟弟帮	-12.3083
妹妹扫	-12.3083
姐姐喜欢	-12.3083
奶奶喜欢	-12.3083
他们喜欢	-12.3083
小狗送	-12.3083
哥哥说	-12.3083
奶奶跑	-12.3083
奶奶种	-12.3083
妹妹说	-12.3083
弟弟养	-12.3083
姐姐看	-12.3083
你们坐	-12.3084
妹妹读	-12.3084
妹妹笑	-12.3084
爷爷学	-12.3084
爷爷想	-12.3084
爷爷坐	-12.3084
我们学	-12.3084
哥哥吃	-12.3084
爷爷看	-12.3084
妹妹想	-12.3084
姐姐唱	-12.3084
你们哭	-12.3084
生态	-12.3084
你们唱	-12.3084
哥哥关	-12.3084
他们关	-12.3084
姐姐帮	-12.3084
小猫织	-12.3084
老师扫	-12.3084
老师找	-12.3084
奶奶笑	-12.3085
极高	-12.3085
妹妹卖	-12.3085
哥哥读	-12.3086
弟弟想	-12.3086
分治	-12.3086
第二	-12.3086
运河	-12.3086
他坐	-12.3087
爸爸喜欢	-12.3087
同学问	-12.3087
小猫种	-12.3088
老师笑	-12.3088
我们做	-12.3088
老师读	-12.3088
爸爸问	-12.3088
妈妈拿	-12.3089
她唱	-12.3089
老师站	-12.3089
小明笑	-12.3091
同学游	-12.3092
他们游	-12.3094
爸爸哭	-12.3095
小红烧	-12.3095
妈妈爬	-12.3095
爸爸唱	-12.3095
物	-12.3096
小红游	-12.31
▁wǎn	-12.3102
中华	-12.3103
妹妹听	-12.3103
于中国	-12.3105
他学	-12.3107
丑	-12.3107
他说	-12.3109
爸爸做	-12.3116
奶奶爱	-12.3119
他们喝	-12.3121
小猫站	-12.3121
爸爸想	-12.3124
水果	-12.3133
黄店	-12.3133
黄天空	-12.3137
同学答	-12.316
狗是动物	-12.3167
他穿	-12.3169
这是	-12.3172
先进	-12.3174
理学	-12.3175
小猫想	-12.3179
只有一	-12.3183
发很	-12.3192
▁小红跑	-12.3194
小狗喝	-12.3198
小红写	-12.3206
窗户	-12.3206
▁jiàn	-12.3207
脚很	-12.3211
小明玩	-12.3213
她说	-12.3216
弟弟爱	-12.3225
温暖学校	-12.3225
龙很	-12.3226
做饭	-12.3242
凉路	-12.3249
妈妈写	-12.325
递归求	-12.3254
花开了	-12.3257
近肉	-12.3264
BFD	-12.3267
子问题的	-12.3274
假小猫	-12.3289
▁春天	-12.3292
坏机	-12.3292
太阳出来	-12.3303
uāng	-12.3327
长酒	-12.3347
黑同学	-12.3357
重酒	-12.3363
递归或栈	-12.3382
天下	-12.3392
▁小明的	-12.3416
绿脚	-12.3417
多苹果	-12.3429
色的	-12.3438
短村	-12.3457
小村	-12.3474
所以不是	-12.3476
圆瓜	-12.3504
▁小红放	-12.3507
你开	-12.3532
香鸟	-12.3536
甜肉	-12.355
氧	-12.3553
rime	-12.356
冰箱	-12.3574
西藏	-12.3603
▁我穿	-12.3616
大爸爸	-12.3648
▁热茶	-12.3661
很厚	-12.3686
安静口	-12.3692
肉很	-12.3697
小狗爱	-12.3712
粗	-12.372
温暖心	-12.372
好同学	-12.3722
方牙	-12.3743
水是	-12.3747
反义词是	-12.3748
快手	-12.375
是什么形状	-12.3791
▁二个	-12.3796
你买	-12.3803
盐很	-12.3823
在水里	-12.3832
▁这个蓝色的	-12.3836
温度很高	-12.3839
是苦的	-12.3844
小明看	-12.3851
少叶	-12.3858
是宽的	-12.3861
画画	-12.3875
we	-12.3876
他飞	-12.39
ee	-12.3901
要睡觉	-12.3905
小米	-12.3918
温暖笔	-12.3941
甜路	-12.3945
烫伤	-12.3946
不能先	-12.396
杯水	-12.3997
重椅子	-12.4027
先洗手	-12.4039
DCE	-12.4052
壶	-12.4053
屈原	-12.4061
▁这个白色的	-12.4063
两只手	-12.4068
朋友	-12.4071
CAE	-12.4071
相反	-12.4072
优	-12.4077
你听	-12.4079
容	-12.4081
渴了	-12.4082
倒	-12.4082
李	-12.4082
设	-12.4083
泊	-12.4083
▁这个橙色的	-12.4083
匙	-12.4083
临	-12.4083
霞	-12.4083
丰	-12.4083
段	-12.4083
济	-12.4083
冲	-12.4083
静	-12.4083
▁小鸟摘	-12.4083
▁小猫摘	-12.4083
厅	-12.4083
▁他摘	-12.4083
▁小鱼戴	-12.4083
▁烤箱	-12.4083
▁小鸟捡	-12.4083
你们织	-12.4083
哥哥卖	-12.4083
奶奶卖	-12.4083
▁小狗戴	-12.4083
▁炉子	-12.4083
射俑	-12.4083
▁小红戴	-12.4083
哥哥买	-12.4083
奶奶扫	-12.4083
秋天到了	-12.4083
▁小鱼脱	-12.4083
哥哥找	-12.4083
妹妹帮	-12.4083
民族	-12.4083
▁她捡	-12.4083
▁小鱼笑	-12.4083
▁小鱼烧	-12.4083
▁小猫捡	-12.4083
▁小鱼听	-12.4083
你送	-12.4083
▁小鱼睡	-12.4083
▁小鱼站	-12.4083
你们说	-12.4083
姐姐听	-12.4083
▁小鱼喝	-12.4083
▁小鱼拉	-12.4083
▁小鱼穿	-12.4083
▁小鸟切	-12.4083
▁小鱼跳	-12.4083
哥哥养	-12.4083
哥哥种	-12.4083
姐姐画	-12.4083
▁小鱼哭	-12.4083
▁小鱼唱	-12.4083
低处	-12.4083
哥哥听	-12.4083
▁小鸟笑	-12.4083
你们读	-12.4083
我们种	-12.4083
妈妈送	-12.4083
同学买	-12.4083
我们拿	-12.4084
爷爷读	-12.4084
弟弟种	-12.4084
哥哥学	-12.4084
哥哥想	-12.4084
▁小鸟站	-12.4084
奶奶找	-12.4084
弟弟问	-12.4084
小红送	-12.4084
你们站	-12.4084
▁小鸟画	-12.4084
奶奶坐	-12.4084
和硬不	-12.4084
奶奶站	-12.4084
姐姐吃	-12.4084
▁小鸟推	-12.4084
他们想	-12.4084
妹妹学	-12.4084
姐姐跳	-12.4084
火虫	-12.4084
▁小鸟喝	-12.4084
▁小鸟拉	-12.4084
弟弟坐	-12.4084
你帮	-12.4084
▁小鸟游	-12.4084
弟弟站	-12.4084
他们吃	-12.4084
黑夜	-12.4084
▁小鸟跳	-12.4084
奶奶唱	-12.4084
▁小鸟关	-12.4084
妹妹爬	-12.4084
做完了	-12.4084
你织	-12.4084
▁她切	-12.4084
大象是大的	-12.4084
医生	-12.4084
▁他切	-12.4084
▁她脱	-12.4084
▁小狗切	-12.4084
我们关	-12.4084
▁你戴	-12.4084
▁小鱼来	-12.4084
太阳是暖的	-12.4084
▁小猫切	-12.4084
哥哥做	-12.4084
▁小明切	-12.4084
▁小猫脱	-12.4084
▁小明脱	-12.4085
灯是亮的	-12.4085
▁小鸟写	-12.4085
▁她来	-12.4085
红色是颜色	-12.4085
小明织	-12.4085
会跳舞	-12.4085
▁他来	-12.4085
▁她穿	-12.4085
▁小狗来	-12.4085
▁小红脱	-12.4085
▁小狗推	-12.4085
爷爷种	-12.4085
先烧水	-12.4085
▁他拉	-12.4085
▁小猫睡	-12.4085
▁他打	-12.4085
弟弟写	-12.4085
他种	-12.4085
▁小猫推	-12.4086
妹妹找	-12.4086
▁小明睡	-12.4086
▁小明来	-12.4086
▁小鱼开	-12.4086
▁小明穿	-12.4086
同学洗	-12.4087
周期	-12.4087
小狗养	-12.4087
你拿	-12.4087
的水	-12.4088
▁小红打	-12.4088
热的反义词是	-12.4088
老师画	-12.4089
小猫听	-12.4089
小猫问	-12.4089
你坐	-12.4089
你站	-12.4089
她爬	-12.4089
爸爸读	-12.4089
小红养	-12.409
同学玩	-12.409
小狗玩	-12.409
小猫学	-12.409
小红说	-12.4091
爸爸坐	-12.4091
爸爸站	-12.4091
妈妈站	-12.4092
▁我给	-12.4092
爸爸看	-12.4092
小红拿	-12.4092
我睡	-12.4093
同学哭	-12.4094
▁我拉	-12.4094
她坐	-12.4095
小明站	-12.4095
我们喝	-12.4095
快的反义词是	-12.4096
我们唱	-12.4097
小红看	-12.4097
小狗扫	-12.4097
他们画	-12.4097
奶奶看	-12.4098
凉了	-12.4099
大的反义词是	-12.41
小红吃	-12.41
爸爸关	-12.4101
同学放	-12.4103
老师放	-12.4103
爷爷开	-12.4107
水能	-12.4107
蛇很	-12.411
▁小鸟开	-12.4112
天会下雨	-12.4113
哥哥洗	-12.4114
和暗不	-12.4114
他答	-12.4115
小明开	-12.4118
▁三个	-12.4121
要待在	-12.4122
会游泳	-12.4123
她站	-12.4127
哥哥开	-12.4132
白色的	-12.4139
少脚	-12.4142
长风	-12.4146
▁你给	-12.4147
不然会	-12.4148
如果不	-12.4149
你们洗	-12.4149
爸爸扫	-12.4151
妈妈走	-12.416
酸火	-12.4162
在树下	-12.4164
铁块	-12.4167
二只	-12.418
在商店	-12.4183
很舒服	-12.4183
在屋外	-12.4187
姐姐走	-12.4191
爸爸种	-12.4192
▁碗是	-12.4194
他画	-12.4209
妈妈关	-12.4226
如果	-12.4227
▁黑色不是	-12.4234
走到	-12.4243
▁白色不是	-12.4246
ct	-12.4247
爸爸听	-12.4254
在图书馆	-12.426
在海边	-12.4263
▁小明走	-12.4267
小狗跳	-12.4267
你画	-12.4267
树上	-12.4272
她游	-12.4273
小红学	-12.4274
跑得很快	-12.4274
▁高楼	-12.4276
用手	-12.4277
火很烫	-12.4288
小狗写	-12.4289
跑得快	-12.4296
吃了	-12.4298
▁duǒ	-12.4305
水里	-12.432
妈妈种	-12.4331
一百	-12.4338
脸很	-12.4344
一支笔	-12.435
大机	-12.4351
叶很	-12.4356
▁兔子	-12.436
跑步	-12.4363
在动物园	-12.4364
回来	-12.4368
都是	-12.4374
▁小狗吃	-12.4383
有哪些	-12.4384
他开	-12.4393
老师说	-12.4399
▁五个	-12.4418
▁你读	-12.4447
BCE	-12.4453
出来了	-12.4458
ed	-12.4467
▁小明洗	-12.4486
▁香蕉是黄色的	-12.4494
▁葡萄是紫色的	-12.4494
▁他写	-12.4494
▁小明做	-12.4494
▁猎豹	-12.4504
五只	-12.4555
▁她	-12.4584
▁她跳	-12.4584
▁你看	-12.4586
▁小明听	-12.4591
▁小狗看	-12.4592
▁树叶	-12.4594
减五等于	-12.4594
▁小红跳	-12.4594
▁小红关	-12.4596
▁我在	-12.4603
切菜	-12.4611
加六等于	-12.4618
▁你想	-12.4633
▁火很热	-12.4639
ello	-12.464
▁小猫读	-12.4659
五个	-12.4692
风吹	-12.4696
会跑步	-12.4698
▁fi	-12.4701
▁小红画	-12.4715
老师走	-12.4731
▁你走	-12.4742
代科学	-12.4756
▁她吃	-12.4759
东方	-12.476
▁你写	-12.4761
▁羽毛	-12.4767
在门后	-12.4777
▁狗是	-12.4784
▁他洗	-12.4789
▁她飞	-12.4791
和冷	-12.4791
▁她写	-12.4795
▁小红唱	-12.4802
▁小明	-12.4846
的方向	-12.4854
▁小狗说	-12.4855
▁你吃	-12.4865
▁小红笑	-12.4866
▁火车	-12.489
▁他听	-12.4892
▁他游	-12.4893
▁他做	-12.4897
▁小狗跑	-12.4901
树很	-12.4903
▁小狗唱	-12.4903
▁小红坐	-12.4904
▁小明唱	-12.4905
▁小红喝	-12.4906
▁小猫做	-12.4909
▁他	-12.4955
是薄的	-12.4976
是稳定	-12.4978
▁她游	-12.4995
ime	-12.4996
hg	-12.4997
▁小狗跳	-12.5007
在屋里	-12.5009
上面	-12.5012
▁小狗写	-12.5012
▁小明看	-12.5052
▁她说	-12.5065
▁你画	-12.5069
个函数	-12.5073
▁小狗喝	-12.5078
爸爸爱	-12.508
ǎn	-12.5096
▁他穿	-12.5096
BDC	-12.511
▁小猫开	-12.5114
是一种人	-12.5116
FBC	-12.5119
▁小红写	-12.512
开花	-12.5125
有一个	-12.5126
▁int	-12.5134
▁小明读	-12.5139
▁蚂蚁	-12.5145
是颜色	-12.5149
三条	-12.5153
书很有趣	-12.5159
帮	-12.5177
型	-12.5187
▁她走	-12.519
嵌套	-12.5192
正	-12.5193
博	-12.5194
T	-12.5194
和平	-12.5194
贸	-12.5194
承	-12.5194
纲目	-12.5194
我们卖	-12.5194
潮	-12.5194
爷爷卖	-12.5194
他们送	-12.5194
我们织	-12.5194
妹妹送	-12.5194
我们扫	-12.5194
同学卖	-12.5194
小猫卖	-12.5194
姐姐跑	-12.5194
姐姐种	-12.5195
你们养	-12.5195
我们跑	-12.5195
爷爷养	-12.5195
爷爷说	-12.5195
姐姐想	-12.5195
老师送	-12.5195
老师买	-12.5195
他们说	-12.5195
姐姐坐	-12.5195
姐姐玩	-12.5195
妹妹拿	-12.5195
奶奶学	-12.5195
爷爷站	-12.5195
他们学	-12.5195
弟弟看	-12.5195
他扫	-12.5195
他们跳	-12.5195
妹妹吃	-12.5195
同学帮	-12.5195
你们飞	-12.5195
妹妹哭	-12.5195
小猫帮	-12.5195
弟弟跳	-12.5195
弟弟飞	-12.5195
爷爷放	-12.5195
妈妈找	-12.5196
爸爸找	-12.5196
她喜欢	-12.5196
他喜欢	-12.5196
他跑	-12.5196
石刻	-12.5197
她笑	-12.5197
奶奶写	-12.5197
老师跑	-12.5198
爸爸跑	-12.5199
妈妈跑	-12.5199
哥哥玩	-12.5199
小猫养	-12.5199
好石	-12.5199
妈妈养	-12.5199
老师问	-12.5199
老师听	-12.52
爷爷走	-12.52
你们跳	-12.52
同学笑	-12.52
你学	-12.52
他跳	-12.5201
妹妹站	-12.5201
同学学	-12.5201
妹妹问	-12.5202
妈妈想	-12.5203
小狗站	-12.5203
哥哥跳	-12.5207
真龙	-12.5207
小红想	-12.5207
他们问	-12.5209
▁晚上	-12.5209
小猫唱	-12.5209
妹妹写	-12.521
弟弟画	-12.5211
轻雪	-12.5211
▁小猫玩	-12.5212
▁小猫游	-12.5212
妹妹玩	-12.5213
▁小猫走	-12.5216
大熊猫	-12.5221
他们开	-12.5222
同学做	-12.5226
老师做	-12.5227
奶奶开	-12.5235
小猫写	-12.5236
他们看	-12.5238
风扇	-12.5247
▁小明画	-12.5264
小猫答	-12.527
爸爸答	-12.5272
满了	-12.5281
爸爸开	-12.5288
▁飞机	-12.5289
▁他站	-12.5289
▁她拿	-12.5297
笔很	-12.5298
▁我关	-12.5302
的动物	-12.5306
会融化	-12.5321
蓝色的	-12.5324
是水果	-12.5338
▁你游	-12.5341
六十	-12.5345
▁椅子是	-12.5345
秋天	-12.5362
小红做	-12.5374
方天空	-12.5379
小红答	-12.5392
▁小明跑	-12.5396
▁小狗读	-12.5414
▁我洗	-12.5416
▁橘子	-12.5423
红色的	-12.5446
▁鱼在水里	-12.5447
端午节	-12.5465
自行车	-12.5467
白天有太阳	-12.5497
小狗跑	-12.5501
})	-12.5503
小明哭	-12.5504
你好	-12.551
小狗唱	-12.551
小红坐	-12.551
月亮出来了	-12.551
他听	-12.5511
他游	-12.5514
小红喝	-12.5516
小明唱	-12.5519
不能用手摸	-12.5524
他做	-12.5526
▁猴子是	-12.553
很危险	-12.5531
小猫做	-12.5535
大象很大	-12.5535
水开了	-12.5552
天空是蓝色的	-12.5571
温	-12.5572
▁你喝	-12.5579
那是	-12.5582
苹果是红色的	-12.5588
黄虎	-12.5592
▁他吃	-12.5599
▁小红烧	-12.5606
玻璃	-12.5616
▁八个	-12.562
小狗说	-12.5624
▁她画	-12.5657
真店	-12.5668
方灯	-12.5675
冒	-12.5678
短盐	-12.5684
▁老虎是	-12.569
小红笑	-12.5692
▁那是	-12.5697
旧鸡	-12.5704
爸爸洗	-12.5704
可爱街	-12.5714
▁雪是白色的	-12.5717
美丽学校	-12.5721
快乐机	-12.5724
▁我会	-12.5724
老师开	-12.5725
▁小猫飞	-12.5737
绿牙	-12.574
不是重	-12.5741
EFD	-12.5744
hbc	-12.5779
烧水	-12.578
美丽狮	-12.5783
方虎	-12.5786
下雨	-12.5806
CAB	-12.5821
安静大海	-12.585
旧虎	-12.5857
真蛇	-12.5875
高原	-12.588
短衣	-12.5889
▁她喝	-12.5896
新桥	-12.5922
▁熊猫	-12.5944
▁杯子是	-12.595
绿肉	-12.5951
真街	-12.596
FED	-12.5973
小狗关	-12.5979
▁蜗牛	-12.5993
▁他喝	-12.5994
黄熊	-12.6015
慢鸟	-12.6016
短蛋	-12.6017
后面	-12.6017
下雨了	-12.6026
▁你烧	-12.6028
香村	-12.6036
江并	-12.6048
多街	-12.6054
凉的	-12.6055
新鹅	-12.606
双鞋	-12.6062
白马	-12.6064
好船	-12.6074
短叶	-12.6084
▁你唱	-12.61
▁四个	-12.61
▁球是	-12.6103
▁小狗开	-12.6107
黄狮	-12.6108
是什么颜色	-12.6117
▁小猫笑	-12.6118
新鼓	-12.6134
▁夜晚	-12.6145
矮龙	-12.616
疼	-12.6172
长旗	-12.6177
温暖厂	-12.6181
美丽糖	-12.6182
暖的	-12.6184
方发	-12.6186
冰棍	-12.6187
看不见	-12.6189
▁花在	-12.619
为什么要	-12.6191
▁蝴蝶	-12.62
红马	-12.6206
长桥	-12.6207
可爱老师	-12.6222
大窗	-12.6232
甜马	-12.6233
热田	-12.6243
假雪	-12.6259
快乐蛇	-12.6262
里面	-12.6264
好风	-12.6268
白脚	-12.6269
带伞	-12.627
矮旗	-12.6291
安静房子	-12.6311
颗	-12.6313
好山	-12.6314
明亮钟	-12.634
然	-12.6344
长街	-12.6353
远石	-12.6353
小红爱	-12.6354
和软	-12.6359
矮鹅	-12.6363
CBE	-12.6367
快鞋	-12.6367
矮学校	-12.637
重盐	-12.6387
蓝狮	-12.639
山很	-12.639
树枝	-12.6399
▁你开	-12.6402
中午	-12.6409
歌	-12.641
高虎	-12.6412
小红开	-12.6414
真公园	-12.6415
新汽车	-12.642
美丽云	-12.6425
开水	-12.6432
热月亮	-12.6433
病	-12.6435
把	-12.6436
周	-12.6438
掉	-12.6438
高处	-12.6441
园	-12.6442
算	-12.6443
抓	-12.6443
上去	-12.6443
随	-12.6444
峡	-12.6444
寨	-12.6444
剧	-12.6444
壁	-12.6444
池	-12.6444
族	-12.6444
感	-12.6444
经过了	-12.6444
▁从前有一只小	-12.6444
剪刀	-12.6444
班	-12.6444
脆	-12.6444
你们送	-12.6444
会摔下来	-12.6444
因为温度升高了	-12.6444
我们送	-12.6444
技术	-12.6444
蜗牛爬得很慢	-12.6444
姐姐买	-12.6444
摔倒	-12.6444
他们找	-12.6444
离	-12.6444
讲	-12.6444
你们买	-12.6444
你们找	-12.6444
奶奶买	-12.6444
弟弟织	-12.6444
暖气是暖的	-12.6444
爷爷扫	-12.6444
他们织	-12.6444
▁火山	-12.6444
飞机是快的	-12.6445
你们问	-12.6445
姐姐笑	-12.6445
姐姐读	-12.6445
他们跑	-12.6445
奶奶养	-12.6445
铁比水重	-12.6445
他们养	-12.6445
洗掉	-12.6445
我们洗	-12.6445
产生	-12.6445
哥哥拿	-12.6445
奶奶问	-12.6445
弟弟喜欢	-12.6445
石头磕到会疼	-12.6445
我们问	-12.6445
他们拿	-12.6445
营养	-12.6445
弟弟听	-12.6445
妹妹画	-12.6445
弟弟笑	-12.6445
奶奶玩	-12.6445
妹妹坐	-12.6445
我们看	-12.6445
所以不能碰	-12.6445
哥哥唱	-12.6445
爷爷吃	-12.6445
奶奶爬	-12.6445
你们爬	-12.6445
小狗帮	-12.6445
爷爷飞	-12.6445
他们唱	-12.6445
可以做饭	-12.6445
蚂蚁很小	-12.6445
爸爸帮	-12.6445
兔子是快的	-12.6445
哥哥走	-12.6445
滑倒	-12.6445
电器	-12.6445
你扫	-12.6445
慢城	-12.6446
同学扫	-12.6446
弟弟关	-12.6446
羽毛很轻	-12.6446
妈妈扫	-12.6446
▁因为太阳出来	-12.6446
小红织	-12.6446
乌龟是慢的	-12.6446
妹妹做	-12.6447
认真	-12.6447
她洗	-12.6447
热的东西	-12.6447
月亮是亮的	-12.6447
他笑	-12.6448
先起床	-12.6448
奶奶关	-12.6448
鸡蛋是	-12.6448
同学跑	-12.6448
小狗喜欢	-12.6449
爷爷买	-12.6449
果很	-12.645
同学听	-12.645
小狗听	-12.6451
古城	-12.6451
放东西	-12.6452
闪电	-12.6452
指南	-12.6452
一加一等于	-12.6452
冰棍是冰的	-12.6452
小红喜欢	-12.6452
可能有	-12.6452
两只	-12.6452
爷爷问	-12.6452
小明养	-12.6453
妹妹走	-12.6453
爸爸学	-12.6454
▁碗	-12.6455
要系安全带	-12.6455
妈妈玩	-12.6455
你跳	-12.6455
同学喝	-12.6456
我们说	-12.6458
老师哭	-12.6458
老师爬	-12.6458
老师唱	-12.6459
鸟会飞	-12.646
一点	-12.646
妈妈跳	-12.646
小红站	-12.6461
热蛋	-12.6461
爷爷唱	-12.6461
姐姐爱	-12.6462
ān	-12.6464
温暖酒	-12.6466
不吃饭	-12.6467
太阳照	-12.6468
味道	-12.6469
分钟	-12.647
把伞	-12.6471
▁你怎么	-12.6471
累了	-12.6476
她找	-12.6477
DEFA	-12.6479
家很	-12.6479
▁狮子是	-12.648
种颜色	-12.6485
口人	-12.6486
生日	-12.6486
哥哥看	-12.6488
▁车	-12.6488
爸爸写	-12.6493
我也	-12.6495
能量	-12.6499
红蛇	-12.6501
会发光	-12.6502
爷爷关	-12.6502
进去	-12.6502
和凉	-12.6506
妈妈笑	-12.6515
火车	-12.6515
好房子	-12.6516
慢窗	-12.6517
热茶是热的	-12.6519
老师答	-12.6519
▁这个蓝色的鸟很	-12.652
快船	-12.6524
在花园	-12.6525
她种	-12.6526
▁我开	-12.6527
小狗学	-12.653
前面	-12.6531
蓝鸡	-12.6537
甜兔	-12.6539
快窗	-12.655
先到	-12.6554
先下雨	-12.6561
到天上	-12.6562
和轻	-12.6567
可爱牛	-12.6571
是暖的	-12.6581
树叶是绿色的	-12.6582
因为有	-12.6587
黄桌子	-12.659
在田野	-12.6593
美丽衣	-12.6594
圆云	-12.6612
慢风	-12.6613
远米饭	-12.6616
要带伞	-12.6622
水蒸气	-12.6623
爸爸走	-12.6627
短鼓	-12.6627
他们洗	-12.663
白的	-12.6631
甜小狗	-12.6631
在博物馆	-12.6639
▁钢铁很	-12.6643
饭很香	-12.6644
的东西比	-12.6646
快乐爸爸	-12.6651
酸脚	-12.6654
圆酒	-12.6656
多菜	-12.6676
cbh	-12.6678
的东西不能当	-12.6679
坏河	-12.668
大鸭	-12.6684
上有很多	-12.6685
▁有一天	-12.6686
会说话	-12.6689
▁因为下雨了	-12.6692
了一	-12.6693
同学写	-12.6694
温泉是热的	-12.6697
▁泡沫	-12.6704
房间	-12.6706
轻票	-12.6712
酸月亮	-12.6716
你玩	-12.6726
圆衣	-12.674
▁水	-12.6746
我关少	-12.6757
[]	-12.6773
小路	-12.6779
黑书	-12.6793
▁车在	-12.6794
明亮厂	-12.6794
长小狗	-12.6801
保暖	-12.6804
左手	-12.681
▁鱼	-12.6827
小店	-12.6834
爸爸跳	-12.6835
假牛	-12.6846
多星星	-12.6847
方机	-12.6864
小狮	-12.6866
香街	-12.6874
gr	-12.6881
短星星	-12.6886
重牛	-12.6893
圆风	-12.6908
多米饭	-12.6913
慢手	-12.6918
快乐老师	-12.6927
会变	-12.6927
▁你好	-12.6928
他洗	-12.6928
她飞	-12.6934
at	-12.6936
很暖和	-12.6938
慢牛	-12.6939
你吃	-12.694
大车	-12.694
小红唱	-12.6941
温暖草	-12.6945
妈妈喝	-12.6946
她写	-12.6947
叶落了	-12.6949
是短的	-12.6949
红手	-12.6951
在桌子上	-12.6952
小猫看	-12.6955
绿鸭	-12.6963
▁今天星期	-12.6965
BDF	-12.6967
▁因为天	-12.697
她吃	-12.6981
甜口	-12.6985
绿灯	-12.6985
妈妈爱	-12.6987
但是	-12.699
黑色	-12.6995
黄公园	-12.7001
白茶	-12.7015
香鞋	-12.7021
重虎	-12.7025
ADE	-12.7044
老师关	-12.7049
黄鱼	-12.7077
▁我喝	-12.7085
白雪	-12.7087
是方的	-12.7091
要做什么	-12.7096
黄雪	-12.7098
就能	-12.7105
不是冷	-12.7106
橘子	-12.7107
▁绿色不是	-12.7109
凉雨	-12.7111
美丽河	-12.7114
多学校	-12.7119
近老师	-12.7127
加七等于	-12.7129
近火	-12.7134
▁红色不是	-12.7136
dic	-12.7146
圆火	-12.715
可以照	-12.7152
多房子	-12.7156
大鹅	-12.7168
重爸爸	-12.7169
旧月亮	-12.717
热爸爸	-12.7172
▁蓝色不是	-12.7178
可爱脚	-12.7188
蓝草	-12.7188
减六等于	-12.7193
▁下雪了	-12.7203
▁小明飞	-12.7214
短茶	-12.7216
安静小狗	-12.7237
蓝星星	-12.7249
大街	-12.7251
旧龙	-12.7252
碰到	-12.7255
二个	-12.7265
照亮	-12.728
好雨	-12.7282
BAE	-12.7283
外面温度	-12.729
酸天空	-12.729
短蛇	-12.7293
香门	-12.7294
小鸭	-12.7298
多鱼	-12.7302
la	-12.7307
BADE	-12.7315
EBA	-12.7319
重书	-12.7337
长同学	-12.7345
同学开	-12.735
一本书	-12.7355
圆学校	-12.7363
▁黄色不是	-12.7377
arg	-12.7386
温度高	-12.7391
快心	-12.7392
有几	-12.7413
▁我写	-12.7432
假妈妈	-12.7439
▁大象很大	-12.7448
凉风	-12.7467
的一	-12.7488
重灯	-12.7498
多灯	-12.7504
铁比木头	-12.7524
▁自行车	-12.7527
小红洗	-12.7532
高鱼	-12.7551
是黄色的	-12.7584
CAF	-12.7599
星期	-12.7604
▁秋天	-12.7621
▁小狗	-12.7631
凉火	-12.7634
开了	-12.7641
绿椅子	-12.7643
看书	-12.7653
多牛	-12.7687
ei	-12.7694
黑色的	-12.7697
我开小	-12.771
轻河	-12.771
重天空	-12.7711
▁火是	-12.7751
少车	-12.7766
我要	-12.7784
小妈妈	-12.7792
是动物	-12.7825
▁笔是	-12.7852
产	-12.7869
巴	-12.7871
录	-12.7872
颜	-12.7872
封	-12.7872
示	-12.7872
权	-12.7873
范	-12.7873
客	-12.7873
园林	-12.7873
私	-12.7873
陵	-12.7873
他们帮	-12.7873
我们帮	-12.7873
姐姐织	-12.7873
她卖	-12.7873
哥哥帮	-12.7873
哥哥扫	-12.7873
老师卖	-12.7873
她送	-12.7873
弟弟扫	-12.7873
他买	-12.7873
她买	-12.7873
哥哥跑	-12.7873
你们喜欢	-12.7873
小猫送	-12.7873
你们听	-12.7873
农业	-12.7873
爷爷听	-12.7873
小狗买	-12.7873
你们笑	-12.7873
弟弟洗	-12.7873
你们学	-12.7873
她帮	-12.7873
我们读	-12.7873
弟弟读	-12.7873
爷爷喝	-12.7874
他织	-12.7874
爷爷游	-12.7874
爷爷哭	-12.7874
他找	-12.7874
奶奶飞	-12.7874
引力	-12.7874
他们飞	-12.7874
弟弟哭	-12.7874
你找	-12.7874
小狗织	-12.7874
他们放	-12.7875
我们放	-12.7875
你们做	-12.7875
小明扫	-12.7876
宝船	-12.7876
姐姐答	-12.7876
爷爷答	-12.7877
他们答	-12.7878
同学养	-12.7878
你们喝	-12.7879
小狗种	-12.7879
同学拿	-12.788
妈妈说	-12.788
小狗笑	-12.788
阵	-12.7882
同学想	-12.7882
他爬	-12.7882
人生	-12.7883
同学看	-12.7883
她关	-12.7885
:==	-12.7885
小红听	-12.7886
小红问	-12.7886
老师游	-12.7888
同学唱	-12.7889
奶奶听	-12.789
老师飞	-12.7891
小猫哭	-12.7891
妈妈游	-12.7891
爷爷帮	-12.7892
爸爸爬	-12.7892
高风	-12.7893
弟弟唱	-12.7904
小河	-12.7906
她想	-12.7917
人类	-12.7923
我们爱	-12.7928
旧窗	-12.7929
爸爸卖	-12.7932
弟弟吃	-12.7933
妈妈织	-12.7934
长约	-12.7934
āo	-12.7948
妹妹关	-12.795
妈妈卖	-12.798
每天看	-12.7981
猫很可爱	-12.7985
▁天上	-12.7997
FB	-12.8005
书是美的	-12.8007
小猫扫	-12.8009
他关	-12.8016
▁我哭	-12.8017
小明答	-12.8026
,*	-12.8036
不动	-12.8036
yí	-12.8078
他放	-12.8082
你说	-12.8101
才有	-12.8101
小时	-12.8112
jh	-12.8124
▁细菌	-12.8128
坐车	-12.813
二座	-12.8143
妈妈买	-12.8154
as	-12.816
ea	-12.8165
DBE	-12.8168
ment	-12.8169
什么颜色	-12.8196
他看	-12.8199
打伞	-12.8202
绿色的	-12.8246
▁叶子	-12.8248
听到了	-12.8264
矮山	-12.8268
妈妈画	-12.8276
发芽	-12.828
▁草是	-12.8283
▁月亮是	-12.8394
妈妈开	-12.8417
二条	-12.8423
FAD	-12.8441
是香的	-12.8447
和快	-12.8457
羽毛	-12.8458
▁火	-12.8466
我在家里	-12.8503
▁数字	-12.852
ide	-12.8539
夜晚有	-12.8554
小红画	-12.8554
▁我走	-12.8558
爸爸说	-12.8561
是多	-12.8564
气球	-12.8575
雨停了	-12.8576
刮风了	-12.8576
手脏了	-12.8579
ACDF	-12.8589
下雪了	-12.8592
小朋友	-12.8593
▁我说	-12.8594
过马路	-12.8603
jcb	-12.8611
水在	-12.8615
学习	-12.8627
era	-12.8628
右手	-12.8671
▁热水	-12.8681
afj	-12.8692
氧化	-12.8702
小猫读	-12.8714
源地	-12.8715
你爱	-12.8753
ADC	-12.8805
凉快	-12.8808
▁rec	-12.8818
明亮花	-12.8825
假米	-12.8837
▁桌子在	-12.885
afg	-12.8894
▁那	-12.8896
一朵花	-12.8909
家具	-12.8909
真快	-12.8912
形状	-12.8913
为什么冬天	-12.8924
jfa	-12.8934
比汽车	-12.8937
读书	-12.8954
FBA	-12.8954
手指	-12.8997
id	-12.9005
一座	-12.9015
同学走	-12.9024
用于有	-12.9032
书是宽的	-12.9038
AFD	-12.9041
长花	-12.905
不是硬	-12.9071
▁我想	-12.9085
我读真	-12.9086
DFA	-12.911
亮了	-12.9114
几个	-12.912
四个	-12.9147
▁我笑	-12.9164
轻果	-12.9192
▁因为天黑了	-12.9198
地面	-12.9202
阳光	-12.9227
凉果	-12.9231
鞋子	-12.927
▁零	-12.9273
服	-12.931
lr	-12.9318
▁书在	-12.933
浮	-12.9344
舒服	-12.937
ì	-12.9389
gi	-12.9408
ACD	-12.9417
种树	-12.9419
太阳是什么	-12.9442
屋	-12.9477
不是凉	-12.9488
太多了	-12.9494
不是黑色	-12.9494
▁铅球	-12.95
FCE	-12.9511
毛	-12.9528
闪	-12.953
片	-12.9532
星	-12.9533
完	-12.9534
我写安静	-12.9534
住	-12.9535
摔	-12.9536
系	-12.9536
舞	-12.9537
闻到了	-12.9537
往低处流	-12.9538
凉了再喝	-12.9538
浇	-12.9538
手上有细菌	-12.9538
从东边升起	-12.9538
搬	-12.9539
不能碰	-12.9539
▁地下室	-12.9539
棋	-12.9539
必	-12.9539
捡	-12.9539
▁黑洞	-12.9539
宜	-12.9539
摸	-12.9539
安全带能保护	-12.9539
老师教我们读书	-12.9539
钢笔是	-12.9539
要看红绿灯	-12.954
因为玻璃是脆的	-12.954
月亮有时圆有时弯	-12.954
兵	-12.954
红灯停	-12.954
▁叶子有四个	-12.954
▁石头有四个	-12.954
▁碗有四个	-12.954
因为雪反射	-12.954
在晚上出来	-12.954
开水是烫的	-12.954
所有的光	-12.954
炉子是烫的	-12.954
烤箱是烫的	-12.954
稳	-12.954
终于抓到了一条	-12.954
▁他的手是	-12.954
▁他的笔是	-12.954
▁他的耳朵是	-12.954
▁他的脚是	-12.954
▁他的衣服是	-12.954
▁她的眼睛是	-12.954
▁她的耳朵是	-12.954
▁她的衣服是	-12.954
▁小猫的衣服是	-12.954
▁小鱼的书是	-12.954
▁小鱼的帽子是	-12.954
▁小鱼的眼睛是	-12.954
▁小鱼的脚是	-12.954
▁小鱼的衣服是	-12.954
▁小鱼的鼻子是	-12.954
▁小鸟的嘴是	-12.954
▁我的嘴是	-12.954
▁我的衣服是	-12.954
▁星星有四个	-12.954
▁树有四个	-12.954
▁椅子有四个	-12.954
▁狗有四个	-12.954
▁苹果有四个	-12.954
▁鸟有四个	-12.954
采蜜	-12.954
▁bathroom	-12.954
▁书有四个	-12.954
▁云有四个	-12.954
▁他的嘴是	-12.954
▁他的帽子是	-12.954
▁他的眼睛是	-12.954
▁他的鞋是	-12.954
▁你的帽子是	-12.954
▁她的嘴是	-12.954
▁她的头是	-12.954
▁她的帽子是	-12.954
▁她的手是	-12.954
▁她的脚是	-12.954
▁她的鞋是	-12.954
▁小狗的帽子是	-12.954
▁小鱼的嘴是	-12.954
▁小鱼的手是	-12.954
▁小鱼的笔是	-12.954
▁小鱼的耳朵是	-12.954
▁小鱼的鞋是	-12.954
▁小鸟的帽子是	-12.954
▁小鸟的耳朵是	-12.954
▁小鸟的衣服是	-12.954
▁小鸟的鼻子是	-12.954
▁我的帽子是	-12.954
▁杯子有二个	-12.954
▁杯子有四个	-12.954
▁桌子有四个	-12.954
▁猫有四个	-12.954
▁球有二个	-12.954
▁石头有二个	-12.954
▁碗有二个	-12.954
▁花有二个	-12.954
▁花有四个	-12.954
他们卖	-12.954
可以看见东西	-12.954
因为叶子里有叶绿素	-12.954
因为身体需要水分	-12.954
太阳和月亮	-12.954
干净	-12.954
我们买	-12.954
新和旧	-12.954
有陌生人来了	-12.954
老奶奶	-12.954
蝴蝶在飞	-12.954
金子是重的	-12.954
▁书有二个	-12.954
▁云有二个	-12.954
▁他的头是	-12.954
▁他的鼻子是	-12.954
▁你的嘴是	-12.954
▁她的笔是	-12.954
▁小狗的嘴是	-12.954
▁小狗的头是	-12.954
▁小猫的嘴是	-12.954
▁小猫的帽子是	-12.954
▁小猫的耳朵是	-12.954
▁小红的笔是	-12.954
▁小鱼的头是	-12.954
▁小鸟的眼睛是	-12.954
▁小鸟的鞋是	-12.954
▁星星有二个	-12.954
▁桌子有二个	-12.954
▁椅子有二个	-12.954
▁猫有二个	-12.954
▁球有四个	-12.954
▁笔有四个	-12.954
▁苹果有二个	-12.954
▁车有四个	-12.954
▁鱼有四个	-12.954
空调是凉的	-12.954
▁她的书是	-12.954
▁小狗的衣服是	-12.954
▁小狗的鼻子是	-12.954
▁小猫的鼻子是	-12.954
▁小红的帽子是	-12.954
▁小红的鼻子是	-12.954
▁我的鼻子是	-12.954
▁你的衣服是	-12.954
▁她的鼻子是	-12.954
▁树有二个	-12.954
▁狗有二个	-12.954
▁笔有二个	-12.954
▁苹果有五个	-12.954
▁车有二个	-12.954
▁鱼有二个	-12.954
▁鸟有二个	-12.954
书在桌子的上面	-12.954
先写作业	-12.954
猫在椅子的	-12.954
衣服穿在身上	-12.954
▁云有三个	-12.954
▁叶子有三个	-12.954
▁叶子有二个	-12.954
▁四个粉色的	-12.954
▁小狗的耳朵是	-12.954
▁小猫的头是	-12.954
▁小猫的手是	-12.954
▁小猫的眼睛是	-12.954
▁小猫的鞋是	-12.954
▁小红的嘴是	-12.954
▁小红的衣服是	-12.954
▁小鸟的手是	-12.954
▁小鸟的笔是	-12.954
▁小鸟的脚是	-12.954
▁我的耳朵是	-12.954
▁星星有五个	-12.954
▁杯子有三个	-12.954
▁树有五个	-12.954
▁桌子有五个	-12.954
▁椅子有五个	-12.954
▁狗有三个	-12.954
▁猫有三个	-12.954
▁球有三个	-12.954
▁石头有五个	-12.954
▁碗有三个	-12.954
▁花有五个	-12.954
▁车有五个	-12.954
▁鸟有五个	-12.954
泡沫是轻的	-12.954
钢铁是重的	-12.954
▁你的笔是	-12.954
▁小明的衣服是	-12.954
▁小狗的眼睛是	-12.954
▁小猫的脚是	-12.954
▁我的鞋是	-12.954
▁书有五个	-12.954
▁小狗的鞋是	-12.954
▁小红的眼睛是	-12.954
▁小鸟的书是	-12.954
▁我的眼睛是	-12.954
▁我的笔是	-12.954
▁杯子有五个	-12.954
▁猫有五个	-12.954
▁现在几点	-12.954
▁车有三个	-12.954
大象比蚂蚁大	-12.954
蒸汽	-12.954
这样	-12.954
▁人有四个	-12.954
▁他的书是	-12.954
▁你的脚是	-12.954
▁小明的帽子是	-12.954
▁小明的鼻子是	-12.954
▁小狗的笔是	-12.954
▁小猫的笔是	-12.954
▁星星有三个	-12.954
▁桌子有三个	-12.954
会烧伤	-12.954
妹妹织	-12.954
爷爷织	-12.954
铅球是重的	-12.954
▁你的耳朵是	-12.954
▁书有三个	-12.954
▁你的鞋是	-12.954
▁小红的耳朵是	-12.954
▁椅子有三个	-12.954
▁石头有三个	-12.954
▁笔有三个	-12.954
▁鱼有三个	-12.954
▁鸟有三个	-12.954
你卖	-12.954
哥哥送	-12.954
在左边	-12.954
小狗卖	-12.954
▁人有二个	-12.954
纸张是轻的	-12.954
过马路要看红绿灯	-12.954
飞机飞得很快	-12.954
▁小明的嘴是	-12.954
吃饭能给身体	-12.954
长出叶子	-12.954
▁三个橙色的	-12.954
▁二个橙色的	-12.954
▁小红的鞋是	-12.954
猎豹是快的	-12.954
风扇是凉的	-12.954
▁máo	-12.954
▁人有五个	-12.954
▁小狗的手是	-12.954
▁小狗的脚是	-12.954
▁树有三个	-12.954
九寨	-12.954
▁三个粉色的	-12.954
▁四个蓝色的	-12.954
结成冰	-12.954
▁二个白色的	-12.954
▁二个红色的	-12.954
▁你的头是	-12.954
▁四个黄色的	-12.954
▁碗有一个	-12.954
气球是轻的	-12.954
▁三个白色的	-12.954
▁二个蓝色的	-12.954
▁叶子有一个	-12.954
▁我的手是	-12.954
▁球有一个	-12.954
▁云有一个	-12.954
▁五个白色的	-12.954
下雨要打伞	-12.954
难过	-12.954
饿了要吃饭	-12.954
▁人有三个	-12.954
▁我的脚是	-12.954
▁铁很重	-12.954
▁五个橙色的	-12.954
▁四个橙色的	-12.954
▁星星有一个	-12.954
▁狗有一个	-12.954
猫等了	-12.954
▁你的手是	-12.954
▁小明的眼睛是	-12.954
▁杯子有一个	-12.954
▁苹果有三个	-12.954
▁三个紫色的	-12.954
▁小明的耳朵是	-12.954
姐姐洗	-12.954
火车是快的	-12.954
▁一个橙色的	-12.954
▁小红的脚是	-12.954
▁花有三个	-12.954
▁五个绿色的	-12.954
自行车是慢的	-12.954
▁三个黄色的	-12.954
▁二个黄色的	-12.954
▁桌子有一个	-12.954
▁猫有一个	-12.954
▁车有一个	-12.954
觉得	-12.954
▁三个绿色的	-12.954
爷爷跑	-12.954
给我们温暖	-12.954
电很危险	-12.954
高铁是快的	-12.954
工具	-12.954
哥哥画	-12.954
奶奶洗	-12.954
我们喜欢	-12.954
棉花是轻的	-12.954
▁椅子有一个	-12.954
▁笔有一个	-12.954
▁小红的手是	-12.954
▁鱼有一个	-12.954
▁鸟有一个	-12.954
奶奶说	-12.954
妹妹养	-12.954
▁五个黄色的	-12.954
妹妹洗	-12.954
白天是亮的	-12.954
妹妹种	-12.954
▁小明的头是	-12.954
冰箱是冷的	-12.954
▁你的眼睛是	-12.954
▁小明的鞋是	-12.954
奶奶画	-12.954
爷爷画	-12.954
▁你的鼻子是	-12.954
弟弟说	-12.954
你们想	-12.954
因为云里	-12.954
他帮	-12.954
▁不碰	-12.954
白天亮	-12.954
▁石头有一个	-12.954
▁这个黑色的星星很	-12.954
水在杯子里面	-12.954
我们想	-12.954
水滴	-12.954
▁这个粉色的风很	-12.954
姐姐哭	-12.954
小红买	-12.954
一家人	-12.954
▁书有一个	-12.954
姐姐爬	-12.954
划玻璃	-12.954
树叶是轻的	-12.954
变成云	-12.954
哥哥爬	-12.954
我们玩	-12.954
走路是慢的	-12.954
你们游	-12.954
哥哥飞	-12.9541
▁一个红色的	-12.9541
▁一个黄色的	-12.9541
她扫	-12.9541
会脱衣	-12.9541
球是圆的	-12.9541
在床下面	-12.9541
玩具在	-12.9541
▁小明的手是	-12.9541
就可以泡茶	-12.9541
他们爬	-12.9541
可以休息	-12.9541
蝴蝶是轻的	-12.9541
比水重	-12.9541
▁这个狗是	-12.9541
▁小明的脚是	-12.9541
▁树有一个	-12.9541
妈妈帮	-12.9541
滴答	-12.9541
▁苹果有一个	-12.9541
棉花软	-12.9541
哥哥放	-12.9541
暖和了	-12.9541
因为外面很冷	-12.9541
小猫抓	-12.9541
汽车跑得很快	-12.9541
石头是重的	-12.9541
地上有水	-12.9541
大象是重的	-12.9541
▁花有一个	-12.9541
老师织	-12.9541
奶奶走	-12.9541
猫在桌子上面	-12.9541
奶奶放	-12.9541
硬的东西	-12.9541
沙沙	-12.9541
三百	-12.9542
猫是动物	-12.9542
▁这个白色的苹果很	-12.9542
我们走	-12.9542
星星是甜的	-12.9542
二加三等于	-12.9542
先打开书	-12.9542
▁这个笔是	-12.9542
鱼是动物	-12.9542
▁这个猫是	-12.9542
作业	-12.9542
亮的反义词是	-12.9542
所以铁	-12.9542
爷爷做	-12.9542
鸟是动物	-12.9542
我有一本书	-12.9542
车是苦的	-12.9542
火车快	-12.9542
爷爷写	-12.9542
好的反义词是	-12.9543
硬的反义词是	-12.9543
汽车是重的	-12.9543
三减一等于	-12.9543
我闻到了	-12.9543
▁这个草是	-12.9543
绿灯行	-12.9543
车是瘦的	-12.9543
冰是亮的	-12.9543
小红找	-12.9543
她养	-12.9543
鸟是臭的	-12.9543
▁běn	-12.9543
▁面包	-12.9543
一小时有	-12.9543
弟弟做	-12.9543
云是热的	-12.9543
再穿衣服	-12.9543
▁小鸟的头是	-12.9544
可以看到	-12.9544
雪是热的	-12.9544
下午	-12.9544
▁这个书是	-12.9544
ji	-12.9544
破了	-12.9544
冷的反义词是	-12.9544
鸟叫	-12.9544
云是重的	-12.9544
走到学校	-12.9544
你养	-12.9545
树是干的	-12.9545
猫是小的	-12.9545
就不用	-12.9545
五块	-12.9546
我们答	-12.9546
雪人有	-12.9547
▁你喜欢吃	-12.9547
甜的反义词是	-12.9547
同学种	-12.9547
防车	-12.9547
你笑	-12.9547
雪是软的	-12.9547
需要什么	-12.9547
爸爸养	-12.9547
▁三个红色的	-12.9548
小狗问	-12.9548
因为饿了	-12.9549
▁四个紫色的	-12.9549
▁四个白色的	-12.9549
会在天上飞	-12.9549
长的反义词是	-12.955
高的反义词是	-12.955
最坏退化为	-12.955
变凉	-12.955
老师想	-12.9551
树干	-12.9551
老师学	-12.9551
▁五个红色的	-12.9551
种子发芽需要	-12.9551
▁四个红色的	-12.9551
同学坐	-12.9551
▁一个紫色的	-12.9551
安静星星	-12.9552
重的反义词是	-12.9554
穿薄衣服	-12.9554
会听话	-12.9554
蓝鸭	-12.9554
狗是什么	-12.9554
绿脸	-12.9555
明亮云	-12.9556
火山是热的	-12.9556
是冻住的	-12.9557
轻马	-12.9558
会站起	-12.9558
少的反义词是	-12.9558
她放	-12.9559
小猫喝	-12.9559
爸爸吃	-12.956
在上面	-12.9561
爸爸游	-12.9561
我们游	-12.9562
发生	-12.9562
慢狮	-12.9562
矮车	-12.9562
等一等	-12.9562
过去	-12.9563
滑梯	-12.9563
高老师	-12.9564
星星也	-12.9565
水是透明的	-12.9565
AFB	-12.9565
EBDF	-12.9566
慢慢长	-12.9566
变成	-12.9566
她做	-12.9567
亮不	-12.9568
哥哥游	-12.9568
太阳出来天就亮了	-12.9569
小猫关	-12.957
冰是什么	-12.957
运动	-12.9571
▁摸起来	-12.9571
门关	-12.9572
▁这个白色的人很	-12.9572
小明游	-12.9572
红河	-12.9572
高河	-12.9573
狗是人类的	-12.9574
不睡觉	-12.9575
面是平的	-12.9576
近茶	-12.9577
现在是	-12.9578
绿水	-12.9578
会脱	-12.9579
所以地	-12.9581
全家	-12.9582
四条	-12.9582
BAFC	-12.9583
有七	-12.9584
猫喜欢抓老鼠	-12.9585
火是什么	-12.9586
ACDE	-12.959
水壶	-12.9592
长树	-12.9595
大村	-12.9596
开着	-12.9597
多妈妈	-12.9601
▁三个黑色的	-12.9603
加热	-12.9605
▁人	-12.9609
一起	-12.961
在天上飞	-12.9611
会玩球	-12.9615
▁二个紫色的	-12.9615
EDAF	-12.9616
▁雪	-12.9618
比水	-12.9618
▁一个白色的	-12.9619
▁二个灰色的	-12.9626
弟弟爬	-12.9627
姐姐开	-12.9628
FECB	-12.9628
会坐下	-12.9633
▁钻石	-12.9633
DCEB	-12.9636
▁五个黑色的	-12.9636
EDFC	-12.9637
在医院	-12.9639
ADB	-12.9641
伞可以挡雨	-12.9645
要说谢谢	-12.9647
▁三个灰色的	-12.9648
▁我的头是	-12.9649
▁我的书是	-12.9653
先找	-12.9653
▁三个蓝色的	-12.9654
▁五个灰色的	-12.9655
在电影院	-12.9658
热水	-12.966
沉到水底	-12.9662
人在门	-12.9663
妈妈答	-12.9665
▁五个紫色的	-12.9668
pos	-12.9686
所以水	-12.9694
和同学	-12.9695
水就	-12.9695
▁五个蓝色的	-12.9701
春天暖	-12.9701
▁一个灰色的	-12.9702
▁一个蓝色的	-12.9706
我坐少	-12.9706
属性	-12.9706
▁二个黑色的	-12.9707
他们爱	-12.9714
▁你家	-12.9718
▁二个绿色的	-12.9721
[],	-12.9727
CFA	-12.9729
猫不	-12.9733
会浮	-12.9739
夏天热	-12.9743
▁二个粉色的	-12.9745
pu	-12.9749
▁草	-12.975
变湿	-12.9752
会穿衣	-12.9754
gih	-12.9755
我笑重	-12.9758
CEA	-12.9758
小兔子	-12.9758
▁碗有五个	-12.9762
▁叶子有五个	-12.9766
hj	-12.977
美丽蛇	-12.9775
▁球有五个	-12.9777
▁云有五个	-12.978
▁mi	-12.9784
路上	-12.9798
我会	-12.9805
▁四个黑色的	-12.9807
上课	-12.9808
▁碗在	-12.981
▁四个绿色的	-12.9813
▁四个灰色的	-12.9815
远苹果	-12.9819
▁狗有五个	-12.9822
了水	-12.9837
树叶动	-12.9843
▁小狗的书是	-12.9848
▁小猫的书是	-12.985
▁小红的头是	-12.9852
我吃慢	-12.9859
同学爱	-12.986
皮	-12.9862
▁因为下雨	-12.9863
▁石头很硬	-12.9867
▁人有一个	-12.987
▁墨水是黑色的	-12.9871
▁橘子是橙色的	-12.9871
▁太阳从东边升起	-12.9872
▁太阳比	-12.9874
▁一个黑色的	-12.9879
▁手电筒	-12.9889
轻鞋	-12.9891
要去	-12.9895
ina	-12.9898
五座	-12.9902
▁鱼有五个	-12.9904
▁空调	-12.9907
▁一个绿色的	-12.9908
▁早上	-12.9909
红鞋	-12.9912
新门	-12.9918
我爬美丽	-12.9918
while	-12.9921
▁五个粉色的	-12.9927
冰放	-12.9929
▁笔有五个	-12.9936
是尖的	-12.9938
▁沙	-12.9939
大和	-12.995
men	-12.9954
始索引	-12.9959
的中文是十	-12.996
坏糖	-12.9961
▁一个粉色的	-12.9963
▁狗在	-12.9964
▁气球	-12.9966
冰会融化	-12.9971
从树上	-12.9979
全局最	-12.9985
雪是冰的	-12.9986
明亮虎	-12.999
he	-12.9991
▁蜜蜂是	-12.9995
碰插座	-12.9996
不能用手	-12.9997
先天黑	-12.9997
白色	-13.0032
红叶	-13.0059
import	-13.0071
▁你的书是	-13.0072
短米饭	-13.0074
重田	-13.0074
就变成水	-13.0082
▁你有几	-13.0094
里有鱼	-13.0102
多肉	-13.0104
吃饭前要	-13.011
+=	-13.0112
白村	-13.0114
甜脚	-13.0117
里面装了	-13.0128
<=	-13.0129
安静米饭	-13.0134
少头	-13.014
ah	-13.0144
她读	-13.0151
来的	-13.0153
可爱蛇	-13.0158
他爱	-13.0164
白菜	-13.0167
会报	-13.0174
里有	-13.0177
ter	-13.0179
书包	-13.018
三座	-13.0181
圆眼	-13.02
重太阳	-13.0204
要戴帽子	-13.0216
eNo	-13.0217
温度很低	-13.022
▁水烧开了	-13.0222
绿鞋	-13.023
会关灯	-13.0231
小红哭	-13.0234
长椅子	-13.0239
▁夏天很热	-13.0241
明亮票	-13.025
做的	-13.0252
圆肉	-13.0253
和大	-13.0255
温暖房子	-13.0256
会叫	-13.0256
比冰	-13.0263
▁汽车比	-13.0273
好蛇	-13.0276
▁鸟在树上	-13.028
白城	-13.0284
凉小狗	-13.0287
夏天是热的	-13.03
重的东西	-13.03
EBF	-13.0305
远村	-13.0312
件衣	-13.0314
十表示数量	-13.0316
hb	-13.0321
看到	-13.0324
好公园	-13.0327
做好	-13.0335
很安全	-13.0335
长星星	-13.0335
小明吃了	-13.0336
gfa	-13.0338
坏茶	-13.034
▁镜子	-13.0343
香小狗	-13.0347
方兔	-13.0349
很深	-13.0349
美丽盐	-13.0349
DCA	-13.0359
有一本书	-13.0361
▁暖气	-13.0365
Li	-13.0368
BEAF	-13.0368
轻车	-13.0373
假鼓	-13.0375
▁数字十	-13.0384
▁大象	-13.0387
真米饭	-13.0391
短头	-13.0391
会关门	-13.0393
黑兔	-13.0393
可爱票	-13.0395
我喜欢红色	-13.04
矮桌子	-13.0402
egh	-13.0402
明亮脸	-13.0405
安静汽车	-13.0411
蓝龙	-13.0422
▁铁	-13.0425
不是白色	-13.0426
visited	-13.0432
快乐船	-13.0435
美丽鹅	-13.0438
新鞋	-13.0439
新手	-13.0442
圆桌子	-13.0452
▁冬天	-13.0452
可爱心	-13.0467
在马路上	-13.0469
远草	-13.047
好脚	-13.0471
重房子	-13.0489
蓝公园	-13.0491
会开门	-13.0496
红肉	-13.0497
▁飞机比	-13.0498
凉桥	-13.0516
红虎	-13.0518
明亮盐	-13.0519
会切菜	-13.053
美丽妈妈	-13.0533
安静鸡	-13.0543
快乐街	-13.0543
近旗	-13.0547
坏米	-13.0562
减七等于	-13.0564
快大海	-13.0564
会烧水	-13.0564
小狗看	-13.0565
小明听	-13.0566
新票	-13.057
她跳	-13.0574
你想	-13.0577
小红跳	-13.0586
圆灯	-13.0586
坏菜	-13.0597
白心	-13.0598
黑瓜	-13.06
小红关	-13.0601
▁手脏了	-13.0602
▁冰的温度	-13.0604
你看	-13.0606
你走	-13.0607
坏酒	-13.0608
高手	-13.0616
安静牙	-13.0626
白山	-13.0629
因为太阳很	-13.0631
会读书	-13.0634
矮马	-13.0635
少鞋	-13.0636
绿瓜	-13.0636
热灯	-13.0637
凉公园	-13.0638
快乐鱼	-13.0643
香雪	-13.0644
还是小	-13.0645
好米饭	-13.0646
▁小红的书是	-13.0649
匹配	-13.0649
冷风	-13.0657
四座	-13.0661
可爱衣	-13.0661
甜街	-13.0663
我爱长	-13.0669
开门	-13.0671
黑太阳	-13.0673
会画画	-13.068
一条	-13.068
高蛋	-13.0684
少船	-13.0685
凉面	-13.0691
可爱蛋	-13.0693
cha	-13.0696
黑船	-13.0709
真雨	-13.0709
一棵树	-13.0716
美丽旗	-13.0722
酸旗	-13.0724
长马	-13.0727
快乐草	-13.0731
温暖同学	-13.0731
香书	-13.0731
桌子右边是	-13.0732
EDB	-13.074
会做饭	-13.0741
桌子左边是	-13.0754
快乐兔	-13.0757
白船	-13.076
绿狮	-13.0761
会洗菜	-13.0763
温暖树	-13.0764
假水	-13.0774
热瓜	-13.0776
小肉	-13.0776
旧雨	-13.0784
矮火	-13.0788
黑火	-13.079
白蛋	-13.0798
多笔	-13.0799
甜鱼	-13.08
坏牙	-13.0801
雨后	-13.0801
高水	-13.0804
圆街	-13.082
会看书	-13.0821
温暖菜	-13.0827
高鸡	-13.0829
矮草	-13.0839
蓝大海	-13.0843
美丽头	-13.0844
矮虎	-13.0844
火很热	-13.0848
会淋湿	-13.0851
快面	-13.0851
重雪	-13.0852
新学校	-13.0856
安静树	-13.0863
很暖	-13.0865
轻蛋	-13.0866
就会	-13.0872
甜月亮	-13.0872
▁天空是蓝色的	-13.0876
▁风是	-13.0885
花很香	-13.0902
美丽耳	-13.0904
子里	-13.0905
海水	-13.0917
会刷牙	-13.0924
可爱头	-13.0925
假桌子	-13.0939
黄盐	-13.0948
安静水	-13.095
旧面	-13.0951
远大海	-13.0958
▁水开了	-13.0963
白火	-13.0963
可爱房子	-13.0968
香牙	-13.0969
我游重	-13.0969
快乐旗	-13.097
ajg	-13.0981
▁苹果是红色的	-13.0985
黑机	-13.0986
▁月亮出来了	-13.0989
好大海	-13.0991
重大海	-13.0991
旧脸	-13.0994
热学校	-13.0996
酸汽车	-13.0996
美丽兔	-13.1005
假耳	-13.1008
近雨	-13.1009
我洗假	-13.101
假面	-13.1012
少桥	-13.1012
旧机	-13.1016
真田	-13.1022
▁将	-13.1039
少牛	-13.105
黄口	-13.1052
蓝羊	-13.1056
学经	-13.1057
慢河	-13.1066
重街	-13.1066
假米饭	-13.1069
矮雨	-13.108
黄月亮	-13.1084
香太阳	-13.1093
黄桥	-13.1097
大米	-13.1101
红店	-13.1102
真虎	-13.1105
真桥	-13.1105
白鞋	-13.1107
碗饭	-13.1109
不到	-13.1109
矮水	-13.1116
凉大海	-13.1118
假鸟	-13.1121
红鸡	-13.1135
热树	-13.1141
EFA	-13.1149
们一起玩	-13.1149
香河	-13.1149
数数	-13.115
好蛋	-13.1152
凉糖	-13.1159
长机	-13.1162
▁火是热的	-13.1167
重狮	-13.1169
黑石	-13.1169
我笑蓝	-13.1173
甜米饭	-13.1182
快乐盐	-13.1182
▁花是	-13.1182
大鞋	-13.1184
▁小明的书是	-13.1189
他写	-13.1192
新妈妈	-13.1195
快田	-13.1198
小老师	-13.12
轻太阳	-13.12
高星星	-13.1202
慢鱼	-13.1214
新蛋	-13.1216
要刷牙	-13.1225
绿厂	-13.1226
蓝厂	-13.1233
多太阳	-13.1235
方狮	-13.1237
好天空	-13.1237
酸手	-13.1242
远票	-13.1244
▁风扇	-13.1245
安静衣	-13.1246
可爱桥	-13.1254
重山	-13.1254
DE	-13.1255
黑鞋	-13.1256
新菜	-13.1256
明亮头	-13.1261
慢车	-13.1262
中的	-13.1265
少风	-13.1283
凉酒	-13.1284
▁花开了	-13.129
黄街	-13.1292
近蛇	-13.13
坏兔	-13.1309
EAF	-13.1312
在树上面	-13.132
我答酸	-13.1325
近鞋	-13.1331
香船	-13.1333
▁小猫想	-13.1337
温暖肉	-13.1345
▁狗是动物	-13.1348
重衣	-13.135
小明学	-13.1355
热街	-13.1356
乌龟和	-13.1356
短街	-13.1371
大桥	-13.1378
学到了	-13.138
假马	-13.1381
好头	-13.1388
美丽花	-13.1389
好鹅	-13.1391
矮狮	-13.1392
树很大	-13.1396
圆店	-13.1401
少大海	-13.1405
▁蝴蝶是	-13.1407
酸叶	-13.1408
高兔	-13.1413
书很	-13.1414
坏熊	-13.1414
高天空	-13.1417
小红走	-13.1421
矮花	-13.1423
真耳	-13.1435
温暖石	-13.145
好旗	-13.1451
多兔	-13.1453
圆蛋	-13.1458
在桌子上面	-13.1468
甜厂	-13.1469
有一	-13.1472
帮助	-13.1473
重眼	-13.1473
▁小明的笔	-13.1478
香耳	-13.1481
绿发	-13.1489
安静河	-13.1489
安静船	-13.1489
可爱小狗	-13.149
▁fà	-13.149
不是热	-13.149
近鹅	-13.1495
白肉	-13.1497
近牛	-13.1506
绿耳	-13.151
黑糖	-13.1512
轻牙	-13.1524
远公园	-13.1526
少狮	-13.1527
轻桥	-13.1533
候	-13.1533
温暖票	-13.1534
查	-13.1536
移	-13.1538
坚	-13.1538
商	-13.1538
装饰	-13.1539
俑	-13.1539
谷	-13.1539
院	-13.1539
避	-13.1539
略	-13.154
弟弟卖	-13.154
他们买	-13.154
▁dǐng	-13.154
你们扫	-13.154
二片	-13.154
奶奶织	-13.154
爷爷找	-13.154
博物	-13.154
他送	-13.154
小明卖	-13.154
座山	-13.154
你们种	-13.154
你们画	-13.154
姐姐站	-13.154
三片	-13.154
他们笑	-13.154
他们读	-13.154
奶奶想	-13.154
弟弟拿	-13.154
他们坐	-13.154
小明买	-13.154
他们站	-13.1541
姐姐飞	-13.1541
她织	-13.1541
奶奶哭	-13.1541
妹妹喝	-13.1541
他们哭	-13.1541
我们爬	-13.1541
你们关	-13.1541
妹妹飞	-13.1541
我们飞	-13.1541
同学找	-13.1542
爸爸织	-13.1542
小猫找	-13.1542
▁mào	-13.1542
奶奶做	-13.1543
一片	-13.1543
她跑	-13.1543
我们写	-13.1544
圆鞋	-13.1546
同学喜欢	-13.1547
她学	-13.1547
二头	-13.1547
清明	-13.1548
小狗洗	-13.1548
真衣	-13.1549
他们种	-13.1549
你问	-13.155
成语	-13.1551
▁zu	-13.1553
山很大	-13.1554
哥哥站	-13.1555
▁星星	-13.1555
快车	-13.1555
国家	-13.1556
大海很大	-13.1556
妈妈坐	-13.1558
星星很多	-13.1558
爸爸玩	-13.1558
奶奶跳	-13.1559
老师吃	-13.1561
小明拿	-13.1561
多牙	-13.1562
香眼	-13.1562
老师跳	-13.1563
明亮船	-13.1563
小狗哭	-13.1564
好脸	-13.1566
小狗飞	-13.1568
我们吃	-13.1569
你们放	-13.1571
同学关	-13.1571
妈妈飞	-13.1576
安静鞋	-13.1576
白云	-13.1584
小红爬	-13.1584
▁长颈鹿	-13.1585
绿票	-13.1585
小狗放	-13.1586
旧天空	-13.1587
FBD	-13.1589
香牛	-13.1593
爸爸放	-13.1593
妈妈放	-13.1594
快星星	-13.1594
圆鸡	-13.1597
可爱鸭	-13.1606
她答	-13.1607
老师写	-13.1611
小叶	-13.1615
酸石	-13.1615
我听到	-13.1615
黑街	-13.1619
fa	-13.1625
▁冰很冷	-13.1627
红牛	-13.1629
甜灯	-13.1633
酸路	-13.1637
弟弟开	-13.164
我笑多	-13.1645
你答	-13.1648
可爱门	-13.1664
蓝果	-13.1664
黑厂	-13.1665
美丽船	-13.167
小狗答	-13.1673
书在桌子上	-13.168
甜鸡	-13.1681
坏石	-13.1685
我放少	-13.1688
▁开水	-13.1688
黑汽车	-13.169
快椅子	-13.1697
美丽脸	-13.1699
冰会化	-13.1701
方盐	-13.1706
假熊	-13.1706
轻菜	-13.1718
凉羊	-13.1723
白菜是	-13.1724
黄糖	-13.1729
少灯	-13.1734
热眼	-13.1736
绿门	-13.1736
热茶	-13.1736
旧菜	-13.1737
好瓜	-13.1741
长鸡	-13.1742
温暖风	-13.1756
热星星	-13.1763
黄火	-13.1766
坏耳	-13.1773
路滑	-13.1782
凉牙	-13.1786
快鹅	-13.1787
她问	-13.1788
热同学	-13.1789
美丽叶	-13.1793
近爸爸	-13.1796
凉鼓	-13.1797
好耳	-13.1804
美丽雪	-13.1808
慢火	-13.1809
真汽车	-13.181
绿田	-13.181
酸河	-13.1817
白星星	-13.1819
凉厂	-13.1819
短笔	-13.1823
近风	-13.1824
少肉	-13.1829
长田	-13.1833
了一个	-13.1833
更简	-13.1839
高酒	-13.1843
凉村	-13.1847
多头	-13.1849
甜龙	-13.1852
旧星星	-13.1856
bdc	-13.1859
会喝水	-13.1864
明亮桥	-13.1869
黄蛇	-13.1869
圆厂	-13.1872
云在	-13.1873
假石	-13.1874
坏大海	-13.1883
绿衣	-13.1884
美丽太阳	-13.1892
长叶	-13.1892
我洗长	-13.1894
香脚	-13.1894
好羊	-13.1898
矮天空	-13.19
会写字	-13.1903
真同学	-13.1907
走路很	-13.1911
安静门	-13.1915
重雨	-13.1927
重牙	-13.1927
重鱼	-13.1933
小明爱	-13.1937
黄酒	-13.1942
大鸡	-13.1942
绿糖	-13.1945
小苹果	-13.1957
一起玩	-13.1957
坏店	-13.1963
方星星	-13.1965
快鸡	-13.1966
红妈妈	-13.1968
香机	-13.1969
好菜	-13.1976
方糖	-13.1982
近路	-13.1983
多羊	-13.199
绿牛	-13.1995
香旗	-13.1998
酸脸	-13.1998
蓝村	-13.1999
长糖	-13.2007
面温度	-13.2008
绿月亮	-13.2008
蓝云	-13.2008
小房子	-13.2008
假茶	-13.2009
泡茶	-13.2009
香心	-13.2012
温暖椅子	-13.2017
甜大海	-13.2017
圆小猫	-13.2026
高牙	-13.2035
人会	-13.2042
短老师	-13.2059
甜妈妈	-13.2061
▁葡萄是	-13.2064
少龙	-13.2067
近河	-13.2069
五条	-13.207
EDC	-13.207
风是	-13.2085
的猫	-13.2087
绿河	-13.2088
因为火	-13.2089
安静头	-13.2091
美丽风	-13.2095
安静书	-13.2096
二十	-13.2098
黑发	-13.2107
坏学校	-13.2113
▁海	-13.2114
矮脸	-13.2119
在树上	-13.212
温暖茶	-13.2125
真爸爸	-13.2127
快雪	-13.2127
慢星星	-13.2133
凉手	-13.2134
白牙	-13.2148
绿船	-13.2153
黄门	-13.2157
近叶	-13.2158
旧车	-13.2161
明亮机	-13.2166
近月亮	-13.217
AFC	-13.2173
书是干的	-13.2174
甜云	-13.2174
矮头	-13.2177
甜学校	-13.2177
我吃高	-13.2179
长笔	-13.2185
凉房子	-13.2185
多月亮	-13.2186
新雨	-13.2189
重面	-13.2193
温暖书	-13.2195
凉鱼	-13.2196
温暖月亮	-13.2199
放进	-13.2207
矮牛	-13.2215
可爱糖	-13.2215
方龙	-13.2217
长妈妈	-13.2223
老师爱	-13.2223
我织蓝	-13.2229
假雨	-13.2234
远房子	-13.2244
矮月亮	-13.2249
少羊	-13.226
▁如果天	-13.2266
假书	-13.2272
新鸟	-13.2274
DAE	-13.2277
淋湿	-13.228
短耳	-13.2283
高草	-13.2284
快乐太阳	-13.2295
假小狗	-13.2315
大小猫	-13.232
蓝脚	-13.2322
酸鸡	-13.2336
bh	-13.2336
下去	-13.2339
安静鱼	-13.2344
我扫重	-13.235
▁雨	-13.2355
坏爸爸	-13.2356
苹果很甜	-13.2358
温暖公园	-13.2362
酸桌子	-13.2387
旧口	-13.2394
蓝鱼	-13.2396
近椅子	-13.2399
可爱月亮	-13.24
方鸭	-13.241
圆石	-13.241
了很多	-13.2415
猎豹	-13.2418
小发	-13.2419
少太阳	-13.2426
黑鸟	-13.243
长太阳	-13.243
多天空	-13.2431
温暖太阳	-13.2438
温暖星星	-13.2439
安静路	-13.244
安静眼	-13.244
黑风	-13.2443
[[	-13.2445
圆马	-13.2445
矮公园	-13.2448
吹一吹	-13.245
方房子	-13.2454
旧心	-13.2457
修好	-13.2458
温暖妈妈	-13.2462
凉口	-13.2472
少河	-13.2473
大马	-13.2474
少眼	-13.2475
旧水	-13.2475
高眼	-13.2476
慢椅子	-13.2483
可爱妈妈	-13.2488
黑星星	-13.2495
我养矮	-13.2496
黄老师	-13.2501
DAC	-13.2505
小船	-13.2505
真发	-13.2509
长路	-13.251
凉爸爸	-13.2514
快石	-13.252
高心	-13.2526
在跳	-13.2537
▁木头	-13.254
真茶	-13.2542
eld	-13.2543
明亮房子	-13.2547
远桌子	-13.2547
多山	-13.2553
酸票	-13.2553
少山	-13.2553
黄学校	-13.2561
快乐窗	-13.2565
红龙	-13.2565
慢面	-13.2568
圆脚	-13.257
高耳	-13.2573
方书	-13.258
香面	-13.2582
大发	-13.2601
▁橘子是	-13.2603
香公园	-13.2603
安静鸟	-13.2603
香桌子	-13.2609
安静草	-13.2616
黑爸爸	-13.2618
真羊	-13.2619
旧羊	-13.2621
重兔	-13.2626
短城	-13.2628
方小猫	-13.263
我写明亮	-13.2632
快雨	-13.2641
长雨	-13.2647
大水	-13.2648
BED	-13.2648
高笔	-13.2658
美丽面	-13.2659
甜石	-13.2659
好妈妈	-13.2668
黑水	-13.2668
可爱面	-13.2668
近草	-13.267
紫色的	-13.2678
照明	-13.2681
▁你看到	-13.2682
长月亮	-13.2682
多面	-13.2702
少村	-13.2705
远太阳	-13.2713
坏山	-13.2731
我做大	-13.2732
会动	-13.2733
张纸	-13.2735
明亮小猫	-13.274
方面	-13.274
小月亮	-13.274
我唱轻	-13.2757
bgc	-13.2758
pa	-13.2765
小眼	-13.2769
很滑	-13.2772
下雨天	-13.278
可爱窗	-13.2781
快小狗	-13.2789
大同学	-13.279
旧船	-13.2796
重窗	-13.2796
长菜	-13.2803
少房子	-13.2805
gja	-13.2809
太阳很大	-13.2815
洗衣	-13.282
安静车	-13.2825
假车	-13.2835
真头	-13.2852
轻同学	-13.2859
黄树	-13.2867
圆面	-13.2872
得很	-13.2874
AB	-13.2884
方车	-13.2885
远笔	-13.2889
很硬	-13.2889
大鱼	-13.289
▁叶子在	-13.2895
轻小猫	-13.2895
远窗	-13.2913
多老师	-13.2923
白鸟	-13.2927
明亮脚	-13.2946
谢谢	-13.2948
天空中	-13.2948
香石	-13.2951
远同学	-13.2957
▁天黑了	-13.2961
箱子里面	-13.2966
冰吸收热量	-13.297
会开灯	-13.2972
重机	-13.2977
一年有	-13.298
小太阳	-13.2984
水变成	-13.2985
cid	-13.2993
小田	-13.2994
▁冰棍	-13.3004
我游矮	-13.301
香蕉是黄色的	-13.3016
我放黄	-13.3018
石头比棉花	-13.302
葡萄是紫色的	-13.302
草是绿色的	-13.3024
高和矮是	-13.3025
Fi	-13.3026
热和冷是	-13.3028
坏手	-13.3031
打雷了	-13.3032
夏天很热	-13.3034
我叫小	-13.304
是否相	-13.304
小明洗	-13.3045
▁一个	-13.3049
我很好	-13.3049
旧茶	-13.305
钻石	-13.305
快桥	-13.3059
大象比	-13.3061
▁蚂蚁是	-13.3065
戴帽子	-13.3065
书是	-13.3073
水烧开了	-13.3076
所有可	-13.3084
今天星期	-13.3087
小雨	-13.3102
到水	-13.3113
你写	-13.3129
小雪	-13.3132
如果天	-13.3132
书很矮	-13.3141
变暖	-13.3143
碰	-13.3146
我洗旧	-13.3148
假树	-13.3151
小明做	-13.3153
小狗会	-13.3156
黄窗	-13.3166
温暖窗	-13.3167
▁杯子在	-13.3197
少雨	-13.32
香窗	-13.3201
圆口	-13.3214
冰化了	-13.3214
我送轻	-13.3219
个人去	-13.3222
酸水	-13.3228
▁猫是	-13.3235
会洗手	-13.3239
轻手	-13.3248
快鱼	-13.325
镜子	-13.3253
冰就	-13.3266
我答香	-13.3268
不刷牙	-13.3268
我坐明亮	-13.327
小鸟在	-13.3289
在走	-13.329
车是	-13.3294
远口	-13.3294
凿于	-13.3306
▁电	-13.3307
▁金子	-13.3314
了药	-13.3315
二张	-13.332
我游长	-13.3323
书在	-13.3325
我卖黑	-13.3347
穿衣服	-13.3355
▁如果天黑	-13.3361
美丽雨	-13.337
关门	-13.3383
桌子在	-13.3389
一天有	-13.3391
很好吃	-13.3396
cd	-13.3404
花很重	-13.3408
▁云	-13.3419
的狗	-13.3423
会走路	-13.3429
是温度	-13.3431
在窗	-13.3439
轻树	-13.3442
冰很	-13.3458
水会	-13.346
我帮多	-13.3465
会掉	-13.3466
冰是	-13.3497
排队	-13.351
我走绿	-13.3521
xi	-13.3546
▁苹果在	-13.3547
得很快	-13.3548
说话	-13.3554
cdb	-13.3563
xué	-13.3574
上和下	-13.3602
因为天冷	-13.3616
左和右	-13.3624
我玩远	-13.3632
灯是	-13.3642
了会	-13.3666
路面	-13.3667
EDA	-13.3675
▁汽车	-13.3682
动了	-13.3698
今天	-13.3708
▁长颈鹿是	-13.3717
我说旧	-13.373
面的东西不在	-13.3731
能不能	-13.3732
CD	-13.3733
少水	-13.3742
是四个	-13.3776
我买快	-13.3777
海里	-13.3779
ai	-13.3804
EDF	-13.3813
快乐苹果	-13.3824
甜米	-13.3826
坏花	-13.384
飞机比	-13.3847
要看	-13.3857
我的	-13.3867
我看坏	-13.3872
四张	-13.388
高花	-13.3883
新苹果	-13.3918
BCA	-13.3918
甜花	-13.3926
小鸟	-13.3929
出现	-13.3932
游泳	-13.3938
再吃饭	-13.3946
ges	-13.3971
重花	-13.398
请介绍一下端午节	-13.3983
我在看	-13.3985
下来	-13.3988
天就亮了	-13.3995
雨伞	-13.3995
▁hu	-13.3997
黑了	-13.3999
我写甜	-13.4002
我读轻	-13.4004
是透明的	-13.4006
近苹果	-13.4007
冬	-13.4011
方花	-13.4011
▁小红在	-13.4013
挡雨	-13.4016
ihf	-13.4017
洗菜	-13.4019
地湿	-13.4021
午	-13.4028
棉	-13.4028
背	-13.4029
夏	-13.4032
处	-13.4032
刷	-13.4033
泳	-13.4033
报	-13.4036
会沉	-13.4037
属	-13.4037
饿	-13.4038
外面很冷	-13.4038
我开多	-13.4038
土里	-13.4038
化了	-13.4039
虫	-13.4039
月亮出来	-13.4039
长大	-13.4039
绿花	-13.4039
太多	-13.4039
绸	-13.4039
浮在水上	-13.4039
雷	-13.4039
磕到会疼	-13.4039
司	-13.4039
战	-13.4039
们	-13.4039
究	-13.4039
把球滚	-13.4039
殷	-13.4039
越	-13.4039
这边	-13.4039
滚	-13.4039
温度升高	-13.4039
蝴蝶在花	-13.4039
暖和寒是	-13.4039
火烧木头会	-13.4039
玻璃杯掉地上会碎	-13.4039
肚子	-13.4039
在晚上出现	-13.4039
检查一遍	-13.4039
水放到冰箱里	-13.4039
▁电梯从	-13.404
十比六大	-13.404
变成雨落下来	-13.404
干和湿是	-13.404
河里游泳	-13.404
牛奶	-13.404
种子种在土里	-13.404
蜗牛是快的	-13.404
铁拿在手里	-13.404
镜子是平的	-13.404
影	-13.404
从天上落下来	-13.404
吃到肚子里	-13.404
地图用来	-13.404
头上有眼睛	-13.404
开水太烫	-13.404
我们去吃饭	-13.404
木头能浮在水上	-13.404
桌子是木头做的	-13.404
用筷子	-13.404
石头和棉花哪个	-13.404
种子会发芽	-13.404
筷子用来	-13.404
红灯停绿灯行	-13.404
继	-13.404
能随便吃	-13.404
铁和木头	-13.404
剪	-13.404
三角形是三个角	-13.404
轻的东西浮	-13.404
▁书比狗	-13.404
▁人比太阳	-13.404
▁人比老虎	-13.404
▁人比风	-13.404
▁太阳晒在身上	-13.404
▁椅子比风	-13.404
▁椅子比鱼	-13.404
▁狗比球	-13.404
▁猫比乌龟	-13.404
▁猫比熊猫	-13.404
▁猫比狗	-13.404
▁碗比乌龟	-13.404
▁花比长颈鹿	-13.404
▁苹果比星星	-13.404
▁苹果比椅子	-13.404
▁车比熊猫	-13.404
▁车比风	-13.404
▁车比鸟	-13.404
▁鱼比球	-13.404
下雨天打伞	-13.404
不打伞会淋湿	-13.404
不要在树下	-13.404
书是用纸做的	-13.404
会抓老鼠	-13.404
伞用来	-13.404
先看到闪电再听到雷	-13.404
因为牙齿上有	-13.404
在床上	-13.404
在黑暗中照	-13.404
均衡饮食	-13.404
墙壁	-13.404
夏天和冬天	-13.404
好和坏是	-13.404
就变形	-13.404
放在桌上	-13.404
星星是安全的	-13.404
是往下	-13.404
木头比水轻	-13.404
气球里充了	-13.404
水和阳光	-13.404
温度升高冰就	-13.404
温度计用来	-13.404
烤	-13.404
烫和凉	-13.404
电话用来	-13.404
的东西让人	-13.404
碗筷	-13.404
要大人陪	-13.404
调节	-13.404
跑得非常快	-13.404
这叫水	-13.404
陌生人	-13.404
飘在空中	-13.404
鱼是困难的	-13.404
▁书比车	-13.404
▁狗比星星	-13.404
▁花比狮子	-13.404
▁鸟比蝴蝶	-13.404
▁书比太阳	-13.404
▁杯子比狗	-13.404
书架上面	-13.404
猫的毛很软	-13.404
▁杯子比椅子	-13.404
教	-13.404
▁石头是灰色的	-13.404
▁碗比草	-13.404
▁笔比桌子	-13.404
▁笔比鱼	-13.404
▁花比火	-13.404
一双筷子是	-13.404
不能在高的地方玩	-13.404
先种种子	-13.404
因为它们比水	-13.404
太阳出来温度升高	-13.404
太阳是最亮的光源	-13.404
妹妹买	-13.404
打雷时	-13.404
灯需要电	-13.404
热的东西碰到皮肤会烫伤	-13.404
猎豹跑得最快	-13.404
能烫伤皮肤	-13.404
花是安全的	-13.404
金字塔是尖的	-13.404
雨是水从天上落下来	-13.404
风是空气在流动	-13.404
鲸鱼是最大的动物	-13.404
▁笔比草	-13.404
▁鸟比大象	-13.404
到了一只	-13.404
▁椅子比石头	-13.404
▁碗比兔子	-13.404
▁这个橙色的书很	-13.404
▁这个橙色的冰很	-13.404
报纸	-13.404
摸到了	-13.404
晚安	-13.404
月亮是忙的	-13.404
温和冰	-13.404
空调用来	-13.404
还差	-13.404
陌生人给的东西	-13.404
下雨天路滑	-13.404
冰吸热	-13.404
吹落了	-13.404
天黑要开灯	-13.404
手电筒用来	-13.404
满和空	-13.404
然后吃早饭	-13.404
里面有很多	-13.404
▁云在天上	-13.404
先起床还是先穿	-13.404
烫嘴	-13.404
▁星星在晚上出现	-13.404
人有几只	-13.404
太阳是困难的	-13.404
尝到了	-13.404
水是安全的	-13.404
温水不烫	-13.404
薄和厚	-13.404
补充能量	-13.404
让人凉快	-13.404
风扇用来	-13.404
风是容易的	-13.404
▁这个橙色的鸟很	-13.404
搬不动	-13.404
电池	-13.404
▁鱼比冰	-13.404
剪刀用来	-13.404
因为不开灯看不见	-13.404
渴了要喝水	-13.404
球滚	-13.404
▁杯子比花	-13.404
▁橡皮可以	-13.404
▁西瓜是绿色的	-13.404
▁鸟比花	-13.404
小红卖	-13.404
我看到了一只	-13.404
碰到硬	-13.404
羽毛是重的	-13.404
落在地上	-13.404
▁这个白色的雪很	-13.404
▁苹果比笔	-13.404
▁这个灰色的鸟很	-13.404
在太阳下	-13.404
就会发芽	-13.404
火摸起来	-13.404
课本	-13.404
▁桌子比兔子	-13.404
▁这个白色的云很	-13.404
▁树比星星	-13.404
▁桌子比云	-13.404
▁棉花是白色的	-13.404
▁这个绿色的云很	-13.404
一年有多少	-13.404
匙用来	-13.404
因为铁碰到水和空气	-13.404
就化成水	-13.404
棉花是硬的	-13.404
水蒸气遇冷变成	-13.404
能让身体	-13.404
软和硬不	-13.404
风扇吹出	-13.404
▁这个黄色的车很	-13.404
下降	-13.404
太大会	-13.404
▁这个橙色的鱼很	-13.404
你们跑	-13.404
冰箱用来	-13.404
姐姐说	-13.404
山很高很高	-13.404
橡皮是软的	-13.404
▁树比书	-13.404
▁这个黄色的星星很	-13.404
吸收	-13.404
▁桌子比鱼	-13.404
在土里面	-13.404
屋子变	-13.404
玻璃是硬的	-13.404
硬和软是	-13.404
▁这个橙色的太阳很	-13.404
三比五	-13.404
▁这个红色的狗很	-13.404
▁这个绿色的风很	-13.404
▁八个窄的	-13.404
也是圆的	-13.404
传粉	-13.404
冰箱很冷	-13.404
床用来	-13.404
雷声	-13.404
鸟有翅膀	-13.404
水冻	-13.404
泥巴很	-13.404
窗户外面	-13.404
钢铁是硬的	-13.404
因为伞可以挡雨	-13.404
因为外面温度	-13.404
那些是	-13.404
▁这个绿色的雪很	-13.404
人是浅的	-13.404
太重了	-13.404
蜜蜂采蜜	-13.404
雨滴落	-13.404
雪就融化	-13.404
手电筒是亮的	-13.404
秋天凉	-13.404
地下室是暗的	-13.404
黑洞是暗的	-13.404
铁是轻的	-13.404
给我们	-13.404
aidb	-13.404
▁这个蓝色的风很	-13.4041
▁因为路滑	-13.4041
▁这个灰色的星星很	-13.4041
带小明去	-13.4041
▁树比水	-13.4041
在天上面	-13.4041
头在上面	-13.4041
小红画了一	-13.4041
▁这个蓝色的雪很	-13.4041
下课了	-13.4041
让东西	-13.4041
天空是什么颜色	-13.4041
所以碰到	-13.4041
▁这个灰色的鱼很	-13.4041
我们站	-13.4041
哥哥哭	-13.4041
因为冰箱里	-13.4041
弟弟学	-13.4041
羽毛轻	-13.4041
面包是软的	-13.4041
弟弟玩	-13.4041
狗是短的	-13.4041
木头是硬的	-13.4041
钻石是硬的	-13.4041
棉花很软	-13.4041
水慢慢	-13.4041
爷爷跳	-13.4041
空调很凉	-13.4041
冰是短的	-13.4041
冰是苦的	-13.4041
▁因为风吹	-13.4041
遇到	-13.4041
▁这个紫色的车很	-13.4041
纸上	-13.4041
弯月	-13.4041
▁这个黄色的火很	-13.4041
然后吃饭	-13.4041
看到一只	-13.4041
因为月亮	-13.4041
二十四	-13.4041
▁这个红色的书很	-13.4041
太阳是圆的	-13.4041
就该	-13.4041
水珠	-13.4042
碰了会	-13.4042
冰箱门	-13.4042
雪是什么颜色	-13.4042
早上好	-13.4042
再洗脸	-13.4042
看起来	-13.4042
草是什么颜色	-13.4042
四片	-13.4042
杯子用来	-13.4042
雨是薄的	-13.4042
到处	-13.4042
能照出	-13.4042
风看不见	-13.4042
所以该	-13.4042
屋顶	-13.4042
五片	-13.4042
火是薄的	-13.4042
鸟是香的	-13.4042
等凉了再喝	-13.4042
确定	-13.4042
石头是软的	-13.4043
月亮是短的	-13.4043
水往低处流	-13.4043
小狗找	-13.4043
他们走	-13.4043
重和轻是	-13.4043
车是宽的	-13.4043
雨是美的	-13.4043
鱼是苦的	-13.4043
猫有四条腿	-13.4043
▁先打开	-13.4043
云是湿的	-13.4043
先穿衣服	-13.4043
哥哥写	-13.4043
姐姐写	-13.4043
月亮是厚的	-13.4043
一个人去	-13.4043
地上白	-13.4043
火是美的	-13.4043
雨是高的	-13.4043
按下去	-13.4043
雪是瘦的	-13.4044
摸起来软	-13.4044
狗是软的	-13.4044
在水面	-13.4044
一百分	-13.4044
猫是快的	-13.4044
猫是热的	-13.4044
星星是深的	-13.4044
灯用来	-13.4044
非常	-13.4044
风是丑的	-13.4044
jefg	-13.4044
hfg	-13.4044
狗是轻的	-13.4044
的空气很	-13.4044
鸟是高的	-13.4044
出来	-13.4044
人是湿的	-13.4044
鱼是干的	-13.4044
太阳是长的	-13.4045
风是干的	-13.4045
人在地上	-13.4045
上的反义词是	-13.4045
水在杯子里	-13.4045
▁玻璃是透明	-13.4045
就吃饭	-13.4045
水是旧的	-13.4045
一闪一闪的	-13.4045
因为我很	-13.4045
桌子用来	-13.4045
天黑	-13.4046
椅子用来	-13.4046
升起	-13.4046
所以走路	-13.4046
家具是	-13.4046
树是矮的	-13.4046
火是暗的	-13.4046
再穿鞋	-13.4046
黑的反义词是	-13.4046
兔子是慢的	-13.4046
住在	-13.4046
▁这个椅子是	-13.4046
让人	-13.4047
花是胖的	-13.4047
高处是	-13.4047
书用来	-13.4047
开和关是	-13.4047
▁你在想	-13.4047
▁开水是	-13.4047
往上	-13.4047
鞋底	-13.4047
请介绍一下丝绸	-13.4047
分针	-13.4048
生病了	-13.4048
BFEA	-13.4048
吃东西	-13.4048
三点	-13.4048
一分钟有	-13.4048
锁门	-13.4048
▁你在看	-13.4049
很容易	-13.4049
树是硬的	-13.4049
水开了再	-13.4049
老师喜欢	-13.4049
背后	-13.4049
是防	-13.4049
糖很甜	-13.4049
大老鼠	-13.405
再看书	-13.405
太阳是慢的	-13.405
香蕉是什么颜色	-13.405
葡萄是什么颜色	-13.405
会烫	-13.405
桌子在椅子	-13.405
蝴蝶飞	-13.4051
他玩	-13.4051
▁箱子	-13.4051
not	-13.4051
不能要	-13.4053
鸟很小	-13.4053
人是冷的	-13.4054
火是冷的	-13.4054
天就	-13.4054
开水要吹一吹	-13.4055
水是轻的	-13.4056
不能吃	-13.4056
会睡觉	-13.4056
妈妈问	-13.4057
黄花	-13.4058
冰冰的	-13.4059
下面是	-13.4059
结冰	-13.406
小狗坐	-13.406
要打	-13.406
三头	-13.4061
饭了	-13.4062
▁铁的	-13.4062
不碎	-13.4062
▁因为灯	-13.4062
开的反义词是	-13.4062
猫站	-13.4062
早上过后是	-13.4062
射了	-13.4062
飞机和	-13.4063
苹果是厚的	-13.4063
房子很大	-13.4063
晚过后是	-13.4064
人有手	-13.4064
有六个	-13.4064
jegf	-13.4064
苹果是高的	-13.4065
请介绍一下天	-13.4065
比兔子	-13.4066
盒子是方的	-13.4066
小明问	-13.4066
烧开	-13.4068
苹果是湿的	-13.4068
冷水	-13.4069
DBFE	-13.4069
▁这个黑色的苹果很	-13.4071
用力推门	-13.4071
流到	-13.4071
gfej	-13.4071
我看到	-13.4071
ABFE	-13.4072
也能	-13.4073
妈妈吃	-13.4073
不容易	-13.4074
钟表用来	-13.4074
FECA	-13.4074
在后面	-13.4074
头发	-13.4075
能保护	-13.4076
花是硬的	-13.4076
蓝的	-13.4076
用水洗	-13.4076
硬床	-13.4077
妈妈哭	-13.4078
衣服能保暖	-13.4078
所以门	-13.4081
大小的	-13.4082
睡觉前	-13.4082
坏人	-13.4084
汽车是什么	-13.4085
桌子是什么	-13.4087
桌上	-13.4087
右边	-13.4088
鱼游	-13.4088
成灰	-13.409
所以风	-13.409
没有太阳	-13.409
EBFD	-13.4091
这里有	-13.4093
下午过后是	-13.4093
大象大	-13.4093
雪是什么	-13.4094
是一种文	-13.4097
山高	-13.4097
四头	-13.4098
DBEC	-13.4098
下雪	-13.4098
空杯子	-13.4099
小小狗	-13.41
我唱大	-13.4101
▁鱼是	-13.4102
没有水	-13.4102
gjhb	-13.4102
会看家	-13.4103
▁苹果	-13.4104
先来	-13.4106
五头	-13.4107
水面	-13.4108
可以做	-13.4114
▁冰是透明	-13.4116
只手	-13.4116
五楼	-13.4117
的时候	-13.4118
夜晚是亮的	-13.4119
ADFC	-13.4119
水是什么	-13.412
FEDA	-13.4122
冰融化了	-13.4124
三个苹果	-13.4125
鲸鱼和	-13.4125
钟有	-13.4125
在椅子下面	-13.4127
中午过后是	-13.4127
别人帮	-13.4128
完就不	-13.413
终于	-13.4131
▁树有	-13.4135
树枝就	-13.4137
cfh	-13.4137
水太多	-13.4137
推球	-13.4144
▁这个绿色的人很	-13.4145
是速度	-13.4148
在潮湿的地方会	-13.415
雨了	-13.4152
一头	-13.4153
才能长	-13.4155
fce	-13.4156
五十	-13.4156
不能玩火	-13.4161
挂在墙上	-13.4161
BEFC	-13.4162
用笔	-13.4162
要用	-13.4163
子是长的	-13.4163
窗户上	-13.4167
根要	-13.4168
feh	-13.4168
晚上过后是	-13.4168
上出现	-13.4169
碎玻璃	-13.4171
看路	-13.4171
▁这个紫色的鸟很	-13.4172
洗手再吃饭	-13.4173
不穿衣服	-13.4175
▁太阳是红	-13.4179
EBAC	-13.4179
有人	-13.4185
时针	-13.4185
▁这个黑色的车很	-13.419
度更	-13.4192
▁因为路很	-13.4194
是满	-13.4194
▁上和下是	-13.4196
怎么做	-13.4197
红果	-13.4198
一共	-13.4198
FAB	-13.4201
▁左和右是	-13.4202
再喝	-13.4203
下大	-13.4204
发出	-13.4205
减八等于	-13.4211
jgd	-13.4213
出去	-13.4213
不起	-13.4214
上升	-13.4218
灯亮	-13.4219
▁大和小是	-13.422
我做圆	-13.4222
jcf	-13.4224
▁长和短是	-13.4224
要买	-13.4225
ECDF	-13.4236
汽车比	-13.4237
大熊	-13.4243
有四	-13.4246
用来写字	-13.4249
▁这个粉色的太阳很	-13.4252
▁你为什么	-13.4252
bcjg	-13.4253
▁月亮	-13.4258
是植物	-13.427
什么东西放到水里会	-13.4272
我走长	-13.4273
奶奶读	-13.4276
亮和暗	-13.428
我放短	-13.4285
我看温暖	-13.4287
ic	-13.429
会碎	-13.4291
cfa	-13.4299
风很凉	-13.4304
一楼	-13.4305
一串	-13.4312
大象有长	-13.4317
同学飞	-13.4318
在天上	-13.4319
二个月	-13.432
泡好	-13.4324
水有	-13.4327
弟弟喝	-13.4332
我卖旧	-13.4337
我游酸	-13.4338
变热	-13.4338
用牙	-13.434
有了	-13.4344
红花	-13.4345
苹果是什么	-13.4349
DFBA	-13.4355
花是什么	-13.4358
树下	-13.436
慢苹果	-13.4363
▁十一	-13.4369
不是快	-13.4371
FADB	-13.4373
果子	-13.4378
dfg	-13.4383
车时	-13.4383
▁明天	-13.4384
放在	-13.4388
雪花	-13.4396
用笔写	-13.4397
亮灯	-13.4405
过来	-13.4408
最小	-13.4417
dj	-13.4427
我扫可爱	-13.443
铁放	-13.4441
FABC	-13.4445
▁汽车有	-13.4453
我学高	-13.4461
jca	-13.4462
会有彩虹	-13.4463
错误代码	-13.4476
▁车在路上	-13.4481
cgb	-13.4504
是灰色的	-13.4508
ghf	-13.4512
在前面	-13.4514
有树	-13.4526
ajb	-13.4527
我学快	-13.4527
后到	-13.453
▁水结冰了	-13.4548
光穿过	-13.4551
冰放在外面	-13.4552
我开热	-13.4553
▁乌龟慢慢	-13.4557
▁山比房子	-13.4557
▁白天和黑夜	-13.456
▁鲸鱼比大象	-13.456
真果	-13.4562
▁橙子是橙色的	-13.4562
▁兔子跑得很快	-13.4563
会吃饭	-13.4567
边是西	-13.4582
温度高的	-13.4583
▁因为杯子	-13.4584
如果太阳	-13.4585
长和短	-13.4586
穿鞋	-13.4592
我洗快乐	-13.4597
要排队	-13.4599
天黑了看不见	-13.4604
▁纸张	-13.461
▁这个蓝色的花很	-13.462
egf	-13.4629
cje	-13.4648
我说黑	-13.4654
BD	-13.4659
我听大	-13.4661
是黑的	-13.4661
我哭旧	-13.4672
▁小鸟	-13.468
hig	-13.4693
▁树在	-13.4695
能恢复精	-13.4711
是人面对的	-13.4716
红色就是	-13.4718
是我的	-13.472
▁红苹果	-13.4738
icf	-13.4742
我找酸	-13.4743
火温度很高	-13.4768
大和小	-13.477
你读	-13.4771
如果杯子	-13.4779
两个苹果	-13.4781
▁这个红色的水很	-13.4794
BAF	-13.4794
gc	-13.4794
ev	-13.4795
的东西不在	-13.4797
温度低	-13.4798
ape	-13.4804
▁走路	-13.4804
ED	-13.4809
bg	-13.4814
ja	-13.4818
''	-13.4827
我洗好	-13.483
我做少	-13.4841
数和	-13.4842
▁鱼比石头	-13.4846
hfc	-13.4846
▁我走路	-13.4863
一道	-13.4863
快米	-13.4867
jfi	-13.4876
热不	-13.4878
▁金子很	-13.4883
我跳黄	-13.4896
▁小鸟在	-13.4899
是热的还是	-13.49
的天空很	-13.4908
盘和	-13.4913
我洗矮	-13.4916
冰的温度	-13.4917
苹果有	-13.4917
放到水里会沉	-13.492
水和	-13.4926
▁玻璃很	-13.4934
我游短	-13.4948
▁钻石很	-13.4952
enc	-13.4953
我站小	-13.4963
入时	-13.4977
会冒泡	-13.4991
我扫香	-13.5024
不是大	-13.503
有书	-13.5034
和老鼠	-13.5042
体的	-13.5055
面湿了	-13.5063
漏出来	-13.5064
▁冰化了	-13.5065
因为雨	-13.5071
二杯	-13.508
冬天要穿厚衣服	-13.5093
山和	-13.5108
我养酸	-13.511
▁打雷了	-13.516
▁我叫小	-13.5165
水的	-13.5166
化后变成	-13.5167
▁我很好	-13.5167
▁热和冷是	-13.5168
▁高和矮是	-13.5168
▁石头比棉花	-13.5174
▁草是绿色的	-13.5175
太阳发出光	-13.5175
烧着	-13.5198
照	-13.5208
镜子用来	-13.5215
刷牙可以	-13.5221
▁一年有	-13.5226
就碎	-13.5228
▁太阳很大	-13.5229
的热量	-13.5233
苹果在箱子	-13.5236
▁谢谢	-13.5264
我织温暖	-13.5274
铅笔是	-13.5285
af	-13.5288
地上变	-13.529
▁快车	-13.5299
就不	-13.53
▁冰是	-13.5302
>	-13.5308
速	-13.5313
▁大象比	-13.5317
我想多	-13.5323
jda	-13.5324
形的	-13.5338
我吃重	-13.5352
dfb	-13.5368
我关红	-13.5417
目的	-13.5422
二表示数量	-13.5431
我读黄	-13.5453
bah	-13.5459
CEF	-13.546
我买慢	-13.548
在追	-13.548
我读大	-13.5492
▁太阳出来	-13.5498
gej	-13.5503
▁马路	-13.5505
DBF	-13.5508
了再	-13.5517
就是有一个	-13.5526
在夜晚	-13.5532
有香	-13.554
▁下雨天	-13.5553
我画小	-13.5558
bga	-13.5558
gb	-13.5563
▁钢铁	-13.5583
bje	-13.5597
我送远	-13.5604
nge	-13.5614
我站红	-13.5628
五个苹果	-13.5632
我飞甜	-13.5642
变成冰	-13.5676
会疼	-13.5684
我跑好	-13.5691
会往	-13.5692
吸收热量	-13.5701
xīn	-13.5703
变成水蒸气	-13.5708
▁西瓜是	-13.5711
hc	-13.5716
我送蓝	-13.5728
ECB	-13.5734
我卖香	-13.5745
粗和细	-13.5754
里和外	-13.5754
我笑凉	-13.576
▁雨停了	-13.5761
▁刮风了	-13.5761
不是亮	-13.5761
▁小朋友	-13.5767
egj	-13.5769
▁鞋子	-13.5836
▁假米	-13.5838
会湿	-13.5838
CBF	-13.5847
我放红	-13.5863
EB	-13.5865
▁前和后	-13.5871
FBDA	-13.588
就是有二个	-13.5882
人很可爱	-13.5889
我跳少	-13.5896
我唱热	-13.5905
DEF	-13.5913
我飞热	-13.5944
真的	-13.5947
好鞋	-13.5949
先穿鞋	-13.5982
FCED	-13.5991
▁面向	-13.6001
我找方	-13.6012
icb	-13.6026
我卖远	-13.6027
开车	-13.6037
什么形状	-13.6038
就是有七个	-13.6049
就是有九个	-13.6049
就是有六个	-13.605
就是有八个	-13.6051
就是有十个	-13.6054
排序结果为	-13.6064
就是有四个	-13.6065
小猫坐	-13.6082
▁如果下雨	-13.6095
fhi	-13.6099
在学校	-13.61
我帮轻	-13.6107
我关酸	-13.6112
▁花	-13.6135
里面有	-13.6139
条河	-13.6142
能吹	-13.6143
EFDB	-13.6149
猫追	-13.615
从外面	-13.6173
很低	-13.6175
afc	-13.6177
就是十	-13.619
那里有	-13.6192
太阳很热	-13.6214
▁大象和	-13.6216
hge	-13.6239
就是有三个	-13.6249
是圆形的	-13.6262
的风	-13.6272
就是有五个	-13.6272
我答黑	-13.6275
FCB	-13.6278
我爬少	-13.6294
的中文是五	-13.6307
杯子很小	-13.6311
橙色的	-13.6314
il	-13.6316
▁蜜蜂	-13.6319
▁九减	-13.6328
能用手摸火	-13.6337
DFC	-13.6337
▁一百	-13.634
▁钢铁和	-13.6341
FC	-13.6347
我走路	-13.636
小狗吃	-13.6361
一个苹果	-13.6371
我跑轻	-13.6377
zh	-13.6381
先发芽	-13.6386
火烧	-13.6395
我开假	-13.6401
▁因为书很好	-13.6407
▁因为车很好	-13.6409
fci	-13.641
cgi	-13.6414
我读甜	-13.6415
▁白天有太阳	-13.6417
zuò	-13.6424
EDFA	-13.6436
我爱多	-13.6439
▁因为猫很好	-13.6446
我种绿	-13.6451
车很甜	-13.6451
jaf	-13.6464
míng	-13.6468
蜗牛慢	-13.6469
class	-13.6486
▁端午节	-13.6509
不能玩	-13.6524
很忙	-13.6525
▁因为鸟很好	-13.6527
▁因为树很好	-13.6534
我哭温暖	-13.6539
▁因为花很好	-13.6545
curr	-13.6563
我养明亮	-13.6573
▁因为狗很好	-13.6576
车很轻	-13.6577
▁因为人很好	-13.6578
我爬香	-13.659
▁因为鱼很好	-13.6592
▁因为桌子很好	-13.6592
▁因为笔很好	-13.6593
FEBA	-13.6595
我画高	-13.6596
▁因为椅子很好	-13.6604
bc	-13.6605
▁长城	-13.6607
ECDA	-13.6609
的风很	-13.6614
恢复精	-13.6616
一只手	-13.6619
dgj	-13.6648
我爱轻	-13.6658
▁因为苹果很好	-13.6663
▁因为碗很好	-13.6685
bfd	-13.6692
我写黄	-13.67
我跳真	-13.6702
bd	-13.6704
我画快	-13.6732
鲸鱼是	-13.6734
我跳近	-13.6742
我卖快	-13.6757
DCBE	-13.6759
大是	-13.6769
bhjg	-13.6776
汽车跑得	-13.6791
我种多	-13.6794
我听矮	-13.6796
别人的	-13.681
我养白	-13.6818
火和	-13.6819
出的	-13.6824
是圆的	-13.6825
▁因为杯子很好	-13.6834
花很美	-13.6834
下课	-13.6837
▁雪是	-13.6839
我放明亮	-13.6841
护	-13.6857
我哭短	-13.686
这些是	-13.6864
苹果很香	-13.6873
我学圆	-13.689
▁这个灰色的花很	-13.6911
掉到地上	-13.6935
▁冰箱	-13.6936
三张	-13.695
▁白天	-13.6963
我做真	-13.6964
我游真	-13.6972
我爱高	-13.6977
多和少是	-13.6983
▁你在做	-13.6994
我养慢	-13.6996
车很重	-13.6998
am	-13.701
ebj	-13.7021
▁鸟在	-13.7023
我走明亮	-13.7032
我喝大	-13.7032
我织矮	-13.7041
cjf	-13.7046
秋天过后是	-13.7054
▁如果路	-13.7073
我养可爱	-13.7075
鲸鱼	-13.708
五张	-13.7084
太满	-13.709
AC	-13.7096
▁五个苹果	-13.7106
我笑快	-13.7136
我走好	-13.7166
夏天过后是	-13.7173
ie	-13.7197
冬天过后是	-13.7209
AF	-13.7212
xǐ	-13.7246
▁草在	-13.7248
FA	-13.7259
gif	-13.7264
一张	-13.7264
水很凉	-13.73
东西放手会	-13.7302
EAB	-13.7313
鼻	-13.732
我说白	-13.7334
abd	-13.7338
三把	-13.7348
▁冰棍很	-13.7351
送	-13.7364
▁天亮了	-13.7365
大小	-13.7369
珠	-13.737
一朵	-13.7371
遇	-13.7371
祖	-13.7373
喜	-13.7373
曾	-13.7373
堰	-13.7373
苏	-13.7373
要多喝水	-13.7373
我们笑	-13.7374
妹妹唱	-13.7376
一张纸	-13.738
蛇很长	-13.7382
心情	-13.7382
他读	-13.7385
你们答	-13.7385
快和慢是	-13.7387
好厂	-13.7388
好熊	-13.7388
好田	-13.7389
安静兔	-13.7389
凉虎	-13.7389
新米	-13.739
妈妈喜欢	-13.739
请介绍一下丝绸之路	-13.739
好老师	-13.7391
可爱鞋	-13.7391
凉票	-13.7392
凉鹅	-13.7394
可爱狮	-13.7394
山很远	-13.7395
凉船	-13.7395
酸米饭	-13.7395
酸店	-13.7395
我买轻	-13.7395
化成水	-13.7396
明亮兔	-13.7396
美丽瓜	-13.7396
可爱鸡	-13.7396
黑旗	-13.7397
可爱耳	-13.7397
可爱脸	-13.7397
小猫拿	-13.7397
矮村	-13.7397
矮肉	-13.7398
假街	-13.7398
黑蛋	-13.7398
黑牙	-13.7399
汽车很重	-13.7399
快乐糖	-13.7399
可爱同学	-13.74
快乐心	-13.7401
明亮米饭	-13.7401
假糖	-13.7401
假鹅	-13.7401
安静城	-13.7402
甜天空	-13.7402
凉椅子	-13.7402
旧鞋	-13.7402
温暖糖	-13.7403
温暖鹅	-13.7403
美丽厂	-13.7403
蓝脸	-13.7403
绿盐	-13.7403
温暖灯	-13.7403
黑马	-13.7403
酸云	-13.7403
甜蛇	-13.7403
快乐菜	-13.7404
热鞋	-13.7404
旧狮	-13.7404
先泡茶	-13.7405
假龙	-13.7405
短厂	-13.7405
温暖小狗	-13.7406
▁灯	-13.7406
船很大	-13.7407
明亮鸭	-13.7407
短钟	-13.7407
热村	-13.7407
甜桥	-13.7407
绿天空	-13.7407
坏汽车	-13.7408
明亮石	-13.7408
明亮眼	-13.7408
黑妈妈	-13.7408
酸发	-13.7408
绿大海	-13.7409
甜老师	-13.7409
明亮小狗	-13.7409
凉书	-13.741
绿熊	-13.741
轻耳	-13.741
热天空	-13.7411
白灯	-13.7411
妈妈看	-13.7411
白桥	-13.7411
坏桥	-13.7411
酸笔	-13.7411
美丽菜	-13.7412
快乐月亮	-13.7412
坏头	-13.7412
汽车很大	-13.7413
热耳	-13.7413
近汽车	-13.7414
轻牛	-13.7414
旧灯	-13.7414
酸面	-13.7415
高狮	-13.7416
轻眼	-13.7416
矮椅子	-13.7417
近灯	-13.7417
黑脚	-13.7418
近衣	-13.7418
香鹅	-13.7419
热头	-13.7419
美丽桌子	-13.7419
坏公园	-13.7419
远瓜	-13.7419
甜发	-13.7419
酸草	-13.742
春天过后是	-13.742
长厂	-13.742
新米饭	-13.742
假鱼	-13.7421
凉水	-13.7422
圆龙	-13.7422
快乐鸟	-13.7422
轻学校	-13.7423
高大海	-13.7423
新羊	-13.7423
轻城	-13.7423
圆菜	-13.7423
温暖车	-13.7424
蓝雪	-13.7425
明亮火	-13.7427
红糖	-13.7427
轻椅子	-13.743
香学校	-13.743
酸窗	-13.7431
红船	-13.7431
香小猫	-13.7431
远厂	-13.7432
新石	-13.7433
圆发	-13.7433
看家	-13.7433
高石	-13.7433
远脸	-13.7433
酸口	-13.7433
坏火	-13.7435
新龙	-13.7436
慢蛇	-13.7436
绿雪	-13.7436
酸树	-13.7436
白鱼	-13.7437
热雨	-13.7438
坏风	-13.7438
明亮茶	-13.744
轻脚	-13.744
长公园	-13.744
方马	-13.744
我买多	-13.7442
热太阳	-13.7442
高学校	-13.7442
近太阳	-13.7443
温暖口	-13.7443
新机	-13.7443
方菜	-13.7444
远老师	-13.7444
新爸爸	-13.7444
东西放手	-13.7444
近面	-13.7444
慢头	-13.7446
明亮窗	-13.7446
矮口	-13.7446
慢船	-13.7446
后才	-13.7447
黄太阳	-13.7447
蓝水	-13.7451
远菜	-13.7451
真村	-13.7453
方学校	-13.7453
远门	-13.7455
我放美丽	-13.7455
黄书	-13.7455
轻茶	-13.7456
小明爬	-13.7456
远星星	-13.7457
短口	-13.7458
慢学校	-13.7458
红太阳	-13.7461
长面	-13.7461
方河	-13.7463
方椅子	-13.7463
方雨	-13.7466
绿口	-13.7467
远椅子	-13.7467
方笔	-13.7467
红鱼	-13.7468
香茶	-13.7468
真牙	-13.7469
近窗	-13.7472
多旗	-13.7473
小猫放	-13.7473
近口	-13.7476
我养温暖	-13.7479
春天过后	-13.7482
我问明亮	-13.7483
的中文是二	-13.7484
真眼	-13.7484
真老师	-13.7484
▁小明的笔是	-13.7488
方草	-13.749
香树	-13.749
多鸭	-13.7494
少路	-13.7503
新树	-13.7515
快菜	-13.7518
我飞长	-13.7523
▁书里有	-13.7525
沙子	-13.7526
重茶	-13.7527
猫在	-13.753
真车	-13.7551
冰会	-13.7555
真书	-13.7556
真手	-13.7563
我飞近	-13.7577
我爬红	-13.7591
安静花	-13.7596
我画大	-13.7606
我玩假	-13.7608
▁出门要穿	-13.7613
我玩美丽	-13.7617
我喝圆	-13.7635
dbg	-13.7639
多口	-13.7646
我帮少	-13.7677
▁人是	-13.7677
白花	-13.7735
我织方	-13.7772
白米	-13.778
jec	-13.7783
我说好	-13.7798
我跳小	-13.7799
变小	-13.78
二本书	-13.78
秋天过后	-13.7802
▁冷了	-13.7809
会掉到地上	-13.783
白果	-13.7836
我开坏	-13.7853
▁数字五	-13.7857
我爬旧	-13.7859
书包里	-13.7863
我走安静	-13.7873
夏天过后	-13.7875
我看假	-13.7879
fjc	-13.7889
冬天过后	-13.7903
FAC	-13.7906
这些	-13.7913
是胖的	-13.7916
▁太阳是	-13.7918
我们	-13.7922
我找圆	-13.7931
我放好	-13.7931
我站少	-13.7944
买的	-13.797
我唱蓝	-13.798
我做温暖	-13.7994
小鼓	-13.7994
三张桌子	-13.7996
我写重	-13.8007
我跑红	-13.8031
我坐小	-13.8031
太阳是	-13.8066
会烧	-13.8066
我画假	-13.8067
我养凉	-13.8071
高楼是	-13.8101
我养甜	-13.8108
十二	-13.8115
cbhj	-13.8115
我问黄	-13.8122
猫很甜	-13.8126
在水里面	-13.815
走路要	-13.8165
椅子上	-13.8165
可以晒	-13.8172
eg	-13.8172
我哭矮	-13.8175
▁桌子是	-13.8187
ECA	-13.82
▁书是	-13.8237
EBD	-13.8239
猫是	-13.8239
我飞多	-13.8249
dà	-13.8252
我扫旧	-13.8266
ajc	-13.8272
暖不	-13.828
ib	-13.8296
我游绿	-13.8317
一只手有	-13.8324
CDFE	-13.8324
我看明亮	-13.8325
所以不能	-13.8344
我写凉	-13.835
▁黄河	-13.8363
我买白	-13.8366
多盐	-13.8368
CFD	-13.8369
我喝凉	-13.837
爸爸买	-13.8384
我跑少	-13.8386
我看白	-13.8388
我拿绿	-13.8393
我开高	-13.8393
慢慢	-13.8403
火车是	-13.8403
衣服很	-13.8419
jhc	-13.842
elif	-13.8423
我喜欢安静	-13.8436
泡	-13.8437
bhe	-13.8438
我吃小	-13.844
fcj	-13.8441
杯子里	-13.8447
我走可爱	-13.8447
我学少	-13.8448
中有	-13.8448
花有	-13.8473
我学白	-13.8475
热肉	-13.8477
我说少	-13.8495
五张桌子	-13.8498
▁这个杯子	-13.8502
我拿大	-13.852
是浅的	-13.8531
▁温泉	-13.8545
▁苹果是	-13.8555
我拿香	-13.8556
xiǎng	-13.8582
大瓜	-13.8582
DEC	-13.8595
CDAF	-13.8596
门就	-13.8597
我帮近	-13.8622
CDA	-13.8624
圆形的	-13.8639
tion	-13.864
我扫红	-13.8648
EBAD	-13.865
狗是大	-13.8652
然后关	-13.866
小笔	-13.8662
就不会	-13.8664
放在冰箱里	-13.8675
▁这个紫色的太阳很	-13.8688
huà	-13.8719
我想方	-13.8719
我卖方	-13.8723
CEDF	-13.8741
我跑绿	-13.8745
铁和	-13.875
花很软	-13.8763
我做黑	-13.8764
我喝甜	-13.8766
▁人从	-13.8775
elf	-13.8783
▁鱼在	-13.8795
CF	-13.8796
会生	-13.8819
▁你会做	-13.8829
▁鸟是	-13.8831
我拿甜	-13.8841
我洗方	-13.8844
DAF	-13.8873
▁快米	-13.8874
我吃凉	-13.8876
jī	-13.8901
明亮鸡	-13.8914
BFC	-13.8948
桌子左边	-13.8948
EACD	-13.8967
假村	-13.8972
小草	-13.8975
▁小红的	-13.8983
向北方	-13.8989
我喝香	-13.8991
桌子右边	-13.8998
高鞋	-13.9
上面是	-13.9006
的中文是一	-13.9011
=[]	-13.9012
我笑高	-13.9013
石头在	-13.9042
修复后	-13.9045
甜村	-13.9057
我读坏	-13.9065
在山上	-13.9066
长出	-13.908
adc	-13.9093
关上	-13.9096
我买明亮	-13.91
án	-13.9111
▁床	-13.9112
jge	-13.9116
▁甜米	-13.9121
冰是热的	-13.9123
我看甜	-13.9133
我吃少	-13.9135
蓝兔	-13.9136
小猫说	-13.9147
yú	-13.9151
CEDB	-13.9158
长狮	-13.9165
鱼有	-13.9166
▁数字二	-13.9169
方桥	-13.9171
白米饭	-13.9178
重米	-13.9182
轻旗	-13.9185
里的水	-13.9187
大花	-13.9192
边是东	-13.9196
源于	-13.9201
快蛋	-13.9201
少盐	-13.9201
大田	-13.9204
近耳	-13.9213
ADEF	-13.9224
美丽米饭	-13.9226
圆熊	-13.9227
BCD	-13.9229
明亮鼓	-13.9235
mǐ	-13.9243
假脸	-13.9249
我找重	-13.9266
我爱近	-13.9268
新旗	-13.9268
鞋带	-13.9277
吹树叶	-13.9278
新牙	-13.9282
甜狮	-13.9283
gf	-13.9286
大象和	-13.9293
慢钟	-13.9295
轻钟	-13.9298
可爱厂	-13.9298
里和外是	-13.9301
粗和细是	-13.9301
红大海	-13.9305
我卖大	-13.9311
我哭远	-13.9312
轻脸	-13.9318
BEF	-13.9319
蓝店	-13.9323
我唱长	-13.9324
方肉	-13.9345
我游快	-13.935
好村	-13.9352
快乐天空	-13.9352
shī	-13.9374
FDBC	-13.9381
长汽车	-13.9383
温暖牛	-13.9391
方耳	-13.9413
▁大米	-13.9425
旧钟	-13.9429
kū	-13.9431
▁坏米	-13.9432
我想蓝	-13.9446
公园里	-13.9451
黑耳	-13.9461
我种热	-13.9465
近兔	-13.9466
快乐田	-13.9495
我看黄	-13.9499
短马	-13.9506
酸糖	-13.9507
凌会	-13.9507
▁粗	-13.9513
我去	-13.9518
我洗凉	-13.9524
红酒	-13.9525
我坐多	-13.9535
我答圆	-13.9554
好眼	-13.9554
明亮旗	-13.9562
ABF	-13.9563
多蛋	-13.9566
我跑矮	-13.9569
明亮糖	-13.9574
短汽车	-13.9575
就要小心	-13.9575
▁一只	-13.9585
我拿方	-13.9594
快乐厂	-13.9599
假狮	-13.96
方衣	-13.9603
远云	-13.9609
快乐桥	-13.9613
蓝糖	-13.9616
▁白菜	-13.9617
我养真	-13.9621
我跑美丽	-13.9623
高熊	-13.9624
近鼓	-13.9635
慢店	-13.9641
我笑温暖	-13.9649
快乐鞋	-13.965
黑门	-13.9657
热米饭	-13.9659
DCB	-13.9669
快乐鼓	-13.967
真蛋	-13.9671
真票	-13.9682
可爱米饭	-13.9684
圆汽车	-13.969
DEA	-13.9702
快乐票	-13.9707
夜晚是黑	-13.9711
重龙	-13.9719
少旗	-13.972
igf	-13.9722
我养热	-13.9723
高肉	-13.9725
ebf	-13.9733
香瓜	-13.9733
我答快乐	-13.9736
快乐米饭	-13.9741
凉盐	-13.9743
▁春	-13.9743
BFA	-13.9749
美丽房子	-13.9751
短天空	-13.9754
坏旗	-13.9761
亮和暗是	-13.9762
能飞	-13.9765
不是厚	-13.9766
白叶	-13.9777
cej	-13.9778
我玩多	-13.9784
快乐店	-13.9787
慢牙	-13.9793
香盐	-13.9795
温暖衣	-13.98
安静盐	-13.9801
我种远	-13.9821
beg	-13.9823
先洗	-13.9831
我走快	-13.9835
快乐羊	-13.9836
酸鼓	-13.9838
黑羊	-13.9839
坏城	-13.9843
旧店	-13.9851
就是白色	-13.9851
安静鼓	-13.9853
正常	-13.9865
近天空	-13.9868
我做轻	-13.9873
快和慢不	-13.9874
我爱坏	-13.9884
高村	-13.9884
快乐叶	-13.9886
白头	-13.9887
ABD	-13.9887
hcb	-13.9897
黑天空	-13.9909
轻糖	-13.9917
小明飞狮	-13.9918
美丽街	-13.9918
远鸭	-13.9919
近米饭	-13.992
月亮是	-13.9927
▁太阳和	-13.9928
我关近	-13.9929
长羊	-13.9938
是小明的	-13.9941
然后开	-13.9943
我关凉	-13.9948
蓝城	-13.9955
酸马	-13.9959
轻云	-13.996
黑鸭	-13.9972
慢鼓	-13.9973
dba	-13.9979
慢田	-13.9985
不打伞	-13.9987
我爬甜	-13.9987
美丽灯	-13.9988
杯子就是	-14.0003
快狮	-14.0004
铅笔	-14.0006
少票	-14.0006
我喝近	-14.001
我吃新	-14.0014
热龙	-14.0014
可爱船	-14.0017
旧眼	-14.0018
红票	-14.0022
旧米饭	-14.0025
慢糖	-14.003
我关慢	-14.0035
四个苹果	-14.0036
轻叶	-14.0037
圆房子	-14.0042
旧兔	-14.0045
一个人	-14.0048
高牛	-14.0057
我唱新	-14.0059
冒出	-14.0061
真脸	-14.0065
我买真	-14.0069
我爱绿	-14.0071
方酒	-14.0078
我帮绿	-14.0083
是高度	-14.0084
高米饭	-14.0086
远鹅	-14.009
是新	-14.0092
白脸	-14.0093
ibh	-14.0097
快乐眼	-14.0103
▁蜗牛是	-14.0105
白眼	-14.0105
圆盐	-14.0107
酸酒	-14.0109
yuè	-14.0112
东西就	-14.0112
假肉	-14.0113
假田	-14.0114
冰箱是	-14.0117
是方形的	-14.0119
矮桥	-14.0121
达	-14.013
方鹅	-14.0131
圆狮	-14.0142
我种快	-14.0151
热路	-14.0152
真城	-14.0155
着火	-14.0157
红头	-14.0159
慢厂	-14.0159
多村	-14.0168
温暖汽车	-14.0174
风可以	-14.0178
快乐脸	-14.0185
新火	-14.0187
比石头	-14.0188
我唱香	-14.0189
短票	-14.0195
轻村	-14.0196
五杯	-14.0198
多狮	-14.02
因为太阳发出	-14.02
绿星星	-14.0205
可爱公园	-14.0208
我爱矮	-14.0208
杯子在桌子	-14.0208
长票	-14.0212
好兔	-14.0216
方米	-14.0219
近心	-14.0227
三杯	-14.023
stack	-14.0236
可爱大海	-14.0237
在那	-14.024
adj	-14.0243
好票	-14.0247
甜牙	-14.0253
热盐	-14.0255
公共子序列	-14.0261
安静钟	-14.0278
蓝菜	-14.0279
红鼓	-14.0279
坏灯	-14.0282
假头	-14.0288
我站酸	-14.0293
我养坏	-14.03
好汽车	-14.0312
美丽眼	-14.0312
真灯	-14.032
旧街	-14.0321
圆门	-14.0322
可爱马	-14.0324
方旗	-14.0325
圆兔	-14.0332
圆城	-14.0335
轻路	-14.0336
dgf	-14.0343
的地	-14.0348
旧石	-14.035
猫很香	-14.035
▁冰吸收热量	-14.0351
短路	-14.0357
酸衣	-14.0357
坏鹅	-14.0362
重鸭	-14.0363
高灯	-14.0363
dfbc	-14.0367
卜是	-14.0367
大兔	-14.0369
慢衣	-14.0369
明亮肉	-14.0371
明亮叶	-14.0373
酸街	-14.0377
我扫短	-14.0377
安静菜	-14.0379
我关高	-14.038
水喝	-14.0381
假大海	-14.0383
轻鸡	-14.0387
我养长	-14.0392
长石	-14.0392
快乐虎	-14.0392
短瓜	-14.0393
少石	-14.0394
我帮圆	-14.0398
香肉	-14.0398
▁xià	-14.0401
黑叶	-14.0401
快村	-14.0404
安静机	-14.0405
▁火的	-14.0406
安静灯	-14.0408
香兔	-14.0413
方脸	-14.0415
安静羊	-14.0416
蓝衣	-14.042
黄票	-14.0422
我飞远	-14.0422
我帮快	-14.0427
黄眼	-14.043
个手指	-14.0431
新蛇	-14.0439
新盐	-14.0439
长眼	-14.0442
白厂	-14.0443
少桌子	-14.0445
红脸	-14.0446
黄船	-14.0449
快乐鸭	-14.0449
慢熊	-14.0453
蓝眼	-14.0459
我看大	-14.0466
甜眼	-14.047
红机	-14.0471
大路	-14.0473
玩火	-14.0476
轻星星	-14.048
美丽汽车	-14.0481
坏妈妈	-14.0482
放水	-14.0483
▁数字一	-14.0485
我关快乐	-14.0488
geb	-14.0488
黑鹅	-14.049
我跑甜	-14.0494
多路	-14.0499
是黄的	-14.05
快乐牙	-14.05
黄脸	-14.0502
近学校	-14.0502
明亮鱼	-14.0502
短兔	-14.0503
绿钟	-14.0505
一杯	-14.0507
长蛇	-14.051
矮衣	-14.0511
快路	-14.0511
可爱盐	-14.0512
我写慢	-14.0518
长钟	-14.052
新脚	-14.052
慢虎	-14.0522
绿羊	-14.0524
放茶	-14.0528
绿桥	-14.0528
我拿黄	-14.0529
美丽鸡	-14.053
远蛇	-14.053
绿马	-14.0536
▁零加	-14.0539
黄雨	-14.0543
新公园	-14.0543
▁星星在	-14.0547
绿鹅	-14.0548
可爱路	-14.055
近云	-14.0551
热菜	-14.0552
蓝火	-14.0553
小心	-14.056
绿街	-14.0564
凉头	-14.0564
圆星星	-14.0566
热鸡	-14.0571
春天是	-14.0577
近鸡	-14.0582
温暖兔	-14.0582
我玩方	-14.0582
近小猫	-14.0582
重鞋	-14.0585
可爱钟	-14.0589
快鸭	-14.0589
iàng	-14.0592
那里	-14.0595
温暖机	-14.0597
香灯	-14.0608
新老师	-14.061
轻酒	-14.0611
我吃绿	-14.0611
快羊	-14.0614
▁妈妈洗	-14.0615
近小狗	-14.0617
坏米饭	-14.0617
可爱手	-14.062
快乐酒	-14.062
热鸭	-14.0621
绿老师	-14.0621
白酒	-14.0623
香糖	-14.0623
我爬可爱	-14.0624
红灯	-14.0627
矮鞋	-14.0629
▁球在	-14.063
到家	-14.0631
酸鞋	-14.0637
方老师	-14.0639
凉笔	-14.0639
gfd	-14.0639
甜鸭	-14.0643
温暖脸	-14.0645
我喝高	-14.0645
温暖马	-14.0646
坏虎	-14.0653
▁你喜欢什么	-14.0655
温暖街	-14.0655
蓝钟	-14.0656
写在	-14.0656
可爱汽车	-14.0657
安静厂	-14.0657
我织旧	-14.0659
快熊	-14.066
绿叶	-14.0665
酸眼	-14.0665
凉雪	-14.0665
安静妈妈	-14.0668
half	-14.067
轻大海	-14.0671
蓝鹅	-14.0672
圆月亮	-14.0676
prev	-14.0678
多爸爸	-14.0679
出太阳	-14.0684
安静小猫	-14.0695
老鼠是	-14.0696
好店	-14.0697
可爱火	-14.0701
近厂	-14.0701
多耳	-14.0708
的书	-14.0708
白雨	-14.071
新月亮	-14.0712
近店	-14.0713
白汽车	-14.0714
高雪	-14.0715
假公园	-14.0722
我送坏	-14.0722
重汽车	-14.0722
热兔	-14.0723
快乐云	-14.073
白小猫	-14.0734
新鸡	-14.0735
凉瓜	-14.0737
近蛋	-14.0738
高叶	-14.0739
凉田	-14.074
我说坏	-14.0741
温暖船	-14.0741
快厂	-14.0742
凉汽车	-14.0743
我站圆	-14.0746
真风	-14.0747
重月亮	-14.0747
比石头轻	-14.0749
长船	-14.0751
酸盐	-14.0752
白面	-14.0753
我想高	-14.0756
重肉	-14.0756
远牙	-14.0757
近菜	-14.0757
白瓜	-14.0757
Node	-14.0759
红兔	-14.076
明亮路	-14.0761
多机	-14.0772
好鸡	-14.0774
回	-14.0776
旧旗	-14.0776
短妈妈	-14.0776
长蛋	-14.0781
白门	-14.0783
香叶	-14.0785
二双	-14.0786
我走真	-14.0787
旧火	-14.0791
安静肉	-14.0793
我坐矮	-14.0797
甜票	-14.0799
是下面	-14.08
新茶	-14.0801
动物园	-14.0802
温暖鼓	-14.0802
长脚	-14.0804
短熊	-14.0806
ecf	-14.0806
红老师	-14.0808
坏盐	-14.0811
新发	-14.0811
早	-14.0812
香城	-14.0813
凉云	-14.0813
安静狮	-14.0815
高厂	-14.0816
短太阳	-14.0818
黑学校	-14.0819
可以保	-14.082
快乐门	-14.0826
坏同学	-14.0828
热云	-14.0829
慢老师	-14.083
近公园	-14.0832
矮钟	-14.0832
快乐城	-14.0832
安静面	-14.0834
我答热	-14.0835
矮心	-14.0836
多虎	-14.0836
黄厂	-14.0837
多田	-14.0838
多大海	-14.0839
快马	-14.0839
多云	-14.0839
真旗	-14.0842
香妈妈	-14.0843
重星星	-14.0844
多钟	-14.0844
矮河	-14.0845
绿兔	-14.0845
酸虎	-14.0846
香鼓	-14.0849
好云	-14.0849
温暖蛋	-14.0849
圆机	-14.085
新房子	-14.085
我想短	-14.0855
慢鸭	-14.0857
高月亮	-14.0858
旧汽车	-14.0858
凉狮	-14.0858
球就是	-14.0859
圆羊	-14.086
重蛋	-14.0861
少蛇	-14.0863
甜椅子	-14.0867
水很冷	-14.0874
坏牛	-14.0877
短桥	-14.0878
甜房子	-14.0883
碗就是	-14.0888
甜小猫	-14.0889
我有	-14.0889
酸蛋	-14.089
少天空	-14.0894
酸羊	-14.0894
鸟很矮	-14.0895
插座	-14.0896
酸同学	-14.0896
坏狮	-14.0897
不能用手碰	-14.0897
慢米饭	-14.09
小明去	-14.0901
我画甜	-14.0905
白小狗	-14.0905
凉蛇	-14.0906
快门	-14.0909
短店	-14.0911
我做小	-14.0911
我买方	-14.0912
新船	-14.0915
今天是	-14.0915
我找远	-14.0918
重脸	-14.092
我织安静	-14.0922
重耳	-14.0924
远旗	-14.0925
大耳	-14.0925
真雪	-14.0928
高街	-14.0933
红苹果	-14.0936
我放近	-14.0936
过后是	-14.094
鱼是	-14.094
高房子	-14.0942
热脸	-14.0946
甜熊	-14.0947
火是	-14.0948
快乐茶	-14.0948
蚂蚁比	-14.0949
太	-14.095
慢眼	-14.0951
不能直接喝	-14.0951
新兔	-14.0951
远手	-14.0953
前和后不	-14.0954
安静票	-14.0956
旧熊	-14.0957
好狮	-14.0961
旧桌子	-14.0964
狗是	-14.0966
多厂	-14.0968
凉熊	-14.097
慢发	-14.0971
▁你会喝	-14.0971
美丽手	-14.0971
安静街	-14.0972
黄大海	-14.0972
美丽公园	-14.0977
假老师	-14.0978
慢小狗	-14.0978
长车	-14.0978
方船	-14.0979
远肉	-14.0979
光很	-14.0981
方票	-14.0982
凉肉	-14.0982
多桥	-14.0982
凉旗	-14.0985
假心	-14.0985
绿机	-14.0985
今天的	-14.0989
真瓜	-14.0989
慢房子	-14.0989
短雪	-14.099
绿鸡	-14.0991
短眼	-14.0993
黄笔	-14.0996
FAE	-14.0997
凉鸡	-14.0998
温暖叶	-14.0999
矮风	-14.1002
美丽蛋	-14.1003
圆茶	-14.1009
我关旧	-14.101
多公园	-14.1014
大羊	-14.1016
黑老师	-14.1019
方鼓	-14.102
凉门	-14.1026
pe	-14.1031
可爱羊	-14.1031
安静笔	-14.1032
花是	-14.1033
我坐红	-14.1035
再泡	-14.1036
黑月亮	-14.1037
远天空	-14.1037
圆桥	-14.1037
黑面	-14.1038
▁你会写	-14.1039
黑公园	-14.104
安静山	-14.1042
明亮公园	-14.1042
热城	-14.1042
明亮雨	-14.1043
方蛇	-14.1043
近马	-14.1045
een	-14.1051
热票	-14.1051
玻璃很	-14.1056
凉同学	-14.1057
白蛇	-14.1062
明亮街	-14.1063
坏小狗	-14.1063
大糖	-14.1068
慢太阳	-14.1068
我画旧	-14.1068
ejb	-14.107
买	-14.107
好糖	-14.1071
我在山上	-14.1072
我在学校	-14.1075
我在公园	-14.1075
近脚	-14.1075
凉耳	-14.1078
汽车是	-14.1078
圆草	-14.108
尖的	-14.1081
轻妈妈	-14.1083
远田	-14.1084
假火	-14.1085
快乐龙	-14.1087
慢雨	-14.1087
快城	-14.1087
暖气	-14.1088
轻船	-14.1089
出门要	-14.109
新心	-14.1095
黑桌子	-14.1095
坏船	-14.1096
快乐椅子	-14.1097
圆糖	-14.1098
红盐	-14.11
蓝牛	-14.1101
温暖大海	-14.1101
多椅子	-14.1102
黑票	-14.1103
多龙	-14.1107
明亮耳	-14.1107
快乐雪	-14.1108
甜窗	-14.1109
为什么冰会	-14.1109
高头	-14.111
旧同学	-14.1111
红桌子	-14.1112
温暖路	-14.1112
安静天空	-14.1114
远虎	-14.1115
温暖钟	-14.1115
黑菜	-14.1118
蓝机	-14.1121
旧蛋	-14.113
矮窗	-14.1133
早上	-14.1136
蓝路	-14.1139
慢路	-14.114
近同学	-14.1144
白龙	-14.1146
热狮	-14.1151
红村	-14.1151
快乐石	-14.1153
黑路	-14.1155
旧老师	-14.1155
好草	-14.1156
甜糖	-14.1158
空调	-14.116
我读假	-14.116
我卖凉	-14.116
矮羊	-14.1161
大店	-14.1162
圆路	-14.1162
可爱桌子	-14.1162
甜田	-14.1168
方汽车	-14.1168
安静龙	-14.1172
明亮爸爸	-14.1172
旧房子	-14.1173
轻石	-14.1173
圆鸟	-14.1174
蓝窗	-14.1176
慢鸡	-14.1176
圆老师	-14.1177
快乐风	-14.1177
方桌子	-14.1177
木头和	-14.1178
因为天气	-14.1178
新口	-14.1179
黑云	-14.118
纸张	-14.1186
香钟	-14.1186
多脸	-14.119
温暖盐	-14.119
真门	-14.119
美丽窗	-14.1191
美丽肉	-14.1195
真鼓	-14.1196
多心	-14.1198
好星星	-14.1198
短树	-14.1199
泡沫	-14.1201
香衣	-14.1206
短面	-14.1206
矮鸟	-14.1207
白路	-14.1207
重学校	-14.121
雨是	-14.1217
手电筒	-14.1218
钻石是	-14.1219
蓝同学	-14.122
圆牛	-14.1221
甜书	-14.1222
▁前和后是	-14.1223
好桥	-14.1223
后面是	-14.1224
白车	-14.1224
少糖	-14.1224
甜脸	-14.1225
天气很	-14.1225
远汽车	-14.1225
高云	-14.1226
凉眼	-14.1226
可爱村	-14.1227
好街	-14.1227
热草	-14.1228
酸头	-14.1234
先穿	-14.1234
马路上	-14.1235
热店	-14.1238
明亮牙	-14.124
我坐可爱	-14.1241
我想凉	-14.1245
少机	-14.1245
酸老师	-14.1249
绿房子	-14.1249
好学校	-14.1249
圆妈妈	-14.1249
少酒	-14.125
旧山	-14.1252
好手	-14.1252
大山	-14.1253
雪是	-14.1253
好钟	-14.1254
大牙	-14.1255
轻鼓	-14.1257
坏鸡	-14.1259
▁出门要	-14.1263
圆笔	-14.1264
高机	-14.1265
安静学校	-14.1265
快票	-14.1266
因为下雨了	-14.1266
dci	-14.127
大旗	-14.1271
慢笔	-14.1272
四杯	-14.1273
太阳从东边升起	-14.1274
墨水是黑色的	-14.1275
橘子是橙色的	-14.1275
黑盐	-14.1276
橙子是橙色的	-14.1276
圆叶	-14.1277
白草	-14.1277
兔子跑得很快	-14.1278
我走近	-14.1279
鲸鱼比大象	-14.1281
白天和黑夜	-14.1281
甜城	-14.1281
面还是	-14.1282
我站多	-14.1286
我扫长	-14.1288
乌龟慢慢	-14.1288
出门要穿	-14.1288
山比房子	-14.1288
石头很硬	-14.1289
假灯	-14.129
▁熊猫是	-14.1291
黄路	-14.1292
真鸡	-14.1293
大茶	-14.1293
因为下雨	-14.1294
温暖眼	-14.1294
人有一个	-14.1295
明亮书	-14.1296
温暖面	-14.1298
新云	-14.1298
有一天	-14.1301
我爱安静	-14.1303
快乐车	-14.1303
长爸爸	-14.1304
红狮	-14.1305
快牙	-14.1305
圆雨	-14.1306
温暖虎	-14.1306
短鱼	-14.131
热山	-14.1311
白发	-14.1311
黄茶	-14.1311
安静老师	-14.1311
红天空	-14.1312
圆椅子	-14.1312
蓝牙	-14.1312
车很矮	-14.1314
坏面	-14.1315
人很	-14.1318
少草	-14.1322
为什么火	-14.1322
重糖	-14.1324
大牛	-14.1326
坏发	-14.1328
温暖头	-14.1332
我玩安静	-14.1337
远糖	-14.1337
轻米饭	-14.1339
绿头	-14.134
黄风	-14.134
酸爸爸	-14.134
近城	-14.1344
因为水	-14.135
安静脚	-14.1355
长鞋	-14.1355
重鸟	-14.1355
蓝发	-14.1356
大肉	-14.1361
短鸟	-14.1362
快乐妈妈	-14.1364
红门	-14.1365
甜笔	-14.1367
穿过	-14.1369
高妈妈	-14.1372
一个蛋	-14.1374
香票	-14.1375
短心	-14.1377
近票	-14.1377
热鹅	-14.138
安静风	-14.138
温暖脚	-14.1381
快牛	-14.1381
酸星星	-14.1381
明亮羊	-14.1382
重羊	-14.1385
树很矮	-14.139
温暖火	-14.1393
书很甜	-14.1395
安静云	-14.1395
凉龙	-14.1396
我找绿	-14.1397
白桌子	-14.1397
个月	-14.1398
假菜	-14.1404
鱼很矮	-14.1406
放学	-14.1407
长村	-14.1408
蓝树	-14.1408
好发	-14.1414
假城	-14.1417
短房子	-14.1421
种子发芽	-14.1422
绿米饭	-14.1422
旧鸟	-14.1422
放在外面会	-14.1424
蓝船	-14.1425
我织圆	-14.1425
高龙	-14.1426
多石	-14.1426
甜河	-14.1428
可爱星星	-14.143
绿爸爸	-14.1434
白口	-14.1434
鱼在	-14.1434
短脚	-14.1435
我做黄	-14.1437
我坐白	-14.1438
快肉	-14.144
酸鸭	-14.1444
明亮衣	-14.1445
旧酒	-14.1445
黑鸡	-14.1446
红风	-14.1447
三双	-14.1447
我织大	-14.1448
红蛋	-14.1449
快衣	-14.145
我吃短	-14.145
▁你会读	-14.1452
假门	-14.1455
矮老师	-14.1455
▁你会看	-14.1455
绿酒	-14.1456
短灯	-14.1457
快老师	-14.1461
大心	-14.147
和兔子	-14.1471
钢铁	-14.1471
因为冰	-14.1472
我洗重	-14.1474
为什么会有	-14.1474
蓝笔	-14.1475
矮路	-14.1476
真笔	-14.1476
明亮蛋	-14.1476
慢桌子	-14.1477
红星星	-14.1477
黄羊	-14.1478
远树	-14.1479
甜星星	-14.1481
凉石	-14.1482
美丽茶	-14.1482
坏太阳	-14.1483
太阳比	-14.1484
绿公园	-14.1486
旧笔	-14.1486
远店	-14.1489
热椅子	-14.1494
我唱假	-14.1498
温暖鸭	-14.1499
黄妈妈	-14.15
甜羊	-14.1501
变成了水	-14.1502
长衣	-14.1502
火很小	-14.1502
方公园	-14.1505
矮门	-14.1505
矮云	-14.1508
假鸭	-14.1509
绿汽车	-14.1511
小鸟飞	-14.1511
冰的	-14.1515
酸龙	-14.1515
里的	-14.1517
长瓜	-14.1518
高爸爸	-14.1518
热牙	-14.1522
坏路	-14.1524
厚衣服	-14.1526
苹果很矮	-14.1527
绿雨	-14.1531
我笑短	-14.1532
黄小狗	-14.1533
多鼓	-14.1533
高城	-14.1534
远小猫	-14.1534
美丽月亮	-14.1534
美丽马	-14.1535
我养方	-14.1541
四双	-14.1541
近笔	-14.1543
旧牛	-14.1545
我跳甜	-14.1546
▁因为火	-14.1547
少街	-14.1548
小蛇	-14.1548
我站远	-14.1548
蓝旗	-14.155
热妈妈	-14.1554
旧蛇	-14.1555
香马	-14.1555
明天	-14.1558
凉发	-14.1558
小牙	-14.1558
蓝米饭	-14.1559
平的	-14.1559
圆手	-14.156
快乐大海	-14.1564
说狮	-14.1565
蓝山	-14.1565
高茶	-14.1565
近石	-14.1566
矮妈妈	-14.1567
远月亮	-14.1567
大城	-14.1568
真马	-14.157
车很危险	-14.1571
明亮门	-14.1571
我放甜	-14.1571
苹果是	-14.1574
我听安静	-14.1574
红学校	-14.1576
小云	-14.1577
酸小狗	-14.1578
甜鹅	-14.1578
长耳	-14.1578
矮大海	-14.1586
蓝蛇	-14.1588
酸茶	-14.1592
鸟很轻	-14.1594
蓝酒	-14.1596
矮发	-14.1598
矮糖	-14.1598
安静虎	-14.16
红云	-14.1601
快酒	-14.1606
▁草是黑	-14.1611
树很危险	-14.1613
旧爸爸	-14.1614
明亮龙	-14.1616
水结冰了	-14.1617
轻肉	-14.1617
少马	-14.1618
黑眼	-14.162
狗很危险	-14.162
黑米	-14.1623
▁你要	-14.1623
条路	-14.1632
温暖老师	-14.1632
矮笔	-14.1634
红同学	-14.1635
假鞋	-14.1638
酸熊	-14.1638
▁你会走	-14.1639
有五个手	-14.1639
圆山	-14.1639
黄鸭	-14.1639
我画近	-14.1641
快公园	-14.1641
ax	-14.1646
红雪	-14.1647
我读圆	-14.1648
快米饭	-14.1648
白月亮	-14.1649
我洗酸	-14.1649
香山	-14.1651
旧桥	-14.1652
▁因为冰	-14.1653
快糖	-14.1656
甜草	-14.1656
远茶	-14.1656
的鱼	-14.1659
五双	-14.1659
少心	-14.166
矮眼	-14.1663
远车	-14.1665
高糖	-14.1666
重小狗	-14.1669
香火	-14.1669
轻鸭	-14.167
蓝房子	-14.1671
少鸟	-14.1673
大厂	-14.1675
轻厂	-14.168
温暖山	-14.168
美丽车	-14.1681
远衣	-14.1681
我走少	-14.1684
重妈妈	-14.1684
香水	-14.1685
慢耳	-14.1686
长头	-14.1687
黄面	-14.1688
甜火	-14.169
冬天穿	-14.1694
甜心	-14.1699
abg	-14.1699
大虎	-14.17
高太阳	-14.1702
好口	-14.1702
关灯	-14.1703
圆公园	-14.1704
近书	-14.1704
你要	-14.1705
甜菜	-14.1705
圆小狗	-14.1706
小羊	-14.1707
酸城	-14.1709
长草	-14.171
小汽车	-14.171
轻鸟	-14.171
安静熊	-14.1712
[('	-14.1712
远风	-14.1713
旧鹅	-14.1713
花很安全	-14.1715
少小狗	-14.1716
旧城	-14.1718
hcg	-14.1719
黄米	-14.172
甜机	-14.1721
高口	-14.1723
少衣	-14.1724
温暖桌子	-14.173
轻汽车	-14.1732
我哭白	-14.1732
黑狮	-14.1735
多马	-14.1735
我学好	-14.1736
黄车	-14.1737
酸学校	-14.1739
多船	-14.1739
FD	-14.1741
好门	-14.1742
为什么树叶	-14.1742
大手	-14.1743
多鸡	-14.1746
明亮草	-14.1747
矮石	-14.1748
重米饭	-14.1751
热风	-14.1751
快月亮	-14.1752
上有	-14.1753
红小狗	-14.1755
车在	-14.1758
快妈妈	-14.1759
香发	-14.176
长熊	-14.1764
矮太阳	-14.1765
甜太阳	-14.1766
我织短	-14.1767
热机	-14.1768
白风	-14.1768
重厂	-14.1768
酸鹅	-14.1769
酸心	-14.1769
我问甜	-14.177
桌子是	-14.1771
我帮温暖	-14.1771
▁人在	-14.1772
多眼	-14.1772
蓝心	-14.1773
我坐绿	-14.1774
真妈妈	-14.1775
ABE	-14.1775
树很香	-14.1777
身体没	-14.1777
可以保护	-14.1779
大米饭	-14.1779
黑雨	-14.178
书很安全	-14.1783
慢票	-14.1785
轻小狗	-14.1785
轻灯	-14.1789
要带	-14.1789
长长的	-14.179
我唱黄	-14.179
假票	-14.1792
白手	-14.1792
绿书	-14.1798
慢茶	-14.1799
白书	-14.18
我答慢	-14.1804
树很高	-14.1804
轻月亮	-14.1805
所以要穿	-14.1805
真小猫	-14.1806
我写圆	-14.181
gl	-14.181
人打	-14.1811
假汽车	-14.1812
少椅子	-14.1813
旧糖	-14.1816
hóng	-14.1817
明亮椅子	-14.1819
有三个	-14.1819
jd	-14.182
我看安静	-14.1821
大大海	-14.1821
明亮面	-14.1822
短机	-14.1822
少耳	-14.1825
我扫远	-14.1826
小猫扫米	-14.1828
黄爸爸	-14.1828
轻爸爸	-14.1828
高小狗	-14.183
小钟	-14.183
红爸爸	-14.1832
明亮雪	-14.1832
短公园	-14.1834
少公园	-14.1836
椅子很高	-14.1839
热火	-14.1839
方头	-14.1839
我飞温暖	-14.184
轻头	-14.1843
明亮笔	-14.1843
酸机	-14.1845
多同学	-14.1846
短小猫	-14.1848
黑熊	-14.1848
觉	-14.1848
修复方法	-14.1856
大书	-14.1859
坏桌子	-14.1861
▁你会跑	-14.1862
cj	-14.1863
云是	-14.1866
真口	-14.1867
远龙	-14.1868
多书	-14.187
少鱼	-14.1873
少茶	-14.1875
美丽鱼	-14.1877
蓝雨	-14.1881
坏月亮	-14.1886
红椅子	-14.1887
我送香	-14.1887
为什么铁	-14.1889
方风	-14.189
▁西瓜在	-14.189
红树	-14.1893
大衣	-14.1894
好火	-14.1896
cg	-14.1897
明亮鸟	-14.1901
红面	-14.1901
星星是	-14.1906
方鱼	-14.1907
树是	-14.1911
苹果就是	-14.1914
重车	-14.1919
黄鸟	-14.1919
矮雪	-14.192
穿厚衣服	-14.192
大桌子	-14.1921
圆树	-14.1923
鱼在水	-14.1924
慢机	-14.1925
刀是	-14.1927
安静爸爸	-14.193
笔用来	-14.193
重同学	-14.1932
fbe	-14.1934
重脚	-14.1935
轻公园	-14.1937
椅子在	-14.1939
我爬好	-14.1942
矮脚	-14.1943
bcj	-14.1944
少火	-14.1945
明亮风	-14.1947
热面	-14.1947
大云	-14.1951
真脚	-14.1954
少学校	-14.1954
门外面	-14.1955
我走新	-14.1959
bad	-14.1962
快乐山	-14.1964
我说多	-14.1964
我买长	-14.1968
远学校	-14.197
火在	-14.1971
树叶很	-14.1974
所以冰	-14.1975
店很快	-14.1975
真太阳	-14.1975
远机	-14.1976
绿鸟	-14.1982
我买凉	-14.1985
红窗	-14.1986
我的书	-14.1987
我问远	-14.1987
明亮树	-14.1987
轻面	-14.1987
新水	-14.1987
香爸爸	-14.1988
高火	-14.1988
要吹	-14.1992
车很快	-14.1994
要跑	-14.1997
坏树	-14.1998
绿树	-14.1998
猫很重	-14.1999
说谢谢	-14.2002
重树	-14.2002
真面	-14.2004
是厚	-14.2005
的太阳很	-14.2006
方妈妈	-14.2006
我卖重	-14.2007
不然	-14.2011
高脚	-14.2011
蓝面	-14.2011
要说	-14.2015
我画慢	-14.202
小瓜	-14.202
为什么冰	-14.2022
大龙	-14.2024
多桌子	-14.2025
我坐黄	-14.2026
满	-14.2027
黄草	-14.204
结冰了	-14.2042
黄手	-14.2044
重笔	-14.2046
用电	-14.2046
长桌子	-14.2047
蓝书	-14.2051
鱼很重	-14.2053
可以挡雨	-14.2055
矮米	-14.2056
热鸟	-14.2056
少钟	-14.2058
甜树	-14.2061
美丽发	-14.2065
我放圆	-14.2066
店真快	-14.2068
少汽车	-14.2069
旧风	-14.207
▁你会画	-14.207
来和	-14.2072
酸风	-14.2073
faj	-14.2073
CDE	-14.2075
长门	-14.2075
老师在	-14.2078
轻火	-14.2084
温暖水	-14.2089
汽车和	-14.209
慢脚	-14.2092
在墙上面	-14.2101
我飞旧	-14.2103
快书	-14.2107
长学校	-14.2108
少爸爸	-14.211
要听	-14.211
▁椅子在	-14.2118
桌	-14.2119
我听红	-14.2123
我开慢	-14.213
在公园	-14.213
少面	-14.2139
小明帮妈妈	-14.2141
少小猫	-14.2142
我放酸	-14.2145
上跑	-14.2146
我想绿	-14.2147
矮树	-14.2149
▁车在路	-14.2152
轻水	-14.2152
多草	-14.216
我学小	-14.2161
我问红	-14.2167
四碗	-14.217
多脚	-14.2177
大妈妈	-14.218
▁你会吃	-14.2182
方树	-14.2187
手有五	-14.2191
近树	-14.2193
因为推	-14.2193
桌子上面	-14.2195
我爱热	-14.2196
▁你会玩	-14.2197
猫很小	-14.2202
真星星	-14.2207
狗很小	-14.2209
吃完	-14.221
重火	-14.2211
▁因为铁	-14.2211
一双	-14.2213
真窗	-14.2214
请介绍一下京剧	-14.2214
我关温暖	-14.2222
大小狗	-14.2227
颜色有	-14.2228
假口	-14.2229
伞	-14.2243
方窗	-14.2244
我种蓝	-14.2245
车很大	-14.2246
dcj	-14.2249
快发	-14.2251
我听少	-14.2255
长水	-14.226
透明的	-14.2261
不冷	-14.2262
少手	-14.2264
真桌子	-14.2266
小菜	-14.227
为什么太阳出来	-14.2275
朵	-14.2278
▁水是透明	-14.2287
星期一	-14.2288
飞到	-14.229
椅	-14.2298
大笔	-14.23
FEA	-14.2301
人有两	-14.2302
多手	-14.2302
▁因为用力	-14.2303
用来看	-14.2304
我读白	-14.2307
我养大	-14.2312
DFE	-14.2312
这是因	-14.2315
晚	-14.2317
所	-14.2318
人是	-14.2319
二把	-14.232
然后等	-14.2323
到水里会沉	-14.2324
钟表	-14.2325
▁你会听	-14.2328
衣服就	-14.2331
我放大	-14.2336
▁走路比	-14.2337
气流	-14.2338
▁你会说	-14.2341
碗很小	-14.2341
穿薄	-14.2341
BAC	-14.2341
题	-14.2342
如果水	-14.2342
CFE	-14.2343
水烧开	-14.2343
▁爸爸在	-14.2347
能直接喝	-14.2352
人很小	-14.2353
发出光	-14.2355
▁开和关	-14.2356
快脚	-14.2356
是圆形	-14.2357
一起吃	-14.2358
吹动	-14.2359
一闪一闪	-14.2361
尖	-14.2361
dhc	-14.2361
不是暖	-14.2363
五把	-14.2363
滴	-14.2364
我爬重	-14.2364
座	-14.2364
子是长	-14.2364
▁一加一	-14.2365
烧开了	-14.2365
因为衣服	-14.2365
参	-14.2366
戴	-14.2366
▁小猫在	-14.2368
放在外面	-14.2368
考试	-14.2369
四把	-14.237
长口	-14.237
是一个	-14.2371
电了	-14.2371
停	-14.2371
课	-14.2371
我笑香	-14.2371
▁猫在桌子上	-14.2371
降	-14.2371
一棵	-14.2371
▁打雷	-14.2371
二棵	-14.2371
水是温	-14.2371
冻	-14.2371
三棵	-14.2372
五棵	-14.2372
四棵	-14.2372
▁橡皮	-14.2372
推门	-14.2372
二辆	-14.2372
泥巴	-14.2372
密	-14.2372
难	-14.2372
遇冷变成	-14.2372
么	-14.2372
学校开	-14.2372
连	-14.2372
铁比水	-14.2372
水蒸	-14.2372
搬家	-14.2372
不开灯看不见	-14.2373
冰箱里面	-14.2373
橙	-14.2373
▁太阳发出	-14.2373
盛	-14.2373
▁飞机飞得	-14.2373
鼠	-14.2373
谢	-14.2373
橡皮是	-14.2373
因为吃饭能	-14.2373
整理房间	-14.2373
吃早饭	-14.2373
缺	-14.2373
捕	-14.2373
淋	-14.2373
种子浇	-14.2373
察	-14.2373
葡萄是紫	-14.2373
家常菜	-14.2373
太烫	-14.2373
充了	-14.2373
皮肤	-14.2373
规	-14.2373
丢	-14.2373
刮	-14.2373
升高了	-14.2373
叶绿素	-14.2373
塔是尖的	-14.2373
太阳是最亮的	-14.2373
套	-14.2373
少油少盐	-14.2373
手里沉	-14.2373
掉地上会	-14.2373
玻璃杯	-14.2373
脏	-14.2373
许	-14.2373
碰到皮肤	-14.2373
玻璃杯掉地上会	-14.2373
碰到皮肤会烫伤	-14.2373
跑得最快	-14.2373
光源	-14.2373
kuài	-14.2373
开水要吹	-14.2373
拔	-14.2373
▁地上有	-14.2373
外出回家后	-14.2373
铁碰到水和空气	-14.2373
因为种子	-14.2373
规律排便	-14.2373
哥哥爱	-14.2373
需要水分	-14.2373
要戴	-14.2373
▁种子种	-14.2374
▁你会唱	-14.2374
早睡	-14.2374
停了	-14.2374
起来软	-14.2374
狗在屋外	-14.2375
玩具	-14.2375
▁猫在桌子	-14.2375
过马路要	-14.2375
所以浮在	-14.2375
爷爷笑	-14.2375
▁因为天黑	-14.2375
气变成	-14.2375
▁太阳晒	-14.2375
能浮在水上	-14.2375
▁你会睡	-14.2375
太重	-14.2375
就亮了	-14.2375
我跑方	-14.2376
条腿	-14.2376
▁你会跳	-14.2376
大家都	-14.2376
被吹	-14.2376
▁雨是水	-14.2376
蜜蜂采	-14.2377
吹凉	-14.2377
考试前	-14.2377
搬家前	-14.2377
很高很高	-14.2377
不能直	-14.2377
少雪	-14.2378
红绿灯	-14.2378
提升	-14.2379
人帮	-14.2379
掉到	-14.2379
▁你会游	-14.2379
在身上	-14.2379
铁是硬的	-14.238
▁三个绿	-14.238
在桌	-14.2381
温水	-14.2381
▁四个红	-14.2381
最大的动物	-14.2382
在土里	-14.2382
天亮	-14.2383
▁四个白	-14.2383
一把	-14.2383
帮花	-14.2383
吹风	-14.2384
看见	-14.2384
▁温泉是	-14.2384
穿厚	-14.2385
▁木头是	-14.2385
猫在屋里	-14.2386
他们做	-14.2386
不刷	-14.2386
能让	-14.2386
会摔	-14.2387
画了一	-14.2387
鱼在屋里	-14.2387
水往	-14.2387
▁二个白	-14.2388
比棉花	-14.2388
轻的东西	-14.2389
会发芽	-14.2389
太阳让	-14.239
边吃	-14.239
然后吃	-14.2391
cdf	-14.2392
面很冷	-14.2394
墨水是	-14.2395
鸟在山上	-14.2395
摸起来很	-14.2396
四块	-14.2396
身体需要	-14.2397
我种酸	-14.2397
白天是	-14.2398
我送酸	-14.2398
▁妈妈在	-14.2398
▁山比	-14.2399
鱼在路	-14.2399
变亮	-14.24
头上	-14.24
小马	-14.24
真鱼	-14.24
老师养	-14.2401
得很慢	-14.2403
▁苹果是红	-14.2403
上飞	-14.2404
▁一个白	-14.2404
飞机是	-14.2405
会吹	-14.2406
飞得很	-14.2407
书很小	-14.2407
球是重的	-14.2408
大鸟	-14.2409
找大	-14.2409
外面很	-14.241
同学读	-14.2411
▁桌子比	-14.2412
jga	-14.2412
▁猫在	-14.2412
圆月	-14.2413
快树	-14.2414
我养黑	-14.2415
有十	-14.2415
树在窗	-14.2416
车很好	-14.2417
aje	-14.2418
要穿	-14.2419
▁石头有	-14.242
▁月亮有	-14.2423
白天和	-14.2423
地图	-14.2423
小鹅	-14.2425
能要	-14.2425
少米	-14.2427
多水	-14.2428
因为花	-14.2431
▁树比	-14.2432
狗很	-14.2433
不推	-14.2434
三种	-14.2436
的水蒸气	-14.2436
交通	-14.2438
狗会	-14.2439
石头比	-14.2442
所以可以	-14.2443
用力	-14.2444
笔很小	-14.2444
▁书有	-14.2446
▁太阳从	-14.2449
身上	-14.2454
中文	-14.2455
我画温暖	-14.2456
杯子比	-14.2456
和浅	-14.2456
我关轻	-14.2457
▁小明在	-14.2458
关机	-14.246
流动	-14.246
我喝温暖	-14.2461
就可以	-14.2462
亮是	-14.2463
就是二	-14.2463
饭前	-14.2466
蚂蚁大	-14.2469
我种重	-14.2473
猫很	-14.2474
碗比	-14.2476
听到	-14.2477
有翅膀	-14.2478
不见	-14.248
爬得	-14.248
有雪	-14.2482
我游美丽	-14.2484
我吃明亮	-14.2484
点大	-14.2486
会跑	-14.2493
▁因为雪	-14.2496
三是	-14.2497
所以放	-14.25
地下	-14.2502
叶公	-14.2503
真美	-14.2503
下长	-14.2506
大口	-14.2507
我做多	-14.251
我爱远	-14.2514
铅球是	-14.2515
火山是	-14.2518
ejd	-14.252
我爬黄	-14.252
假苹果	-14.2522
▁五个蓝	-14.2524
鸟飞	-14.2526
车是什么	-14.2527
可爱花	-14.2531
为什么树	-14.2531
好花	-14.2539
杯子有	-14.2539
能不	-14.2539
先看	-14.2539
花很小	-14.2541
我爬安静	-14.2541
我吃坏	-14.255
头是	-14.2559
我说圆	-14.2565
短花	-14.2571
坐在	-14.2584
屋子	-14.2586
笔比	-14.2587
比笔	-14.2588
有一张	-14.259
gba	-14.2591
瓜是	-14.2592
月亮会	-14.2599
在草地上	-14.2601
我关白	-14.2601
做坏	-14.2601
草地	-14.2606
里游	-14.2609
多树	-14.2617
我答黄	-14.2617
用的	-14.2621
猎豹是	-14.2627
蓝苹果	-14.2628
花需要	-14.2631
鸟比	-14.264
结成	-14.2647
我喝假	-14.2652
圆有	-14.2656
▁因为风	-14.2664
jìn	-14.2664
我扫安静	-14.2665
旧花	-14.2668
也可以	-14.267
大狗	-14.267
我扫黑	-14.2673
白是	-14.2682
叶会	-14.2682
子是什么颜色	-14.2685
黑苹果	-14.2685
小脸	-14.2686
好果	-14.2694
灯可以	-14.2695
椅子有	-14.2699
有大	-14.2704
船是	-14.2709
洗脸	-14.2715
热花	-14.2725
树在	-14.2731
吃多	-14.2731
▁冰棍是	-14.2735
快乐果	-14.2753
楼是	-14.2753
会游	-14.2763
多了	-14.2773
手上	-14.2774
一下	-14.2774
重了	-14.2777
我哭好	-14.2788
穿在	-14.2788
我哭多	-14.2791
小门	-14.2793
床下面	-14.2798
我种近	-14.2807
多公	-14.2814
小明写	-14.2817
近花	-14.2832
bca	-14.2835
▁小鱼在水	-14.2836
在路上	-14.2839
明亮苹果	-14.2842
假果	-14.2854
▁花是黑	-14.2855
买了	-14.2862
小狗是	-14.2867
雨会	-14.2871
去是	-14.2875
在高	-14.2883
不穿	-14.2886
脚是	-14.2888
美丽果	-14.2891
我拿重	-14.2893
再长	-14.2915
就是有一只	-14.2922
手是	-14.2924
不受	-14.2927
香花	-14.2932
树会	-14.2935
后长	-14.2937
▁橘子在	-14.2938
草是绿	-14.2951
我看香	-14.2955
我说凉	-14.2965
我喝矮	-14.2966
我问短	-14.2969
jc	-14.2989
▁多和少	-14.2993
▁金字塔	-14.3
▁三角形	-14.3
门会	-14.3001
不是蓝	-14.3008
▁车是	-14.3014
字是	-14.3025
一颗	-14.303
方的	-14.3031
因为天很	-14.3034
小鸡	-14.3043
▁老师在	-14.3044
▁石头在	-14.3053
甜果	-14.3055
我写黑	-14.3058
我站黑	-14.3069
fe	-14.3093
个角的	-14.3095
先写	-14.3098
我唱好	-14.3104
出来的	-14.3113
是平的	-14.3115
fl	-14.3117
会开	-14.3117
我爬小	-14.3122
▁sel	-14.3125
DC	-14.3127
长苹果	-14.3133
坏果	-14.3136
后结果	-14.3142
fdh	-14.3144
hab	-14.3144
面对	-14.3157
我坐真	-14.3169
▁一周	-14.3192
AEF	-14.3205
小桌子	-14.322
一分	-14.3232
就融化	-14.3235
sto	-14.3236
近果	-14.3239
我找少	-14.3247
你的	-14.3253
护眼	-14.3273
我喜欢长	-14.3277
种子	-14.3292
的月亮很	-14.3293
高和	-14.3296
绿果	-14.33
了大	-14.3306
我织绿	-14.331
飞走	-14.3314
是少	-14.3325
黄果	-14.3326
热果	-14.3326
我学黑	-14.3328
不吃	-14.3348
BC	-14.3351
我坐长	-14.3358
高苹果	-14.3362
▁种子发芽	-14.3378
是红色	-14.3382
小果	-14.3384
鸟是	-14.3393
就是有三只	-14.3401
就是有五只	-14.3408
就是有二只	-14.3409
有时	-14.3438
我吃真	-14.3444
我游热	-14.3456
就是有四只	-14.3459
我找矮	-14.3468
就是五	-14.347
就是有六只	-14.3508
就是有七只	-14.3509
就是有九只	-14.3511
树根	-14.3515
就是有八只	-14.3521
我养好	-14.3524
我洗大	-14.3529
就是有十只	-14.3536
gbd	-14.3542
我吃快乐	-14.3563
我问方	-14.3578
我唱凉	-14.3587
我走酸	-14.3618
DAB	-14.3623
我读新	-14.3625
我玩高	-14.3627
xiào	-14.3628
我爬酸	-14.3629
我织小	-14.3636
比较慢	-14.3637
我开快乐	-14.3653
再穿	-14.3653
我关小	-14.3667
猎豹和	-14.367
我找好	-14.3672
气太	-14.3686
小红的	-14.3694
方苹果	-14.3697
花比	-14.3698
我跳红	-14.3711
三个角	-14.3722
▁钻石是	-14.3727
我站坏	-14.3751
我写多	-14.3765
我喝安静	-14.3766
以后	-14.3773
我学凉	-14.3781
吸收热量变成水	-14.3784
远果	-14.3802
会掉到	-14.3834
我读绿	-14.3837
我种坏	-14.3838
▁鲸鱼	-14.3841
我跑假	-14.3841
长果	-14.3847
新果	-14.3873
▁先穿	-14.3875
我走香	-14.389
小火	-14.3892
我种温暖	-14.3898
我扫热	-14.3914
我扫高	-14.3969
的香	-14.3973
我游温暖	-14.3975
我飞新	-14.3983
▁我有	-14.3992
小风	-14.3998
前和后	-14.4012
我想圆	-14.4021
个苹果是	-14.4029
天过后是	-14.4038
我拿白	-14.4053
我喜欢绿	-14.406
红的	-14.4062
喝开水	-14.4071
后关灯	-14.4108
我看圆	-14.4124
我读快乐	-14.4125
我走快乐	-14.4138
我喝热	-14.4151
dg	-14.4168
新月	-14.4168
EF	-14.4181
▁汽车是	-14.4182
小山	-14.4198
我织少	-14.4206
▁小	-14.4222
我跑黑	-14.4234
小窗	-14.4241
我种可爱	-14.4249
▁重米	-14.4253
多花	-14.4256
小爸爸	-14.4268
小茶	-14.4303
我想轻	-14.4311
jbe	-14.4356
▁白米	-14.4371
猫和	-14.4378
hbi	-14.438
边是太阳	-14.4391
我养快	-14.4423
的相	-14.4424
dag	-14.4429
我放蓝	-14.4435
我送长	-14.4438
我放新	-14.4444
河很长	-14.4458
▁左和右	-14.4476
and	-14.4489
▁新米	-14.4492
我拿近	-14.4496
bed	-14.4503
▁上和下	-14.4553
我卖蓝	-14.4558
树上面	-14.4592
我爱甜	-14.4613
我听好	-14.4626
我爬明亮	-14.463
我跳热	-14.464
多果	-14.465
我学甜	-14.4653
我看凉	-14.4682
看不	-14.4683
就是一	-14.4707
我唱近	-14.4725
很柔和	-14.4727
有花	-14.4738
我说重	-14.4739
我坐方	-14.4739
小明的书	-14.4745
比房子	-14.4751
我写红	-14.4752
▁气球里	-14.4758
是绿的	-14.4788
我跳轻	-14.4795
我吃白	-14.4802
小小猫	-14.481
我买新	-14.4829
▁吃饭	-14.4842
我关假	-14.4843
我问温暖	-14.4853
sòng	-14.4861
我问圆	-14.4877
加三	-14.4883
少果	-14.4885
我玩重	-14.4895
我喝红	-14.4916
我找多	-14.4925
和小	-14.4954
▁大	-14.497
度很高	-14.4974
我扫快	-14.5019
我喜欢蓝	-14.5028
在空中	-14.5048
DB	-14.5066
zhǒng	-14.5084
我看远	-14.5085
tiá	-14.5088
bāng	-14.5088
我问旧	-14.51
我画长	-14.5111
chàng	-14.5112
我种快乐	-14.5134
我听明亮	-14.5143
cai	-14.5147
快果	-14.5154
我种旧	-14.5156
我画真	-14.5158
fdc	-14.5163
在家里	-14.5164
我哭方	-14.5165
会唱	-14.5169
zhàn	-14.518
方果	-14.5185
▁盒子是方	-14.5208
tīng	-14.5215
我说美丽	-14.5247
我坐快	-14.5249
不一	-14.5258
zhǎo	-14.526
tiào	-14.5273
我帮假	-14.5317
yóu	-14.5319
我开旧	-14.532
在左	-14.5326
三角形	-14.5378
金字塔	-14.5378
东边	-14.5379
我问轻	-14.5402
我唱快乐	-14.5411
我帮安静	-14.542
▁黑	-14.5422
guān	-14.5445
▁铁比	-14.5445
▁雨是	-14.5448
jcd	-14.5449
打伞可以	-14.545
kāi	-14.5465
igh	-14.547
我飞大	-14.5488
暖和	-14.5504
wán	-14.5504
wèn	-14.5511
我写白	-14.5515
因为猫	-14.5521
zǒu	-14.5526
我买快乐	-14.5526
yǎng	-14.5528
二辆车	-14.5533
shuō	-14.5541
二把椅子	-14.5556
我想香	-14.5557
我吃黄	-14.5566
二张桌子	-14.5572
二条鱼	-14.5579
我买高	-14.5585
我想黑	-14.5606
zhī	-14.5608
ibj	-14.5613
二支笔	-14.5619
里看	-14.5622
二棵树	-14.563
我买蓝	-14.563
我想小	-14.5631
我织凉	-14.564
我飞小	-14.5646
EA	-14.5665
kàn	-14.5696
pǎo	-14.5701
一条鱼	-14.5706
长公共子序列	-14.5711
我学大	-14.5737
chī	-14.5742
我写短	-14.5749
我种黄	-14.5751
我答矮	-14.5753
我跳美丽	-14.5756
我想近	-14.5764
二朵花	-14.5766
我画热	-14.5771
太阳可以	-14.5805
我想黄	-14.5805
我放小	-14.5831
▁大熊	-14.5837
香蕉是黄	-14.5851
fàng	-14.5863
我哭坏	-14.5866
手边是	-14.5873
āng	-14.5875
我做甜	-14.5919
我读黑	-14.5926
三辆车	-14.5939
abf	-14.5957
三把椅子	-14.5957
我养美丽	-14.5957
我跑坏	-14.5967
我游高	-14.5969
auxiliary	-14.597
yán	-14.5971
少的	-14.5974
比人	-14.598
三条鱼	-14.5987
我关矮	-14.601
三支笔	-14.6024
我喜欢温暖	-14.6036
三棵树	-14.6038
因为鱼	-14.6038
ná	-14.606
sǎo	-14.6076
xīng	-14.6077
会用	-14.6082
放到	-14.6098
▁亮和暗	-14.6105
我做矮	-14.6121
已排序	-14.6127
三本书	-14.6132
会晒	-14.6156
椅子下面	-14.6158
我说甜	-14.616
三朵花	-14.6178
xiě	-14.6198
TreeNode	-14.6209
BA	-14.6209
我想慢	-14.6219
▁花有	-14.6235
efa	-14.6258
ws	-14.6264
我喝绿	-14.6273
mài	-14.6282
有很多	-14.6286
我读近	-14.63
我跳安静	-14.6305
在黑	-14.6307
pá	-14.6322
花很矮	-14.6358
粉色的	-14.6374
mǎi	-14.6375
▁树是	-14.6376
fēi	-14.6387
▁玻璃	-14.6397
gec	-14.6398
我坐大	-14.6414
我买黄	-14.6425
我帮重	-14.6444
我笑新	-14.6449
石头很	-14.6461
成小	-14.6467
我答真	-14.6486
新衣	-14.6508
是胖	-14.651
ebh	-14.6511
四辆车	-14.6511
四把椅子	-14.6521
四张桌子	-14.6538
▁sǎ	-14.6556
屋里走	-14.6558
四条鱼	-14.656
我学多	-14.6563
四支笔	-14.6594
先吃饭	-14.661
四棵树	-14.6612
▁过马路	-14.6625
一辆车	-14.6629
我哭香	-14.6634
一把椅子	-14.6649
dá	-14.6667
我吃温暖	-14.6673
一张桌子	-14.6675
五辆车	-14.6682
五把椅子	-14.6691
四本书	-14.6699
我哭长	-14.6709
五条鱼	-14.6727
▁快和慢	-14.6737
我玩大	-14.6741
ACE	-14.6747
hǎo	-14.675
四朵花	-14.6758
我找黑	-14.676
五支笔	-14.6764
我哭大	-14.6777
五棵树	-14.6784
我买圆	-14.6791
我跑多	-14.681
我跑安静	-14.6825
我卖高	-14.6837
▁下雨	-14.6844
fac	-14.6847
dú	-14.6851
我扫好	-14.6866
五本书	-14.6869
▁白色	-14.6891
BE	-14.6924
五朵花	-14.6931
我读安静	-14.6943
我学美丽	-14.6986
FDA	-14.6999
chb	-14.7008
我喜欢红	-14.7026
空中	-14.7032
我听慢	-14.7063
我爱可爱	-14.7079
我游大	-14.7086
▁兔子是	-14.709
我说小	-14.711
我洗小	-14.7129
bci	-14.7196
我喜欢凉	-14.72
我走假	-14.7204
我坐重	-14.7211
FDC	-14.7214
要吹一吹	-14.7229
二只鸟	-14.7243
我放坏	-14.7292
我拿远	-14.73
我学坏	-14.7326
出了	-14.7327
yá	-14.7336
我想酸	-14.7363
我跳黑	-14.7369
我唱快	-14.7416
我爱假	-14.7456
很清	-14.7469
fb	-14.7474
píng	-14.7476
我坐假	-14.7509
我走蓝	-14.7514
▁因为花	-14.752
我哭黄	-14.7531
huā	-14.7533
我看绿	-14.7553
我答明亮	-14.7556
我扫近	-14.7578
jg	-14.7584
我洗甜	-14.7614
▁树上	-14.7625
tóu	-14.7648
三只鸟	-14.766
▁泡	-14.7674
我放慢	-14.7676
我游黑	-14.7682
▁黑色	-14.7683
我说安静	-14.7684
我洗慢	-14.7688
我想坏	-14.7697
一只鸟	-14.771
我洗远	-14.7733
高楼	-14.7743
我洗黑	-14.7743
我送小	-14.7751
我想美丽	-14.7761
我问快乐	-14.7766
我说长	-14.778
ends	-14.7799
▁蓝	-14.783
大石	-14.7873
我做假	-14.7881
chuán	-14.7884
我看新	-14.789
我画新	-14.7892
我送方	-14.7895
BAD	-14.7897
我写旧	-14.7897
我学短	-14.7919
我关圆	-14.7922
fej	-14.7935
我答多	-14.7935
我看小	-14.7936
如果冰放在	-14.7956
我卖温暖	-14.7982
酸米	-14.8002
cf	-14.801
▁种子	-14.8036
我做旧	-14.8038
我看可爱	-14.8041
铁会	-14.8046
我画圆	-14.8057
我跑蓝	-14.8064
我看旧	-14.8073
子去	-14.8077
▁温	-14.8086
我想新	-14.8123
gib	-14.8132
头放进	-14.8153
我送明亮	-14.8159
我做美丽	-14.8161
zhuō	-14.8173
为天	-14.8198
冰箱里	-14.8198
我洗少	-14.8199
[]):	-14.8208
我玩香	-14.8226
四只鸟	-14.8234
我画白	-14.8234
fec	-14.8247
我爱小	-14.8249
我拿小	-14.8254
我读旧	-14.8263
我做长	-14.8265
gōng	-14.8292
我读快	-14.8318
tiān	-14.8357
eja	-14.836
我洗真	-14.8391
五只鸟	-14.8411
我做重	-14.8412
我跳快乐	-14.8446
我放香	-14.8447
我卖红	-14.8453
shu	-14.8459
cia	-14.8461
我扫小	-14.8461
我看美丽	-14.8477
我看热	-14.8509
人来	-14.8529
yǎn	-14.8537
二个苹果	-14.8553
fáng	-14.8553
我养蓝	-14.8557
要穿鞋	-14.8572
mǎ	-14.8575
AD	-14.8584
我放温暖	-14.8626
我爱好	-14.8628
好米	-14.8629
我玩慢	-14.8645
天上	-14.8666
我卖可爱	-14.8679
māo	-14.868
zi	-14.871
我问可爱	-14.8711
我飞重	-14.8712
guā	-14.8725
我扫慢	-14.8755
我看重	-14.8762
我跑香	-14.8766
我答大	-14.8781
fge	-14.8794
gh	-14.8804
不能先穿	-14.8805
我卖少	-14.884
chj	-14.8852
我学安静	-14.8868
我唱酸	-14.8899
我画快乐	-14.892
我喜欢轻	-14.893
我买绿	-14.8933
qì	-14.8976
ghb	-14.8985
isi	-14.9
我飞安静	-14.9019
大果	-14.9022
pre	-14.9025
bia	-14.9048
二件	-14.9089
我洗白	-14.9089
yǐ	-14.9092
▁钢	-14.9101
我游圆	-14.9106
我飞快乐	-14.9118
▁yu	-14.9122
dh	-14.9126
我游安静	-14.9157
我画可爱	-14.9161
我问酸	-14.9162
我帮蓝	-14.9164
我找黄	-14.9168
我说矮	-14.9209
我扫假小	-14.9214
我跳绿	-14.9246
▁热	-14.9252
tài	-14.9261
蚂蚁是	-14.9271
我听美丽	-14.9285
橘子是	-14.9304
我答长	-14.9335
天下雨了	-14.9345
我站高	-14.9379
▁石头很	-14.9397
真米	-14.9434
路很慢	-14.9457
▁棉花和	-14.9482
我玩热	-14.9517
不是绿色	-14.954
表面	-14.9542
我写轻	-14.9552
我问多	-14.9566
bj	-14.9569
我喜欢坏	-14.9572
▁乌龟是	-14.9583
我哭小	-14.9605
我爱快	-14.9614
我种甜	-14.9662
我做短	-14.9678
上站	-14.9679
为什么雪	-14.9698
我跑慢	-14.9722
我送热	-14.9729
长米	-14.9735
我卖酸	-14.9745
会飞	-14.9745
我找美丽	-14.9747
我开好	-14.9768
后的	-14.9774
我爬高	-14.9825
▁窗户	-14.9836
我喝蓝	-14.9844
明亮米	-14.9866
我走白	-14.9881
鸟在树上	-14.9885
我买短	-14.9941
我答方	-14.9945
叶很轻	-14.9947
我卖多	-14.9956
IndexError	-14.9964
我看黑	-14.9971
我喜欢新	-14.9977
我听坏	-14.9981
高米	-15.0005
我开香	-15.0005
我听凉	-15.0029
慢米	-15.0041
我吃方	-15.005
山是一种	-15.0119
CBEA	-15.0121
我跑高	-15.0123
ae	-15.0141
我问香	-15.015
gǒu	-15.0177
我坐坏	-15.0181
什么时候	-15.0186
热米	-15.0188
fē	-15.0218
▁li	-15.0239
木头会	-15.0251
我跑快	-15.0262
有彩虹	-15.0284
要开	-15.029
天很冷	-15.0294
三件	-15.0358
KeyError	-15.0369
我种安静	-15.0388
hea	-15.0411
很热所以	-15.0428
EFB	-15.0434
我送重	-15.0442
▁石头和	-15.0457
▁的最	-15.05
我卖白	-15.052
我站快	-15.052
->	-15.0531
我吃近	-15.0561
我想温暖	-15.0586
爱脚	-15.0598
我唱甜	-15.062
shallow	-15.0625
我问好	-15.0631
快和慢	-15.0636
我送矮	-15.0637
我飞慢	-15.0651
爱小狗	-15.0654
建堆	-15.0671
车很香	-15.0709
zhòng	-15.0719
我爬假	-15.076
AFE	-15.0792
▁一天	-15.0806
车很可爱	-15.0813
我看真	-15.0823
▁新	-15.0824
我种高	-15.083
我放方	-15.0831
我爬矮	-15.0837
-=	-15.0858
完了	-15.0896
ead	-15.0908
我喝白	-15.0918
云在天	-15.0928
global	-15.0961
我跳圆	-15.0973
我放高	-15.0988
小兔	-15.0988
我养黄	-15.1004
我看近	-15.1023
树叶会	-15.1035
我爱美丽	-15.1042
我看快乐	-15.105
我洗快	-15.1065
鸟很可爱	-15.1068
二碗	-15.1072
我关热	-15.1083
我跳短	-15.1092
笔很可爱	-15.1101
奶奶读米	-15.1101
鱼很可爱	-15.1107
我坐旧	-15.1135
▁房子	-15.1154
桌子很矮	-15.1164
我喜欢真	-15.1188
笔很矮	-15.1213
▁水在	-15.1219
我哭可爱	-15.1244
我飞黄	-15.1245
我走美丽	-15.1295
我听长	-15.1319
笔很甜	-15.1333
树很甜	-15.1333
我坐蓝	-15.1338
我学快米	-15.1355
jiǎ	-15.1363
我听多	-15.1369
因为天	-15.1372
展平	-15.1375
我喜欢黄	-15.139
我听快乐	-15.1398
我走坏	-15.14
我问小	-15.1412
我坐短	-15.1416
raise	-15.1428
我飞圆	-15.1447
桌子很轻	-15.1486
我唱圆	-15.1495
椅子很轻	-15.1495
花很轻	-15.1497
我种真	-15.1516
花很甜	-15.1521
四件	-15.1548
茶很热	-15.1579
兔子跑得	-15.1598
我看红	-15.1603
我爱酸	-15.1609
弟弟爬米	-15.1623
一件	-15.1655
我问快	-15.1658
xu	-15.1663
厂很快	-15.1664
五件	-15.1681
▁天	-15.1696
我做快	-15.1702
三碗	-15.1723
书很香	-15.1731
我织长	-15.1757
弟弟吃米	-15.1759
妈妈织米	-15.1759
爸爸卖米	-15.176
脸很快	-15.1769
书很高	-15.1773
车很高	-15.1786
椅子很香	-15.179
鸟很香	-15.179
叶很快	-15.1797
机很大	-15.1809
桌子很高	-15.1816
我站慢	-15.183
笔很高	-15.1836
头很轻	-15.1846
爸爸很快	-15.1849
六等于	-15.1851
哥哥看米	-15.1857
老师很快	-15.186
▁上	-15.1868
发很快	-15.1883
龙很快	-15.1886
lin	-15.1886
心很快	-15.1887
厂真快	-15.1904
树很快	-15.1909
七等于	-15.1934
妹妹	-15.194
我游慢	-15.1961
我玩长	-15.1965
脸真快	-15.1978
小鱼	-15.1979
我跑圆	-15.1979
你画石	-15.2005
菜很快	-15.2018
我找可爱	-15.2022
虎很快	-15.2026
鞋很快	-15.2036
妹妹听米	-15.2037
我养假	-15.2041
口很快	-15.2044
鸭很快	-15.2055
花很高	-15.2059
天空很快	-15.2061
眼很快	-15.2064
爸爸真快	-15.2067
妹妹看米	-15.2075
小狗游米	-15.2075
叶真快	-15.2084
树真快	-15.2084
书很重	-15.2084
鸟很快	-15.2085
龙真快	-15.2086
你游熊	-15.2089
我跑近	-15.2091
妈妈读米	-15.2095
我跑白	-15.2103
桌子很重	-15.2118
老师真快	-15.2121
椅子很重	-15.2127
头很快	-15.2128
椅子很快	-15.2131
路很快	-15.2134
船很快	-15.2136
石很快	-15.2145
我画重	-15.2155
口真快	-15.217
我跳重	-15.2171
鞋真快	-15.218
虎真快	-15.218
鸟真快	-15.2183
头很重	-15.2184
鸭真快	-15.2187
菜真快	-15.2188
眼真快	-15.2207
心真快	-15.2208
天空真快	-15.2209
发真快	-15.2213
{}	-15.2214
椅子真快	-15.2221
小狗真快	-15.2229
我爱慢	-15.224
路真快	-15.2245
面很快	-15.2245
小猫真快	-15.225
石真快	-15.2261
船真快	-15.2262
课时	-15.2265
我听新	-15.2288
我找白	-15.2289
头真快	-15.2294
我爱短	-15.2312
ins	-15.2315
城是一种	-15.233
书很大	-15.235
īng	-15.2351
我放旧	-15.2355
卖	-15.2363
二朵	-15.2369
我笑旧	-15.237
三朵	-15.237
uō	-15.2371
五辆	-15.2372
三辆	-15.2372
一辆	-15.2372
免	-15.2372
休	-15.2372
四辆	-15.2372
管	-15.2373
菌	-15.2373
齿	-15.2373
面真快	-15.2373
师	-15.2373
四朵	-15.2375
五朵	-15.2376
爱好	-15.2385
小猫很高	-15.2387
我笑少	-15.2391
鱼很大	-15.2399
五碗	-15.2405
椅子很大	-15.2407
学问	-15.246
盐很重	-15.2461
我送安静	-15.2469
▁因为水	-15.2486
喝熊	-15.2497
多和少	-15.2498
桌子很好	-15.2499
椅子很好	-15.2503
多喝水	-15.2506
我养近	-15.2515
书很好	-15.2526
鱼很好	-15.2527
我关明亮	-15.255
是一种历	-15.2565
我喝少	-15.2588
我写小	-15.2592
我送温暖	-15.2607
苹果很重	-15.2616
小猫很快	-15.268
苹果很大	-15.2689
小狗很快	-15.2694
我喜欢少	-15.2706
是忙	-15.2712
果真快	-15.2737
我吃可爱	-15.2738
我问高	-15.2747
▁风	-15.2759
我游蓝	-15.2759
▁二十	-15.276
▁刀	-15.2762
我洗多	-15.2792
一碗	-15.2794
门外	-15.2811
我飞蓝	-15.2813
我玩旧	-15.2823
果很快	-15.2829
的时间	-15.2835
花很大	-15.2848
车很小	-15.2856
▁石头是	-15.288
我爱温暖	-15.2894
我帮大	-15.292
我看长	-15.294
我笑长	-15.2981
我织多	-15.3021
我养远	-15.3022
温度比	-15.303
我吃旧	-15.3059
我画黑	-15.3073
▁高	-15.3075
果很甜	-15.3078
msg	-15.3082
我问重	-15.3091
果很可爱	-15.3134
个浅的	-15.3136
苹果很小	-15.3137
下水	-15.3157
成水	-15.3159
我听真	-15.3167
我织可爱	-15.3179
我读香	-15.32
先穿衣	-15.3201
果很好	-15.3273
我跑可爱	-15.3288
我跑短	-15.3292
te	-15.3306
我听近	-15.3318
[]}	-15.3334
我玩新	-15.3339
我爱红	-15.3379
我问新	-15.3427
▁天气	-15.3456
▁小鱼	-15.347
我帮凉	-15.3494
我爱白	-15.3584
五等于	-15.359
我读远	-15.3615
我开快	-15.3621
十一	-15.3633
huān	-15.3636
Queue	-15.3641
Stack	-15.3642
只兔	-15.3674
我找凉	-15.3729
门开	-15.374
我爱方	-15.3749
我画多	-15.3774
CA	-15.378
我做近	-15.3796
我买美丽	-15.3863
▁汽车和	-15.3871
我爬圆	-15.3907
我笑黄	-15.391
我学可爱	-15.3924
爱桌子	-15.3928
▁大象是	-15.3954
喝完	-15.3974
我送少	-15.4079
我坐甜	-15.4086
我写快	-15.409
▁大象有	-15.4117
▁小兔	-15.4117
▁大石	-15.4138
是危险	-15.4247
ep	-15.429
四等于	-15.4302
水太	-15.4315
我唱小	-15.4342
如果火	-15.4432
我爬快乐	-15.4471
我跑真	-15.4477
gaf	-15.451
我说温暖	-15.4547
我种新	-15.4557
时候	-15.4562
别人	-15.4604
我读凉	-15.4677
▁新衣	-15.4714
我写高	-15.4747
▁热米	-15.4766
以晒太阳	-15.4829
我哭黑	-15.4844
我喝轻	-15.4851
▁高米	-15.4876
我洗蓝	-15.4882
我答小	-15.4922
▁明亮米	-15.4935
▁慢米	-15.4942
我唱明亮	-15.4963
和空气	-15.4984
三等于	-15.5014
我开安静	-15.5064
deep	-15.5067
我开白	-15.5083
▁爸爸	-15.513
我扫明亮	-15.5142
是宽	-15.5184
▁八减	-15.5217
▁长米	-15.5234
▁烫	-15.5267
▁酸米	-15.5271
我写蓝	-15.5281
▁好米	-15.5312
▁真米	-15.5362
▁丝绸之路	-15.5385
我吃热	-15.5419
子是	-15.5431
星期三	-15.5469
水里有	-15.549
我走圆	-15.549
我关好	-15.5634
我做安静	-15.565
走狮	-15.5694
二等于	-15.5729
我站方	-15.575
ián	-15.5759
我画少	-15.5828
[];	-15.5901
我喝坏	-15.5924
我站新	-15.6085
ndex	-15.6151
我送大	-15.6162
我听酸	-15.6169
我做明亮	-15.617
我洗绿	-15.6236
▁我喜欢	-15.6303
我游快乐	-15.6304
我爱凉	-15.6332
是粗	-15.635
▁红	-15.6378
我哭红	-15.6406
和冰	-15.6434
我拿假	-15.6488
我喝真	-15.6532
jf	-15.6609
▁好	-15.6624
一等于	-15.664
我读温暖	-15.6664
我学温暖	-15.6677
▁叶子是	-15.6678
我跑远	-15.6739
我养圆	-15.6744
我哭美丽	-15.686
我写新	-15.6979
比木头	-15.7048
▁香蕉	-15.7052
我帮快乐	-15.7142
我送快乐	-15.7147
衡量算法	-15.7164
我哭近	-15.7171
我卖快乐	-15.7222
我喜欢小	-15.7237
我坐温暖	-15.7258
我说香	-15.7325
我种明亮	-15.735
我说新	-15.7356
▁纸	-15.7366
我想大	-15.7399
我看轻	-15.748
我哭凉	-15.7499
我帮黑	-15.7504
我站快乐	-15.7598
我织红	-15.7623
在树下睡	-15.7718
▁远	-15.7723
我飞香	-15.777
我喜欢快	-15.7786
我织黑	-15.7792
我喝多	-15.7919
我站好	-15.7924
我吃好	-15.7939
我飞可爱	-15.7977
我送好	-15.7988
wrapper	-15.8014
很冰	-15.8017
我找长	-15.8025
▁京剧	-15.8043
我画坏	-15.8063
我学明亮	-15.8065
>=	-15.8067
我关长	-15.8143
fj	-15.8225
我喜欢重	-15.8231
爱牛	-15.8295
我想可爱	-15.8407
reader	-15.8451
我吃快	-15.8468
dje	-15.8482
我喝可爱	-15.8527
开狮	-15.8555
我织高	-15.8594
▁大海很	-15.8668
我做快乐	-15.8722
我听重	-15.8749
我玩甜	-15.875
我做方	-15.8798
eb	-15.8882
我拿轻	-15.8899
比大象	-15.8905
我笑黑	-15.8926
爱村	-15.8964
我扫少	-15.8965
我写长	-15.9001
中每个单词	-15.9029
我送真	-15.9069
如果冰	-15.9074
蒸气	-15.9246
▁st	-15.9284
是容易	-15.9291
我看多	-15.9311
yu	-15.9422
我开美丽	-15.9447
io	-15.9482
我帮短	-15.9494
我想假	-15.953
rat	-15.956
水里面	-15.9567
huán	-15.9575
▁香蕉在	-15.9599
我吃长	-15.9738
▁大象很	-15.9739
看狮	-15.9819
帮妈妈	-15.9853
我拿红	-15.9924
个新	-16.0111
我游甜	-16.0129
我送绿	-16.0145
爱船	-16.0406
太阳落	-16.0465
我答短	-16.0517
▁大海	-16.0597
我看短	-16.0677
我坐远	-16.0726
我坐近	-16.0759
我洗轻	-16.0842
gch	-16.0857
的鼻子	-16.0861
我写方	-16.0918
FDB	-16.094
DA	-16.1013
的果	-16.1057
▁香蕉是	-16.1106
我问绿	-16.1141
我哭假	-16.1261
我想安静	-16.1273
我织甜	-16.1303
能照	-16.1336
我开圆	-16.143
喜欢吃	-16.1538
▁十二	-16.164
衣服会	-16.1691
爱狮	-16.173
我吃假	-16.1784
我学黄	-16.186
我学新	-16.1879
▁葡萄	-16.1923
如果温度很	-16.2009
色是颜色	-16.2022
我唱重	-16.2046
tr	-16.211
是干	-16.214
我喝方	-16.2171
我站热	-16.2199
我走轻	-16.224
我想白	-16.2241
▁暖	-16.2329
哭兔	-16.2343
我跑酸	-16.244
后变成	-16.2523
▁五十	-16.2659
下面有	-16.2718
爱房子	-16.2861
的是	-16.2931
jb	-16.3174
我唱短	-16.3211
iaf	-16.3235
CDB	-16.3264
我喝长	-16.3285
计算平	-16.3344
的花	-16.3528
路上跑	-16.366
我画酸	-16.3798
▁七减	-16.3881
我养新	-16.4111
后不	-16.4132
耗时	-16.4165
我爱真	-16.4184
我跳慢	-16.424
真小	-16.4299
我开明亮	-16.4323
我游新	-16.4369
|	-16.4417
跳叶	-16.4435
树叶落	-16.4515
我扫白	-16.4547
我想重	-16.4595
我玩少	-16.4653
CE	-16.4742
我读酸	-16.4866
db	-16.5046
▁水是	-16.5252
▁钟	-16.5253
我送美丽	-16.5301
我游近	-16.5424
爱桥	-16.5447
▁门	-16.553
我开方	-16.5569
否	-16.5591
▁白	-16.5616
我画美丽	-16.5646
ush	-16.5855
我学慢	-16.5908
磕	-16.5962
橡	-16.5963
柜	-16.5964
枝	-16.5965
骚	-16.5966
陌	-16.5967
育	-16.5968
肤	-16.5969
雕	-16.597
鲁	-16.5971
舒	-16.5972
筷	-16.5973
筒	-16.5974
琴	-16.5975
炉	-16.5976
沫	-16.5977
挡	-16.5978
巨	-16.5979
震	-16.598
郑	-16.5981
言	-16.5982
夷	-16.5983
佗	-16.5984
齐	-16.5985
馆	-16.5986
遥	-16.5987
良	-16.5988
穆	-16.5989
盒	-16.599
玛	-16.5991
渚	-16.5992
朗	-16.5993
斗	-16.5994
徐	-16.5995
冈	-16.5996
纳	-16.5997
灸	-16.5998
墟	-16.5999
铅	-16.6
钙	-16.6001
补	-16.6002
泰	-16.6003
沈	-16.6004
户	-16.6005
促	-16.6006
众	-16.6007
甫	-16.6008
献	-16.6009
杜	-16.601
寿	-16.6011
唯	-16.6012
鲸	-16.6013
钻	-16.6014
透	-16.6015
迁	-16.6016
旷	-16.6017
贯	-16.6018
漫	-16.6019
溢	-16.602
浪	-16.6021
轼	-16.6022
潼	-16.6023
拳	-16.6024
墙	-16.6025
侯	-16.6026
乙	-16.6027
架	-16.6028
虹	-16.6029
蒸	-16.603
棍	-16.6031
屈	-16.6032
充	-16.6033
灵	-16.6034
旦	-16.6035
途	-16.6036
赖	-16.6037
豹	-16.6038
肚	-16.6039
猎	-16.604
渴	-16.6041
岳	-16.6042
季	-16.6043
卫	-16.6044
芽	-16.6045
泉	-16.6046
摘	-16.6047
团	-16.6048
橘	-16.6049
征	-16.605
富	-16.6051
昆	-16.6052
净	-16.6053
钢	-16.6054
植	-16.6055
我扫大	-16.6056
港	-16.6056
状	-16.6057
陪	-16.6058
纲	-16.6059
扇	-16.606
库	-16.6061
魏	-16.6062
蜗	-16.6063
莫	-16.6064
煌	-16.6065
敦	-16.6066
凿	-16.6067
—	-16.6068
羽	-16.6069
璃	-16.607
玻	-16.6071
G	-16.6072
控	-16.6073
我坐好	-16.6074
鹿	-16.6074
颈	-16.6075
铜	-16.6076
薪	-16.6077
操	-16.6078
困	-16.6079
膀	-16.608
翅	-16.6081
灰	-16.6082
允	-16.6083
ps	-16.6084
蝶	-16.6084
蝴	-16.6085
箱	-16.6086
抽	-16.6087
帽	-16.6088
蚂	-16.6089
蚁	-16.609
技	-16.6091
扩	-16.6092
峰	-16.6093
籍	-16.6094
辆	-16.6095
棵	-16.6096
衡	-16.6097
员	-16.6098
御	-16.6099
待	-16.61
逗	-16.6101
偶	-16.6102
供	-16.6103
睛	-16.6104
享	-16.6105
场	-16.6106
足	-16.6107
矩	-16.6108
幂	-16.6109
&	-16.611
限	-16.6111
沿	-16.6112
拓	-16.6113
扑	-16.6114
突	-16.6115
忆	-16.6116
支	-16.6117
溯	-16.6118
析	-16.6119
缩	-16.612
惰	-16.6121
储	-16.6122
况	-16.6123
律	-16.6124
【	-16.6125
险	-16.6126
危	-16.6127
朋	-16.6128
友	-16.6129
绍	-16.613
介	-16.6131
遵	-16.6132
耗	-16.6133
添	-16.6134
抛	-16.6135
审	-16.6136
艺	-16.6137
哪	-16.6138
源	-16.6139
希	-16.614
命	-16.6141
辗	-16.6142
贝	-16.6143
拷	-16.6144
龄	-16.6145
饰	-16.6146
匹	-16.6147
诺	-16.6148
束	-16.6149
Q	-16.615
塔	-16.6151
汽	-16.6152
执	-16.6153
品	-16.6154
输	-16.6155
杯	-16.6156
逻	-16.6157
决	-16.6158
择	-16.6159
活	-16.616
荐	-16.6161
贪	-16.6162
世	-16.6163
洁	-16.6164
波	-16.6165
斐	-16.6166
契	-16.6167
径	-16.6168
例	-16.6169
迭	-16.617
币	-16.6171
简	-16.6172
差	-16.6173
模	-16.6174
ō	-16.6175
杂	-16.6176
展	-16.6177
顺	-16.6178
紫	-16.6179
叉	-16.618
这	-16.6181
我飞好	-16.6182
括	-16.6182
须	-16.6183
构	-16.6184
嵌	-16.6185
链	-16.6186
爷	-16.6187
"	-16.6188
弟	-16.6189
哥	-16.619
检	-16.6191
奶	-16.6192
妹	-16.6193
调	-16.6194
姐	-16.6195
欢	-16.6196
默	-16.6197
返	-16.6198
统	-16.6199
访	-16.62
蕉	-16.6201
葡	-16.6202
萄	-16.6203
什	-16.6204
判	-16.6205
遍	-16.6206
ó	-16.6207
均	-16.6208
妈	-16.6209
苹	-16.621
爸	-16.6211
ī	-16.6212
函	-16.6213
平	-16.6214
索	-16.6215
误	-16.6216
à	-16.6217
N	-16.6218
ǎ	-16.6219
`	-16.622
不烫	-16.622
