<unk>	0
<s>	0
</s>	0
<0x00>	0
<0x01>	0
<0x02>	0
<0x03>	0
<0x04>	0
<0x05>	0
<0x06>	0
<0x07>	0
<0x08>	0
<0x09>	0
<0x0A>	0
<0x0B>	0
<0x0C>	0
<0x0D>	0
<0x0E>	0
<0x0F>	0
<0x10>	0
<0x11>	0
<0x12>	0
<0x13>	0
<0x14>	0
<0x15>	0
<0x16>	0
<0x17>	0
<0x18>	0
<0x19>	0
<0x1A>	0
<0x1B>	0
<0x1C>	0
<0x1D>	0
<0x1E>	0
<0x1F>	0
<0x20>	0
<0x21>	0
<0x22>	0
<0x23>	0
<0x24>	0
<0x25>	0
<0x26>	0
<0x27>	0
<0x28>	0
<0x29>	0
<0x2A>	0
<0x2B>	0
<0x2C>	0
<0x2D>	0
<0x2E>	0
<0x2F>	0
<0x30>	0
<0x31>	0
<0x32>	0
<0x33>	0
<0x34>	0
<0x35>	0
<0x36>	0
<0x37>	0
<0x38>	0
<0x39>	0
<0x3A>	0
<0x3B>	0
<0x3C>	0
<0x3D>	0
<0x3E>	0
<0x3F>	0
<0x40>	0
<0x41>	0
<0x42>	0
<0x43>	0
<0x44>	0
<0x45>	0
<0x46>	0
<0x47>	0
<0x48>	0
<0x49>	0
<0x4A>	0
<0x4B>	0
<0x4C>	0
<0x4D>	0
<0x4E>	0
<0x4F>	0
<0x50>	0
<0x51>	0
<0x52>	0
<0x53>	0
<0x54>	0
<0x55>	0
<0x56>	0
<0x57>	0
<0x58>	0
<0x59>	0
<0x5A>	0
<0x5B>	0
<0x5C>	0
<0x5D>	0
<0x5E>	0
<0x5F>	0
<0x60>	0
<0x61>	0
<0x62>	0
<0x63>	0
<0x64>	0
<0x65>	0
<0x66>	0
<0x67>	0
<0x68>	0
<0x69>	0
<0x6A>	0
<0x6B>	0
<0x6C>	0
<0x6D>	0
<0x6E>	0
<0x6F>	0
<0x70>	0
<0x71>	0
<0x72>	0
<0x73>	0
<0x74>	0
<0x75>	0
<0x76>	0
<0x77>	0
<0x78>	0
<0x79>	0
<0x7A>	0
<0x7B>	0
<0x7C>	0
<0x7D>	0
<0x7E>	0
<0x7F>	0
<0x80>	0
<0x81>	0
<0x82>	0
<0x83>	0
<0x84>	0
<0x85>	0
<0x86>	0
<0x87>	0
<0x88>	0
<0x89>	0
<0x8A>	0
<0x8B>	0
<0x8C>	0
<0x8D>	0
<0x8E>	0
<0x8F>	0
<0x90>	0
<0x91>	0
<0x92>	0
<0x93>	0
<0x94>	0
<0x95>	0
<0x96>	0
<0x97>	0
<0x98>	0
<0x99>	0
<0x9A>	0
<0x9B>	0
<0x9C>	0
<0x9D>	0
<0x9E>	0
<0x9F>	0
<0xA0>	0
<0xA1>	0
<0xA2>	0
<0xA3>	0
<0xA4>	0
<0xA5>	0
<0xA6>	0
<0xA7>	0
<0xA8>	0
<0xA9>	0
<0xAA>	0
<0xAB>	0
<0xAC>	0
<0xAD>	0
<0xAE>	0
<0xAF>	0
<0xB0>	0
<0xB1>	0
<0xB2>	0
<0xB3>	0
<0xB4>	0
<0xB5>	0
<0xB6>	0
<0xB7>	0
<0xB8>	0
<0xB9>	0
<0xBA>	0
<0xBB>	0
<0xBC>	0
<0xBD>	0
<0xBE>	0
<0xBF>	0
<0xC0>	0
<0xC1>	0
<0xC2>	0
<0xC3>	0
<0xC4>	0
<0xC5>	0
<0xC6>	0
<0xC7>	0
<0xC8>	0
<0xC9>	0
<0xCA>	0
<0xCB>	0
<0xCC>	0
<0xCD>	0
<0xCE>	0
<0xCF>	0
<0xD0>	0
<0xD1>	0
<0xD2>	0
<0xD3>	0
<0xD4>	0
<0xD5>	0
<0xD6>	0
<0xD7>	0
<0xD8>	0
<0xD9>	0
<0xDA>	0
<0xDB>	0
<0xDC>	0
<0xDD>	0
<0xDE>	0
<0xDF>	0
<0xE0>	0
<0xE1>	0
<0xE2>	0
<0xE3>	0
<0xE4>	0
<0xE5>	0
<0xE6>	0
<0xE7>	0
<0xE8>	0
<0xE9>	0
<0xEA>	0
<0xEB>	0
<0xEC>	0
<0xED>	0
<0xEE>	0
<0xEF>	0
<0xF0>	0
<0xF1>	0
<0xF2>	0
<0xF3>	0
<0xF4>	0
<0xF5>	0
<0xF6>	0
<0xF7>	0
<0xF8>	0
<0xF9>	0
<0xFA>	0
<0xFB>	0
<0xFC>	0
<0xFD>	0
<0xFE>	0
<0xFF>	0
▁	-2.397
,	-2.69999
:	-3.34793
1	-3.41112
(	-3.47646
。	-3.52584
2	-3.94702
3	-4.26225
▁=	-4.31808
4	-4.34003
0	-4.41292
)	-4.44492
5	-4.49574
]	-4.54881
▁```	-4.56348
8	-4.63945
9	-4.64695
7	-4.65522
6	-4.65844
▁'	-4.66948
[	-4.70349
▁#	-4.70976
_	-4.77617
.	-4.77701
int	-4.87781
▁pr	-4.9161
▁[	-5.00945
):	-5.01629
':	-5.15747
▁问题	-5.17414
▁解	-5.18878
▁return	-5.21425
▁代码	-5.23814
python	-5.24088
',	-5.2759
▁def	-5.28452
▁in	-5.31014
i	-5.31552
?	-5.35511
n	-5.36472
▁if	-5.47067
子	-5.47653
句	-5.49082
-	-5.5036
▁for	-5.52391
音	-5.64551
],	-5.6589
拼	-5.65912
arr	-5.66846
self	-5.71147
▁arr	-5.71885
s	-5.80024
'	-5.85185
▁i	-5.86424
▁n	-6.00724
))	-6.07319
range	-6.11646
▁+	-6.21343
▁result	-6.21517
▁s	-6.24791
O	-6.26042
j	-6.32622
),	-6.35042
▁b	-6.36806
+	-6.41791
▁x	-6.42211
('	-6.43283
▁len	-6.44639
root	-6.479
lst	-6.49064
()	-6.49758
▁{'	-6.50489
▁-	-6.52817
结果为	-6.5345
')	-6.55118
▁==	-6.5525
x	-6.57028
=	-6.59216
}	-6.59444
▁dp	-6.61584
f	-6.62718
([	-6.62871
d	-6.65538
)。	-6.67353
!	-6.69571
sort	-6.71387
▁('	-6.73583
in	-6.74741
▁max	-6.7493
的	-6.78392
val	-6.78906
小	-6.82932
w	-6.8431
▁lst	-6.84701
、	-6.84973
▁count	-6.86333
][	-6.86898
items	-6.87109
▁+=	-6.915
▁<=	-6.91661
a	-6.93716
])	-6.9389
b	-6.93936
▁a	-6.95411
▁['	-6.97194
▁target	-6.98208
append	-6.98226
▁<	-6.99857
▁else	-7.00489
r	-7.01201
sum	-7.02346
dp	-7.02896
▁None	-7.03605
order	-7.04131
呀	-7.06771
);	-7.07955
▁while	-7.1209
left	-7.12228
▁[[	-7.125
]))	-7.13641
▁{	-7.14312
▁*	-7.16151
▁import	-7.16267
item	-7.16719
Python	-7.18189
时间	-7.1832
t	-7.18444
ch	-7.18997
k	-7.20648
]。	-7.21427
用	-7.21559
▁visited	-7.21608
right	-7.21809
=[	-7.22799
node	-7.23568
;	-7.23729
list	-7.25028
/	-7.25533
▁is	-7.26026
使用	-7.2871
▁root	-7.2898
fib	-7.28983
l	-7.30046
▁d	-7.30354
age	-7.30946
请	-7.31396
xiǎo	-7.33054
y	-7.33062
▁j	-7.33969
▁%	-7.35144
__	-7.3515
▁>	-7.35271
reverse	-7.37626
如何实现	-7.37898
▁not	-7.3835
]]	-7.38608
▁的	-7.40203
吗	-7.40436
='	-7.40987
▁hi	-7.41473
和	-7.41895
it	-7.42454
▁c	-7.43156
果	-7.43524
▁total	-7.43595
D	-7.44104
▁cur	-7.44523
排序	-7.45128
苹果	-7.46386
)=	-7.46724
B	-7.4724
▁mid	-7.47315
修复	-7.476
数	-7.47749
len	-7.48464
▁错误代码	-7.48511
gcd	-7.48982
栈	-7.49365
▁(	-7.50415
花	-7.50841
st	-7.53509
result	-7.53534
▁w	-7.53763
▁val	-7.54608
▁collections	-7.57026
C	-7.57175
▁问	-7.57995
next	-7.58102
add	-7.58586
▁fib	-7.5995
不	-7.61564
如何用	-7.62045
元素	-7.62698
▁from	-7.62836
']	-7.64496
▁right	-7.6478
▁和	-7.64989
A	-7.65041
▁排序结果为	-7.66215
▁curr	-7.66326
函数	-7.66532
'))	-7.6666
就是	-7.66942
▁mx	-7.67527
▁l	-7.68242
data	-7.68324
max	-7.68795
葡萄	-7.68894
香蕉	-7.69248
]:	-7.6932
▁class	-7.69781
无	-7.69853
对	-7.70309
时	-7.70895
▁men	-7.71222
▁key	-7.71717
end	-7.7175
期	-7.72152
mid	-7.72167
▁__	-7.72418
^	-7.72428
▁f	-7.72748
al	-7.73094
tā	-7.73438
桃	-7.73716
樱	-7.73716
右	-7.7436
日	-7.74502
head	-7.74635
左	-7.74643
count	-7.74977
queue	-7.77377
m	-7.78513
▁end	-7.78678
'],	-7.78687
str	-7.78709
你知道	-7.7887
答	-7.79092
表示	-7.79689
是一种	-7.80207
}')	-7.80211
▁修复后	-7.80401
sorted	-7.81123
idx	-7.814
▁left	-7.8145
heapify	-7.81496
比较	-7.81567
▁v	-7.81635
▁elif	-7.81789
▁row	-7.83302
递归	-7.83329
dict	-7.83614
get	-7.85094
▁ch	-7.85478
▁**	-7.85627
根	-7.8581
▁lo	-7.86918
[:	-7.8949
在	-7.89596
ar	-7.89922
._	-7.90035
pop	-7.90254
为	-7.90402
factor	-7.90521
le	-7.90633
matrix	-7.9118
▁r	-7.91329
graph	-7.91437
更	-7.92157
)]	-7.93256
None	-7.94887
c	-7.95053
min	-7.95236
de	-7.9566
再	-7.95815
▁defaultdict	-7.9592
后	-7.9747
▁deque	-7.98071
▁[]	-7.98515
会	-7.9902
source	-7.9957
log	-7.99777
▁half	-7.99819
▁prev	-7.99861
▁stack	-8.00477
▁中	-8.01033
节点	-8.01197
▁[('	-8.01513
▁merge	-8.01689
▁Counter	-8.02168
ow	-8.02261
▁insert	-8.02279
F	-8.02542
▁reverse	-8.02552
错误	-8.03143
▁q	-8.03215
▁neighbor	-8.04327
zip	-8.06449
▁set	-8.06598
is	-8.06684
▁False	-8.06878
nǐ	-8.06921
▁//	-8.06943
▁largest	-8.07493
▁xué	-8.07645
mo	-8.07777
插入	-8.07893
height	-8.08044
me	-8.08711
▁True	-8.08883
▁min	-8.08921
width	-8.08957
▁修复方法	-8.09027
fs	-8.1106
前	-8.11397
wǒ	-8.11581
▁values	-8.12275
实现	-8.12593
largest	-8.12712
capacity	-8.12858
▁/	-8.13171
True	-8.13588
weights	-8.13598
▁k	-8.13949
ing	-8.13956
push	-8.14044
出	-8.14382
▁方法	-8.14933
enumerate	-8.15231
循环	-8.16942
}。	-8.17313
访问	-8.1749
cur	-8.18113
valid	-8.19269
en	-8.20195
检查	-8.20557
▁@	-8.21583
no	-8.21692
长度	-8.21824
的倍数	-8.21855
价值	-8.21857
g	-8.21867
selection	-8.21868
ack	-8.21884
ending	-8.21918
aps	-8.22056
▁and	-8.22171
so	-8.22201
far	-8.22221
ary	-8.22632
▁ws	-8.22892
ive	-8.23126
set	-8.24577
▁!=	-8.24853
▁exp	-8.24911
▁Python	-8.25741
是	-8.25959
ana	-8.25961
遍历	-8.2677
split	-8.27271
▁flat	-8.27272
并	-8.27428
e	-8.27706
返回	-8.27886
'])	-8.28409
▁new	-8.28667
大	-8.28906
▁TypeError	-8.29181
▁words	-8.30037
▁是	-8.30775
或	-8.31073
▁capacity	-8.31744
一	-8.32252
空	-8.32425
ub	-8.32665
▁实现	-8.32803
[-	-8.33108
(*	-8.33168
ear	-8.33305
▁bà	-8.33822
oi	-8.34107
nce	-8.34299
▁graph	-8.34601
习	-8.34716
▁queue	-8.35973
处理	-8.36002
量	-8.361
词	-8.36209
:])	-8.37448
链表	-8.3771
u	-8.37767
BST	-8.38084
加	-8.38159
▁shī	-8.38187
索引	-8.38407
han	-8.38458
转	-8.39179
▁nested	-8.392
num	-8.39804
▁')	-8.39839
lo	-8.40244
writer	-8.4063
按	-8.40726
original	-8.40879
▁sum	-8.415
▁quick	-8.41812
amount	-8.42048
默认值	-8.42318
黄色	-8.42522
进	-8.42626
heapq	-8.42712
on	-8.42761
文件	-8.43871
▁mā	-8.44489
有	-8.44497
行	-8.445
isten	-8.4456
▁di	-8.44861
nums	-8.44995
橙色	-8.45019
入	-8.45027
from	-8.46229
**	-8.4636
粉色	-8.46586
▁sorted	-8.46604
▁start	-8.46991
写	-8.47367
base	-8.47401
ty	-8.4772
每次	-8.48134
keys	-8.4864
total	-8.48954
func	-8.49124
▁y	-8.49275
将	-8.4943
以下代码	-8.4956
读取	-8.49595
▁with	-8.49649
ext	-8.49734
gen	-8.49856
index	-8.49857
盘	-8.50165
移动	-8.50227
快	-8.50406
容量	-8.50651
求数组	-8.50654
FizzBuzz	-8.50659
子数组	-8.50732
最小值	-8.50825
反转	-8.50847
约	-8.50856
▁->	-8.50906
▁māo	-8.50958
▁auxiliary	-8.50977
蓝色	-8.51038
E	-8.51047
popleft	-8.51088
palindrome	-8.5129
▁TreeNode	-8.51398
ra	-8.51455
等于	-8.51501
]);	-8.5152
▁ends	-8.51629
▁或	-8.51655
nex	-8.51685
▁pairs	-8.5186
紫色	-8.52087
starts	-8.5213
▁p	-8.52637
▁pre	-8.52808
▁-=	-8.5289
▁as	-8.52995
];	-8.53097
▁except	-8.53319
▁log	-8.53333
▁time	-8.53389
emp	-8.53414
列表	-8.53645
绿色	-8.5382
▁seen	-8.541
▁pivot	-8.54154
了	-8.54181
做	-8.54435
所以大家都喜欢	-8.54772
▁items	-8.55026
value	-8.55338
结果	-8.55396
红色	-8.5569
参数	-8.55715
多	-8.5575
<	-8.56358
▁la	-8.56665
号	-8.56781
se	-8.56889
▁csv	-8.56964
gram	-8.57259
▁en	-8.57271
以	-8.5741
q	-8.57577
]+	-8.57829
求	-8.583
ivi	-8.588
开心	-8.58983
阶	-8.59071
出现次数	-8.59071
lambda	-8.59072
平均值	-8.59073
flat	-8.59091
▁writer	-8.5944
jiě	-8.59932
创建	-8.60002
line	-8.60216
▁是否为	-8.60274
▁gǒu	-8.60509
)、	-8.60713
异常	-8.60939
ble	-8.60978
之	-8.62099
条件	-8.62123
p	-8.62647
*	-8.62723
▁的最大	-8.62851
mèi	-8.63036
先	-8.63176
{	-8.63325
▁m	-8.63613
bà	-8.63866
贪心	-8.64048
少	-8.64382
最大和	-8.6456
原	-8.65259
值	-8.65531
从	-8.65727
必须	-8.65765
gē	-8.65819
nǎi	-8.6583
ind	-8.65888
与	-8.66141
one	-8.66759
查找	-8.6676
时间复杂度	-8.66845
ement	-8.67006
乘	-8.67259
分	-8.67803
正确	-8.68015
自动	-8.68016
如何	-8.6806
▁zuò	-8.68079
lǎo	-8.68104
统计	-8.6826
手动	-8.68268
边界	-8.68324
字母	-8.68522
())	-8.68641
tóng	-8.68699
方法	-8.69243
csv	-8.69353
er	-8.69368
try	-8.69478
yé	-8.69983
▁对	-8.70148
low	-8.70273
rect	-8.70329
▁data	-8.70389
P	-8.70478
stats	-8.70564
name	-8.70589
字符串	-8.71081
调整	-8.71095
ba	-8.71204
▁num	-8.71222
▁float	-8.72384
▁next	-8.72598
类型	-8.72675
括号	-8.73205
▁xǐ	-8.73316
sta	-8.7391
真	-8.7413
五	-8.74196
)?	-8.74244
岁	-8.74255
练	-8.74274
结构	-8.74545
有序	-8.74756
join	-8.74816
mā	-8.7504
▁age	-8.75246
到	-8.75452
▁míng	-8.75696
个	-8.76056
dì	-8.7618
子树值	-8.76453
ci	-8.7708
afe	-8.77349
选	-8.7755
我今年	-8.77558
(['	-8.77595
v	-8.77781
▁msg	-8.77826
问题	-8.77988
以下代码报	-8.78116
function	-8.78399
Pythonic	-8.784
CSV	-8.78403
chain	-8.78429
▁IndexError	-8.78443
▁jiě	-8.78484
ding	-8.78615
price	-8.7869
▁raise	-8.78695
▁global	-8.78704
▁shallow	-8.78711
▁KeyError	-8.78716
co	-8.78944
▁dict	-8.79106
▁or	-8.80007
等	-8.80135
target	-8.80173
▁sh	-8.80671
▁hóng	-8.807
▁mèi	-8.81585
▁chars	-8.81899
▁Rectangle	-8.81945
顶	-8.82099
avg	-8.82119
▁lines	-8.8213
neighbor	-8.82183
start	-8.82327
▁copy	-8.82791
cnt	-8.82996
所有	-8.83329
V	-8.83866
▁gē	-8.84128
heap	-8.84148
▁nǎi	-8.84256
LI	-8.85074
▁po	-8.85138
找到	-8.85147
ate	-8.85325
体	-8.85509
集合	-8.85624
据	-8.85913
ion	-8.86095
空间	-8.8618
执行	-8.86272
逐个	-8.86882
重量	-8.869
ng	-8.8693
只	-8.87016
内	-8.87186
算法	-8.87187
类	-8.87249
▁matrix	-8.87272
走	-8.87275
列表推导式	-8.8731
背包	-8.87493
通过	-8.87495
合并	-8.87819
▁yé	-8.88272
串	-8.88383
四	-8.89502
ǔ	-8.89571
换	-8.89644
未	-8.89668
模块	-8.89668
I	-8.89944
ange	-8.90003
nt	-8.9004
app	-8.90082
切片	-8.90276
去重	-8.90504
▁有	-8.90581
指向	-8.9066
水	-8.90993
中序	-8.91234
Buzz	-8.91236
Fizz	-8.91236
已	-8.91237
尾	-8.91249
结束时间	-8.9125
如何在列表	-8.9125
最优价值为	-8.9125
硬币	-8.9125
cache	-8.9125
物品	-8.9125
score	-8.91251
层移到	-8.91251
冒泡排序	-8.91254
peek	-8.91255
选取	-8.9126
]*(	-8.9129
▁original	-8.91344
口	-8.91389
▁|	-8.91422
▁Queue	-8.91547
▁Stack	-8.91547
)):	-8.91555
维护	-8.91569
到已排序	-8.91744
回文	-8.91891
heappop	-8.91924
owe	-8.91939
整数	-8.91956
▁Node	-8.9198
▁>=	-8.92314
coins	-8.92336
前序	-8.92368
记	-8.92533
)))	-8.92633
字典	-8.92711
放	-8.93026
▁[]}	-8.93048
ru	-8.93135
由	-8.93182
▁[];	-8.93262
一个	-8.93522
是否匹配	-8.93647
调用	-8.93788
数据	-8.93807
窗	-8.94159
重复计算	-8.94236
ac	-8.94632
S	-8.94737
W	-8.95153
比	-8.95321
分组	-8.95419
开	-8.95584
建议	-8.96156
▁[]):	-8.96316
▁groups	-8.96364
▁complement	-8.96408
对象	-8.96496
▁unique	-8.96776
False	-8.96956
blue	-8.97163
airs	-8.97469
mb	-8.97545
应	-8.97696
方向	-8.97842
ry	-8.98232
是否	-8.98653
▁步	-8.98829
于放	-8.98971
性	-8.99155
公	-8.99181
▁S	-8.99251
导致	-8.9956
于	-8.99597
很	-8.99722
米	-8.99793
ction	-8.9997
总和	-9.00038
树	-9.00329
off	-9.00607
▁re	-9.01437
记录	-9.01663
节省内存	-9.01664
开始	-9.02404
最坏	-9.02732
生成器	-9.0297
修改	-9.03088
uǒ	-9.03424
式	-9.03439
hello	-9.0381
装饰器	-9.03886
茶	-9.03942
中	-9.04081
项	-9.04171
参数指定	-9.04171
辗转相除法	-9.04171
如何对列表	-9.04172
先判断	-9.04183
两个数	-9.04191
▁展平	-9.04559
▁zi	-9.04856
元音	-9.05104
▁{}	-9.05441
orld	-9.05482
finally	-9.05642
▁amount	-9.05732
鸟	-9.05867
避免	-9.06047
▁heapq	-9.06357
步	-9.06717
关键字	-9.06755
重	-9.07359
do	-9.07618
kwargs	-9.07868
args	-9.07906
key	-9.07924
计算	-9.08402
▁functools	-9.08655
'{	-9.09077
))]	-9.09303
nested	-9.09422
▁push	-9.09574
av	-9.09604
计数	-9.10008
itertools	-9.10015
time	-9.10018
();	-9.10033
vowels	-9.10039
▁xiào	-9.10129
数字	-9.10167
慢	-9.10279
▁weights	-9.10348
越界	-9.1044
wraps	-9.10643
two	-9.11563
带	-9.11979
Hello	-9.12493
ù	-9.12493
▁_	-9.12524
小红	-9.12569
包	-9.12941
推荐	-9.13217
质	-9.1323
序列	-9.13673
拼接	-9.13727
▁分组	-9.13766
书	-9.13801
text	-9.14019
种方法	-9.14136
▁去重	-9.14231
成	-9.14563
后序	-9.14652
草	-9.15079
ē	-9.151
小明	-9.15821
quick	-9.15893
队列	-9.16116
百科	-9.16517
▁line	-9.16743
风	-9.1692
'?	-9.17059
息	-9.17345
车	-9.1758
远	-9.17646
手	-9.17687
)+	-9.17896
Error	-9.17952
鱼	-9.18172
信息	-9.18174
string	-9.1826
['	-9.18683
直接	-9.18977
优化	-9.19009
命名规范	-9.19011
逻辑	-9.19012
抛出	-9.19013
U	-9.19013
被改	-9.19013
避免递归的	-9.19013
capitalize	-9.19013
property	-9.19013
丢失精度	-9.19013
如何统计字符串	-9.19013
年龄必须	-9.19013
"""	-9.19013
filepath	-9.19013
赋值	-9.19013
添加	-9.19014
副作用	-9.19014
遵循	-9.19014
逐行	-9.19015
之间	-9.19016
数据验证	-9.19018
最大	-9.1902
perimeter	-9.1902
oca	-9.19022
比较运算符	-9.19034
分词	-9.19052
大写	-9.19063
质数	-9.19072
area	-9.19076
如何实现一个	-9.19085
应使用	-9.19095
用循环	-9.19211
▁耗时	-9.19243
▁中每个单词	-9.19306
▁wrapper	-9.19321
▁reader	-9.19333
▁deep	-9.19406
alc	-9.1957
最	-9.19748
▁而非	-9.19926
file	-9.19946
字	-9.20055
▁中的	-9.20141
rt	-9.20383
平均	-9.20657
事	-9.20693
timer	-9.21026
终	-9.21126
报错	-9.21347
除法	-9.21545
▁大于	-9.22015
但	-9.22275
二就是	-9.22577
安全	-9.22756
二叉搜索树	-9.2282
稳定排序	-9.22877
作	-9.23627
每	-9.23728
▁grouped	-9.24139
▁ValueError	-9.24172
▁deepcopy	-9.24527
太阳	-9.24576
三就是	-9.24587
度	-9.24611
▁F	-9.24877
适	-9.24897
ost	-9.24939
脚	-9.25098
火	-9.25473
pri	-9.25641
起	-9.26773
人	-9.26854
效	-9.26888
hé	-9.27276
▁ná	-9.27299
身	-9.27332
佳	-9.2781
快速排序	-9.27821
外	-9.28247
得到	-9.28284
雪	-9.2832
请介绍一下	-9.28398
▁vowels	-9.28873
▁itertools	-9.28912
顺序	-9.29199
配合	-9.29201
▁h	-9.29724
▁two	-9.29843
选择	-9.30122
动态规划	-9.30136
关键	-9.30169
】	-9.30607
▁【	-9.30772
é	-9.3083
可用	-9.311
acti	-9.31403
山	-9.31425
人物	-9.31589
哈希表	-9.32057
▁列表推导式	-9.32217
是什么	-9.32472
笔	-9.32836
是的	-9.3286
基准	-9.33001
面	-9.33893
层	-9.33972
所需	-9.33973
exp	-9.34042
deque	-9.34156
L	-9.34316
▁value	-9.34316
ap	-9.34377
月亮	-9.34454
最短路径	-9.34462
▁个	-9.34712
▁sòng	-9.34787
规律	-9.34958
▁g	-9.34974
cs	-9.35003
▁huān	-9.3511
óng	-9.35313
el	-9.35384
里	-9.35429
位置	-9.35437
雨	-9.35502
cie	-9.35574
军	-9.36136
ada	-9.3625
▁jī	-9.36273
受	-9.36402
持	-9.36442
iǎo	-9.36543
▁node	-9.36761
交	-9.36942
基例	-9.36951
ǒu	-9.36952
▁item	-9.37012
Data	-9.37457
序	-9.37678
▁yóu	-9.37762
▁C	-9.37922
化	-9.38447
样	-9.38653
可	-9.38656
关	-9.38881
取	-9.38965
存储	-9.38986
益	-9.38989
▁bāng	-9.39318
缩小	-9.39502
数据和	-9.39598
飞	-9.39658
▁L	-9.39844
▁huà	-9.39857
建	-9.40011
封装	-9.4002
高	-9.40137
桌子	-9.40191
合	-9.40232
DFS	-9.405
BFS	-9.40501
即	-9.40541
▁hē	-9.40569
红	-9.40619
椅子	-9.40723
▁kāi	-9.40852
▁wán	-9.40859
ope	-9.40971
ě	-9.41046
代	-9.41049
适合连通性判断	-9.41065
艺术	-9.41066
每天	-9.41088
▁zhàn	-9.41393
▁tiào	-9.41395
gra	-9.41439
▁sǎo	-9.41539
▁wèn	-9.41899
▁zǒu	-9.41899
▁tīng	-9.41917
▁排序	-9.42052
渐	-9.42121
循	-9.42122
恒	-9.42122
利用	-9.42134
下	-9.42196
去	-9.42224
位	-9.42632
当前	-9.42632
地	-9.42708
unique	-9.42729
except	-9.4298
▁zhǎo	-9.42981
▁循环	-9.43227
▁kàn	-9.43518
▁zhǒng	-9.43526
▁yú	-9.43529
形成	-9.43594
回溯	-9.43724
变	-9.43745
//	-9.43867
▁zhī	-9.44032
▁pǎo	-9.4406
▁chàng	-9.44064
无权图	-9.44808
坚持	-9.4481
适合求	-9.44821
河	-9.44889
▁width	-9.45022
▁height	-9.45321
连续	-9.45354
增	-9.45355
中序遍历	-9.45572
ǐ	-9.45632
▁更	-9.4575
▁xiǎng	-9.45751
rec	-9.4579
意	-9.45902
实例	-9.45905
▁mǐ	-9.46261
单	-9.46428
▁guān	-9.4644
堆排序	-9.46473
列	-9.46529
计数排序	-9.46536
%	-9.46645
有什么	-9.46726
▁pá	-9.46756
▁chī	-9.46767
▁yǎng	-9.46811
新	-9.46861
中国	-9.46989
婷	-9.47012
惯	-9.47012
杰	-9.47012
us	-9.47091
家	-9.47348
world	-9.474
世界遗产	-9.47573
是整	-9.48036
相	-9.48052
可用记忆化优化	-9.48133
翻	-9.48133
▁append	-9.48139
互	-9.48689
冲突	-9.48697
队列是先进先出	-9.48697
栈是后进先出	-9.48698
组成	-9.487
最大堆	-9.48701
▁ài	-9.48917
零	-9.48937
▁shuō	-9.49026
名	-9.4926
用队列逐层	-9.49265
最小堆	-9.49266
merge	-9.49826
减	-9.49835
怎	-9.49837
Counter	-9.50144
发	-9.50169
判断	-9.50203
insert	-9.50255
学校	-9.50316
不断	-9.50418
本	-9.5054
键	-9.50566
公园	-9.50592
▁dá	-9.50746
明	-9.50751
同一	-9.50809
pivot	-9.50873
唱	-9.5089
values	-9.50976
mx	-9.50977
每次比较中间元素	-9.5099
范围	-9.5099
活动选择	-9.51007
float	-9.51045
complement	-9.5113
groups	-9.51211
seen	-9.51242
的最大	-9.51288
▁生	-9.51309
我	-9.51373
嵌套列表推导式展平	-9.51572
全局	-9.51719
transposed	-9.5173
merged	-9.51889
差集	-9.51956
交集	-9.51957
并集	-9.51962
所以	-9.51966
时返回	-9.52002
拓扑排序	-9.52156
沿一条路径	-9.52156
无限	-9.52157
转换	-9.52415
coin	-9.52439
程	-9.52534
华	-9.52732
末	-9.52744
但访问需遍历	-9.52744
细	-9.52745
方	-9.52885
rate	-9.52955
为什么	-9.53024
▁dà	-9.53063
▁kū	-9.5312
非	-9.53332
异	-9.53335
格	-9.53337
!=	-9.53457
机	-9.53464
lis	-9.53472
危险	-9.53795
爬	-9.53834
维	-9.53931
分治法	-9.53932
归并排序	-9.53939
fla	-9.53974
丽	-9.54001
▁Is	-9.5421
哭	-9.54435
素	-9.54438
ū	-9.54467
门	-9.5455
每个值	-9.54666
星星	-9.54731
将每个	-9.55031
标	-9.55132
云	-9.55133
得	-9.55139
引用	-9.55191
城	-9.55235
到底	-9.55262
重要	-9.55328
o	-9.55414
▁dú	-9.55469
别	-9.55579
un	-9.55637
最长公共子序列	-9.55689
各	-9.55739
▁fàng	-9.56086
▁结果为	-9.56158
结	-9.56268
率	-9.56338
燕	-9.56348
芳	-9.56348
相邻	-9.56349
yield	-9.56532
words	-9.56743
í	-9.56881
自身	-9.56894
伟	-9.56962
re	-9.56976
▁你	-9.57152
th	-9.57237
▁xiě	-9.57283
▁mài	-9.57296
什么	-9.57306
with	-9.57445
下一	-9.57526
决定	-9.57579
刚	-9.57579
一步	-9.57619
近	-9.58022
乱	-9.582
轮	-9.582
用递归或栈	-9.58631
ro	-9.58673
部分	-9.58724
be	-9.58735
避免重复	-9.58753
字符	-9.5926
楼	-9.59336
有多少	-9.59374
▁mǎi	-9.59435
置	-9.59446
递	-9.59453
拆	-9.59453
密度	-9.59454
查看	-9.59455
▁的最长	-9.59484
保护	-9.5952
ords	-9.59951
Al	-9.60003
ile	-9.60011
ōng	-9.60067
滑动	-9.60087
助	-9.6009
圆	-9.60091
一次	-9.60194
也	-9.60261
ist	-9.60543
的最	-9.60579
活动	-9.60664
iàn	-9.60676
重复	-9.60703
目标柱	-9.60708
在有序列表	-9.60708
每个	-9.60713
运算	-9.60718
层汉诺塔	-9.60722
梯	-9.60722
K	-9.60723
求和得	-9.60723
除以长度	-9.60723
打印	-9.60724
先进先出	-9.60724
凑出金额	-9.60724
后进先出	-9.60724
如何合并字典	-9.60724
如何将二维列表	-9.60724
如何按值对字典	-9.60724
如何用递归反转字符串	-9.60724
如何用递归实现快速幂运算	-9.60724
如何用递归求列表	-9.60724
如何用递归求斐波那契数列第	-9.60724
如何用递归解决	-9.60724
如何用递归计算	-9.60724
如何统计列表	-9.60724
如何计算列表	-9.60724
如何转置矩阵	-9.60724
如需保持顺序可用	-9.60724
找到目标在索引	-9.60724
斐波那契	-9.60724
最多选	-9.60724
有哪些方法可以反转列表	-9.60724
用三个指针	-9.60724
给定硬币面额	-9.60724
朴	-9.60724
凑	-9.60725
柱	-9.60726
堆顶	-9.60726
层汉诺塔需要	-9.60726
最大值	-9.60726
如何将列表	-9.60726
辅	-9.60727
用列表的	-9.60738
如何在有序列表	-9.60741
得平均值	-9.60743
到目标柱	-9.60744
ordered	-9.60745
在数组	-9.60746
最大值为	-9.60761
排序部分的	-9.60761
找到索引	-9.60766
按值	-9.60782
遍历列表	-9.60794
会打	-9.60796
部分的	-9.60798
最大和为	-9.60801
CS	-9.60803
对集合	-9.60817
最小值为	-9.60838
推荐用	-9.60841
▁&	-9.60883
▁原地	-9.60947
spl	-9.60976
▁对称差	-9.60976
▁均为	-9.60987
▁中找和为	-9.60995
▁简洁写法	-9.60995
▁新的头节点	-9.61007
▁迭代法时间	-9.61007
▁链表插入删除	-9.61017
▁中二分搜索目标	-9.61023
▁中线性搜索目标	-9.61023
▁中搜索不存在的目标	-9.61032
weight	-9.61052
▁xīng	-9.61072
实现单	-9.61082
▁中长度	-9.61112
二叉树	-9.61212
香	-9.6124
跳	-9.61247
▁fēi	-9.61302
频	-9.61364
双指针	-9.61365
判断括号字符串	-9.61365
如何判断字符串	-9.61365
如何实现图的广度优先搜索	-9.61365
如何实现图的深度优先搜索	-9.61365
建堆后堆顶为	-9.61365
私有属性	-9.61366
统计字符	-9.61383
子序列	-9.61391
插入平均	-9.61411
如何实现二叉搜索树	-9.61452
如何使用	-9.61538
▁的堆	-9.6161
▁原数组	-9.61618
▁有序输出	-9.61636
▁原地建堆	-9.61636
▁双指针法	-9.61636
▁'{'}	-9.61637
▁插入序列	-9.6164
▁堆顶最小值	-9.6165
▁'([{':	-9.61657
com	-9.61666
游	-9.61702
▁'}':	-9.61743
▁{')':	-9.61796
语句	-9.61811
盖	-9.6201
yī	-9.62017
可变	-9.62029
▁建堆	-9.62084
▁保持顺序	-9.6218
ne	-9.62209
▁注意	-9.62346
▁yán	-9.62384
▁'[',	-9.62401
ity	-9.62514
▁break	-9.62611
dL	-9.6278
▁']':	-9.62797
tio	-9.62994
黄	-9.63073
过	-9.63223
解析	-9.63313
长	-9.63395
rad	-9.634
▁ji	-9.63404
打	-9.63414
行为	-9.63437
},	-9.63527
pen	-9.63556
能	-9.63677
一样	-9.63739
copy	-9.63746
也可	-9.63802
确保	-9.63973
属性和	-9.63975
▁xi	-9.63986
龙	-9.6408
作为	-9.64147
妈妈	-9.64275
提	-9.64625
线	-9.64626
旧	-9.64648
▁种	-9.6474
几	-9.65096
始	-9.65187
个人	-9.65208
没有	-9.6527
核	-9.65298
惰性	-9.653
适合处理大数据流	-9.653
()。	-9.65307
产出值	-9.65316
▁'(',	-9.65375
路	-9.66113
爸爸	-9.663
拉	-9.66638
]]?	-9.6664
热	-9.66684
小猫	-9.67275
▁简洁	-9.67283
含	-9.67327
轻	-9.67593
▁coin	-9.67859
菜	-9.67968
强	-9.68012
欧	-9.68013
喝	-9.68068
▁setdefault	-9.68346
]}。	-9.68388
依	-9.68702
首	-9.68702
广	-9.68703
'。	-9.68707
▁lis	-9.68793
马	-9.68994
▁共	-9.69152
}?	-9.69278
▁也可	-9.69336
情况	-9.69387
cl	-9.69641
吃	-9.70191
▁并集	-9.70334
▁差集	-9.70335
▁交集	-9.70335
▁时返回	-9.70474
石	-9.70589
▁transposed	-9.70608
解包	-9.70634
接收	-9.70793
完整	-9.70795
共享	-9.70801
船	-9.7084
原函数	-9.70935
眼	-9.71275
▁merged	-9.71281
场景	-9.71507
留	-9.71508
在函数定义时	-9.71511
:]);	-9.71546
公共方法	-9.71635
deepcopy	-9.71705
]}	-9.71989
▁BFS	-9.72278
▁DFS	-9.72278
鸭	-9.72409
▁');	-9.72861
域	-9.72939
绿	-9.7312
除	-9.73331
灯	-9.73448
▁可用	-9.73651
销	-9.73667
低	-9.73891
))))	-9.74258
因	-9.74357
千	-9.74365
编	-9.74395
真正	-9.74398
]))]	-9.74399
坏	-9.74531
共	-9.74606
指	-9.74744
▁我	-9.74762
穿	-9.74816
提供	-9.75133
捕获具体异常	-9.75133
裸	-9.75134
捕获	-9.75134
的作用	-9.75152
反转字符串	-9.7519
如何处理	-9.75299
桥	-9.75343
否则	-9.75511
头	-9.75734
短	-9.75967
牛	-9.76019
collections	-9.76213
lement	-9.76515
心	-9.76596
符	-9.766
发现	-9.76609
壮	-9.76612
完成	-9.7662
糖	-9.76934
row	-9.77077
defaultdict	-9.77229
衣	-9.77323
产出	-9.77355
满足	-9.77371
大数据	-9.77427
数量	-9.77586
▁heap	-9.77659
房子	-9.77718
鹅	-9.77783
七	-9.77846
TypeError	-9.77884
偶数	-9.78129
初	-9.78129
释放资源	-9.78129
逗号	-9.7813
获取	-9.78132
the	-9.78358
▁找到	-9.78406
平方	-9.78561
Rectangle	-9.78562
chars	-9.78688
声	-9.78742
functools	-9.7883
配对	-9.78896
什么是	-9.78933
ValueError	-9.78937
z	-9.78955
grouped	-9.78994
setdefault	-9.79291
act	-9.79501
people	-9.79549
lines	-9.79561
更新计数器	-9.79569
elapsed	-9.79579
只是引用	-9.79609
失	-9.79661
▁avg	-9.79694
word	-9.79775
猫	-9.79935
▁yá	-9.80301
钟	-9.8033
世界	-9.80332
保	-9.8041
健	-9.80437
▁cnt	-9.80628
简洁	-9.80802
引	-9.81143
年	-9.82001
输入	-9.82006
防御	-9.82008
会被	-9.82063
熊	-9.82108
小狗	-9.82157
田	-9.824
')]	-9.82477
AE	-9.8265
次	-9.8266
设计	-9.82799
羊	-9.83488
蛋	-9.83929
票	-9.84104
%。	-9.84109
累	-9.84384
装	-9.844
甜	-9.84403
死	-9.84405
来	-9.84623
én	-9.84771
速度	-9.84826
▁cl	-9.84931
睡	-9.84957
显	-9.85217
划	-9.85218
继承	-9.85218
需要用	-9.85247
打开	-9.85259
老师	-9.85401
美丽	-9.85425
ou	-9.85447
蛇	-9.85464
ice	-9.85491
叶	-9.85732
ke	-9.85774
适合	-9.86013
则	-9.86038
白	-9.86075
汽车	-9.86118
牙	-9.86193
不能直接	-9.86305
脸	-9.86323
同学	-9.86668
第	-9.86834
义	-9.86859
替	-9.86864
闭	-9.86865
eij	-9.86914
酒	-9.86928
áng	-9.86981
hai	-9.87011
矮	-9.87036
▁base	-9.87426
推	-9.87661
给	-9.87689
Di	-9.87691
以下代码想打印列表	-9.87698
区别	-9.87702
同时	-9.87708
不能到	-9.8771
效率	-9.87711
需用	-9.87725
但有	-9.87739
▁应为	-9.87919
▁转换或	-9.87968
的元	-9.87974
大海	-9.88047
厂	-9.88176
较	-9.88407
计	-9.8848
存在	-9.88495
运算符	-9.88503
鸡	-9.88525
验证	-9.88526
函数内修改全局变量	-9.88533
访问不存在的键	-9.88535
副	-9.88535
省内存	-9.88536
校	-9.88536
忘	-9.88537
嵌套结构	-9.88537
审查	-9.88537
Z	-9.88538
这段代码	-9.88538
请解释面向对象中的	-9.88538
丢失小数部分	-9.88538
仔	-9.88538
以下代码在条件中误用	-9.88538
以下代码想判断	-9.88538
以下函数使用可变默认参数	-9.88538
修改全局变量	-9.88538
如何在遍历列表	-9.88538
如何将字符串	-9.88538
如何将嵌套列表	-9.88538
如何用列表推导式对	-9.88538
如何用迭代方式求斐波那契数列第	-9.88538
如何用迭代方式计算	-9.88538
如需浮点结果用	-9.88538
掩	-9.88538
最大索引为	-9.88538
永	-9.88538
浮点	-9.88538
滤	-9.88538
目标是累加到	-9.88538
请解释以下	-9.88538
败	-9.88538
反了	-9.88539
验	-9.88539
纯	-9.8854
nboundLocalError	-9.8854
嵌套结构需要	-9.8854
访问不存在的键会报	-9.88541
默认参数	-9.88541
如何用两个列表	-9.88543
请解释什么是	-9.88543
函数内修改全局变量需用	-9.88543
代码	-9.88546
以下	-9.88548
xxs	-9.8855
判断数字	-9.88555
ound	-9.88557
aei	-9.88559
数不能	-9.88576
不存在	-9.88585
hang	-9.886
()}'	-9.88612
字典为	-9.88637
耳	-9.88642
实现求	-9.8865
})'	-9.88673
city	-9.88675
列表为	-9.88687
以下代码在	-9.88687
▁改进	-9.88718
用字典	-9.8873
ero	-9.8874
用列表推导式	-9.88741
▁缺少	-9.88751
自	-9.88752
=[]):	-9.88774
▁应该用	-9.88782
▁优化后	-9.88789
明亮	-9.88796
▁不受影响	-9.88801
▁转为列表	-9.88801
▁除零错误	-9.88801
▁也可以用	-9.88801
▁原始代码	-9.88801
▁是否大于	-9.88801
▁逻辑反了	-9.88801
▁嵌套推导式	-9.88813
▁待审查代码	-9.88813
并排序	-9.88816
▁计算平均值	-9.88817
▁改进后	-9.88818
▁指定起始索引	-9.88822
▁条件中应使用	-9.88822
▁使用生成器	-9.88838
▁使用生成器表达式	-9.88839
▁正常	-9.88912
可以	-9.89111
eep	-9.89235
ob	-9.89264
保证	-9.89388
叶子	-9.89583
街	-9.90227
']}	-9.90231
__}	-9.90367
和字符	-9.9047
xError	-9.90698
深	-9.90859
▁浅拷贝	-9.90962
▁深拷贝	-9.90966
xt	-9.914
店	-9.9156
▁*=	-9.91563
visi	-9.91725
诗	-9.91973
检查是否	-9.92143
旗	-9.92408
No	-9.93455
▁合法	-9.94211
看	-9.94327
三	-9.94374
='',	-9.94431
米饭	-9.94498
():	-9.94716
鼓	-9.95106
ài	-9.95117
('{	-9.95173
▁tóu	-9.95854
东	-9.95858
sl	-9.95899
▁t	-9.95944
天空	-9.96045
狮	-9.96184
ab	-9.96683
ict	-9.96803
,==	-9.96834
法	-9.96991
mi	-9.971
lc	-9.97298
▁word	-9.97502
玩	-9.97535
▁píng	-9.97702
温暖	-9.97792
}'))	-9.97982
▁会	-9.98073
盐	-9.98251
▁只是引用	-9.98344
▁elapsed	-9.98381
▁更新计数器	-9.9839
▁people	-9.98417
八	-9.98737
美	-9.99218
,//	-9.99375
({	-9.99692
▁转换	-9.99784
站	-10.0024
▁除	-10.0066
▁yield	-10.0082
肉	-10.009
村	-10.0132
定	-10.0142
六	-10.0165
虎	-10.019
坐	-10.0197
身体	-10.0225
史	-10.0242
冰	-10.029
▁出	-10.0293
合法	-10.0298
▁liàng	-10.0331
工程	-10.0338
就	-10.0339
▁关键	-10.039
兔	-10.0396
假	-10.0445
因为	-10.0449
▁pop	-10.052
▁判断	-10.0532
:]	-10.0583
▁越界	-10.0627
ú	-10.0685
快乐	-10.0691
州	-10.0702
:]:	-10.0724
á	-10.0739
▁wraps	-10.0778
▁[])	-10.0797
如	-10.0799
iǎn	-10.086
abc	-10.0913
可爱	-10.0919
▁计数	-10.0939
天	-10.0939
▁/。	-10.0982
▁'{	-10.0985
想	-10.1001
蓝	-10.1005
ā	-10.1025
▁chuán	-10.1055
iter	-10.1065
h	-10.1108
▁切片	-10.1124
ver	-10.1133
▁^	-10.1134
]?	-10.1156
▁ha	-10.1164
▁tiá	-10.1199
è	-10.1207
熊猫	-10.1212
ǎng	-10.1254
子类	-10.126
▁xu	-10.127
数组	-10.1294
内存	-10.1331
ǎo	-10.136
▁o	-10.1382
▁head	-10.141
藏	-10.1439
典籍	-10.144
节日	-10.1443
ve	-10.1476
瓜	-10.1492
鞋	-10.1499
酸	-10.15
▁比	-10.1506
bi	-10.1521
通	-10.1548
杭州	-10.155
北京	-10.155
▁fàn	-10.1581
▁yǐ	-10.1586
hē	-10.161
▁mǎ	-10.1641
器	-10.166
▁stats	-10.1667
元组	-10.1681
南	-10.177
)]。	-10.1789
uán	-10.1794
▁rect	-10.1804
▁fáng	-10.1816
家里	-10.1851
特	-10.1887
▁A	-10.1893
▁gōng	-10.1925
▁yuè	-10.1932
▁因为	-10.1933
▁shu	-10.1934
▁参数	-10.1965
▁xiǎo	-10.1997
iáo	-10.2
▁zhuō	-10.2038
ec	-10.2043
di	-10.2097
部	-10.2116
奇	-10.2118
你	-10.2122
狗	-10.2127
▁func	-10.2149
four	-10.2154
eve	-10.2158
)])	-10.2184
要	-10.2205
three	-10.221
扩展	-10.2235
hān	-10.2308
山上	-10.231
R	-10.2318
国	-10.2353
▁D	-10.2374
▁yǎn	-10.2387
▁de	-10.2406
安静	-10.2424
huāng	-10.2424
▁默认值	-10.2461
ink	-10.2555
▁keys	-10.2594
▁fē	-10.2597
建筑	-10.2597
▁B	-10.2599
▁tiān	-10.2633
碗	-10.2643
和与	-10.2653
被	-10.2688
ss	-10.2698
画	-10.2762
fā	-10.2834
区	-10.2845
烧	-10.2868
vi	-10.2891
▁xīn	-10.2901
考古	-10.2972
黑	-10.2985
不能	-10.301
▁zh	-10.3026
ple	-10.307
杯子	-10.3104
海	-10.3128
读	-10.3239
▁错误	-10.3241
不同	-10.3242
用于	-10.3243
èr	-10.3248
rac	-10.3251
▁qì	-10.3262
▁huā	-10.336
自然	-10.3362
眼睛	-10.3375
sān	-10.338
冷	-10.3384
▁tài	-10.3399
▁guā	-10.348
拿	-10.3486
ò	-10.3495
sì	-10.3498
笑	-10.3506
wǔ	-10.3536
学	-10.3569
date	-10.3615
图	-10.3618
著	-10.3629
小狗很	-10.3704
允许	-10.3767
去河边	-10.3796
brown	-10.3882
大象	-10.3883
汉	-10.3904
占	-10.3906
bf	-10.407
▁three	-10.4077
▁four	-10.4148
腿	-10.4184
听	-10.4185
小猫很	-10.4324
其	-10.4335
Re	-10.4379
ader	-10.4381
的反义词是	-10.439
还是	-10.4396
:.	-10.4416
ur	-10.4455
凉	-10.4486
fo	-10.4487
```	-10.4491
都	-10.4506
父类	-10.4517
解	-10.4547
兔子	-10.4576
他	-10.4593
ona	-10.4598
翅膀	-10.4628
耳朵	-10.4631
规模	-10.4631
西	-10.4669
石头	-10.4696
古	-10.4698
九	-10.4765
节	-10.4777
青	-10.4782
位于	-10.4786
序遍历	-10.4839
她	-10.4872
药	-10.4883
色	-10.4951
月	-10.4958
iào	-10.5033
脱	-10.5088
su	-10.5097
朵花	-10.513
tu	-10.521
文	-10.523
▁fo	-10.5235
说	-10.5241
操作	-10.5251
尾巴	-10.5251
稳定的	-10.5306
乌龟	-10.5317
▁==。	-10.5323
不会	-10.5335
▁ni	-10.5391
级	-10.5413
优势	-10.5413
神	-10.5424
还	-10.5507
▁时	-10.5548
块石头	-10.5554
乐	-10.5636
棵树	-10.5654
▁tóng	-10.5668
狮子	-10.5715
fig	-10.5716
辆车	-10.5719
条鱼	-10.5725
相等	-10.573
最优	-10.5742
Machine	-10.5743
医学	-10.5743
天然	-10.5744
著名	-10.5744
▁e	-10.575
经	-10.5771
▁brown	-10.5772
sh	-10.5776
动物	-10.5799
我坐	-10.5823
支笔	-10.5835
gor	-10.5842
颗星星	-10.5899
气	-10.5907
生成器表达式	-10.5912
明代	-10.5964
}:	-10.5981
多少	-10.6021
很热	-10.6025
我开	-10.6043
洗	-10.6043
我拿	-10.6055
把椅子	-10.606
pr	-10.6063
切	-10.6083
京	-10.6085
河流	-10.6086
定义	-10.6086
▁''	-10.6103
很好	-10.6111
张桌子	-10.6114
我喜欢	-10.6174
本书	-10.6212
我写	-10.624
典	-10.6256
蜜蜂	-10.63
我想	-10.6326
表	-10.6355
▁你在	-10.6378
个球	-10.6414
我笑	-10.642
▁如果	-10.6427
养	-10.643
个碗	-10.6434
ǎi	-10.6437
队	-10.6438
科技	-10.6439
青铜	-10.6439
文明	-10.644
([-	-10.6519
只狗	-10.6579
多态	-10.6579
个杯子	-10.6611
好呀	-10.6611
道	-10.6618
完全	-10.6621
造	-10.6621
资源	-10.6621
流	-10.6667
是冷的	-10.6677
ent	-10.6748
我织	-10.6748
居	-10.6806
民	-10.6806
石窟	-10.6806
抽象类	-10.6807
▁zhǐ	-10.6828
只猫	-10.6828
我吃	-10.6873
跑	-10.6911
点	-10.6988
球	-10.7007
只鸟	-10.7034
我喝	-10.7049
好	-10.7056
or	-10.7116
我扫	-10.712
需	-10.7175
做什么	-10.7184
向	-10.7186
布	-10.7187
亚	-10.7187
搜索	-10.7187
angle	-10.7188
平均情况	-10.719
tri	-10.7233
▁P	-10.7257
可达	-10.7264
为元	-10.7289
蚂蚁	-10.7301
总	-10.7309
是相反的	-10.7361
山峰	-10.7383
提高	-10.7386
生	-10.7461
沙	-10.7519
eader	-10.7523
我做	-10.7543
堆	-10.7564
武	-10.7583
那就是比较	-10.7583
佛教	-10.7583
全长约	-10.7583
四川	-10.7584
成都	-10.7585
我很	-10.7587
小明很	-10.7589
我说	-10.7598
▁如果不是很	-10.7606
我养	-10.7656
我走	-10.7683
▁使用	-10.7684
老虎	-10.771
▁lǎo	-10.7748
喜欢	-10.7777
立	-10.7787
文化	-10.7789
我画	-10.779
fi	-10.7805
我关	-10.7849
▁他去	-10.7935
▁六	-10.7962
大于	-10.7964
需要	-10.7967
我看	-10.7977
rd	-10.7985
当	-10.7993
我学	-10.7995
群	-10.7996
▁小狗去	-10.8005
清	-10.8018
我游	-10.8072
ma	-10.8082
间	-10.8101
短的	-10.8175
不是	-10.8194
▁二	-10.8196
主	-10.8204
快速	-10.8205
制	-10.8208
宫	-10.8209
景	-10.8209
东西	-10.822
暗	-10.8229
▁小猫去	-10.8235
▁七	-10.8253
江	-10.8272
二	-10.8358
我跳	-10.8367
li	-10.839
我种	-10.8394
我帮	-10.8415
删除	-10.8423
退化为	-10.8424
哈希	-10.8425
战国	-10.8426
我站	-10.8463
很凉	-10.8483
我答	-10.8508
很轻	-10.8647
惰性求值	-10.8648
迹	-10.8648
生成	-10.8649
很重	-10.8684
硬	-10.8726
上	-10.8737
▁你去	-10.8746
甜的	-10.8763
▁九	-10.8771
支持	-10.8821
很新	-10.8822
很大	-10.8823
丝绸之路	-10.8837
▁三	-10.8848
注	-10.8866
我读	-10.8869
金	-10.8871
价	-10.8874
哪里	-10.8875
什么时候用	-10.8875
迭代	-10.8875
望	-10.8875
在函数调用	-10.8877
解包为	-10.8888
▁小红去	-10.8905
很可爱	-10.8911
睡觉	-10.8984
很多	-10.899
我跑	-10.8998
else	-10.9006
是轻的	-10.9056
秦	-10.9098
复	-10.9106
影响	-10.9107
味	-10.9107
关系	-10.9107
称	-10.9108
塑	-10.9108
洲	-10.9108
汉字	-10.911
起始	-10.9112
窄的	-10.9138
长颈鹿	-10.9138
很慢	-10.9139
个苹果	-10.9144
我送	-10.9185
冷的	-10.9186
我哭	-10.9231
▁world	-10.9277
grap	-10.9299
两	-10.9314
食	-10.9346
仍	-10.9346
主要	-10.9346
竹子	-10.9387
支持多	-10.9403
薄	-10.9407
if	-10.9429
fun	-10.9439
ca	-10.9455
great	-10.9455
▁八	-10.9479
我找	-10.9519
反义词	-10.9545
竹	-10.9548
列入	-10.9549
火是热的	-10.955
我爬	-10.9555
ue	-10.9567
而	-10.9589
平衡	-10.959
北魏	-10.959
豪	-10.959
缀	-10.959
色彩	-10.959
在一起	-10.9594
我玩	-10.9595
人文	-10.9608
类的	-10.9619
我唱	-10.9646
(),	-10.9654
我洗	-10.9665
很蓝	-10.9684
适用于	-10.9691
▁你喜欢	-10.9692
科学	-10.9702
软的	-10.9716
return	-10.9718
▁我去	-10.9791
锁	-10.9838
饮	-10.984
念	-10.984
克	-10.984
观	-10.984
甲骨文	-10.984
两种	-10.984
皇	-10.984
西汉	-10.984
很甜	-10.9875
我听	-10.9879
▁他要	-10.9906
新的	-10.9908
怎么	-10.995
我放	-11.0012
。'	-11.0035
àn	-11.0059
GIL	-11.0064
#	-11.0068
精	-11.0079
运	-11.0092
致	-11.0096
境	-11.0096
兵马俑	-11.0096
▁gè	-11.0114
▁tiáo	-11.0126
蝴蝶	-11.0156
厚的	-11.0205
很远	-11.0258
丑的	-11.0267
两个	-11.0294
是慢的	-11.0296
很白	-11.0319
光	-11.0322
我爱	-11.0331
植物	-11.0331
形	-11.0348
防	-11.0356
分析	-11.0359
宋应星	-11.0359
olle	-11.0359
随机	-11.0359
撰	-11.0359
探	-11.036
系统	-11.036
不一定	-11.0375
不同的	-11.0382
动	-11.0403
ith	-11.0418
快的	-11.0426
种	-11.044
历法	-11.0452
很黑	-11.0473
我飞	-11.0473
元素为	-11.0476
▁她去	-11.0509
red	-11.0513
我问	-11.0546
去学校	-11.0554
▁五	-11.0588
很矮	-11.06
集	-11.0625
绑	-11.0629
连接	-11.063
隐	-11.063
常用于	-11.0631
然后	-11.0665
性和	-11.0676
贵	-11.0677
吃饭	-11.0724
▁四	-11.0725
一个函数	-11.0739
十就是	-11.0815
很高	-11.083
))。	-11.0837
一端	-11.0884
很香	-11.0886
现	-11.0904
释	-11.0905
CPU	-11.0906
密集型	-11.0906
圳	-11.0907
天工开物	-11.0907
丝	-11.0907
驱	-11.0907
宏	-11.0908
海拔约	-11.0908
单例模式	-11.0908
硬的	-11.0912
位置参数	-11.0918
干	-11.0919
关键字参数	-11.0921
多线程	-11.0928
rr	-11.0934
长的	-11.0938
gre	-11.1016
简单	-11.1047
全局最优	-11.105
今	-11.1055
是软的	-11.1097
小的	-11.1107
▁这	-11.1124
问	-11.1129
元	-11.1148
情	-11.1191
('()(){}'))	-11.1193
博弈	-11.1193
万平方	-11.1194
明清	-11.1194
深入	-11.12
▁'()(){}'	-11.1248
亮	-11.1261
生成器是	-11.1281
饭	-11.1283
▁great	-11.1353
冬天	-11.136
der	-11.1385
底	-11.1423
▁fun	-11.146
美的	-11.1462
def	-11.1469
边	-11.1475
文物	-11.1477
解决	-11.1484
码	-11.1486
最优子结构和重叠子问题	-11.1487
获	-11.1487
宝	-11.1487
M	-11.1487
覆	-11.1487
映	-11.1487
忧	-11.1487
北宋	-11.1488
传说	-11.1488
终止	-11.1488
黑白	-11.1489
发源	-11.1498
是小的	-11.1515
狮真	-11.152
入非遗	-11.155
音乐	-11.1554
▁不	-11.156
大的	-11.157
▁小明去	-11.1584
重的	-11.1619
不可	-11.1694
可能	-11.1719
{'	-11.1721
方法控制	-11.1738
实	-11.1777
者	-11.1787
如何按年龄降序对人员列表	-11.179
昆虫	-11.179
至	-11.179
思	-11.179
药物	-11.1791
起源	-11.1791
中心	-11.1796
为主	-11.1796
面真	-11.1804
长河	-11.184
十	-11.1844
慢的	-11.1915
热的	-11.1948
湿	-11.1955
文学	-11.1962
我买	-11.1967
很长	-11.1978
它	-11.2034
农	-11.2047
苦的	-11.206
刻	-11.2101
目标	-11.2102
如何按薪资升序对人员列表	-11.2103
貌	-11.2103
丰富	-11.2103
陕西	-11.2103
墓	-11.2103
象征	-11.2103
半部分	-11.2103
瓷器	-11.2103
闻名	-11.2103
长江	-11.2106
书法	-11.2107
写成	-11.2119
an	-11.2134
用方	-11.2147
上海	-11.2154
:=	-11.2157
个元	-11.2233
子问题	-11.2323
字典键	-11.2333
▁fin	-11.2354
角	-11.2359
猴子	-11.2365
是重的	-11.2367
接	-11.239
象	-11.2418
理	-11.2424
任	-11.2425
版	-11.2425
丹	-11.2425
祭	-11.2425
书画	-11.2428
中医	-11.2429
天体	-11.2429
太阳系	-11.2442
▁pià	-11.2477
沉	-11.2481
城真	-11.2486
最早	-11.251
苦	-11.2547
亮的	-11.2612
▁十	-11.2649
组	-11.2661
父	-11.2679
间复杂度衡量算法	-11.2683
原始	-11.2698
间随输入规模的增长关系	-11.2726
医	-11.2754
北	-11.2758
如何按年龄升序对人员列表	-11.2759
野	-11.2759
本草纲目	-11.2759
论	-11.2759
联	-11.2759
团圆	-11.2759
松	-11.2759
亲	-11.2759
传统	-11.2759
清理	-11.2759
路径	-11.2759
回退	-11.276
世界最大	-11.2766
门真	-11.2768
▁zhāng	-11.2777
冰是冷的	-11.2779
端	-11.2787
深拷贝	-11.2812
浅拷贝	-11.2814
宽	-11.2852
软	-11.2916
藏高原	-11.2918
就是有七	-11.2918
就是有六	-11.2919
就是有九	-11.2922
就是有八	-11.2933
走路	-11.2942
就是有十	-11.2948
在使用	-11.2957
树叶	-11.3082
遗	-11.3103
局	-11.3103
蜂	-11.3103
季节	-11.3104
洞	-11.3104
甘	-11.3104
李时珍	-11.3104
卫星	-11.3104
口径	-11.3104
超	-11.3104
响	-11.3104
危险的	-11.3105
常用	-11.3108
工艺	-11.3109
见	-11.3116
break	-11.313
丝绸	-11.3135
酒真	-11.3157
黑树	-11.3175
我卖	-11.3183
忙的	-11.3216
hǎ	-11.3259
有趣	-11.3269
叫	-11.3278
法时	-11.3319
冒泡	-11.3341
相对	-11.3377
就是有四	-11.343
军阵	-11.3459
邻	-11.346
收	-11.346
夫	-11.346
依赖	-11.3461
恢	-11.3461
缓	-11.3461
王	-11.3461
即使发生异常也	-11.3461
广度优先搜索	-11.3461
五岳	-11.3461
用途	-11.3461
跨	-11.3461
飘	-11.3461
故宫	-11.3461
逐层	-11.3461
发现于	-11.3467
始于	-11.3468
哪个	-11.3468
头真	-11.3471
ABC	-11.3473
关注	-11.3474
▁收集多余的	-11.3478
车真	-11.3478
就是有三	-11.3479
就是有二	-11.348
就是有五	-11.3488
双音	-11.349
▁因为苹果很	-11.3556
苹果真	-11.3564
公园真	-11.3598
春	-11.3626
多种	-11.3647
▁ti	-11.3653
古代	-11.3662
臭的	-11.3676
ǒ	-11.373
瘦的	-11.3731
瘦	-11.375
空间复杂度	-11.3789
利	-11.3819
抽象	-11.383
传	-11.3831
规范	-11.3831
额	-11.3831
农业手工	-11.3831
办	-11.3831
灵活	-11.3831
唐	-11.3831
敦煌莫高窟	-11.3831
生旦净丑	-11.3831
安阳	-11.3831
典型应用包括	-11.3831
世界最长	-11.3832
工艺百科	-11.3832
千年	-11.3832
改写	-11.3833
云海	-11.3833
写实	-11.3834
漏	-11.3839
的两	-11.3847
厂真	-11.3849
鹅真	-11.3895
马真	-11.3907
轻的	-11.391
是红色的	-11.3914
▁因为碗很	-11.3916
风很	-11.3923
风真	-11.3934
▁因为狗很	-11.398
tho	-11.3988
▁fr	-11.3989
用大	-11.3991
ta	-11.3995
▁因为桌子很	-11.4004
▁因为椅子很	-11.4012
▁因为笔很	-11.4032
▁因为人很	-11.4047
▁因为鱼很	-11.4061
使	-11.4078
第一	-11.4087
@	-11.4102
sin	-11.4118
▁因为鸟很	-11.4133
可作	-11.4151
▁因为树很	-11.4188
绕	-11.4215
址	-11.4216
容易	-11.4216
删除均为	-11.4216
continue	-11.4216
隧	-11.4216
横	-11.4216
浓	-11.4216
上下文管理器	-11.4216
商代	-11.4216
射到	-11.4216
修身	-11.4217
水利	-11.4217
中国画	-11.4218
河南	-11.4219
插入删除	-11.4221
旗真	-11.4226
阳	-11.4226
for	-11.4226
铁是重的	-11.4226
田真	-11.4227
房子真	-11.4227
船真	-11.4231
石真	-11.4231
pass	-11.4232
▁比较两个对象	-11.4233
中药	-11.4234
当前循环	-11.4236
值对	-11.4285
宽的	-11.4291
ht	-11.43
▁因为猫很	-11.4311
的前	-11.4316
错	-11.4322
胖的	-11.4322
==	-11.4331
地理	-11.4337
▁因为车很	-11.4381
注意	-11.4408
夏天	-11.4452
门很	-11.4482
香的	-11.4519
装饰器是	-11.4529
来了	-11.4532
厚	-11.4589
mm	-11.4593
块	-11.4606
是快的	-11.4609
伤	-11.4611
证	-11.4615
安	-11.4616
栖	-11.4616
乡	-11.4616
稀	-11.4616
乌	-11.4616
礼	-11.4616
壁画	-11.4616
FAST	-11.4616
深度	-11.462
羊真	-11.4624
汽车真	-11.4624
路真	-11.4634
▁因为杯子很	-11.4634
小猫真	-11.4634
茶真	-11.4641
▁[-	-11.4658
另	-11.4667
是热的	-11.4672
作用	-11.4674
黄山	-11.4678
狮很	-11.4681
耳真	-11.4687
要开灯	-11.4698
为大	-11.4709
旧的	-11.4735
▁因为书很	-11.4736
文字	-11.4792
nd	-11.4821
暗的	-11.4855
修	-11.4886
哪些	-11.4921
llow	-11.4925
si	-11.4926
界	-11.4939
就是有一	-11.5
用来	-11.5015
让	-11.5022
归并	-11.5029
考	-11.5031
务	-11.5031
太极拳	-11.5032
如何按薪资降序对人员列表	-11.5032
功	-11.5032
工蜂	-11.5032
恒星	-11.5032
珍	-11.5032
西安临潼	-11.5032
余	-11.5032
大足石刻	-11.5032
农历	-11.5032
秦陵陪葬	-11.5033
苏轼	-11.5033
曾侯乙编钟	-11.5033
测	-11.5033
独	-11.5033
▁因为花很	-11.5033
山西	-11.5035
na	-11.5037
兔真	-11.5039
票真	-11.5041
灯真	-11.5045
桥真	-11.5045
小狗真	-11.5051
随输入规模的增长关系	-11.5074
比较中	-11.508
che	-11.509
纸	-11.5136
开灯	-11.5153
困难	-11.5217
▁太阳	-11.5239
相同	-11.5271
▁你会	-11.5285
▁我在家里	-11.5294
ex	-11.532
▁不是	-11.5339
非遗	-11.5376
彩虹	-11.5409
语	-11.5423
双	-11.5423
张	-11.5459
▁gu	-11.5461
断	-11.5463
趣	-11.5465
极	-11.5467
万	-11.5467
湖	-11.5467
二十四节气	-11.5467
('({[]})'))	-11.5467
纪	-11.5467
浪漫主义	-11.5467
便	-11.5467
投	-11.5467
府	-11.5467
市	-11.5467
横贯	-11.5467
贾	-11.5467
贸易	-11.5467
食物	-11.5468
问题分解为	-11.5468
溢出	-11.5469
的毛	-11.547
复杂度衡量算法	-11.5472
瓜真	-11.5476
你跑	-11.548
天空真	-11.548
心真	-11.5482
椅子真	-11.5485
眼真	-11.5487
发真	-11.5491
是深的	-11.5501
▁一	-11.5505
没	-11.5509
衣服	-11.551
▁'({[]})'	-11.5516
牙真	-11.5548
表示数量	-11.5549
熊真	-11.5551
所以不	-11.5553
应用	-11.5566
星星真	-11.5571
去公园	-11.5578
桌子真	-11.558
▁piàn	-11.5588
ract	-11.5589
手真	-11.5607
是暗的	-11.5611
og	-11.5627
世界第	-11.563
窗真	-11.564
那	-11.5703
是硬的	-11.5707
一只	-11.5714
世界最	-11.5805
就是有	-11.5827
虑	-11.5921
彩	-11.5921
司马迁	-11.5921
('([)]'))	-11.5922
成都平原	-11.5922
卷	-11.5922
盛唐	-11.5922
陶	-11.5922
旷达	-11.5922
京杭大运河	-11.5922
围棋	-11.5922
逸	-11.5922
战略	-11.5922
港珠澳大桥	-11.5922
峡谷	-11.5922
信号	-11.5922
水系	-11.5922
——	-11.5922
收集	-11.5922
笔墨	-11.5922
生物多样性	-11.5923
面积	-11.5923
通道	-11.5923
交流	-11.5924
小狗想	-11.5924
云南	-11.5925
文人	-11.5925
解决问题	-11.5926
同学真	-11.5932
票号	-11.5933
严重	-11.5934
米饭真	-11.5934
大海真	-11.5934
鸡真	-11.5934
▁bǎ	-11.5935
鞋真	-11.5935
▁你在家里	-11.5936
▁你在山上	-11.5936
▁你在学校	-11.5937
▁你在公园	-11.5937
鸭真	-11.5938
虎真	-11.5939
妈妈真	-11.594
河真	-11.5942
菜真	-11.5943
米真	-11.595
干的	-11.5952
递归需	-11.5956
进入	-11.5958
▁'([)]'	-11.5967
小于	-11.5971
将列表	-11.5976
面很	-11.5983
控制	-11.6001
街真	-11.6006
▁我在山上	-11.6023
▁我在学校	-11.6023
▁我在公园	-11.6024
小狗开	-11.6036
小猫笑	-11.6038
的东西	-11.6062
开凿	-11.6063
iv	-11.6077
水很	-11.6111
融化	-11.6179
im	-11.618
才	-11.6182
臭	-11.6185
外面	-11.6242
new	-11.6289
矮的	-11.6297
到最	-11.6301
水色	-11.631
复杂度	-11.6333
在书包里	-11.635
忙	-11.6351
是亮的	-11.6352
窄	-11.6382
天黑了	-11.6383
墨	-11.6392
逐	-11.6393
止	-11.6397
H	-11.6398
导	-11.6398
术	-11.6398
逼	-11.6398
骤	-11.6398
('(){}[]'))	-11.6398
('{{}}()'))	-11.6398
岸	-11.6398
县	-11.6398
雄	-11.6398
唯一	-11.6398
神农架	-11.6398
文献	-11.6398
杜甫	-11.6398
寿命约	-11.6398
象棋	-11.6398
中秋节	-11.6398
反映	-11.6398
淡	-11.6398
材	-11.6398
兽	-11.6398
实学	-11.6398
春节	-11.6399
流经	-11.6399
精美	-11.6399
东汉	-11.64
五千年	-11.64
上的	-11.64
飞天	-11.6401
小狗走	-11.6407
蛇真	-11.6407
方式	-11.6409
学校真	-11.6411
中国与	-11.6411
月亮真	-11.6414
小明种	-11.6414
鸟真	-11.6425
分类	-11.6426
件	-11.6442
▁'(){}[]'	-11.6445
▁'{{}}()'	-11.6445
将问题	-11.6461
函数调用	-11.6465
所以要	-11.6478
月亮很	-11.6495
酒很	-11.6497
牛真	-11.6504
洗手	-11.6507
浅的	-11.6512
如何实现二叉	-11.6514
▁石头	-11.6521
滑	-11.6553
他喝	-11.6568
你唱	-11.6568
鼓真	-11.6569
红茶	-11.6614
要喝水	-11.6638
tem	-11.664
nc	-11.6662
京剧	-11.6758
雪很	-11.6772
和边	-11.6792
要吃饭	-11.6804
最后	-11.6826
追	-11.6828
花真	-11.684
城很	-11.6847
温度	-11.6871
▁这个粉色的	-11.6872
采	-11.6874
严	-11.6884
常	-11.6888
嘴	-11.6889
兴	-11.6892
改	-11.6895
治	-11.6896
广度优先	-11.6897
深度优先	-11.6897
积	-11.6897
四库全书	-11.6898
地震	-11.6898
三星堆	-11.6898
宝库	-11.6898
促进	-11.6898
众多	-11.6898
泰山	-11.6898
钙化	-11.6898
都江堰	-11.6898
湖北	-11.6898
它们都是	-11.6898
沈括	-11.6898
石头是硬的	-11.6898
优先	-11.6899
流域	-11.69
什么是哈希表	-11.69
她哭	-11.69
可以吃	-11.6901
肚子饿了	-11.6903
小红玩	-11.6904
发明	-11.6905
你做	-11.6905
堆是	-11.6906
钟真	-11.6908
▁她在屋里	-11.691
▁你在水边	-11.691
▁我在水边	-11.691
▁他在水边	-11.691
▁她在水边	-11.691
▁她在家里	-11.691
▁她在路上	-11.691
▁他在家里	-11.691
▁他在山上	-11.691
▁她在公园	-11.691
▁她在山上	-11.691
▁他在公园	-11.691
▁她在学校	-11.691
▁她在屋外	-11.691
▁他在屋外	-11.691
▁他在树下	-11.691
▁他在屋里	-11.691
▁你在路上	-11.691
▁他在学校	-11.691
▁他在路上	-11.691
▁我在屋里	-11.691
▁我在屋外	-11.691
▁我在树下	-11.691
▁你在屋外	-11.691
▁你在树下	-11.691
▁朋友在屋里	-11.6911
▁朋友在路上	-11.6911
▁小明在屋里	-11.6911
▁小鸟在屋里	-11.6911
遍历适合	-11.6911
▁爸爸在屋里	-11.6911
▁小狗在水边	-11.6911
▁小猫在水边	-11.6911
▁小红在水边	-11.6911
▁小鱼在水边	-11.6911
▁小鱼在路上	-11.6911
▁小鸟在水边	-11.6911
▁朋友在树下	-11.6911
▁同学在水边	-11.6911
▁同学在路上	-11.6911
▁小明在水边	-11.6911
▁小鱼在屋外	-11.6911
▁小鱼在树下	-11.6911
▁小鸟在屋外	-11.6911
▁小鸟在树下	-11.6911
▁爸爸在水边	-11.6911
▁老师在水边	-11.6911
▁他在草地上	-11.6911
▁同学在公园	-11.6911
▁同学在学校	-11.6911
▁同学在家里	-11.6911
▁同学在山上	-11.6911
▁妈妈在水边	-11.6911
▁妈妈在路上	-11.6911
▁小鱼在家里	-11.6911
▁小鱼在山上	-11.6911
▁朋友在公园	-11.6911
▁朋友在家里	-11.6911
▁朋友在屋外	-11.6911
▁朋友在水边	-11.6911
▁她在草地上	-11.6911
▁小猫在路上	-11.6911
▁朋友在学校	-11.6911
▁朋友在山上	-11.6911
▁老师在路上	-11.6911
▁你在草地上	-11.6911
▁妈妈在屋外	-11.6911
▁小狗在家里	-11.6911
▁小鱼在公园	-11.6911
▁同学在屋外	-11.6911
▁同学在屋里	-11.6911
▁同学在树下	-11.6911
▁妈妈在树下	-11.6911
▁小狗在山上	-11.6911
▁老师在屋外	-11.6911
▁妈妈在家里	-11.6911
▁小猫在家里	-11.6911
▁我在草地上	-11.6911
▁爸爸在屋外	-11.6911
▁妈妈在屋里	-11.6911
▁妈妈在山上	-11.6911
▁小明在家里	-11.6911
▁小明在山上	-11.6911
▁小狗在树下	-11.6911
▁爸爸在家里	-11.6911
▁爸爸在山上	-11.6911
▁老师在山上	-11.6911
▁妈妈在公园	-11.6911
▁小狗在公园	-11.6911
▁小猫在屋外	-11.6911
▁小猫在山上	-11.6911
▁老师在家里	-11.6911
▁小明在屋外	-11.6911
▁小明在树下	-11.6911
▁小鸟在家里	-11.6911
▁小明在学校	-11.6911
▁小明在公园	-11.6911
▁小猫在公园	-11.6911
▁小红在家里	-11.6911
▁小红在屋外	-11.6911
▁爸爸在公园	-11.6911
▁爸爸在学校	-11.6911
▁老师在公园	-11.6911
▁老师在学校	-11.6911
▁小鱼在屋里	-11.6911
▁小红在屋里	-11.6911
▁小红在山上	-11.6911
▁小狗在屋外	-11.6911
▁小鸟在公园	-11.6911
▁小鸟在学校	-11.6911
▁小鸟在山上	-11.6911
▁小狗在屋里	-11.6911
▁小红在公园	-11.6911
▁小鱼在学校	-11.6911
▁小狗在学校	-11.6911
▁老师在屋里	-11.6912
▁小鸟在草地上	-11.6912
▁小狗在草地上	-11.6912
▁小鱼在草地上	-11.6912
▁老师在草地上	-11.6912
▁同学在草地上	-11.6912
▁妈妈在草地上	-11.6912
▁小明在草地上	-11.6912
▁小猫在草地上	-11.6912
▁小红在草地上	-11.6912
▁朋友在草地上	-11.6912
▁爸爸在草地上	-11.6912
▁妈妈在学校	-11.6912
▁小明在路上	-11.6912
▁小猫在屋里	-11.6912
▁爸爸在路上	-11.6912
▁小猫在学校	-11.6912
▁小狗在路上	-11.6912
▁小红在学校	-11.6914
小明放	-11.6915
雪真	-11.6915
▁小鸟在路上	-11.6915
太阳真	-11.6916
百	-11.6916
▁小红在路上	-11.6916
书真	-11.6917
只能	-11.692
草真	-11.6928
▁我在路上	-11.693
雨真	-11.693
口真	-11.6932
▁你在屋里	-11.6935
店真	-11.6937
图的	-11.694
▁老师在树下	-11.6946
▁爸爸在树下	-11.6954
石很	-11.6959
▁她在树下	-11.6967
星星很	-11.6975
村真	-11.6991
▁小猫在树下	-11.6997
蛋真	-11.7001
衣真	-11.7011
糖真	-11.7014
机真	-11.7032
▁小红在树下	-11.7036
下面	-11.7047
只猫就是	-11.7053
只狗就是	-11.7056
用列表	-11.7061
ti	-11.71
▁语句	-11.7108
水真	-11.7108
她喝	-11.7117
并行	-11.7124
目	-11.7176
床	-11.7187
在地上	-11.7238
▁这个紫色的	-11.7244
用递归	-11.7249
很烫	-11.7254
高的	-11.7278
黄河	-11.7335
而非	-11.734
发光	-11.7371
要穿衣服	-11.7393
落	-11.7395
房子很	-11.7399
爱	-11.741
推导式	-11.7412
块石头就是	-11.7413
irs	-11.7416
颗星星就是	-11.7423
故	-11.7423
确	-11.7423
环	-11.7423
倍	-11.7424
哈	-11.7424
丽江古城	-11.7424
像	-11.7424
生产	-11.7424
纳西	-11.7424
繁	-11.7424
柳	-11.7424
针灸	-11.7424
仪	-11.7424
湛	-11.7424
殷墟	-11.7424
徽	-11.7424
全球	-11.7424
全书	-11.7425
解释	-11.7426
小猫吃	-11.7429
高速	-11.743
下游	-11.7431
李白	-11.7431
盐真	-11.7434
京剧脸谱	-11.7439
是大的	-11.744
笔真	-11.7442
老师真	-11.7445
nter	-11.7447
小猫跑	-11.7456
夜晚	-11.747
之一	-11.7481
相反的	-11.7489
路很	-11.7518
它们	-11.7541
只鸟就是	-11.76
马很	-11.7608
鱼真	-11.7611
学校很	-11.7661
并用	-11.7672
最优解	-11.7703
▁猫	-11.7705
雪是白色的	-11.7716
las	-11.7718
鼻子	-11.7718
厂很	-11.7745
是湿的	-11.7753
容易的	-11.7772
火真	-11.7786
把椅子就是	-11.7843
▁这个红色的	-11.7851
是白色的	-11.786
辆车就是	-11.7863
条鱼就是	-11.7873
是凉的	-11.7897
很少	-11.7904
另一	-11.7907
很冷	-11.7911
房	-11.7935
线程	-11.794
▁这个	-11.7949
生活在	-11.796
薄的	-11.7964
把	-11.7972
筑	-11.7979
创	-11.7979
半	-11.7979
航	-11.7979
状态	-11.7979
→	-11.798
删	-11.798
酿蜜	-11.798
叠	-11.798
永乐大典	-11.798
传世	-11.798
姐姐问	-11.798
徐霞客	-11.798
苏州园林	-11.798
坡	-11.798
楚	-11.798
语言	-11.798
马王堆	-11.798
士	-11.798
讲究	-11.798
技艺	-11.798
棉花是软的	-11.798
平遥古城	-11.798
饮品	-11.798
齐民要术	-11.798
高峰	-11.798
北斗导航	-11.798
迎	-11.798
龙门石窟	-11.798
珠穆朗玛峰	-11.798
岩	-11.798
良渚古城	-11.798
云冈石窟	-11.798
炮	-11.798
武术	-11.798
儒	-11.798
三江并流	-11.798
浇水	-11.798
单例	-11.798
西湖	-11.798
小明找	-11.7981
复制	-11.7981
你洗	-11.7981
小明说	-11.7983
是绿色的	-11.7987
小猫飞	-11.7987
▁这个黄色的	-11.7991
张桌子就是	-11.7994
山水	-11.7996
生活	-11.8
叶真	-11.8002
云真	-11.8003
变量	-11.8005
棵树就是	-11.8009
脚真	-11.8011
龙真	-11.8012
rog	-11.8057
朵花就是	-11.8057
公园很	-11.8065
头很	-11.8066
exi	-11.8068
▁中列表	-11.807
很亮	-11.807
上是	-11.8072
湿的	-11.8079
农学	-11.8081
全	-11.8102
要洗手	-11.8115
▁冰	-11.8117
▁小红	-11.8118
雨很	-11.8134
出门	-11.8149
本书就是	-11.815
支笔就是	-11.8156
是不	-11.8166
是干的	-11.8214
木	-11.8217
浅	-11.8219
灯很	-11.8246
加二等于	-11.8253
兔很	-11.8279
](	-11.8285
温泉	-11.8287
汽车很	-11.8301
牙很	-11.8325
是长的	-11.8343
瓜很	-11.8355
的中文是	-11.8358
闲	-11.8364
po	-11.8365
她画	-11.8375
地球	-11.8413
船很	-11.848
融	-11.8512
着	-11.8538
个球就是	-11.8554
个杯子就是	-11.8561
闻	-11.8564
排	-11.8566
窟	-11.8568
弯	-11.8568
营	-11.8568
困了	-11.8568
网	-11.8568
郑和宝船	-11.8568
('((()))'))	-11.8568
('({[}])'))	-11.8568
感觉	-11.8568
通过核聚变	-11.8568
准	-11.8568
哥哥问	-11.8568
绝	-11.8568
补充	-11.8568
帛	-11.8568
肃	-11.8568
始凿	-11.8568
武夷山	-11.8568
蚕	-11.8568
湖泊	-11.8568
耕	-11.8568
郁	-11.8568
华佗	-11.8568
指针	-11.8568
圣	-11.8568
溪	-11.8568
衰	-11.8568
折	-11.8568
笋	-11.8568
九寨沟	-11.8568
坝	-11.8568
保存完	-11.8571
秦代军	-11.8572
小红读	-11.8573
很高兴	-11.8575
▁bēi	-11.8578
小狗做	-11.8585
个碗就是	-11.8589
刀	-11.8595
爸爸真	-11.8597
山真	-11.8601
rev	-11.8605
▁'((()))'	-11.8611
▁'({[}])'	-11.8611
树真	-11.8613
▁zhòng	-11.8634
太阳很	-11.8648
旗很	-11.8655
▁高铁	-11.866
,**	-11.8688
▁shuāng	-11.8693
深的	-11.8696
铁	-11.8697
变成水	-11.8711
很快	-11.8717
wi	-11.876
和重	-11.8787
地上	-11.8802
声音	-11.8828
苹果很	-11.8834
耳很	-11.8836
则搜	-11.8868
ite	-11.8878
鹅很	-11.892
北方	-11.8938
困难的	-11.8944
他吃	-11.8978
河边	-11.8993
田很	-11.9008
好了	-11.9018
保持顺序	-11.9026
圆的	-11.9028
要穿厚衣服	-11.9028
电	-11.9032
柔和	-11.9049
写字	-11.907
椅子很	-11.9098
猴	-11.9127
话	-11.9142
插	-11.9148
老鼠	-11.9153
▁这个黑色的	-11.9162
脸谱	-11.9176
扫	-11.9184
柔	-11.9187
▁狗	-11.919
科	-11.9192
粉	-11.9192
曼	-11.9193
直	-11.9193
交通工具	-11.9193
二分搜索	-11.9193
若	-11.9193
蜗牛是慢的	-11.9193
坑	-11.9193
的地方	-11.9193
奶奶帮	-11.9193
大熊猫国家公园	-11.9193
酚	-11.9193
丛	-11.9193
你们拿	-11.9193
爷爷拿	-11.9193
砚	-11.9193
巨著	-11.9193
氦组成	-11.9193
由氢	-11.9193
视	-11.9193
散	-11.9193
降序	-11.9193
命名	-11.9193
丝绸之路经济带	-11.9193
演	-11.9193
政	-11.9193
沸	-11.9193
雅鲁藏布江	-11.9193
楚辞	-11.9193
属于	-11.9193
布达拉宫	-11.9193
忠	-11.9193
戏	-11.9193
油	-11.9193
气候	-11.9193
红楼梦	-11.9193
偏	-11.9193
俱	-11.9193
清明节	-11.9193
古琴	-11.9193
高温	-11.9193
故事	-11.9194
她听	-11.9194
他问	-11.9194
你们吃	-11.9195
他想	-11.9195
为地球	-11.9196
你们写	-11.9197
同学跳	-11.9199
弟弟游	-11.9199
同学爬	-11.9199
唱歌	-11.92
肉真	-11.9204
端午节屈原	-11.9206
米很	-11.9209
秦俑	-11.9215
妈妈学	-11.9217
你放	-11.9232
桥很	-11.9232
我在	-11.9234
加零等于	-11.9275
较小	-11.9279
在有序	-11.9279
会烫伤	-11.9281
▁这是什么	-11.9294
是高的	-11.9298
ig	-11.93
手很	-11.9321
对列表	-11.9322
安全的	-11.9322
起来	-11.9326
下的	-11.9336
果真	-11.9338
很美	-11.9365
的解	-11.9366
落下	-11.937
减一等于	-11.9394
hi	-11.9416
减二等于	-11.9422
云很	-11.9455
加三等于	-11.9487
往	-11.9503
搜	-11.9529
碎	-11.9532
同学很	-11.9538
鞋很	-11.9557
有的	-11.9574
雪人	-11.9591
是黑色的	-11.9608
细菌	-11.9628
是矮的	-11.9642
鸟在	-11.965
▁球	-11.9662
要打伞	-11.9672
你喝	-11.9686
眼很	-11.9707
熊很	-11.9716
妈妈做	-11.9721
天空很	-11.9743
公共	-11.9746
到上	-11.9757
高铁	-11.9767
▁棉花	-11.9767
▁杯子	-11.9772
镜	-11.9801
精神	-11.9811
小红放	-11.9819
生病	-11.9857
具	-11.9858
川	-11.9858
议	-11.9859
母	-11.9859
印	-11.9859
上下文管理	-11.9859
flattened	-11.986
二维列表	-11.986
协	-11.986
弟弟送	-11.986
赛	-11.986
我们找	-11.986
哥哥喜欢	-11.986
沟	-11.986
势	-11.986
钱	-11.986
姐姐学	-11.986
奶奶拿	-11.986
知	-11.986
地动仪	-11.986
雕刻精	-11.986
张衡	-11.986
泥	-11.986
梦	-11.986
弈	-11.986
禅	-11.986
距	-11.986
秘	-11.986
阖	-11.986
纵	-11.986
敦煌	-11.986
莫高窟壁画	-11.986
深度优先搜索	-11.986
寄	-11.986
托	-11.986
盼	-11.986
奶奶吃	-11.986
试	-11.986
退	-11.986
生长	-11.9861
小猫喜欢	-11.9862
老师洗	-11.9862
释放	-11.9862
你爬	-11.9864
南方	-11.9865
能接收	-11.9866
时速	-11.9872
羊很	-11.9874
会唱歌	-11.9877
脸真	-11.9891
看山	-11.9903
春天	-11.9906
▁kē	-11.9919
五大	-11.9921
▁这是	-11.9926
▁今天	-11.9935
店很	-11.994
热了	-11.9941
▁GIL	-11.9944
▁这个灰色的	-11.9951
更多	-11.9954
鱼很	-11.9957
西边	-11.9965
刷牙	-11.9997
行时	-12.0007
鸭很	-12.0017
态	-12.0019
虎很	-12.0024
小明走	-12.0038
个苹果就是	-12.0096
()}	-12.0139
还是先	-12.0142
为字典	-12.0154
闲的	-12.0189
pairs	-12.0197
水是	-12.0211
票很	-12.0213
她开	-12.0215
长城	-12.0222
才能	-12.0307
桌子很	-12.0334
来不	-12.0392
很小	-12.0412
走了	-12.0418
小狗读	-12.0439
小明跑	-12.0452
菜很	-12.0477
晒太阳	-12.0478
白鸭	-12.0487
小明飞	-12.0495
针	-12.052
机很	-12.0524
鸡很	-12.0526
▁这个绿色的	-12.0546
就要	-12.0548
▁桌子	-12.056
织	-12.0565
土	-12.057
归	-12.057
射	-12.0572
历	-12.0573
生物多样	-12.0573
起床	-12.0573
些	-12.0573
知识	-12.0573
夜	-12.0574
太阳落山了	-12.0574
姐姐扫	-12.0574
牙齿	-12.0574
溶	-12.0574
宋	-12.0574
怀	-12.0574
羽毛是轻的	-12.0574
便宜	-12.0574
雅	-12.0574
续	-12.0574
佚	-12.0574
小猫买	-12.0574
浩	-12.0574
帙	-12.0574
辑	-12.0574
罗	-12.0574
你们玩	-12.0574
彩池	-12.0574
氧气	-12.0574
爸爸送	-12.0574
城墙	-12.0574
麻	-12.0574
泛	-12.0574
饼	-12.0574
赏	-12.0574
怪	-12.0574
易	-12.0574
奶奶喝	-12.0574
现存	-12.0574
粹	-12.0574
杖	-12.0574
殿	-12.0574
你们走	-12.0574
口渴了	-12.0575
汽车是快的	-12.0575
太阳是亮的	-12.0575
上学	-12.0575
主义	-12.0576
吃月	-12.0577
小狗拿	-12.0577
七天	-12.0578
爸爸拿	-12.0578
他唱	-12.0578
同学站	-12.0578
老师坐	-12.0578
老师玩	-12.0579
被列	-12.0579
爸爸喝	-12.0582
爷爷爱	-12.06
车很	-12.06
村很	-12.0603
到了	-12.0604
牛很	-12.0616
要小心	-12.0632
很软	-12.0633
▁笔	-12.0647
ECD	-12.0648
▁人有	-12.0651
飞机	-12.0662
少老师	-12.0677
在椅子下	-12.0717
圆旗	-12.0718
糖很	-12.0727
大船	-12.074
在体育场	-12.076
街很	-12.0761
大海很	-12.08
是同一	-12.0808
ehc	-12.0816
个值	-12.0817
晒	-12.0817
冷了	-12.0818
DEB	-12.0841
一周有	-12.0847
妈妈很	-12.0861
ha	-12.0878
减三等于	-12.0881
黄鸡	-12.0906
在杯子里	-12.0912
ni	-12.0923
加四等于	-12.0928
加一等于	-12.0937
要小心走	-12.0942
她爱	-12.0953
高鸭	-12.0967
屋里	-12.0975
▁十个	-12.0983
▁树	-12.0991
少鹅	-12.0996
为什么要	-12.0997
是瘦的	-12.1032
小明吃	-12.1033
坏老师	-12.1058
白天	-12.1075
太阳很亮	-12.1099
明亮灯	-12.1128
是紫色的	-12.118
▁下雨了	-12.118
河很	-12.1186
心很	-12.1188
我穿	-12.1201
西瓜	-12.123
这是	-12.1265
少牙	-12.1267
她拿	-12.1273
他站	-12.128
恢复	-12.1286
小红跑	-12.1293
旧牙	-12.1306
op	-12.131
书里有	-12.1311
口很	-12.1314
茶很	-12.1317
饿了	-12.1331
存	-12.1333
配	-12.1338
木头	-12.134
工	-12.134
破	-12.1341
赋	-12.1341
业	-12.1342
何	-12.1343
休息	-12.1343
遗产	-12.1343
杭	-12.1343
崽	-12.1343
幼	-12.1343
筛	-12.1343
典型应用	-12.1343
此	-12.1343
仅	-12.1343
呢	-12.1343
水经注	-12.1343
尝	-12.1343
林	-12.1343
辨	-12.1343
妹妹跑	-12.1343
攻	-12.1343
辞	-12.1343
围	-12.1343
普	-12.1343
庆	-12.1343
葬	-12.1343
阁	-12.1343
袍	-12.1343
伍	-12.1343
我们养	-12.1343
澳	-12.1343
离骚	-12.1343
蜀	-12.1343
我们听	-12.1343
哥哥喝	-12.1343
禾	-12.1343
港珠	-12.1343
瀑	-12.1343
奶奶游	-12.1343
资	-12.1343
我们画	-12.1343
妹妹跳	-12.1343
航海	-12.1343
冬天很冷	-12.1343
我们坐	-12.1343
因为手上有细菌	-12.1344
哥哥笑	-12.1344
你们帮	-12.1344
小红扫	-12.1344
你种	-12.1345
弟弟买	-12.1345
同学说	-12.1346
弟弟答	-12.1346
小猫洗	-12.1346
姐姐放	-12.1346
老师拿	-12.1347
小狗画	-12.1347
小明喜欢	-12.1347
他哭	-12.1347
小猫画	-12.1348
老师看	-12.1348
小红种	-12.1349
同学吃	-12.135
小明想	-12.1351
小狗爬	-12.1351
小明坐	-12.1352
妈妈唱	-12.1353
始建	-12.1354
爸爸飞	-12.1354
弟弟走	-12.1356
小红飞	-12.136
小明跳	-12.1369
但不	-12.1373
个对象	-12.1385
草很	-12.1387
爸爸笑	-12.1389
精度	-12.1393
是旧的	-12.1398
妈妈读	-12.1406
和短	-12.1407
复杂	-12.1434
冰很冷	-12.1447
小明画	-12.1458
▁六个	-12.1468
水很烫	-12.147
钟很	-12.1481
天亮了	-12.1493
花很	-12.1509
你关	-12.1519
小衣	-12.1544
▁书	-12.1551
落下来	-12.1566
是否为	-12.1568
吹	-12.1575
一天	-12.1577
卜	-12.1622
是丑的	-12.1626
大家	-12.163
烫	-12.1632
ia	-12.1681
她看	-12.1685
▁九个	-12.1687
是美的	-12.1687
ēn	-12.1702
da	-12.173
很危险	-12.1764
是橙色的	-12.1779
小明喝	-12.1782
鼓很	-12.1794
是空	-12.1816
热量	-12.1841
CBA	-12.1861
凌	-12.187
历史	-12.187
盒子	-12.1872
老师很	-12.189
湿了	-12.1899
cb	-12.1909
df	-12.1917
黄色的	-12.1917
窗很	-12.1939
鸟很	-12.1947
米饭很	-12.1948
▁椅子	-12.1951
妈妈洗	-12.2009
▁七个	-12.2015
AEC	-12.2033
十五	-12.2072
你喜欢	-12.2073
▁鸟	-12.2082
融化了	-12.2082
找	-12.2145
整	-12.2151
沉下去	-12.2162
你游	-12.2163
小猫爱	-12.2166
小猫玩	-12.2168
小猫游	-12.2171
蛋很	-12.2172
认	-12.2175
骨	-12.2176
老	-12.2176
秋	-12.2176
谱	-12.2176
和慢不	-12.2176
洋	-12.2176
瓷	-12.2176
省	-12.2176
陕	-12.2176
室	-12.2176
的反方向是	-12.2176
重叠子问题	-12.2176
哥哥织	-12.2176
他们扫	-12.2176
奶奶送	-12.2176
姐姐找	-12.2176
弟弟找	-12.2176
爷爷喜欢	-12.2176
妹妹喜欢	-12.2176
姐姐养	-12.2176
▁为什么我们要	-12.2176
爷爷洗	-12.2176
同学送	-12.2177
寒	-12.2177
弟弟跑	-12.2177
仙	-12.2177
姐姐拿	-12.2177
洛	-12.2177
蔬菜	-12.2177
爷爷玩	-12.2177
瓶	-12.2177
文具	-12.2177
童	-12.2177
哥哥坐	-12.2177
龟	-12.2177
夜晚是暗的	-12.2177
姐姐喝	-12.2177
智	-12.2177
殖	-12.2177
回家	-12.2177
欧班列	-12.2177
翠	-12.2177
他们玩	-12.2177
挫	-12.2177
小明送	-12.2177
禽	-12.2177
甲	-12.2177
奸	-12.2177
施	-12.2177
导航	-12.2177
爷爷爬	-12.2177
熟	-12.2177
老师帮	-12.2177
同学织	-12.2177
我们跳	-12.2177
姐姐做	-12.2177
我们哭	-12.2177
桌子是家具	-12.2177
衣很	-12.2177
弟弟放	-12.2177
人工	-12.2178
他们写	-12.2178
外科	-12.2178
他养	-12.2178
节气	-12.2178
月球	-12.2178
哥哥答	-12.2178
他拿	-12.2179
因为火很热	-12.2179
奶奶答	-12.2179
▁小明去公园	-12.2179
两个列表	-12.2179
她玩	-12.2179
妹妹答	-12.2179
小猫走	-12.218
从高处	-12.2181
柜子	-12.2181
苹果是水果	-12.2181
妈妈听	-12.2181
姐姐关	-12.2181
爸爸画	-12.2181
下西	-12.2182
大同	-12.2182
你哭	-12.2182
可以泡茶	-12.2182
妹妹放	-12.2182
他们听	-12.2183
姐姐游	-12.2183
你飞	-12.2183
受伤	-12.2185
壮丽	-12.2185
妹妹游	-12.2186
小猫爬	-12.2187
你们看	-12.2187
她走	-12.2188
你们开	-12.2189
妹妹看	-12.2193
ce	-12.2196
妹妹爱	-12.2197
人有两只	-12.2199
小狗游	-12.2201
山顶	-12.2205
体重	-12.2209
有四条腿	-12.2212
ge	-12.222
你们爱	-12.222
书写	-12.222
小明帮	-12.2222
小红学	-12.2226
的东西有	-12.2228
爸爸很	-12.223
▁三个人	-12.2231
黄龙	-12.2233
▁八个人	-12.2233
▁九个人	-12.2236
岁了	-12.2241
三个	-12.2244
吹风扇	-12.2252
FCA	-12.2254
火很	-12.2254
小明读	-12.2259
▁夏天	-12.229
他走	-12.2292
少书	-12.2295
▁五个人	-12.2298
三只	-12.2306
▁六个人	-12.2314
同学画	-12.2318
老师种	-12.2322
▁四个人	-12.2324
▁小鸟飞	-12.233
▁二个人	-12.2338
小猫跳	-12.235
老师喝	-12.2378
蓝鼓	-12.2395
▁七个人	-12.2404
▁十个人	-12.241
是家具	-12.2421
在客厅	-12.2428
条	-12.2447
▁一个人	-12.2448
▁中找	-12.2462
胖	-12.2474
四只	-12.2481
好吃	-12.2496
旧厂	-12.2551
减四等于	-12.2558
▁小猫	-12.2588
加五等于	-12.2591
小明关	-12.2596
小猫开	-12.262
开花	-12.2624
ag	-12.2635
在手里会	-12.2646
是厚的	-12.2651
力气	-12.2656
BEA	-12.2695
发很	-12.2702
可爱椅子	-12.2724
小红帮	-12.2758
ef	-12.2763
可以看	-12.2779
▁西瓜	-12.2794
理学	-12.28
酸兔	-12.2812
长米饭	-12.2816
新街	-12.2837
白街	-12.2844
fr	-12.289
大菜	-12.2914
ad	-12.292
做饭	-12.293
慢蛋	-12.2937
多雪	-12.2938
棉花	-12.294
可爱肉	-12.2941
我们开	-12.2944
是臭的	-12.2958
是蓝色的	-12.2959
妹妹开	-12.2959
▁乌龟	-12.296
的属性	-12.296
大天空	-12.2974
小红去	-12.2976
看到了	-12.3006
晚上	-12.3008
秋天	-12.3011
慢汽车	-12.3034
远船	-12.3036
CB	-12.3042
挂	-12.3044
物	-12.3052
的动物	-12.3059
朋友	-12.3073
型	-12.3079
蜜	-12.3079
掉	-12.3079
正	-12.3084
倒	-12.3085
病	-12.3085
陵陪葬	-12.3085
帽子	-12.3085
爷爷送	-12.3085
你们卖	-12.3085
姐姐送	-12.3085
姐姐卖	-12.3085
是典型	-12.3085
妹妹扫	-12.3085
弟弟帮	-12.3085
他卖	-12.3085
考察	-12.3085
静	-12.3086
姐姐喜欢	-12.3086
奶奶跑	-12.3086
奶奶喜欢	-12.3086
哥哥说	-12.3086
佛	-12.3086
他们喜欢	-12.3086
奶奶种	-12.3086
妹妹说	-12.3086
小狗送	-12.3086
妹妹笑	-12.3086
爷爷学	-12.3086
连通	-12.3086
冲	-12.3086
妹妹读	-12.3086
弟弟养	-12.3086
祖冲之	-12.3086
于春秋	-12.3086
爷爷想	-12.3086
姐姐看	-12.3086
爷爷坐	-12.3086
爷爷看	-12.3086
你们坐	-12.3086
妹妹想	-12.3086
哥哥吃	-12.3086
姐姐唱	-12.3086
黑夜	-12.3086
你们哭	-12.3086
哥哥关	-12.3086
我们学	-12.3086
你们唱	-12.3086
生态	-12.3086
他们关	-12.3086
小猫织	-12.3086
老师找	-12.3086
老师扫	-12.3086
坏衣	-12.3087
姐姐帮	-12.3087
奶奶笑	-12.3087
妹妹卖	-12.3088
你买	-12.3088
极高	-12.3088
哥哥读	-12.3088
弟弟想	-12.3088
分治	-12.3088
运河	-12.3089
他坐	-12.3089
爸爸喜欢	-12.3089
同学问	-12.3089
小猫种	-12.309
老师笑	-12.309
老师读	-12.309
爸爸问	-12.309
妈妈拿	-12.3091
她唱	-12.3091
老师站	-12.3092
小糖	-12.3092
我们做	-12.3093
小明笑	-12.3093
天会下雨	-12.3093
同学游	-12.3094
小红烧	-12.3095
他们游	-12.3096
爸爸哭	-12.3097
妈妈爬	-12.3097
爸爸唱	-12.3098
小红游	-12.3102
▁wǎn	-12.3105
妹妹听	-12.3105
中华	-12.3106
于中国	-12.3108
他学	-12.3109
他们喝	-12.3109
丑	-12.311
他说	-12.3111
鱼在水里	-12.3116
爸爸做	-12.3118
奶奶爱	-12.3121
小猫站	-12.3123
▁我切	-12.3125
爸爸想	-12.3127
黄天空	-12.3135
黄店	-12.3139
跑得快	-12.3154
狗是动物	-12.3167
同学答	-12.3167
他穿	-12.3168
先进	-12.3176
小猫想	-12.3178
在河边	-12.319
如果	-12.3193
小狗喝	-12.3197
▁小红跑	-12.3204
小红写	-12.3205
▁jiàn	-12.3209
窗户	-12.3209
她说	-12.3215
小明玩	-12.3215
脚很	-12.3225
弟弟爱	-12.3226
温暖学校	-12.3229
要睡觉	-12.3232
水果	-12.324
妈妈写	-12.3253
花开了	-12.3256
递归求	-12.3257
出土	-12.3257
龙很	-12.3259
只有一	-12.326
凉路	-12.326
近肉	-12.3269
BFD	-12.327
子问题的	-12.3271
就会	-12.3285
坏机	-12.3298
假小猫	-12.3304
uāng	-12.3326
▁小红放	-12.334
长酒	-12.335
黑同学	-12.3361
重酒	-12.3368
递归或栈	-12.3385
你开	-12.3406
▁小明的	-12.3418
天下	-12.3419
绿脚	-12.3425
多苹果	-12.3429
色的	-12.3439
短村	-12.3462
小村	-12.3479
圆瓜	-12.3501
所以不是	-12.3527
太阳出来	-12.3532
甜肉	-12.3553
rime	-12.3558
香鸟	-12.3559
碰到	-12.3562
冰箱	-12.3586
画画	-12.3602
西藏	-12.361
▁我穿	-12.3624
大爸爸	-12.365
▁热茶	-12.3664
安静口	-12.3696
小狗爱	-12.3712
肉很	-12.372
粗	-12.3721
很厚	-12.3725
好同学	-12.3727
温暖心	-12.3743
快手	-12.3762
方牙	-12.3764
是甜的	-12.3775
反义词是	-12.3796
▁二个	-12.3805
是什么形状	-12.3835
▁这个蓝色的	-12.3837
看不见	-12.3838
是苦的	-12.3842
是宽的	-12.3847
小明看	-12.3849
少叶	-12.3866
暖	-12.3875
we	-12.3878
温度很高	-12.3882
ee	-12.3899
小米	-12.3923
他飞	-12.3939
烫伤	-12.3943
温暖笔	-12.3946
甜路	-12.3955
不能先	-12.3961
力	-12.3968
▁为什么	-12.3986
盐很	-12.401
营养	-12.4014
你听	-12.403
重椅子	-12.4032
先洗手	-12.4035
壶	-12.4054
DCE	-12.4054
屈原	-12.4064
▁这个白色的	-12.4065
两只手	-12.407
CAE	-12.4074
相反	-12.4074
反	-12.4079
优	-12.4079
容	-12.4083
渴了	-12.4084
基	-12.4085
▁这个橙色的	-12.4085
李	-12.4085
设	-12.4085
▁炉子	-12.4085
匙	-12.4085
哥哥卖	-12.4085
奶奶卖	-12.4085
▁烤箱	-12.4085
哥哥买	-12.4085
妹妹帮	-12.4085
厅	-12.4085
▁他摘	-12.4085
▁小猫摘	-12.4085
▁小鸟摘	-12.4085
你们织	-12.4085
▁小鱼戴	-12.4085
▁小鸟捡	-12.4085
哥哥找	-12.4085
奶奶扫	-12.4085
▁小狗戴	-12.4085
▁小红戴	-12.4086
▁她捡	-12.4086
霞	-12.4086
泊	-12.4086
▁小猫捡	-12.4086
▁小鱼脱	-12.4086
▁小鱼笑	-12.4086
哥哥种	-12.4086
射俑	-12.4086
段	-12.4086
你送	-12.4086
哥哥养	-12.4086
▁小鱼烧	-12.4086
▁你戴	-12.4086
姐姐听	-12.4086
▁小鸟切	-12.4086
同学买	-12.4086
哥哥学	-12.4086
你们说	-12.4086
▁小鱼听	-12.4086
哥哥听	-12.4086
姐姐画	-12.4086
▁小鱼站	-12.4086
爷爷读	-12.4086
▁小鱼睡	-12.4086
你们读	-12.4086
▁小鸟笑	-12.4086
▁小鱼穿	-12.4086
哥哥想	-12.4086
▁小鱼喝	-12.4086
弟弟种	-12.4086
▁小鱼拉	-12.4086
临	-12.4086
妹妹学	-12.4086
弟弟问	-12.4086
▁小鱼跳	-12.4086
和硬不	-12.4086
奶奶找	-12.4086
▁小鱼哭	-12.4086
妈妈送	-12.4086
济	-12.4086
▁小鱼唱	-12.4086
▁小鸟站	-12.4086
低处	-12.4086
奶奶站	-12.4086
你们站	-12.4086
奶奶坐	-12.4086
姐姐吃	-12.4086
火虫	-12.4086
你帮	-12.4086
▁小鸟画	-12.4086
他们想	-12.4086
▁小鸟推	-12.4086
姐姐跳	-12.4086
我们种	-12.4086
丰	-12.4086
弟弟坐	-12.4086
小红送	-12.4086
▁小鸟喝	-12.4086
▁小鸟拉	-12.4086
我们拿	-12.4086
▁小鸟游	-12.4086
弟弟站	-12.4086
他们吃	-12.4086
奶奶唱	-12.4086
▁小鸟跳	-12.4086
民族	-12.4086
你织	-12.4086
▁小鸟关	-12.4086
妹妹爬	-12.4086
大象是大的	-12.4086
▁她切	-12.4086
▁她脱	-12.4086
▁他切	-12.4086
▁小狗切	-12.4086
医生	-12.4086
太阳是暖的	-12.4086
▁小猫切	-12.4087
哥哥做	-12.4087
▁小明切	-12.4087
▁小猫脱	-12.4087
我们关	-12.4087
▁小明脱	-12.4087
▁小鱼来	-12.4087
灯是亮的	-12.4087
▁小鸟写	-12.4087
▁她来	-12.4087
小明织	-12.4087
红色是颜色	-12.4087
天气变	-12.4087
▁他来	-12.4087
▁她穿	-12.4087
▁小狗来	-12.4087
▁小红脱	-12.4087
▁小狗推	-12.4087
先烧水	-12.4087
爷爷种	-12.4087
弟弟写	-12.4088
▁他拉	-12.4088
▁小猫睡	-12.4088
▁他打	-12.4088
他种	-12.4088
妹妹找	-12.4088
▁小猫推	-12.4088
▁小明睡	-12.4088
▁小明来	-12.4088
▁小明穿	-12.4088
你拿	-12.4089
做完了	-12.4089
同学洗	-12.4089
▁小鱼开	-12.4089
小狗养	-12.4089
周期	-12.4089
闪电	-12.409
▁小红打	-12.409
你坐	-12.409
你站	-12.409
热的反义词是	-12.409
一加一等于	-12.409
小猫听	-12.4091
老师画	-12.4091
小猫问	-12.4091
她爬	-12.4091
爸爸读	-12.4091
小猫学	-12.4092
小红养	-12.4092
同学玩	-12.4092
小狗玩	-12.4093
小红说	-12.4093
爸爸坐	-12.4093
爸爸站	-12.4094
妈妈站	-12.4094
爸爸看	-12.4094
小红拿	-12.4094
我睡	-12.4095
会跳舞	-12.4095
同学哭	-12.4096
▁我拉	-12.4096
▁你给	-12.4096
她坐	-12.4097
小明站	-12.4098
快的反义词是	-12.4098
小红看	-12.4099
小狗扫	-12.4099
他们画	-12.4099
奶奶看	-12.41
铁块	-12.4101
爸爸关	-12.4101
长高	-12.4101
大的反义词是	-12.4102
凉了	-12.4102
小红吃	-12.4102
秋天到了	-12.4104
同学放	-12.4105
老师放	-12.4106
我们喝	-12.4106
我们唱	-12.4108
水能	-12.4109
爷爷开	-12.4111
和暗不	-12.4113
▁小鸟开	-12.4115
哥哥洗	-12.4119
他答	-12.412
小明开	-12.412
要待在	-12.4122
▁三个	-12.4129
她站	-12.413
蛇很	-12.4131
哥哥开	-12.4134
一面	-12.4142
不然会	-12.4144
少脚	-12.4153
你们洗	-12.4154
爸爸扫	-12.4155
妈妈走	-12.4162
酸火	-12.4162
长风	-12.4166
杯水	-12.4178
二只	-12.4184
如果不	-12.4192
在屋外	-12.4193
姐姐走	-12.4193
会发光	-12.4193
爸爸种	-12.4194
升	-12.4203
很舒服	-12.4204
白色的	-12.4207
他画	-12.421
跑步	-12.4212
在树下	-12.4215
▁碗是	-12.4215
▁我给	-12.4225
妈妈关	-12.4226
▁黑色不是	-12.4234
在商店	-12.4235
切菜	-12.424
▁白色不是	-12.4248
树上	-12.4249
ct	-12.4255
爸爸听	-12.4256
火很烫	-12.4256
你画	-12.4263
小狗跳	-12.4266
她游	-12.4271
▁小明走	-12.4275
跑得很快	-12.4275
▁高楼	-12.4277
用手	-12.4281
走到	-12.4286
小狗写	-12.4287
吃了	-12.4298
▁duǒ	-12.4307
会变	-12.431
天空是蓝色的	-12.4327
妈妈种	-12.4329
一百	-12.4336
在海边	-12.4341
一支笔	-12.4344
在图书馆	-12.4344
会游泳	-12.4345
叶很	-12.4348
同	-12.4348
大机	-12.4353
温	-12.4358
有哪些	-12.4367
▁兔子	-12.4377
▁小狗吃	-12.4386
脸很	-12.4388
他开	-12.4396
老师说	-12.4401
▁你读	-12.441
▁五个	-12.442
▁你看	-12.4445
BCE	-12.4455
颜色	-12.4469
ed	-12.4469
里有	-12.4478
里面	-12.4489
▁小明洗	-12.449
▁香蕉是黄色的	-12.4498
▁葡萄是紫色的	-12.4498
▁小明做	-12.4498
▁他写	-12.4498
▁猎豹	-12.4509
▁你写	-12.4531
五只	-12.4554
在动物园	-12.4555
出来了	-12.4556
▁她跳	-12.4589
▁她	-12.4594
▁小明听	-12.4595
▁你想	-12.4596
▁小狗看	-12.4596
减五等于	-12.4598
▁小红跳	-12.4599
▁小红关	-12.4599
▁你走	-12.4614
▁我在	-12.4616
加六等于	-12.4617
蓝色的	-12.4623
ello	-12.4642
▁火很热	-12.4644
在水里	-12.4652
▁小猫读	-12.4664
五个	-12.468
代科学	-12.4682
▁fi	-12.4715
第二	-12.4718
▁小红画	-12.4719
老师走	-12.4733
东方	-12.476
▁狗是	-12.476
▁她吃	-12.4764
▁树叶	-12.4765
▁他洗	-12.4794
▁她飞	-12.4796
▁她写	-12.48
是稳定	-12.4804
▁你吃	-12.4807
▁小红唱	-12.4807
在门后	-12.4808
和冷	-12.4829
▁小狗说	-12.4861
▁小明	-12.4865
的水	-12.4866
▁小红笑	-12.4872
▁羽毛	-12.488
▁火车	-12.4892
▁他听	-12.4897
▁他游	-12.4898
▁他做	-12.4902
▁小狗跑	-12.4907
▁小狗唱	-12.4909
▁小红坐	-12.4909
▁小明唱	-12.4911
▁小红喝	-12.4911
▁小猫做	-12.4914
树很	-12.4959
是薄的	-12.497
▁他	-12.4978
有一个	-12.4985
上面	-12.4991
hg	-12.4999
▁她游	-12.5
ime	-12.5002
▁小狗跳	-12.5013
▁小狗写	-12.5018
在屋里	-12.5022
▁你画	-12.5041
▁你烧	-12.5044
是颜色	-12.5054
是一种人	-12.5056
▁小明看	-12.5059
▁她说	-12.5071
个函数	-12.5076
爸爸爱	-12.5079
▁小狗喝	-12.5085
颗	-12.5094
然	-12.5096
ǎn	-12.5096
▁他穿	-12.5102
BDC	-12.5112
FBC	-12.5121
▁小猫开	-12.5121
▁小红写	-12.5126
我们	-12.5135
疼	-12.5145
▁小明读	-12.5145
三条	-12.5152
风吹	-12.5156
书很有趣	-12.5166
▁int	-12.517
帮	-12.5171
抓	-12.5195
产生	-12.5196
嵌套	-12.5196
▁她走	-12.5196
随	-12.5196
我们卖	-12.5196
爷爷卖	-12.5196
因为温度升高了	-12.5197
妹妹送	-12.5197
小猫卖	-12.5197
博	-12.5197
同学卖	-12.5197
他们送	-12.5197
我们织	-12.5197
我们扫	-12.5197
爷爷养	-12.5197
姐姐跑	-12.5197
姐姐种	-12.5197
潮	-12.5197
你们养	-12.5197
纲目	-12.5197
和平	-12.5197
爷爷说	-12.5197
承	-12.5197
T	-12.5197
姐姐想	-12.5197
老师买	-12.5197
他们说	-12.5197
姐姐坐	-12.5197
姐姐玩	-12.5197
妹妹拿	-12.5197
帮助	-12.5197
老师送	-12.5197
贸	-12.5197
他们学	-12.5197
奶奶学	-12.5197
我们跑	-12.5197
爷爷站	-12.5197
弹	-12.5197
吸引	-12.5197
弟弟看	-12.5197
妹妹吃	-12.5197
同学帮	-12.5197
他扫	-12.5197
你们飞	-12.5197
他们跳	-12.5197
妹妹哭	-12.5197
小猫帮	-12.5197
弟弟跳	-12.5197
弟弟飞	-12.5198
爷爷放	-12.5198
爸爸找	-12.5198
妈妈找	-12.5198
她喜欢	-12.5198
他喜欢	-12.5199
他跑	-12.5199
石刻	-12.5199
她笑	-12.5199
你学	-12.5199
奶奶写	-12.52
老师跑	-12.52
的方向	-12.5201
爸爸跑	-12.5201
妈妈跑	-12.5201
哥哥玩	-12.5201
小猫养	-12.5201
妈妈养	-12.5202
好石	-12.5202
老师听	-12.5202
老师问	-12.5202
会跑步	-12.5202
爷爷走	-12.5202
你们跳	-12.5202
同学笑	-12.5202
同学学	-12.5202
他跳	-12.5203
两只	-12.5203
妹妹站	-12.5203
妹妹问	-12.5204
小狗站	-12.5205
妈妈想	-12.5205
太阳照	-12.5209
哥哥跳	-12.5209
小红想	-12.5209
是水果	-12.521
他们问	-12.5211
小猫唱	-12.5211
真龙	-12.5212
妹妹写	-12.5212
弟弟画	-12.5213
轻雪	-12.5213
你好吗	-12.5216
▁小猫玩	-12.5218
▁小猫游	-12.5219
妹妹玩	-12.5221
大熊猫	-12.5223
▁小猫走	-12.5223
他们开	-12.5224
同学做	-12.5228
老师做	-12.523
▁晚上	-12.5231
小猫写	-12.5238
他们看	-12.524
奶奶开	-12.524
能量	-12.5243
风扇	-12.5254
数学	-12.5259
▁你游	-12.5262
▁蚂蚁	-12.5264
▁小明画	-12.5271
小猫答	-12.5278
爸爸答	-12.5281
爸爸开	-12.5284
先到	-12.5288
▁他站	-12.5296
笔很	-12.5302
▁她拿	-12.5304
▁我关	-12.5313
六十	-12.5346
▁椅子是	-12.5356
满了	-12.5367
小红做	-12.5376
方天空	-12.5381
红色的	-12.5392
▁飞机	-12.5392
▁小明跑	-12.54
小红答	-12.5405
你好	-12.5416
▁小狗读	-12.5422
▁橘子	-12.544
端午节	-12.5464
自行车	-12.5466
▁我洗	-12.5483
白天有太阳	-12.5497
小狗跑	-12.5499
月亮出来了	-12.5504
})	-12.5505
小明哭	-12.5507
小狗唱	-12.5509
小红坐	-12.5509
他听	-12.5509
他游	-12.5513
小红喝	-12.5515
小明唱	-12.5517
学习	-12.5521
▁你喝	-12.5522
他做	-12.5525
大象很大	-12.5533
不能用手摸	-12.5533
小猫做	-12.5533
▁你开	-12.5538
▁猴子是	-12.5539
水开了	-12.5551
那是	-12.5582
苹果是红色的	-12.5586
黄虎	-12.5595
▁他吃	-12.5608
上有很多	-12.5608
▁小红烧	-12.5609
玻璃	-12.5616
小狗说	-12.5622
▁八个	-12.5623
▁那是	-12.5644
温度高	-12.5644
▁老虎是	-12.5648
▁她画	-12.5665
真店	-12.5671
方灯	-12.568
小红笑	-12.5688
爸爸洗	-12.5706
旧鸡	-12.5707
短盐	-12.5715
可爱街	-12.5717
美丽学校	-12.5725
老师开	-12.5727
快乐机	-12.5731
▁小猫飞	-12.5746
EFD	-12.5746
绿牙	-12.5753
不是重	-12.5773
hbc	-12.578
美丽狮	-12.5786
方虎	-12.579
下雨	-12.5806
▁雪是白色的	-12.5822
CAB	-12.5824
▁杯子是	-12.5845
▁鱼	-12.5846
安静大海	-12.5851
旧虎	-12.586
真蛇	-12.5878
高原	-12.5884
▁我会	-12.5886
水里	-12.5893
短衣	-12.5895
▁她喝	-12.5905
新桥	-12.5926
▁熊猫	-12.5941
绿肉	-12.5954
真街	-12.5963
FED	-12.5975
小狗关	-12.5977
▁他喝	-12.6004
▁蜗牛	-12.601
黄熊	-12.6022
▁你唱	-12.6024
慢鸟	-12.6027
短蛋	-12.6027
香村	-12.604
后面	-12.6048
江并	-12.6051
新鹅	-12.6056
多街	-12.6057
白马	-12.6057
双鞋	-12.606
下雨了	-12.6063
好船	-12.6078
短叶	-12.609
▁四个	-12.6108
黄狮	-12.6113
▁小狗开	-12.6117
▁小猫笑	-12.6128
暖的	-12.6138
▁夜晚	-12.6151
▁球是	-12.6158
新鼓	-12.6162
矮龙	-12.6164
别人	-12.6164
冰棍	-12.6176
长旗	-12.618
方发	-12.6183
温暖厂	-12.6185
美丽糖	-12.6189
▁花在	-12.6194
凉的	-12.6201
▁蝴蝶	-12.6209
长桥	-12.621
红马	-12.621
可爱老师	-12.6226
大窗	-12.6232
甜马	-12.6237
热田	-12.6246
和热	-12.6254
快乐蛇	-12.6266
假雪	-12.6267
上去	-12.6274
白脚	-12.6276
好风	-12.6282
带伞	-12.6282
矮旗	-12.6296
好山	-12.6322
安静房子	-12.6332
明亮钟	-12.6343
小红爱	-12.6354
长街	-12.6355
树枝	-12.6365
矮鹅	-12.6366
远石	-12.6368
CBE	-12.6369
快鞋	-12.6371
矮学校	-12.6373
和软	-12.6382
烧水	-12.6391
山很	-12.6393
蓝狮	-12.6393
歌	-12.6398
出来	-12.6404
中午	-12.6411
小红开	-12.6415
高虎	-12.6418
真公园	-12.6418
新汽车	-12.6423
重盐	-12.6433
高处	-12.6439
周	-12.6441
该	-12.6441
美丽云	-12.6441
慢城	-12.6442
我们看	-12.6444
园	-12.6444
算	-12.6445
壁	-12.6446
经过了	-12.6446
池	-12.6446
剪刀	-12.6446
摔倒	-12.6446
我们送	-12.6447
寨	-12.6447
姐姐买	-12.6447
会摔下来	-12.6447
蜗牛爬得很慢	-12.6447
你们买	-12.6447
你们送	-12.6447
爷爷扫	-12.6447
离	-12.6447
剧	-12.6447
族	-12.6447
你们找	-12.6447
奶奶买	-12.6447
暖气是暖的	-12.6447
他们织	-12.6447
弟弟织	-12.6447
脆	-12.6447
他们找	-12.6447
▁从前有一只小	-12.6447
技术	-12.6447
讲	-12.6447
滑倒	-12.6447
班	-12.6447
奶奶养	-12.6447
他们跑	-12.6447
哥哥拿	-12.6447
姐姐笑	-12.6447
姐姐读	-12.6447
聚	-12.6447
飞机是快的	-12.6447
石头磕到会疼	-12.6447
峡	-12.6447
奶奶问	-12.6447
弟弟喜欢	-12.6447
他们养	-12.6447
你们问	-12.6447
有七种颜色	-12.6447
妹妹画	-12.6447
他们拿	-12.6447
洗掉	-12.6447
弟弟听	-12.6447
弟弟笑	-12.6447
奶奶玩	-12.6447
我们洗	-12.6447
妹妹坐	-12.6447
哥哥唱	-12.6447
爷爷吃	-12.6447
所以不能碰	-12.6447
我们问	-12.6447
你们爬	-12.6447
奶奶爬	-12.6447
小狗帮	-12.6447
爷爷飞	-12.6447
他们唱	-12.6447
电器	-12.6447
你扫	-12.6447
爸爸帮	-12.6447
蚂蚁很小	-12.6447
兔子是快的	-12.6447
哥哥走	-12.6448
弟弟关	-12.6448
同学扫	-12.6448
羽毛很轻	-12.6448
妈妈扫	-12.6448
▁因为太阳出来	-12.6448
小红织	-12.6449
乌龟是慢的	-12.6449
妹妹做	-12.6449
她洗	-12.6449
认真	-12.6449
月亮是亮的	-12.6449
热的东西	-12.645
他笑	-12.645
先起床	-12.645
奶奶关	-12.645
鸡蛋是	-12.645
同学跑	-12.6451
小狗喜欢	-12.6451
爷爷买	-12.6451
▁你怎么	-12.6451
同学听	-12.6452
小狗听	-12.6453
古城	-12.6454
冰棍是冰的	-12.6454
小红喜欢	-12.6454
指南	-12.6454
可能有	-12.6455
爷爷问	-12.6455
小明养	-12.6455
妹妹走	-12.6455
爸爸学	-12.6455
放东西	-12.6455
热月亮	-12.6455
你跳	-12.6455
妈妈玩	-12.6457
▁碗	-12.6458
同学喝	-12.6458
铁比水重	-12.6459
老师哭	-12.6461
老师爬	-12.6461
老师唱	-12.6461
一点	-12.6462
妈妈跳	-12.6462
小红站	-12.6463
果很	-12.6463
姐姐爱	-12.6464
爷爷唱	-12.6464
要系安全带	-12.6464
大气	-12.6468
ān	-12.6469
不吃饭	-12.6469
我们说	-12.6469
温暖酒	-12.6471
把伞	-12.6473
分钟	-12.6473
热蛋	-12.6475
她找	-12.6479
累了	-12.648
DEFA	-12.6481
生日	-12.6483
口人	-12.6486
哥哥看	-12.649
▁狮子是	-12.6493
爸爸写	-12.6495
我也	-12.6499
开水	-12.65
爷爷关	-12.6504
红蛇	-12.6505
进去	-12.6506
和凉	-12.6508
火车	-12.6515
妈妈笑	-12.6517
热茶是热的	-12.652
空气	-12.6521
慢窗	-12.6522
▁这个蓝色的鸟很	-12.6522
前面	-12.6527
快船	-12.6527
老师答	-12.6528
她种	-12.6528
小狗学	-12.6531
好房子	-12.6535
天气	-12.6536
蓝鸡	-12.6542
甜兔	-12.6543
▁我开	-12.6543
▁鱼在水里	-12.6549
▁车	-12.6553
快窗	-12.6553
先下雨	-12.6563
水蒸气	-12.6564
树叶是绿色的	-12.657
因为有	-12.6571
可爱牛	-12.6574
是暖的	-12.6585
在花园	-12.6589
黄桌子	-12.6602
美丽衣	-12.6603
多菜	-12.6612
要带伞	-12.6614
远米饭	-12.662
慢风	-12.6622
爸爸走	-12.6627
白的	-12.6631
照	-12.6631
圆云	-12.6631
甜小狗	-12.6634
他们洗	-12.6637
▁钢铁很	-12.6645
饭很香	-12.6648
圆酒	-12.6649
的东西比	-12.6652
快乐爸爸	-12.6656
短鼓	-12.6662
酸脚	-12.6666
cbh	-12.6681
坏河	-12.6685
大鸭	-12.6686
在田野	-12.669
▁有一天	-12.669
了一	-12.6695
▁因为下雨了	-12.6695
同学写	-12.6697
温泉是热的	-12.6698
▁泡沫	-12.6707
轻票	-12.6716
和轻	-12.6716
家很	-12.6719
的东西不能当	-12.6723
保暖	-12.6727
酸月亮	-12.6738
在博物馆	-12.6741
你玩	-12.6747
圆衣	-12.6748
太阳是什么	-12.6749
我关少	-12.6751
[]	-12.676
小路	-12.679
黑书	-12.6797
明亮厂	-12.68
长小狗	-12.6804
左手	-12.6812
羽毛	-12.6815
▁车在	-12.6818
小店	-12.6827
爸爸跳	-12.6835
多星星	-12.685
假牛	-12.6851
会说话	-12.6864
小狮	-12.687
方机	-12.687
香街	-12.6878
gr	-12.6881
短星星	-12.689
▁我喝	-12.6897
重牛	-12.6897
多米饭	-12.6905
圆风	-12.6923
慢手	-12.6926
他洗	-12.6927
▁因为天	-12.6931
你吃	-12.6931
快乐老师	-12.6932
她飞	-12.6932
大车	-12.6935
是短的	-12.6937
at	-12.6937
小红唱	-12.6939
温暖草	-12.6942
慢牛	-12.6942
她写	-12.6946
妈妈喝	-12.6948
在桌子上	-12.6949
水在	-12.6951
叶落了	-12.6957
小猫看	-12.6957
红手	-12.696
绿鸭	-12.6968
▁今天星期	-12.6969
BDF	-12.6969
她吃	-12.6979
甜口	-12.6988
妈妈爱	-12.6993
绿灯	-12.6995
黄公园	-12.6996
不动	-12.7
黑色	-12.7011
但是	-12.7014
白茶	-12.7022
香鞋	-12.7026
重虎	-12.7029
ADE	-12.7046
老师关	-12.7049
▁火山	-12.7079
是方的	-12.7092
白雪	-12.7102
▁绿色不是	-12.7104
黄鱼	-12.7106
很暖和	-12.7111
多学校	-12.7112
黄雪	-12.7113
美丽河	-12.7114
凉雨	-12.7119
不是冷	-12.7126
▁红色不是	-12.7128
加七等于	-12.7128
近老师	-12.7131
近火	-12.7134
dic	-12.7148
圆火	-12.715
大鹅	-12.7159
为什么会有	-12.716
重爸爸	-12.7174
热爸爸	-12.7177
多房子	-12.7181
▁蓝色不是	-12.7182
手指	-12.7188
蓝草	-12.7194
减六等于	-12.7198
橘子	-12.7199
可爱脚	-12.7199
旧月亮	-12.7204
▁下雪了	-12.7207
短茶	-12.7223
▁小明飞	-12.7224
安静小狗	-12.7241
蓝星星	-12.7253
大街	-12.7256
旧龙	-12.7257
形状	-12.7268
二个	-12.727
la	-12.728
BAE	-12.7285
酸天空	-12.7286
好雨	-12.7291
短蛇	-12.7297
香门	-12.7299
小鸭	-12.7302
BADE	-12.7317
EBA	-12.7321
一本书	-12.7328
多鱼	-12.7333
重书	-12.7341
同学开	-12.7347
长同学	-12.7348
圆学校	-12.7356
▁黄色不是	-12.7371
看书	-12.74
arg	-12.7401
是动物	-12.7409
快心	-12.7412
有几	-12.7415
的一	-12.7427
▁我写	-12.7444
假妈妈	-12.7446
外面温度	-12.7447
▁大象很大	-12.7455
凉风	-12.7491
重灯	-12.7509
多灯	-12.7514
铁比木头	-12.7525
▁自行车	-12.7533
是黄色的	-12.7567
▁火是	-12.7568
都是	-12.7573
高鱼	-12.758
小红洗	-12.7584
CAF	-12.7601
要做什么	-12.7604
星期	-12.761
海里	-12.7631
凉火	-12.7633
▁小狗	-12.7643
绿椅子	-12.7647
多牛	-12.7691
ei	-12.7696
我开小	-12.7702
舒服	-12.7705
黑色的	-12.7705
重天空	-12.7707
轻河	-12.7708
几个	-12.7726
的时候	-12.7759
少车	-12.7779
小妈妈	-12.7804
▁笔是	-12.7813
开了	-12.7822
我要	-12.7851
产	-12.7872
巴	-12.7874
录	-12.7874
采蜜	-12.7875
封	-12.7875
觉得	-12.7875
颜	-12.7875
示	-12.7875
因为雪反射	-12.7875
私	-12.7875
园林	-12.7875
她卖	-12.7875
有陌生人来了	-12.7875
哥哥帮	-12.7875
我们帮	-12.7875
他们帮	-12.7875
姐姐织	-12.7875
弟弟扫	-12.7875
哥哥扫	-12.7875
老师卖	-12.7875
范	-12.7875
她买	-12.7875
他买	-12.7875
哥哥跑	-12.7875
她送	-12.7875
难过	-12.7875
陵	-12.7875
你们喜欢	-12.7875
所有的光	-12.7875
这样	-12.7875
小狗买	-12.7875
爷爷听	-12.7875
你们听	-12.7875
你们笑	-12.7875
弟弟洗	-12.7875
你们学	-12.7876
小猫送	-12.7876
权	-12.7876
水滴	-12.7876
她帮	-12.7876
弟弟读	-12.7876
农业	-12.7876
爷爷喝	-12.7876
爷爷游	-12.7876
爷爷哭	-12.7876
他织	-12.7876
我们读	-12.7876
他找	-12.7876
奶奶飞	-12.7876
你找	-12.7876
他们飞	-12.7876
弟弟哭	-12.7876
引力	-12.7876
小狗织	-12.7876
春天来了	-12.7877
他们放	-12.7877
你们做	-12.7877
小明扫	-12.7878
我们放	-12.7878
宝船	-12.7879
姐姐答	-12.7879
爷爷答	-12.788
同学养	-12.788
他们答	-12.788
你们喝	-12.7881
小狗种	-12.7881
同学拿	-12.7882
不喝水	-12.7882
妈妈说	-12.7882
小狗笑	-12.7883
月相	-12.7883
人生	-12.7884
他爬	-12.7884
同学想	-12.7884
阵	-12.7884
树干	-12.7885
她关	-12.7885
同学看	-12.7885
小红听	-12.7888
小红问	-12.7888
老师游	-12.789
:==	-12.789
同学唱	-12.7891
奶奶听	-12.7892
水是透明的	-12.7893
妈妈游	-12.7893
运动	-12.7894
老师飞	-12.7894
小猫哭	-12.7894
发生	-12.7895
爸爸爬	-12.7895
爷爷帮	-12.7896
小河	-12.7901
慢慢长	-12.7902
水可以	-12.7903
高风	-12.7904
弟弟唱	-12.7906
猫喜欢抓老鼠	-12.7908
她想	-12.792
人类	-12.7923
长约	-12.7932
旧窗	-12.7934
爸爸卖	-12.7934
弟弟吃	-12.7935
妈妈织	-12.7936
▁秋天	-12.7949
āo	-12.795
妹妹关	-12.7952
球是圆的	-12.7964
我们爱	-12.7966
每天看	-12.7976
妈妈卖	-12.7983
猫很可爱	-12.7998
FB	-12.8007
书是美的	-12.8009
小猫扫	-12.8011
他关	-12.8017
▁我哭	-12.8027
,*	-12.8041
小明答	-12.8042
你说	-12.8066
yí	-12.808
他放	-12.8084
jh	-12.8127
坐车	-12.8128
as	-12.8132
要说谢谢	-12.8132
你能	-12.8134
妈妈买	-12.8148
二座	-12.8149
什么颜色	-12.8155
ea	-12.8166
DBE	-12.817
ment	-12.817
他看	-12.8201
来的	-12.8211
打伞	-12.8246
里有鱼	-12.825
绿色的	-12.8264
发芽	-12.8269
矮山	-12.8275
妈妈画	-12.8279
▁月亮是	-12.8299
水就	-12.8319
▁草是	-12.8346
小时	-12.8397
▁细菌	-12.8412
妈妈开	-12.8419
是香的	-12.843
▁叶子	-12.8432
二条	-12.8432
FAD	-12.8443
和快	-12.8465
看到	-12.8474
我在家里	-12.8501
是多	-12.8502
ide	-12.8542
夜晚有	-12.8542
在水里游	-12.8548
▁数字	-12.8552
小红画	-12.8552
冒	-12.8556
▁水	-12.8561
听到了	-12.8563
爸爸说	-12.8563
▁我走	-12.8569
刮风了	-12.8575
雨停了	-12.8576
手脏了	-12.8578
ACDF	-12.8591
下雪了	-12.8592
小朋友	-12.8594
过马路	-12.8603
▁我说	-12.8607
你爱	-12.8608
jcb	-12.8614
会融化	-12.862
era	-12.8627
右手	-12.8678
▁热水	-12.8684
afj	-12.8696
小猫读	-12.8711
源地	-12.8726
一条	-12.8736
读书	-12.8774
发出	-12.879
凉快	-12.8805
ADC	-12.8807
▁rec	-12.8824
明亮花	-12.8828
是什么颜色	-12.8835
假米	-12.8839
▁桌子在	-12.8858
真快	-12.8885
afg	-12.8897
一朵花	-12.8899
比汽车	-12.8905
jfa	-12.8936
FBA	-12.8956
一座	-12.901
id	-12.9011
为什么冬天	-12.9017
同学走	-12.9026
长花	-12.904
AFD	-12.9043
家具	-12.9057
用于有	-12.9066
不是硬	-12.9083
我读真	-12.9083
▁我想	-12.9097
亮了	-12.9099
DFA	-12.9112
▁因为天黑了	-12.9123
▁那	-12.9127
四个	-12.9147
▁我笑	-12.9177
轻果	-12.9196
地面	-12.9202
书是宽的	-12.9217
土地	-12.9231
凉果	-12.9235
鞋子	-12.9272
▁零	-12.9278
比冰	-12.9303
浮	-12.9306
lr	-12.932
服	-12.9322
▁书在	-12.9339
ì	-12.9391
gi	-12.9408
ACD	-12.9419
吸收	-12.9436
▁人	-12.9437
系	-12.945
就能	-12.9452
种树	-12.9456
不是黑色	-12.9475
屋	-12.948
太多了	-12.949
▁铅球	-12.9503
不是凉	-12.9509
FCE	-12.9514
我写安静	-12.9521
舞	-12.9525
让人	-12.9525
比水重	-12.9527
毛	-12.9531
阳光	-12.9531
闪	-12.9534
片	-12.9535
处	-12.9535
星	-12.9536
住	-12.9538
完	-12.9538
摔	-12.9538
ji	-12.9539
会触电	-12.9539
闻到了	-12.9539
往低处流	-12.954
凉了再喝	-12.954
回来	-12.954
浇	-12.954
手上有细菌	-12.954
从东边升起	-12.9541
搬	-12.9541
为什么冰会化	-12.9541
▁地下室	-12.9541
不能碰	-12.9541
捡	-12.9541
▁黑洞	-12.9542
钢笔是	-12.9542
可以照	-12.9542
干净	-12.9542
我们买	-12.9542
红灯停	-12.9542
衣服穿在身上	-12.9542
要看红绿灯	-12.9542
▁叶子有三个	-12.9542
▁狗有二个	-12.9542
会烧伤	-12.9542
可以看见东西	-12.9542
在晚上出来	-12.9542
▁bathroom	-12.9542
▁他的手是	-12.9542
▁她的眼睛是	-12.9542
▁小猫的嘴是	-12.9542
▁小鱼的书是	-12.9542
▁星星有三个	-12.9542
▁杯子有五个	-12.9542
▁桌子有二个	-12.9542
▁猫有二个	-12.9542
▁车有二个	-12.9542
安全带能保护	-12.9542
▁云有三个	-12.9542
▁云有二个	-12.9542
▁他的眼睛是	-12.9542
▁他的笔是	-12.9542
▁叶子有二个	-12.9542
▁她的衣服是	-12.9542
▁小鱼的嘴是	-12.9542
▁小鱼的手是	-12.9542
▁小鱼的笔是	-12.9542
▁小鱼的耳朵是	-12.9542
▁小鱼的脚是	-12.9542
▁小鱼的鞋是	-12.9542
▁小鱼的鼻子是	-12.9542
▁小鸟的嘴是	-12.9542
▁星星有二个	-12.9542
▁杯子有三个	-12.9542
▁杯子有四个	-12.9542
▁桌子有四个	-12.9542
▁椅子有二个	-12.9542
▁狗有三个	-12.9542
▁现在几点	-12.9542
▁球有三个	-12.9542
▁球有二个	-12.9542
▁球有四个	-12.9542
▁碗有三个	-12.9542
▁碗有二个	-12.9542
▁碗有四个	-12.9542
▁笔有二个	-12.9542
▁花有二个	-12.9542
▁花有五个	-12.9542
▁苹果有二个	-12.9542
▁车有三个	-12.9542
▁车有五个	-12.9542
▁鱼有二个	-12.9542
▁鸟有二个	-12.9542
▁鸟有五个	-12.9542
▁鸟有四个	-12.9542
书在桌子的上面	-12.9542
呼吸	-12.9542
开水是烫的	-12.9542
炉子是烫的	-12.9542
爷爷织	-12.9542
猫在椅子的	-12.9542
稳	-12.9542
终于抓到了一条	-12.9542
金子是重的	-12.9542
▁书有二个	-12.9542
▁他的嘴是	-12.9542
▁他的头是	-12.9542
▁他的帽子是	-12.9542
▁他的耳朵是	-12.9542
▁他的脚是	-12.9542
▁他的衣服是	-12.9542
▁他的鞋是	-12.9542
▁你的嘴是	-12.9542
▁你的帽子是	-12.9542
▁她的嘴是	-12.9542
▁她的头是	-12.9542
▁她的帽子是	-12.9542
▁她的手是	-12.9542
▁她的笔是	-12.9542
▁她的耳朵是	-12.9542
▁她的脚是	-12.9542
▁她的鞋是	-12.9542
▁小猫的衣服是	-12.9542
▁小红的笔是	-12.9542
▁小鱼的头是	-12.9542
▁小鱼的帽子是	-12.9542
▁小鱼的眼睛是	-12.9542
▁小鱼的衣服是	-12.9542
▁小鸟的帽子是	-12.9542
▁小鸟的耳朵是	-12.9542
▁小鸟的鞋是	-12.9542
▁小鸟的鼻子是	-12.9542
▁我的嘴是	-12.9542
▁杯子有二个	-12.9542
▁桌子有三个	-12.9542
▁椅子有五个	-12.9542
▁狗有四个	-12.9542
▁猫有三个	-12.9542
▁猫有五个	-12.9542
▁猫有四个	-12.9542
▁石头有二个	-12.9542
▁石头有五个	-12.9542
▁石头有四个	-12.9542
▁苹果有五个	-12.9542
▁苹果有四个	-12.9542
他们卖	-12.9542
太阳和月亮	-12.9542
妹妹织	-12.9542
宜	-12.9542
小狗卖	-12.9542
空调是凉的	-12.9542
钢铁是重的	-12.9542
▁小狗的嘴是	-12.9542
▁小狗的帽子是	-12.9542
▁小狗的衣服是	-12.9542
▁小猫的帽子是	-12.9542
▁我的帽子是	-12.9542
▁书有四个	-12.9542
▁云有四个	-12.9542
▁他的鼻子是	-12.9542
▁你的衣服是	-12.9542
▁她的鼻子是	-12.9542
▁小狗的鼻子是	-12.9542
▁小猫的耳朵是	-12.9542
▁小猫的鼻子是	-12.9542
▁小鸟的眼睛是	-12.9542
▁小鸟的衣服是	-12.9542
▁星星有五个	-12.9542
▁星星有四个	-12.9542
▁树有二个	-12.9542
▁树有四个	-12.9542
▁桌子有五个	-12.9542
▁椅子有三个	-12.9542
▁石头有三个	-12.9542
▁笔有三个	-12.9542
▁笔有四个	-12.9542
▁花有四个	-12.9542
▁鱼有四个	-12.9542
先写作业	-12.9542
哥哥送	-12.9542
因为叶子里有叶绿素	-12.9542
因为玻璃是脆的	-12.9542
大象比蚂蚁大	-12.9542
新和旧	-12.9542
烤箱是烫的	-12.9542
▁书有五个	-12.9542
▁你的笔是	-12.9542
▁你的耳朵是	-12.9542
▁叶子有四个	-12.9542
▁小猫的头是	-12.9542
▁小猫的手是	-12.9542
▁小红的嘴是	-12.9542
▁小红的衣服是	-12.9542
▁小红的鼻子是	-12.9542
▁小鸟的手是	-12.9542
▁我的笔是	-12.9542
▁我的耳朵是	-12.9542
▁我的衣服是	-12.9542
▁我的鞋是	-12.9542
▁我的鼻子是	-12.9542
▁树有五个	-12.9542
▁椅子有四个	-12.9542
▁车有四个	-12.9542
▁鱼有三个	-12.9542
你卖	-12.9542
过马路要看红绿灯	-12.9542
▁你的脚是	-12.9542
▁她的书是	-12.9542
▁小狗的头是	-12.9542
▁小鸟的笔是	-12.9542
▁小鸟的脚是	-12.9542
▁书有三个	-12.9542
▁他的书是	-12.9542
▁小明的衣服是	-12.9542
▁小狗的眼睛是	-12.9542
▁小猫的鞋是	-12.9542
▁小红的帽子是	-12.9542
▁鸟有三个	-12.9542
老师教我们读书	-12.9542
蒸汽	-12.9542
飞机飞得很快	-12.9542
▁人有二个	-12.9542
▁人有四个	-12.9542
▁小明的帽子是	-12.9542
▁小狗的笔是	-12.9542
▁小狗的耳朵是	-12.9542
▁小狗的鞋是	-12.9542
▁小猫的脚是	-12.9542
▁小红的眼睛是	-12.9542
▁树有三个	-12.9542
泡沫是轻的	-12.9542
纸张是轻的	-12.9542
铅球是重的	-12.9542
▁你的鞋是	-12.9542
▁小猫的笔是	-12.9542
▁小鸟的书是	-12.9542
▁三个橙色的	-12.9542
▁三个粉色的	-12.9542
▁四个粉色的	-12.9542
▁小明的嘴是	-12.9542
▁小明的鼻子是	-12.9542
▁我的眼睛是	-12.9542
▁二个橙色的	-12.9542
风扇是凉的	-12.9542
▁你的鼻子是	-12.9542
▁小红的耳朵是	-12.9542
▁人有五个	-12.9542
▁你的头是	-12.9542
▁小猫的眼睛是	-12.9542
因为身体需要水分	-12.9542
结成冰	-12.9542
▁三个白色的	-12.9542
▁máo	-12.9542
▁小狗的手是	-12.9542
▁小红的鞋是	-12.9542
在左边	-12.9542
工具	-12.9542
生锈	-12.9542
▁你的手是	-12.9542
▁五个白色的	-12.9542
▁你的眼睛是	-12.9542
猎豹是快的	-12.9542
▁三个紫色的	-12.9542
▁二个白色的	-12.9542
▁二个红色的	-12.9542
▁二个蓝色的	-12.9542
▁人有三个	-12.9542
▁四个黄色的	-12.9542
▁小狗的脚是	-12.9542
气球是轻的	-12.9542
▁五个橙色的	-12.9542
▁叶子有一个	-12.9542
▁球有一个	-12.9542
▁苹果有三个	-12.9542
▁云有一个	-12.9542
▁碗有一个	-12.9542
下雨要打伞	-12.9542
棋	-12.9542
▁四个蓝色的	-12.9542
▁我的手是	-12.9542
▁花有三个	-12.9542
饿了要吃饭	-12.9542
▁星星有一个	-12.9542
▁铁很重	-12.9542
必	-12.9542
老奶奶	-12.9542
▁一个橙色的	-12.9542
▁三个绿色的	-12.9542
▁四个橙色的	-12.9542
▁我的脚是	-12.9542
▁三个黄色的	-12.9542
▁五个绿色的	-12.9542
▁小明的眼睛是	-12.9542
▁杯子有一个	-12.9542
▁狗有一个	-12.9542
兵	-12.9542
姐姐洗	-12.9542
月亮有时圆有时弯	-12.9542
火车是快的	-12.9542
自行车是慢的	-12.9542
▁小红的脚是	-12.9542
▁小明的耳朵是	-12.9542
爷爷跑	-12.9542
猫等了	-12.9542
长出叶子	-12.9542
▁二个黄色的	-12.9542
▁猫有一个	-12.9542
蝴蝶在飞	-12.9542
▁车有一个	-12.9542
高铁是快的	-12.9542
▁桌子有一个	-12.9542
妹妹养	-12.9542
妹妹洗	-12.9542
棉花是轻的	-12.9542
给我们温暖	-12.9542
▁五个黄色的	-12.9542
▁笔有一个	-12.9542
哥哥画	-12.9542
奶奶洗	-12.9542
奶奶说	-12.9542
▁椅子有一个	-12.9542
▁小红的手是	-12.9542
妹妹种	-12.9542
▁鸟有一个	-12.9542
▁鱼有一个	-12.9542
爷爷画	-12.9542
谷	-12.9542
白天是亮的	-12.9542
▁小明的头是	-12.9542
冰箱是冷的	-12.9542
奶奶画	-12.9542
弟弟说	-12.9542
▁小明的鞋是	-12.9542
你们想	-12.9542
我们喜欢	-12.9542
白天亮	-12.9542
他帮	-12.9542
九寨	-12.9542
一家人	-12.9542
传粉	-12.9542
▁石头有一个	-12.9542
▁这个黑色的星星很	-12.9542
水在杯子里面	-12.9542
小红买	-12.9542
姐姐哭	-12.9543
▁这个粉色的风很	-12.9543
哥哥爬	-12.9543
姐姐爬	-12.9543
▁书有一个	-12.9543
树叶是轻的	-12.9543
走路是慢的	-12.9543
你们游	-12.9543
划玻璃	-12.9543
哥哥飞	-12.9543
▁一个红色的	-12.9543
▁不碰	-12.9543
▁一个黄色的	-12.9543
她扫	-12.9543
早上好	-12.9543
他们爬	-12.9543
玩具在	-12.9543
在床下面	-12.9543
就可以泡茶	-12.9543
我们想	-12.9543
▁这个狗是	-12.9543
▁小明的手是	-12.9543
蝴蝶是轻的	-12.9543
可以休息	-12.9543
妈妈帮	-12.9543
▁小明的脚是	-12.9543
会脱衣	-12.9543
▁树有一个	-12.9543
我们玩	-12.9543
棉花软	-12.9543
地上有水	-12.9543
▁苹果有一个	-12.9543
哥哥放	-12.9543
因为外面很冷	-12.9543
汽车跑得很快	-12.9543
滴答	-12.9543
石头是重的	-12.9543
老师织	-12.9543
大象是重的	-12.9543
▁花有一个	-12.9543
猫在桌子上面	-12.9543
奶奶走	-12.9543
奶奶放	-12.9544
星星是甜的	-12.9544
小猫抓	-12.9544
三百	-12.9544
沙沙	-12.9544
▁这个白色的苹果很	-12.9544
硬的东西	-12.9544
猫是动物	-12.9544
二加三等于	-12.9544
▁这个笔是	-12.9544
所以铁	-12.9544
先打开书	-12.9544
作业	-12.9544
▁这个猫是	-12.9544
亮的反义词是	-12.9544
爷爷做	-12.9544
鱼是动物	-12.9544
会在天上飞	-12.9545
鸟是动物	-12.9545
火车快	-12.9545
爷爷写	-12.9545
我有一本书	-12.9545
车是苦的	-12.9545
滑梯	-12.9545
三减一等于	-12.9545
硬的反义词是	-12.9545
汽车是重的	-12.9545
我闻到了	-12.9545
好的反义词是	-12.9545
一小时有	-12.9545
绿灯行	-12.9545
▁这个草是	-12.9545
小红找	-12.9545
冰是亮的	-12.9545
▁面包	-12.9545
车是瘦的	-12.9545
她养	-12.9545
鸟是臭的	-12.9545
▁běn	-12.9545
我们走	-12.9545
弟弟做	-12.9545
云是热的	-12.9546
再穿衣服	-12.9546
▁小鸟的头是	-12.9546
可以看到	-12.9546
雪是热的	-12.9546
你养	-12.9546
▁这个书是	-12.9546
下午	-12.9546
冷的反义词是	-12.9546
云是重的	-12.9546
破了	-12.9547
走到学校	-12.9547
吃东西	-12.9547
▁你喜欢吃	-12.9547
树是干的	-12.9547
猫是小的	-12.9548
你笑	-12.9548
就不用	-12.9548
甜的反义词是	-12.9549
同学种	-12.9549
雪人有	-12.9549
防车	-12.9549
雪是软的	-12.9549
五块	-12.9549
爸爸养	-12.955
需要什么	-12.955
▁三个红色的	-12.955
小狗问	-12.9551
暖和了	-12.9551
▁四个紫色的	-12.9551
长的反义词是	-12.9551
▁四个白色的	-12.9551
高的反义词是	-12.9551
因为饿了	-12.9552
老师学	-12.9552
最坏退化为	-12.9553
变凉	-12.9553
老师想	-12.9553
▁五个红色的	-12.9553
在上面	-12.9553
同学坐	-12.9553
▁一个紫色的	-12.9553
▁四个红色的	-12.9553
我们答	-12.9554
安静星星	-12.9554
重的反义词是	-12.9556
蓝鸭	-12.9556
狗是什么	-12.9557
绿脸	-12.9557
明亮云	-12.9558
轻马	-12.956
少的反义词是	-12.9561
她放	-12.9561
爸爸吃	-12.9561
小猫喝	-12.9561
是冻住的	-12.9562
爸爸游	-12.9563
慢狮	-12.9564
矮车	-12.9564
高老师	-12.9565
等一等	-12.9565
过去	-12.9566
太阳出来天就亮了	-12.9566
AFB	-12.9567
星星也	-12.9568
EBDF	-12.9568
小猫关	-12.9568
她做	-12.957
门关	-12.957
哥哥游	-12.957
亮不	-12.9571
▁你家	-12.9572
冰是什么	-12.9572
会站起	-12.9573
高河	-12.9573
▁摸起来	-12.9573
小明游	-12.9573
▁这个白色的人很	-12.9574
红河	-12.9574
狗是人类的	-12.9576
四条	-12.9577
我们游	-12.9578
会脱	-12.9578
面是平的	-12.9578
不睡觉	-12.9579
近茶	-12.958
现在是	-12.958
绿水	-12.958
所以地	-12.9585
BAFC	-12.9586
你问	-12.9586
火是什么	-12.9586
全家	-12.9586
ACDE	-12.9592
长树	-12.9594
▁三个黑色的	-12.9596
大村	-12.9596
水壶	-12.9597
多妈妈	-12.9603
鸟会飞	-12.9606
种子发芽需要	-12.9607
加热	-12.9608
开着	-12.961
一起	-12.9612
▁二个紫色的	-12.9614
EDAF	-12.9619
比水	-12.962
▁一个白色的	-12.9621
▁二个灰色的	-12.9626
会听话	-12.9627
▁五个黑色的	-12.9627
弟弟爬	-12.9629
FECB	-12.963
姐姐开	-12.9631
春天暖	-12.9633
会长	-12.9636
▁钻石	-12.9636
DCEB	-12.9638
EDFC	-12.9639
ADB	-12.9643
伞可以挡雨	-12.9646
▁三个灰色的	-12.9648
▁我的头是	-12.9651
▁三个蓝色的	-12.9652
先找	-12.9655
▁我的书是	-12.9656
▁五个灰色的	-12.9658
pos	-12.9661
沉到水底	-12.9664
▁五个紫色的	-12.9665
人在门	-12.9668
冰会融化	-12.9678
妈妈答	-12.9679
▁雪	-12.9687
下来	-12.9691
会坐下	-12.9696
和同学	-12.9697
▁五个蓝色的	-12.9698
我坐少	-12.9701
▁一个蓝色的	-12.9702
▁一个灰色的	-12.9703
火山是热的	-12.971
所以水	-12.9711
▁二个黑色的	-12.9712
[],	-12.9715
他们爱	-12.9717
▁二个绿色的	-12.9719
在医院	-12.973
夏天热	-12.9731
CFA	-12.9732
有了	-12.9735
在天上飞	-12.9738
猫不	-12.974
▁二个粉色的	-12.9747
pu	-12.9747
我笑重	-12.9757
gih	-12.9758
小兔子	-12.9761
CEA	-12.9761
▁碗有五个	-12.9762
在电影院	-12.9766
▁叶子有五个	-12.977
hj	-12.977
属性	-12.9772
▁球有五个	-12.9777
美丽蛇	-12.9779
▁云有五个	-12.9783
到天上	-12.979
▁草	-12.9797
▁mi	-12.9799
路上	-12.98
▁四个绿色的	-12.9809
变湿	-12.9812
▁碗在	-12.9813
▁四个黑色的	-12.9813
▁四个灰色的	-12.9817
远苹果	-12.9821
▁狗有五个	-12.9823
会掉	-12.9835
上课	-12.9839
▁小狗的书是	-12.985
树叶动	-12.9851
▁小猫的书是	-12.9852
我吃慢	-12.9854
▁小红的头是	-12.9855
皮	-12.9855
同学爱	-12.9862
▁因为下雨	-12.9867
▁石头很硬	-12.987
▁人有一个	-12.9874
▁墨水是黑色的	-12.9874
▁橘子是橙色的	-12.9874
▁太阳从东边升起	-12.9876
▁太阳比	-12.9877
▁你的书是	-12.9881
会玩球	-12.9884
▁一个黑色的	-12.9884
while	-12.9891
▁手电筒	-12.9892
轻鞋	-12.9893
ina	-12.9898
▁一个绿色的	-12.9899
五座	-12.99
会穿衣	-12.9904
▁空调	-12.9911
我爬美丽	-12.9913
红鞋	-12.9914
喝水	-12.9916
▁你有几	-12.9919
新门	-12.992
▁鱼有五个	-12.992
冰放	-12.9921
热水	-12.9924
men	-12.9925
▁早上	-12.9926
了水	-12.9926
▁五个粉色的	-12.9926
▁笔有五个	-12.9934
氧化	-12.9935
始索引	-12.9935
是尖的	-12.9938
▁你看到	-12.9939
大和	-12.9952
的中文是十	-12.9956
▁一个粉色的	-12.9961
白色	-12.9967
坏糖	-12.9969
▁狗在	-12.9975
从树上	-12.9981
雪是冰的	-12.9983
全局最	-12.999
天上有	-12.9992
明亮虎	-12.9993
he	-12.9995
先天黑	-12.9996
碰插座	-12.9999
不能用手	-12.9999
路滑	-13.0008
▁蜜蜂是	-13.0028
import	-13.0041
▁沙	-13.0045
红叶	-13.0064
吃饭前要	-13.0067
短米饭	-13.0077
重田	-13.0079
+=	-13.0082
白菜	-13.0092
<=	-13.01
多肉	-13.0106
白村	-13.0117
甜脚	-13.0123
里面装了	-13.0125
的东西不在	-13.0128
ah	-13.0128
安静米饭	-13.0138
她读	-13.0153
少头	-13.0156
开门	-13.016
可爱蛇	-13.0162
他爱	-13.0163
书包	-13.0174
三座	-13.0181
ter	-13.0182
我会	-13.0185
圆眼	-13.0205
温度很低	-13.021
eNo	-13.0219
重太阳	-13.0222
▁水烧开了	-13.0228
绿鞋	-13.0234
和大	-13.0234
小红哭	-13.0236
长椅子	-13.024
要刷牙	-13.0244
做的	-13.0245
▁夏天很热	-13.0246
明亮票	-13.0253
圆肉	-13.0256
夏天是热的	-13.0268
温暖房子	-13.0268
▁汽车比	-13.0281
好蛇	-13.0283
很安全	-13.0285
要戴帽子	-13.0288
白城	-13.0288
凉小狗	-13.029
重的东西	-13.0298
EBF	-13.0307
小明吃了	-13.0313
远村	-13.0314
▁暖气	-13.0317
十表示数量	-13.0317
hb	-13.0323
件衣	-13.0323
好公园	-13.0332
长星星	-13.0336
gfa	-13.034
坏茶	-13.0343
Li	-13.0344
▁镜子	-13.0352
方兔	-13.0352
香小狗	-13.0355
很滑	-13.0355
有一本书	-13.0359
很深	-13.036
DCA	-13.0361
BEAF	-13.037
▁数字十	-13.0376
轻车	-13.038
火山	-13.0387
▁大象	-13.0389
假鼓	-13.0393
真米饭	-13.0394
房间	-13.0396
黑兔	-13.0397
可爱票	-13.0399
egh	-13.0401
我喜欢红色	-13.0402
visited	-13.0402
短头	-13.0403
美丽盐	-13.0408
明亮脸	-13.041
矮桌子	-13.0411
安静汽车	-13.0414
蓝龙	-13.0425
快乐船	-13.044
美丽鹅	-13.0441
新鞋	-13.0442
新手	-13.045
在马路上	-13.0453
圆桌子	-13.0461
远草	-13.0476
好脚	-13.0478
可爱心	-13.0479
会叫	-13.0487
蓝公园	-13.0494
▁铁	-13.0496
▁冬天	-13.0496
红肉	-13.05
重房子	-13.0502
凉桥	-13.0502
▁飞机比	-13.0505
▁鸟在树上	-13.0518
红虎	-13.052
会报	-13.0525
美丽妈妈	-13.0537
安静鸡	-13.0546
快乐街	-13.0548
近旗	-13.055
高水	-13.055
明亮盐	-13.0555
不是白色	-13.0558
坏菜	-13.0558
我叫小	-13.056
坏米	-13.0563
快大海	-13.0563
小狗看	-13.0564
小明听	-13.0564
我很好	-13.0568
减七等于	-13.0569
你想	-13.057
会关灯	-13.0572
她跳	-13.0572
新票	-13.0573
气球	-13.0579
小红跳	-13.0584
你走	-13.0588
你看	-13.0589
小红关	-13.0593
圆灯	-13.0594
黑瓜	-13.0604
▁手脏了	-13.0609
▁冰的温度	-13.0611
白心	-13.0611
坏酒	-13.0612
高手	-13.0621
凉公园	-13.0625
很暖	-13.0625
白山	-13.0634
安静牙	-13.0636
矮马	-13.0637
匹配	-13.0638
少鞋	-13.0639
绿瓜	-13.0639
热灯	-13.0643
还是小	-13.065
好米饭	-13.0651
▁小红的书是	-13.0651
香雪	-13.0652
快乐鱼	-13.0658
一棵树	-13.066
四座	-13.0661
我爱长	-13.0666
甜街	-13.0666
会淋湿	-13.0669
可爱衣	-13.067
凉面	-13.0678
少船	-13.0688
黑太阳	-13.069
高蛋	-13.069
桌子右边是	-13.0697
cha	-13.0698
可爱蛋	-13.0702
黑船	-13.0711
今天	-13.0712
真雨	-13.0714
桌子左边是	-13.0718
美丽旗	-13.0725
酸旗	-13.0727
长马	-13.0728
温暖同学	-13.0734
香书	-13.0735
快乐草	-13.0738
EDB	-13.0742
温暖菜	-13.0758
因为太阳很	-13.0761
快乐兔	-13.0762
风是	-13.0764
绿狮	-13.0765
白船	-13.0765
冷风	-13.0767
假水	-13.0778
热瓜	-13.0779
小肉	-13.078
温暖树	-13.078
矮火	-13.0787
旧雨	-13.0788
黑火	-13.0789
甜鱼	-13.0798
多笔	-13.08
白蛋	-13.0805
会关门	-13.082
冰是	-13.0821
碰	-13.0823
圆街	-13.0823
坏牙	-13.0825
高鸡	-13.0832
快面	-13.0834
蓝大海	-13.0843
矮草	-13.0846
矮虎	-13.0848
美丽头	-13.0854
新学校	-13.0858
重雪	-13.0859
火很热	-13.0865
轻蛋	-13.0873
安静树	-13.0879
甜月亮	-13.0887
花很香	-13.0899
美丽耳	-13.0913
子里	-13.0919
我游重	-13.0932
旧面	-13.0938
可爱头	-13.0946
假桌子	-13.0947
白火	-13.0948
安静水	-13.0953
远大海	-13.0959
雨后	-13.0967
▁水开了	-13.097
快乐旗	-13.0974
叫声	-13.0974
香牙	-13.0977
ajg	-13.0984
黑机	-13.0989
好大海	-13.099
重大海	-13.0991
可爱房子	-13.0992
▁苹果是红色的	-13.0993
▁月亮出来了	-13.0997
旧脸	-13.0998
酸汽车	-13.0998
要去	-13.0999
假面	-13.0999
热学校	-13.0999
黄盐	-13.1001
我洗假	-13.1007
会动	-13.1008
美丽兔	-13.101
近雨	-13.1013
少桥	-13.1015
假耳	-13.1015
旧机	-13.1021
会开门	-13.1024
真田	-13.1026
▁风是	-13.103
有一	-13.1034
游泳	-13.1042
少牛	-13.1053
黄口	-13.1055
蓝羊	-13.106
▁天空是蓝色的	-13.1062
慢河	-13.1065
重街	-13.107
假米饭	-13.1074
▁将	-13.1075
们一起玩	-13.1076
矮雨	-13.1085
不到	-13.1094
黄月亮	-13.1097
大米	-13.1097
黄桥	-13.1101
香太阳	-13.1105
红店	-13.1106
碗饭	-13.1107
真虎	-13.1108
真桥	-13.1109
白鞋	-13.1111
矮水	-13.1119
凉大海	-13.1119
数数	-13.1126
假鸟	-13.1132
红鸡	-13.1138
会切菜	-13.115
香河	-13.115
EFA	-13.1151
热树	-13.1155
长机	-13.1165
好蛋	-13.1166
学经	-13.1167
甜米饭	-13.1167
小明学	-13.1169
中的	-13.1172
我笑蓝	-13.1173
凉糖	-13.1175
重狮	-13.1176
▁火是热的	-13.1184
新菜	-13.1185
大鞋	-13.1186
黑石	-13.1189
他写	-13.119
▁小明的书是	-13.1193
会烧水	-13.1199
快田	-13.1203
小老师	-13.1204
新妈妈	-13.1205
高星星	-13.1206
▁花是	-13.1206
轻太阳	-13.121
慢鱼	-13.1225
绿厂	-13.1229
新蛋	-13.123
好天空	-13.1237
蓝厂	-13.124
方狮	-13.1242
快乐盐	-13.1244
多太阳	-13.1244
黑鞋	-13.1245
酸手	-13.1246
远票	-13.1248
▁风扇	-13.1252
安静衣	-13.1255
DE	-13.1257
重山	-13.1259
可爱桥	-13.1262
慢车	-13.1267
明亮头	-13.1283
凉酒	-13.1287
少风	-13.1292
会洗菜	-13.1296
黄街	-13.1296
▁花开了	-13.1299
近蛇	-13.1305
坏兔	-13.1313
EAF	-13.1314
我答酸	-13.1321
小鸟	-13.1335
近鞋	-13.1336
香船	-13.1338
▁小猫想	-13.1347
温暖肉	-13.135
乌龟和	-13.1353
▁狗是动物	-13.1357
热街	-13.1361
重衣	-13.1363
短街	-13.1378
大桥	-13.1379
假马	-13.1385
树很大	-13.1389
美丽花	-13.1391
冬	-13.1395
好鹅	-13.1396
矮狮	-13.1397
圆店	-13.1404
书很	-13.1404
少大海	-13.1404
好头	-13.1412
高天空	-13.1414
高兔	-13.1418
酸叶	-13.1419
▁蝴蝶是	-13.142
小红走	-13.1423
坏熊	-13.1424
矮花	-13.1425
在桌子上面	-13.1433
真耳	-13.1442
温暖石	-13.1454
多兔	-13.1455
好旗	-13.1456
甜厂	-13.1473
圆蛋	-13.1475
长大	-13.1476
▁小明的笔	-13.1479
重眼	-13.1481
绿发	-13.1484
香耳	-13.1488
安静河	-13.1488
▁fà	-13.1492
可爱小狗	-13.1494
安静船	-13.1495
近鹅	-13.1499
白肉	-13.1502
近牛	-13.1509
不是热	-13.1512
绿耳	-13.1518
远公园	-13.153
黑糖	-13.153
背	-13.1531
少狮	-13.1533
候	-13.1536
轻桥	-13.1536
查	-13.1539
温暖票	-13.154
呼	-13.1541
商	-13.1541
坚	-13.1541
移	-13.1541
装饰	-13.1542
俑	-13.1542
弟弟卖	-13.1542
他们买	-13.1542
变成雨落下来	-13.1542
墙壁	-13.1542
铁会生锈	-13.1542
爷爷找	-13.1542
奶奶织	-13.1542
猫的毛很软	-13.1542
▁dǐng	-13.1542
你们扫	-13.1542
略	-13.1542
空气散射	-13.1542
温度升高	-13.1542
避	-13.1542
小明卖	-13.1542
二片	-13.1542
客	-13.1542
他送	-13.1542
院	-13.1542
你们种	-13.1542
雷声	-13.1542
你们画	-13.1542
三片	-13.1542
他们笑	-13.1542
姐姐站	-13.1542
他们读	-13.1542
奶奶想	-13.1542
弟弟拿	-13.1543
小明买	-13.1543
他们坐	-13.1543
他们站	-13.1543
博物	-13.1543
她织	-13.1543
姐姐飞	-13.1543
奶奶哭	-13.1543
火可以做饭	-13.1543
妹妹喝	-13.1543
他们哭	-13.1543
你们关	-13.1543
可以照明	-13.1543
妹妹飞	-13.1543
味道	-13.1543
看起来	-13.1544
同学找	-13.1544
爸爸织	-13.1544
我们爬	-13.1544
猫有四条腿	-13.1544
了阳光	-13.1544
小猫找	-13.1544
▁mào	-13.1544
我们飞	-13.1545
奶奶做	-13.1545
一片	-13.1545
她跑	-13.1546
生气	-13.1546
轻牙	-13.1547
成语	-13.1547
她学	-13.1548
该吃	-13.1548
同学喜欢	-13.1549
我们写	-13.1549
二头	-13.155
小狗洗	-13.155
圆鞋	-13.1551
清明	-13.1551
明亮船	-13.1551
他们种	-13.1551
▁zu	-13.1555
山很大	-13.1556
哥哥站	-13.1557
座山	-13.1557
大海很大	-13.1558
国家	-13.1558
真衣	-13.1558
星星很多	-13.1559
妈妈坐	-13.156
爸爸玩	-13.156
奶奶跳	-13.1562
老师吃	-13.1562
快车	-13.1563
小明拿	-13.1563
老师跳	-13.1564
饭了	-13.1565
小狗哭	-13.1567
了很多	-13.1568
同学关	-13.1569
小狗飞	-13.157
香眼	-13.1571
好脸	-13.1572
你们放	-13.1573
没有太阳	-13.1579
妈妈飞	-13.1579
安静鞋	-13.1581
▁星星	-13.1583
遇到	-13.1583
多牙	-13.1583
旧天空	-13.1584
小红爬	-13.1586
小狗放	-13.1588
没有水	-13.1589
绿票	-13.159
FBD	-13.1591
我们吃	-13.1591
爸爸放	-13.1595
妈妈放	-13.1596
快星星	-13.1598
香牛	-13.1599
圆鸡	-13.1604
我听到	-13.1605
可爱鸭	-13.1611
老师写	-13.1613
白云	-13.1615
她答	-13.1616
▁长颈鹿	-13.1618
上升	-13.1622
黑街	-13.1623
会画画	-13.1628
fa	-13.1629
小叶	-13.1632
红牛	-13.1633
酸石	-13.1636
▁冰很冷	-13.1637
你答	-13.1637
弟弟开	-13.1641
甜灯	-13.1644
轻菜	-13.1648
酸路	-13.1648
可爱门	-13.1649
照亮	-13.165
蓝果	-13.1667
黑厂	-13.167
我笑多	-13.1674
旧菜	-13.1675
出去	-13.1675
美丽船	-13.1677
黑汽车	-13.1677
我放少	-13.1678
白菜是	-13.1683
甜鸡	-13.1684
小狗答	-13.1687
坏石	-13.1688
快椅子	-13.1701
会做饭	-13.1705
美丽脸	-13.1706
假熊	-13.1716
书在桌子上	-13.172
黄糖	-13.1724
凉羊	-13.1728
▁开水	-13.1737
热茶	-13.1741
长鸡	-13.1744
绿门	-13.1745
热眼	-13.1745
好瓜	-13.1746
少灯	-13.1747
过来	-13.1761
黄火	-13.1766
热星星	-13.1768
快鹅	-13.1776
更简	-13.1776
温暖风	-13.1777
坏耳	-13.178
方盐	-13.1788
她问	-13.179
热同学	-13.1794
近爸爸	-13.1799
美丽叶	-13.1803
凉牙	-13.1809
好耳	-13.1814
绿田	-13.1814
慢火	-13.1814
真汽车	-13.1815
酸河	-13.1819
凉厂	-13.1822
白星星	-13.1824
美丽雪	-13.1829
短笔	-13.1832
少肉	-13.1834
长田	-13.1836
凉鼓	-13.1837
甜龙	-13.1838
多头	-13.1841
高酒	-13.1847
近风	-13.1852
凉村	-13.1854
bdc	-13.1861
旧星星	-13.1861
坏大海	-13.1862
好菜	-13.1871
黄蛇	-13.1873
明亮桥	-13.1873
圆厂	-13.1877
了一个	-13.1882
后到	-13.1891
假石	-13.1894
绿衣	-13.1895
矮天空	-13.1897
长叶	-13.1899
好羊	-13.1904
香脚	-13.1906
我洗长	-13.1908
小明爱	-13.191
真同学	-13.1911
安静门	-13.1919
走路很	-13.1919
美丽太阳	-13.1928
重雨	-13.1935
大鸡	-13.1943
会读书	-13.1946
黄酒	-13.1948
重牙	-13.195
快鸡	-13.1956
▁春天	-13.1956
▁葡萄是	-13.1958
绿糖	-13.196
小苹果	-13.1961
重鱼	-13.1965
坏店	-13.1967
方星星	-13.1971
香机	-13.1976
红妈妈	-13.1977
多羊	-13.1993
近路	-13.1997
方糖	-13.1999
绿牛	-13.2
酸脸	-13.2002
香旗	-13.2003
蓝村	-13.2004
温度低	-13.2005
泡茶	-13.2009
假茶	-13.2013
甜大海	-13.2017
圆小猫	-13.2018
长糖	-13.2018
温暖椅子	-13.2021
香心	-13.2035
蓝云	-13.2036
一起玩	-13.204
小房子	-13.2041
绿月亮	-13.2045
了很多知识	-13.2048
高牙	-13.2055
短老师	-13.2064
近河	-13.2067
五条	-13.2068
甜妈妈	-13.2071
少龙	-13.2072
EDC	-13.2072
绿河	-13.2085
二十	-13.2095
黑发	-13.2098
安静书	-13.2102
安静头	-13.2113
坏学校	-13.2116
美丽风	-13.212
在树上	-13.2122
矮脸	-13.2123
温暖茶	-13.2129
的猫	-13.2129
真爸爸	-13.213
慢星星	-13.2137
人会	-13.2139
快雪	-13.2142
凉手	-13.2148
绿船	-13.2159
重面	-13.2159
黄门	-13.216
才有	-13.2163
我吃高	-13.2165
近叶	-13.2168
▁海	-13.2169
明亮机	-13.2172
白牙	-13.2173
旧车	-13.2174
AFC	-13.2175
书是干的	-13.2176
甜学校	-13.2181
长笔	-13.2186
矮头	-13.2198
温暖书	-13.22
新雨	-13.2201
甜云	-13.2204
会看书	-13.2205
多月亮	-13.2206
近月亮	-13.2207
凉房子	-13.2212
会刷牙	-13.2218
矮牛	-13.2218
我织蓝	-13.222
方龙	-13.2222
老师爱	-13.2222
凉鱼	-13.2226
长妈妈	-13.2229
可爱糖	-13.2231
温暖月亮	-13.2236
假雨	-13.2243
少羊	-13.2249
变成水蒸气	-13.2255
▁如果天	-13.2268
远房子	-13.2269
放进	-13.2271
假书	-13.2276
DAE	-13.2279
矮月亮	-13.2284
高草	-13.229
短耳	-13.2291
因为火	-13.2304
新鸟	-13.2306
大小猫	-13.2324
快乐太阳	-13.2329
修好	-13.2332
蓝脚	-13.2333
假小狗	-13.2333
bh	-13.2339
苹果很甜	-13.234
酸鸡	-13.2342
我扫重	-13.2347
在树上面	-13.2357
坏爸爸	-13.2361
温暖公园	-13.2368
安静鱼	-13.2372
旧口	-13.2397
▁雨	-13.2401
变成冰	-13.2402
酸桌子	-13.2403
近椅子	-13.2405
小发	-13.2406
[[	-13.2414
圆石	-13.2415
方鸭	-13.2416
猎豹	-13.2417
蓝鱼	-13.2424
多天空	-13.2424
可爱月亮	-13.2434
温暖星星	-13.2445
安静眼	-13.2447
圆马	-13.2449
安静路	-13.2453
矮公园	-13.2453
少太阳	-13.2457
长太阳	-13.2459
黑鸟	-13.2462
黑风	-13.2467
温暖太阳	-13.2469
温暖妈妈	-13.247
少河	-13.2473
大马	-13.2475
凉口	-13.2478
方房子	-13.248
旧心	-13.248
高眼	-13.2482
少眼	-13.2482
旧水	-13.2485
慢椅子	-13.2489
我养矮	-13.249
淋湿	-13.2498
黑星星	-13.2498
可爱妈妈	-13.2499
真发	-13.25
吹一吹	-13.2501
黄老师	-13.2505
DAC	-13.2507
小船	-13.2511
凉爸爸	-13.2519
长路	-13.2522
高心	-13.2534
慢面	-13.2535
快石	-13.2541
eld	-13.2543
高耳	-13.2547
真茶	-13.2548
香面	-13.2553
酸票	-13.2556
▁木头	-13.2557
多山	-13.256
少山	-13.2562
远桌子	-13.2565
黄学校	-13.2565
大发	-13.2568
快乐窗	-13.2569
明亮房子	-13.2569
红龙	-13.2571
圆脚	-13.258
▁橘子是	-13.2581
方书	-13.2583
我写明亮	-13.2608
香公园	-13.2609
黑爸爸	-13.2622
真羊	-13.2623
安静草	-13.2625
旧羊	-13.2626
香桌子	-13.2626
安静鸟	-13.263
重兔	-13.2631
短城	-13.2633
快雨	-13.2634
美丽面	-13.2635
方小猫	-13.2637
可爱面	-13.264
BED	-13.2651
长雨	-13.2651
大水	-13.2655
高笔	-13.266
多面	-13.2667
黑水	-13.2675
甜石	-13.2678
好妈妈	-13.2678
近草	-13.2678
会走路	-13.2688
紫色的	-13.2692
下去	-13.2704
少村	-13.2709
长月亮	-13.2709
方面	-13.2713
张纸	-13.2728
长菜	-13.2729
我做大	-13.2729
▁冰棍	-13.273
坏山	-13.274
远太阳	-13.2742
明亮小猫	-13.2745
我唱轻	-13.2754
镜子	-13.2755
bgc	-13.2761
pa	-13.2766
下雨天	-13.2777
小眼	-13.2779
掉到地上	-13.2788
可爱窗	-13.2789
大同学	-13.2791
快小狗	-13.2792
小月亮	-13.2799
重窗	-13.28
旧船	-13.2802
太阳很大	-13.2807
gja	-13.2814
洗衣	-13.2824
少房子	-13.2828
关门	-13.2829
安静车	-13.2835
圆面	-13.2843
假车	-13.2844
轻同学	-13.2864
真头	-13.287
AB	-13.2886
很硬	-13.2887
洗菜	-13.289
远笔	-13.2893
黄树	-13.2895
方车	-13.2897
轻小猫	-13.2901
小狗会	-13.2905
谢谢	-13.2906
大鱼	-13.2915
远窗	-13.2917
多老师	-13.2925
面温度	-13.2932
会喝水	-13.2935
▁叶子在	-13.2948
白鸟	-13.2953
明亮脚	-13.2955
远同学	-13.2961
热不	-13.2965
冰吸收热量	-13.2966
▁天黑了	-13.2967
香石	-13.2968
戴帽子	-13.2975
一年有	-13.2979
重机	-13.2982
cid	-13.2992
小田	-13.2998
我游矮	-13.3003
Fi	-13.3008
我放黄	-13.3013
香蕉是黄色的	-13.3014
葡萄是紫色的	-13.3019
石头比棉花	-13.3019
草是绿色的	-13.3022
高和矮是	-13.3024
热和冷是	-13.3027
打雷了	-13.3031
夏天很热	-13.3032
坏手	-13.3041
小明洗	-13.3043
小太阳	-13.3048
钻石	-13.3049
旧茶	-13.3055
大象比	-13.306
快桥	-13.3062
书是	-13.3062
水烧开了	-13.3072
你写	-13.3095
今天星期	-13.3096
▁一个	-13.3097
我洗旧	-13.3098
小雨	-13.3112
如果天	-13.3133
书很矮	-13.3135
小雪	-13.3149
小明做	-13.3151
▁蚂蚁是	-13.3169
箱子里面	-13.3169
黄窗	-13.3169
温暖窗	-13.3171
假树	-13.3173
▁杯子在	-13.3177
光和热	-13.3182
到水	-13.3205
香窗	-13.3205
少雨	-13.3206
我送轻	-13.3208
▁如果天黑	-13.3211
冰化了	-13.3212
圆口	-13.3217
凿于	-13.3221
酸水	-13.3231
个人去	-13.3234
我答香	-13.3246
穿衣服	-13.3249
我坐明亮	-13.3251
轻手	-13.3258
▁猫是	-13.3271
快鱼	-13.3273
小鸟在	-13.3284
说话	-13.3292
车是	-13.3295
远口	-13.3298
不刷牙	-13.3305
因为云里	-13.3307
我游长	-13.3318
▁金子	-13.3319
书在	-13.3329
二张	-13.3332
我卖黑	-13.3344
很好吃	-13.3363
美丽雨	-13.3376
桌子在	-13.3393
cd	-13.3408
花很重	-13.3409
在窗	-13.341
的狗	-13.3436
我帮多	-13.3444
一天有	-13.3445
水会	-13.3462
轻树	-13.3462
▁火	-13.3474
▁苹果在	-13.3482
天天气	-13.349
冰很	-13.3516
我走绿	-13.3521
xi	-13.3531
得很快	-13.3552
xué	-13.3558
cdb	-13.3564
不容易	-13.3567
是温度	-13.3591
上和下	-13.3601
动了	-13.3609
人很	-13.3611
我玩远	-13.3621
左和右	-13.3622
冰就	-13.3626
灯是	-13.3631
所有可	-13.3638
再吃饭	-13.3651
▁云	-13.3654
路面	-13.3671
EDA	-13.3677
能不能	-13.3681
▁长颈鹿是	-13.3701
▁汽车	-13.3706
因为天冷	-13.3713
我说旧	-13.373
CD	-13.3735
少水	-13.3745
▁灯	-13.3755
得很	-13.3767
了会	-13.3769
是四个	-13.3778
我买快	-13.378
▁你好	-13.379
ai	-13.38
在跳	-13.381
EDF	-13.3816
甜米	-13.3827
快乐苹果	-13.3828
会写字	-13.3836
上出现	-13.3837
坏花	-13.3842
是一个	-13.3846
我看坏	-13.3855
要看	-13.3856
高花	-13.3868
四张	-13.3883
水变成	-13.3897
飞机比	-13.39
新苹果	-13.3918
BCA	-13.392
在后面	-13.392
甜花	-13.3928
ges	-13.3974
重花	-13.3984
我在看	-13.3986
请介绍一下端午节	-13.3986
雷	-13.3987
影	-13.3988
我写甜	-13.3993
雨伞	-13.3997
▁hu	-13.3998
种子	-13.4
天就亮了	-13.4004
黑了	-13.4006
泳	-13.4009
是透明的	-13.4009
近苹果	-13.401
方花	-13.4016
为什么会	-13.4016
▁小红在	-13.4016
有树	-13.4017
ihf	-13.402
not	-13.402
地湿	-13.4021
午	-13.403
棉	-13.403
夏	-13.4035
刷	-13.4035
会沉	-13.4038
脏	-13.4038
报	-13.4039
我读轻	-13.404
属	-13.404
饿	-13.404
外面很冷	-13.4041
虫	-13.4041
太多	-13.4041
土里	-13.4041
浮在水上	-13.4041
吸	-13.4041
们	-13.4041
磕到会疼	-13.4041
吃饭能给身体	-13.4041
绿花	-13.4041
战	-13.4041
滚	-13.4041
活	-13.4041
检查一遍	-13.4042
在晚上出现	-13.4042
水放到冰箱里	-13.4042
用筷子	-13.4042
剪	-13.4042
一双筷子是	-13.4042
不能在高的地方玩	-13.4042
吃到肚子里	-13.4042
木头比水轻	-13.4042
满和空	-13.4042
火烧木头会	-13.4042
石头和棉花哪个	-13.4042
还差	-13.4042
反射	-13.4042
▁电梯从	-13.4042
下雨天打伞	-13.4042
不打伞会淋湿	-13.4042
从天上落下来	-13.4042
热的东西碰到皮肤会烫伤	-13.4042
牛奶	-13.4042
猎豹跑得最快	-13.4042
铁拿在手里	-13.4042
▁车比熊猫	-13.4042
三角形是三个角	-13.4042
妹妹买	-13.4042
跑得非常快	-13.4042
▁椅子比风	-13.4042
▁猫比狗	-13.4042
月亮出来	-13.4042
▁书比太阳	-13.4042
▁人比风	-13.4042
▁太阳晒在身上	-13.4042
▁猫比乌龟	-13.4042
▁猫比熊猫	-13.4042
▁苹果比星星	-13.4042
▁苹果比椅子	-13.4042
▁车比风	-13.4042
不要在树下	-13.4042
书是用纸做的	-13.4042
书架上面	-13.4042
会抓老鼠	-13.4042
先种种子	-13.4042
冰吸热	-13.4042
因为牙齿上有	-13.4042
均衡饮食	-13.4042
好和坏是	-13.4042
就变形	-13.4042
开水太烫	-13.4042
我们去吃饭	-13.4042
摸到了	-13.4042
是往下	-13.4042
暖和寒是	-13.4042
河里游泳	-13.4042
灯需要电	-13.4042
烤	-13.4042
能烫伤皮肤	-13.4042
要大人陪	-13.4042
雨是水从天上落下来	-13.4042
鲸鱼是最大的动物	-13.4042
▁书比狗	-13.4042
▁书比车	-13.4042
▁人比老虎	-13.4042
▁椅子比鱼	-13.4042
▁狗比球	-13.4042
▁车比鸟	-13.4042
▁鱼比球	-13.4042
▁人比太阳	-13.4042
▁狗比星星	-13.4042
▁碗比乌龟	-13.4042
▁花比狮子	-13.4042
▁花比长颈鹿	-13.4042
▁鸟比蝴蝶	-13.4042
陌生人给的东西	-13.4042
飘在空中	-13.4042
继	-13.4042
▁杯子比狗	-13.4042
教	-13.4042
▁杯子比椅子	-13.4042
▁石头是灰色的	-13.4042
▁笔比桌子	-13.4042
人有几只	-13.4042
先看到闪电再听到雷	-13.4042
因为它们比水	-13.4042
在床上	-13.4042
夏天和冬天	-13.4042
太阳是最亮的光源	-13.4042
干和湿是	-13.4042
放在桌上	-13.4042
是触感	-13.4042
晚安	-13.4042
木头能浮在水上	-13.4042
桌子是木头做的	-13.4042
温度计用来	-13.4042
电池	-13.4042
筷子用来	-13.4042
红灯停绿灯行	-13.4042
花是安全的	-13.4042
调节	-13.4042
金字塔是尖的	-13.4042
铁和木头	-13.4042
陌生人	-13.4042
风是空气在流动	-13.4042
鱼是困难的	-13.4042
▁碗比草	-13.4042
模	-13.4042
▁笔比草	-13.4042
▁笔比鱼	-13.4042
▁花比火	-13.4042
▁鸟比大象	-13.4042
头上有眼睛	-13.4042
▁这个橙色的书很	-13.4042
下雨天路滑	-13.4042
伞用来	-13.4042
十比六大	-13.4042
天黑要开灯	-13.4042
星星是安全的	-13.4042
温度升高冰就	-13.4042
然后吃早饭	-13.4042
电话用来	-13.4042
碗筷	-13.4042
种子会发芽	-13.4042
种子种在土里	-13.4042
薄和厚	-13.4042
这叫水	-13.4042
镜子是平的	-13.4042
▁这个橙色的冰很	-13.4042
▁椅子比石头	-13.4042
▁碗比兔子	-13.4042
搬不动	-13.4042
▁星星在晚上出现	-13.4042
先起床还是先穿	-13.4042
因为不开灯看不见	-13.4042
地图用来	-13.4042
太阳出来温度升高	-13.4042
太阳是困难的	-13.4042
手电筒用来	-13.4042
球滚	-13.4042
蜗牛是快的	-13.4042
蝴蝶在花	-13.4042
补充能量	-13.4042
让人凉快	-13.4042
越来越	-13.4042
风是容易的	-13.4042
烫嘴	-13.4042
里面有很多	-13.4042
吹落了	-13.4042
因为铁碰到水和空气	-13.4042
在太阳下	-13.4042
小红卖	-13.4042
报纸	-13.4042
月亮是忙的	-13.4042
温水不烫	-13.4042
玻璃杯掉地上会碎	-13.4042
的东西让人	-13.4042
空调用来	-13.4042
这边	-13.4042
风扇吹出	-13.4042
▁云在天上	-13.4042
▁这个橙色的鸟很	-13.4042
我看到了一只	-13.4042
火摸起来	-13.4042
▁橡皮可以	-13.4042
▁鱼比冰	-13.4042
▁西瓜是绿色的	-13.4042
▁鸟比花	-13.4042
剪刀用来	-13.4042
匙用来	-13.4042
太大会	-13.4042
就化成水	-13.4042
水是安全的	-13.4042
温和冰	-13.4042
渴了要喝水	-13.4042
羽毛是重的	-13.4042
落在地上	-13.4042
▁杯子比花	-13.4042
绸	-13.4042
▁这个白色的雪很	-13.4042
▁苹果比笔	-13.4042
▁这个灰色的鸟很	-13.4042
一年有多少	-13.4042
尝到了	-13.4042
就会发芽	-13.4042
棉花是硬的	-13.4042
软和硬不	-13.4042
▁这个白色的云很	-13.4042
▁这个绿色的云很	-13.4042
▁桌子比兔子	-13.4042
▁棉花是白色的	-13.4042
▁树比星星	-13.4042
▁桌子比云	-13.4042
屋子变	-13.4042
殷	-13.4042
水蒸气遇冷变成	-13.4042
烫和凉	-13.4042
▁这个黄色的车很	-13.4042
山很高很高	-13.4042
风扇用来	-13.4042
下降	-13.4042
冰箱用来	-13.4042
在土里面	-13.4042
姐姐说	-13.4042
橡皮是软的	-13.4042
温度非常高	-13.4042
课本	-13.4042
▁这个橙色的鱼很	-13.4042
▁树比书	-13.4042
你们跑	-13.4042
可以做饭	-13.4042
硬和软是	-13.4042
▁这个黄色的星星很	-13.4042
也是圆的	-13.4042
玻璃是硬的	-13.4042
究	-13.4042
▁桌子比鱼	-13.4042
到了一只	-13.4042
▁这个橙色的太阳很	-13.4042
司	-13.4042
把球滚	-13.4042
▁这个红色的狗很	-13.4042
▁这个绿色的风很	-13.4042
床用来	-13.4042
碰到硬	-13.4042
窗户外面	-13.4042
▁八个窄的	-13.4042
冰箱很冷	-13.4042
电很危险	-13.4042
钢铁是硬的	-13.4042
水冻	-13.4042
泥巴很	-13.4042
那些是	-13.4042
▁这个绿色的雪很	-13.4042
三比五	-13.4042
人是浅的	-13.4042
因为伞可以挡雨	-13.4042
能让身体	-13.4042
铁是轻的	-13.4043
鸟有翅膀	-13.4043
手电筒是亮的	-13.4043
地下室是暗的	-13.4043
黑洞是暗的	-13.4043
打雷时	-13.4043
蜜蜂采蜜	-13.4043
天空是什么颜色	-13.4043
太重了	-13.4043
▁因为路滑	-13.4043
aidb	-13.4043
雪就融化	-13.4043
▁这个蓝色的风很	-13.4043
因为海水	-13.4043
小红画了一	-13.4043
▁树比水	-13.4043
头在上面	-13.4043
▁这个灰色的星星很	-13.4043
在天上面	-13.4043
秋天凉	-13.4043
▁这个蓝色的雪很	-13.4043
弟弟学	-13.4043
带小明去	-13.4043
硬床	-13.4043
下课了	-13.4043
哥哥哭	-13.4043
就该	-13.4043
▁这个灰色的鱼很	-13.4043
因为外面温度	-13.4043
水珠	-13.4043
面包是软的	-13.4043
变成云	-13.4043
因为冰箱里	-13.4043
弟弟玩	-13.4043
弯月	-13.4043
狗是短的	-13.4043
棉花很软	-13.4043
木头是硬的	-13.4043
爷爷跳	-13.4043
钻石是硬的	-13.4043
水慢慢	-13.4043
让东西	-13.4043
空调很凉	-13.4043
羽毛轻	-13.4043
冰是苦的	-13.4043
▁这个紫色的车很	-13.4043
纸上	-13.4043
冰是短的	-13.4043
学知识	-13.4043
▁这个黄色的火很	-13.4043
▁因为风吹	-13.4043
所以该	-13.4044
二十四	-13.4044
太阳是圆的	-13.4044
然后吃饭	-13.4044
草是什么颜色	-13.4044
▁这个红色的书很	-13.4044
给我们	-13.4044
所以碰到	-13.4044
我们站	-13.4044
冰箱门	-13.4044
再洗脸	-13.4044
能照出	-13.4044
变暖	-13.4044
看到一只	-13.4044
四片	-13.4044
雨是薄的	-13.4044
谢谢你	-13.4044
的空气很	-13.4044
杯子用来	-13.4044
火是薄的	-13.4044
五片	-13.4044
鸟是香的	-13.4044
屋顶	-13.4045
确定	-13.4045
等凉了再喝	-13.4045
石头是软的	-13.4045
水往低处流	-13.4045
月亮是短的	-13.4045
小狗找	-13.4045
会浮	-13.4045
风看不见	-13.4045
重和轻是	-13.4045
他们走	-13.4045
车是宽的	-13.4045
雨是美的	-13.4045
回来了	-13.4045
鱼是苦的	-13.4045
云是湿的	-13.4045
▁先打开	-13.4045
先穿衣服	-13.4045
哥哥写	-13.4045
姐姐写	-13.4045
火是美的	-13.4045
月亮是厚的	-13.4046
一个人去	-13.4046
回答	-13.4046
按下去	-13.4046
雨是高的	-13.4046
雪是瘦的	-13.4046
一百分	-13.4046
气味	-13.4046
反应	-13.4046
地上白	-13.4046
狗是软的	-13.4046
化了	-13.4046
猫是热的	-13.4046
星星是深的	-13.4046
猫是快的	-13.4046
摸起来软	-13.4046
在水面	-13.4046
人是湿的	-13.4046
jefg	-13.4046
hfg	-13.4047
风是丑的	-13.4047
灯用来	-13.4047
狗是轻的	-13.4047
鸟是高的	-13.4047
人在地上	-13.4047
太阳是长的	-13.4047
鱼是干的	-13.4047
水在杯子里	-13.4047
上的反义词是	-13.4047
风是干的	-13.4047
▁玻璃是透明	-13.4047
雪是什么颜色	-13.4047
神经	-13.4047
一闪一闪的	-13.4047
因为光	-13.4047
水是旧的	-13.4047
就吃饭	-13.4048
天黑	-13.4048
家具是	-13.4048
椅子用来	-13.4048
桌子用来	-13.4048
升起	-13.4048
火是暗的	-13.4048
再穿鞋	-13.4048
所以走路	-13.4048
树是矮的	-13.4048
黑的反义词是	-13.4048
兔子是慢的	-13.4048
入时	-13.4048
▁这个椅子是	-13.4048
心情	-13.4049
因为我很	-13.4049
住在	-13.4049
花是胖的	-13.4049
高处是	-13.4049
开和关是	-13.4049
书用来	-13.4049
▁开水是	-13.4049
▁你在想	-13.4049
鞋底	-13.405
分针	-13.405
请介绍一下丝绸	-13.405
BFEA	-13.405
香蕉是什么颜色	-13.405
葡萄是什么颜色	-13.405
三点	-13.405
一分钟有	-13.405
▁你在看	-13.405
碰了会	-13.4051
锁门	-13.4051
是防	-13.4051
水开了再	-13.4051
生病了	-13.4051
树是硬的	-13.4051
很容易	-13.4051
老师喜欢	-13.4051
糖很甜	-13.4052
大老鼠	-13.4052
再看书	-13.4052
我开多	-13.4052
太阳是慢的	-13.4052
会烫	-13.4052
桌子在椅子	-13.4053
他玩	-13.4053
蝴蝶飞	-13.4053
▁箱子	-13.4053
背后	-13.4054
鸟很小	-13.4055
不能要	-13.4055
人是冷的	-13.4055
火是冷的	-13.4056
气球里充了	-13.4057
天就	-13.4057
开水要吹一吹	-13.4057
不能吃	-13.4058
水是轻的	-13.4058
妈妈问	-13.406
冰冰的	-13.4061
在天空中	-13.4061
钟表用来	-13.4061
下面是	-13.4061
结冰	-13.4062
小狗坐	-13.4062
黄花	-13.4063
三头	-13.4063
要打	-13.4064
▁铁的	-13.4064
不碎	-13.4064
有六个	-13.4064
开的反义词是	-13.4065
▁因为灯	-13.4065
猫站	-13.4065
房子很大	-13.4065
早上过后是	-13.4065
苹果是厚的	-13.4065
人有手	-13.4066
jegf	-13.4066
飞机和	-13.4067
苹果是高的	-13.4067
比兔子	-13.4068
请介绍一下天	-13.4068
水和阳光	-13.4068
盒子是方的	-13.4068
小明问	-13.407
烧开	-13.407
苹果是湿的	-13.4071
DBFE	-13.4071
冷水	-13.4072
流到	-13.4072
用力推门	-13.4073
再见	-13.4073
gfej	-13.4073
我看到	-13.4074
▁这个黑色的苹果很	-13.4074
ABFE	-13.4074
妈妈吃	-13.4075
FECA	-13.4076
头发	-13.4076
穿薄衣服	-13.4077
花是硬的	-13.4078
晚过后是	-13.4078
用水洗	-13.4078
妈妈哭	-13.4081
蓝的	-13.4083
大小的	-13.4083
▁你为什么	-13.4083
在黑暗中照	-13.4084
所以门	-13.4085
睡觉前	-13.4086
一道	-13.4086
汽车是什么	-13.4087
桌子是什么	-13.409
右边	-13.409
鱼游	-13.409
雪是什么	-13.4092
EBFD	-13.4093
大象大	-13.4094
所以风	-13.4095
下午过后是	-13.4095
山高	-13.4096
坏人	-13.4098
合作	-13.4098
水是什么	-13.4099
我唱大	-13.4099
DBEC	-13.41
四头	-13.4101
的声音	-13.4101
空杯子	-13.4102
小小狗	-13.4103
会看家	-13.4104
gjhb	-13.4105
水面	-13.4106
先来	-13.4109
五头	-13.4111
只手	-13.4114
▁冰是透明	-13.4117
度更	-13.4118
夜晚是亮的	-13.4119
五楼	-13.412
ADFC	-13.4121
冰融化了	-13.4124
FEDA	-13.4124
是我的	-13.4126
鲸鱼和	-13.4127
在椅子下面	-13.4127
钟有	-13.4128
中午过后是	-13.4129
轻的东西浮	-13.4129
终于	-13.4133
三个苹果	-13.4137
果实	-13.4139
cfh	-13.4139
成灰	-13.4143
▁这个绿色的人很	-13.4147
是速度	-13.4149
推球	-13.4149
完就不	-13.4149
五十	-13.4152
在潮湿的地方会	-13.4152
fce	-13.4154
一头	-13.4155
在走	-13.4159
窗户上	-13.416
雨了	-13.416
是满	-13.4163
好事	-13.4163
子是长的	-13.4164
BEFC	-13.4164
用笔	-13.4166
一跳	-13.4167
挂在墙上	-13.4168
要用	-13.4169
feh	-13.417
晚上过后是	-13.4171
水太多	-13.4171
碎玻璃	-13.4172
看路	-13.4173
▁这个紫色的鸟很	-13.4173
▁太阳是红	-13.4177
有人	-13.418
EBAC	-13.4181
▁苹果	-13.4183
根要	-13.4183
不穿衣服	-13.4185
▁这个黑色的车很	-13.4193
一共	-13.4198
▁上和下是	-13.4199
下大	-13.4202
红果	-13.4203
FAB	-13.4204
再喝	-13.4204
▁左和右是	-13.4204
不能玩火	-13.4209
减八等于	-13.4214
jgd	-13.4215
才能长	-13.4217
怎么做	-13.4218
树枝就	-13.4218
▁大和小是	-13.4223
jcf	-13.4226
▁长和短是	-13.4227
在前面	-13.423
能随便吃	-13.4231
亮和暗	-13.4233
我走长	-13.4233
灯亮	-13.4235
我做圆	-13.4236
ECDF	-13.4238
是一种文	-13.4239
时针	-13.424
我看温暖	-13.4242
大熊	-13.4243
桌上	-13.4247
变小	-13.4248
有四	-13.4249
用来写字	-13.4251
汽车比	-13.4254
bcjg	-13.4256
▁这个粉色的太阳很	-13.4262
出现	-13.4271
奶奶读	-13.4278
会碎	-13.428
我放短	-13.4285
ic	-13.4294
cfa	-13.4301
风很凉	-13.4303
要买	-13.4306
一楼	-13.4308
泡好	-13.4308
一串	-13.431
同学飞	-13.4317
往上	-13.4321
水有	-13.4325
二个月	-13.4325
弟弟喝	-13.4332
我游酸	-13.4332
▁树有	-13.4332
大象有长	-13.4338
苹果是什么	-13.4345
▁因为路很	-13.4346
用牙	-13.4346
是植物	-13.4347
红花	-13.4348
我卖旧	-13.4355
DFBA	-13.4357
花是什么	-13.4358
慢苹果	-13.4366
▁十一	-13.4371
FADB	-13.4375
果子	-13.4382
树下	-13.4384
dfg	-13.4385
在天上	-13.4386
不是快	-13.4389
用笔写	-13.4398
▁鱼是	-13.4407
我扫可爱	-13.441
亮灯	-13.4415
dj	-13.442
铁放	-13.4434
要排队	-13.4438
我的	-13.4444
错误代码	-13.4445
镜子用来	-13.4446
FABC	-13.4448
▁因为杯子	-13.4448
jca	-13.4464
▁车在路上	-13.4474
洗手再吃饭	-13.4487
▁气球	-13.4495
▁汽车有	-13.4498
cgb	-13.4506
我学高	-13.4512
ghf	-13.4512
是灰色的	-13.4522
ajb	-13.4528
下雪	-13.4532
我洗快乐	-13.4544
▁水结冰了	-13.4552
▁太阳发出	-13.4553
▁月亮	-13.4553
我开热	-13.4554
冰放在外面	-13.4555
什么东西放到水里会	-13.4559
▁乌龟慢慢	-13.4561
▁山比房子	-13.4561
▁鲸鱼比大象	-13.4564
真果	-13.4564
▁橙子是橙色的	-13.4567
就变成水	-13.4567
▁兔子跑得很快	-13.4567
边是西	-13.4586
放到水里会沉	-13.4586
长和短	-13.4588
我学快	-13.4604
温度高的	-13.4605
你读	-13.4606
如果太阳	-13.4609
▁纸张	-13.4615
我说黑	-13.4618
变热	-13.4618
▁这个蓝色的花很	-13.4622
变成	-13.4623
穿鞋	-13.4627
egf	-13.4629
可以做	-13.4639
火温度很高	-13.4647
cje	-13.4649
是黑的	-13.466
我哭旧	-13.466
我听大	-13.466
BD	-13.4661
hig	-13.4693
▁树在	-13.47
是人面对的	-13.4716
红色就是	-13.4721
能恢复精	-13.4737
天黑了看不见	-13.4739
我找酸	-13.4741
icf	-13.4741
▁红苹果	-13.4744
▁这个红色的水很	-13.4766
大和小	-13.4771
是热的还是	-13.4783
最小	-13.4788
▁小鸟	-13.4788
BAF	-13.4796
我做少	-13.4797
ev	-13.4797
gc	-13.4797
我洗好	-13.4802
两个苹果	-13.4806
ape	-13.4806
bg	-13.481
ED	-13.4811
ja	-13.4814
数和	-13.4818
''	-13.4819
hfc	-13.4848
▁走路	-13.4854
会开灯	-13.4864
如果杯子	-13.4864
我跳黄	-13.4868
▁我走路	-13.4868
快米	-13.4868
▁白天和黑夜	-13.4873
jfi	-13.4878
▁鱼比石头	-13.4882
▁金子很	-13.4882
我洗矮	-13.4893
▁小鸟在	-13.4906
盘和	-13.4917
的天空很	-13.4918
苹果有	-13.4924
冬天要穿厚衣服	-13.493
▁玻璃很	-13.494
enc	-13.494
我游短	-13.4941
▁钻石很	-13.4957
吸收热量	-13.4961
我站小	-13.4967
会冒泡	-13.4986
苹果在箱子	-13.4991
我扫香	-13.5003
漏出来	-13.5018
不是大	-13.5019
体的	-13.5048
有书	-13.505
和老鼠	-13.5054
面湿了	-13.5063
▁冰化了	-13.5071
就碎	-13.5077
挡雨	-13.5086
二杯	-13.5088
我养酸	-13.5107
山和	-13.5114
那里	-13.5116
▁打雷了	-13.5167
水的	-13.5174
▁热和冷是	-13.5175
▁高和矮是	-13.5175
▁石头比棉花	-13.5181
▁草是绿色的	-13.5181
烧着	-13.5195
地上变	-13.5204
有香	-13.5207
▁一年有	-13.5233
▁太阳很大	-13.5236
我织温暖	-13.5251
刷牙可以	-13.5254
有很多	-13.5264
速	-13.5266
▁前和后	-13.5268
>	-13.5278
因为雨	-13.5282
铅笔是	-13.5287
af	-13.5289
海水	-13.529
▁快车	-13.5306
我想多	-13.5312
▁太阳出来	-13.5317
jda	-13.5326
▁大象比	-13.5327
我吃重	-13.5337
的热量	-13.5338
这里有	-13.5345
形的	-13.5346
冰的温度	-13.5356
会洗手	-13.5359
dfb	-13.5369
我读黄	-13.5384
我关红	-13.5422
表面	-13.5427
二表示数量	-13.5435
▁冰是	-13.5445
在夜晚	-13.545
目的	-13.5453
在追	-13.5457
bah	-13.546
CEF	-13.5462
我买慢	-13.5468
▁我叫小	-13.5476
就是有一个	-13.5476
▁我很好	-13.5477
别人的	-13.5482
我读大	-13.5486
gej	-13.5502
▁马路	-13.5503
DBF	-13.551
了再	-13.5532
我画小	-13.5548
gb	-13.556
bga	-13.5561
▁下雨天	-13.5562
会有彩虹	-13.5569
我送远	-13.5596
▁钢铁	-13.5598
bje	-13.56
nge	-13.5617
我站红	-13.5625
五个苹果	-13.5634
一杯	-13.5641
到东西	-13.5661
我飞甜	-13.5664
了药	-13.5675
▁西瓜是	-13.5678
我跑好	-13.5686
xīn	-13.5699
我送蓝	-13.5701
会湿	-13.571
hc	-13.5715
里和外	-13.5722
我笑凉	-13.5725
我卖香	-13.5728
ECB	-13.5736
粗和细	-13.5755
不是亮	-13.576
▁刮风了	-13.577
▁雨停了	-13.577
egj	-13.577
▁小朋友	-13.5776
因为水	-13.5783
有力气	-13.5786
就是有二个	-13.5825
人很可爱	-13.5826
▁鞋子	-13.5842
▁假米	-13.5847
CBF	-13.5849
我放红	-13.5864
EB	-13.5867
我跳少	-13.5877
分子	-13.5879
FBDA	-13.5882
我唱热	-13.5892
DEF	-13.5915
▁面向	-13.5923
我飞热	-13.5952
真的	-13.596
玩火	-13.5968
先穿鞋	-13.5969
太阳很热	-13.5983
摸	-13.5987
我找方	-13.5992
就是有七个	-13.5994
FCED	-13.5994
就是有九个	-13.5994
就是有六个	-13.5996
就是有八个	-13.5997
就是有十个	-13.5999
就是有四个	-13.6006
▁如果下雨	-13.6014
icb	-13.6027
我卖远	-13.6029
排序结果为	-13.6032
学了	-13.6043
开车	-13.606
我帮轻	-13.6075
什么形状	-13.6076
小猫坐	-13.6079
我关酸	-13.6081
fhi	-13.6095
在学校	-13.6109
好鞋	-13.6121
EFDB	-13.6151
猫追	-13.6152
能吹	-13.616
从外面	-13.6169
很低	-13.6179
▁花	-13.618
afc	-13.618
就是有三个	-13.6187
就不	-13.6207
就是有五个	-13.621
就是十	-13.6211
里面有	-13.6213
▁大象和	-13.6214
hge	-13.6232
条河	-13.6234
是圆形的	-13.6243
我答黑	-13.6261
一只手	-13.6268
FCB	-13.628
一个苹果	-13.6297
我爬少	-13.6299
的中文是五	-13.6309
▁九减	-13.6316
能用手摸火	-13.6319
il	-13.632
白天和黑夜	-13.6322
杯子很小	-13.6326
橙色的	-13.6333
▁钢铁和	-13.6335
DFC	-13.634
FC	-13.6349
我跑轻	-13.635
▁一百	-13.6351
我走路	-13.6358
小狗吃	-13.6359
火烧	-13.636
zh	-13.6378
我开假	-13.6382
我读甜	-13.639
fci	-13.641
zuò	-13.6413
cgi	-13.6416
先发芽	-13.6417
▁因为书很好	-13.6423
我爱多	-13.6424
▁蜜蜂	-13.6425
▁因为车很好	-13.6426
▁白天有太阳	-13.6428
EDFA	-13.6438
车很甜	-13.6442
我种绿	-13.6443
送	-13.6448
class	-13.6454
míng	-13.6457
东西放手会	-13.6462
▁因为猫很好	-13.6466
jaf	-13.6466
很忙	-13.6473
不能玩	-13.6476
蜗牛慢	-13.6477
是圆的	-13.6491
▁端午节	-13.6521
curr	-13.6531
我哭温暖	-13.6535
▁因为鸟很好	-13.6546
▁因为树很好	-13.655
我养明亮	-13.6559
的风很	-13.6562
▁因为花很好	-13.6569
车很轻	-13.6577
我画高	-13.6587
▁因为狗很好	-13.6591
我爬香	-13.6593
▁因为人很好	-13.6596
FEBA	-13.6597
bc	-13.6606
▁因为桌子很好	-13.661
▁因为笔很好	-13.6611
▁因为鱼很好	-13.6611
ECDA	-13.6611
▁长城	-13.6619
▁因为椅子很好	-13.6622
▁鸟在	-13.6624
dgj	-13.6646
我爱轻	-13.6665
做好	-13.6669
我跳真	-13.6681
▁因为苹果很好	-13.6681
大是	-13.6682
我写黄	-13.6691
bfd	-13.6691
▁因为碗很好	-13.6702
bd	-13.6704
▁你要	-13.6705
我卖快	-13.6708
鲸鱼是	-13.6717
的风	-13.6723
我画快	-13.6727
我跳近	-13.6732
说谢谢	-13.6743
恢复精	-13.6744
DCBE	-13.6762
火和	-13.6773
bhjg	-13.6778
会睡觉	-13.6781
这些是	-13.6782
我听矮	-13.6788
我种多	-13.6793
太满	-13.6825
我放明亮	-13.6828
我养白	-13.6829
花很美	-13.6842
我哭短	-13.6845
▁因为杯子很好	-13.6856
护	-13.6866
出的	-13.6867
苹果很香	-13.687
觉	-13.6873
后才	-13.6886
▁这个灰色的花很	-13.6914
很清	-13.692
▁你在做	-13.6921
▁雪是	-13.6929
不冷	-13.6938
▁冰箱	-13.6946
我做真	-13.6947
三张	-13.6952
我爱高	-13.6957
我游真	-13.6967
我养慢	-13.6971
出来的	-13.6983
秋天过后是	-13.6984
多和少是	-13.6985
车很重	-13.6998
我学圆	-13.7004
那里有	-13.7007
am	-13.7013
我喝大	-13.702
ebj	-13.7025
我走明亮	-13.7027
肚子	-13.7028
汽车跑得	-13.703
我养可爱	-13.7031
我织矮	-13.7043
cjf	-13.7048
在水里面	-13.7077
五张	-13.7086
夏天过后是	-13.7086
AC	-13.7098
鲸鱼	-13.7102
▁五个苹果	-13.7109
我笑快	-13.7122
冬天过后是	-13.713
为什么海	-13.7147
我走好	-13.7164
下课	-13.7169
ie	-13.7186
AF	-13.7214
xǐ	-13.7235
gif	-13.7256
▁草在	-13.726
FA	-13.7261
一张	-13.7265
高山	-13.727
大小	-13.7272
冰就变成	-13.7289
水很凉	-13.73
鼻	-13.7302
遇	-13.7302
我说白	-13.7311
EAB	-13.7315
晚	-13.7324
因为花	-13.7337
abd	-13.7339
三把	-13.7352
尖	-13.7363
▁人是	-13.7365
回	-13.7367
越	-13.7372
▁天亮了	-13.7372
一朵	-13.7373
珠	-13.7373
帮花	-13.7374
生命	-13.7374
弹回来	-13.7375
锈	-13.7375
因为地球在转	-13.7375
可以让房	-13.7375
因为别人帮了你	-13.7375
因为月亮绕着地球转	-13.7375
感谢	-13.7375
不客气	-13.7375
空气流动	-13.7375
冬天穿厚衣服	-13.7375
就形成了	-13.7375
还能保护皮肤	-13.7375
传给大脑	-13.7375
喜	-13.7375
因为衣服能保暖	-13.7375
曾	-13.7375
水蒸发到天上变成云	-13.7375
花会开	-13.7375
苏	-13.7375
夏天穿薄衣服	-13.7375
堰	-13.7375
火会烧	-13.7375
要多喝水	-13.7375
祖	-13.7375
闻味道	-13.7375
天气变暖	-13.7376
请讲讲	-13.7376
因为吃饭能给身体	-13.7376
因为鸟有翅膀	-13.7376
用眼睛看	-13.7376
回声	-13.7376
帮助别人	-13.7376
但火也	-13.7376
排队走	-13.7376
没有味道	-13.7376
为什么人会	-13.7377
为什么气球	-13.7377
就觉得	-13.7377
的地方就会	-13.7377
心脏	-13.7377
冰会化成水	-13.7377
帮助你	-13.7377
为什么鸟会飞	-13.7377
我们笑	-13.7377
照亮了	-13.7378
糖是甜的	-13.7378
妹妹唱	-13.7378
基本	-13.7378
▁冰棍很	-13.738
工作	-13.7381
一张纸	-13.7382
蓝光	-13.7384
开始生长	-13.7384
蛇很长	-13.7384
他读	-13.7387
你们答	-13.7388
阳光穿过	-13.7389
新米	-13.7389
快和慢是	-13.7391
好厂	-13.7391
安静兔	-13.7391
凉虎	-13.7392
好熊	-13.7392
妈妈喜欢	-13.7392
好田	-13.7392
清新	-13.7393
请介绍一下丝绸之路	-13.7393
可爱鞋	-13.7394
凉票	-13.7394
好老师	-13.7394
凉鹅	-13.7396
可爱狮	-13.7396
我买轻	-13.7396
酸米饭	-13.7397
山很远	-13.7397
酸店	-13.7397
凉船	-13.7397
酸甜	-13.7397
明亮兔	-13.7398
美丽瓜	-13.7398
黑旗	-13.7399
可爱鸡	-13.7399
可爱耳	-13.7399
小猫拿	-13.7399
可爱脸	-13.7399
矮村	-13.7399
矮肉	-13.74
假街	-13.74
黑蛋	-13.7401
黑牙	-13.7401
汽车很重	-13.7401
帮你	-13.7402
可爱同学	-13.7402
快乐糖	-13.7402
明亮米饭	-13.7403
假鹅	-13.7403
假糖	-13.7403
快乐心	-13.7404
甜天空	-13.7404
发烧	-13.7404
快乐菜	-13.7404
安静城	-13.7404
旧鞋	-13.7404
凉椅子	-13.7404
美丽厂	-13.7405
蓝脸	-13.7405
温暖鹅	-13.7405
黑马	-13.7405
温暖糖	-13.7405
甜蛇	-13.7405
酸云	-13.7406
温暖灯	-13.7406
旧狮	-13.7406
热鞋	-13.7407
假龙	-13.7407
绿盐	-13.7407
短厂	-13.7408
对着	-13.7408
船很大	-13.7408
温暖小狗	-13.7408
明亮鸭	-13.7409
甜桥	-13.7409
绿天空	-13.7409
酸发	-13.7409
会吃饭	-13.7409
短钟	-13.741
坏汽车	-13.741
用力	-13.741
热村	-13.741
明亮眼	-13.741
明亮石	-13.741
黑妈妈	-13.741
或者	-13.7411
绿大海	-13.7411
甜老师	-13.7411
明亮小狗	-13.7411
美丽菜	-13.7411
凉书	-13.7412
绿熊	-13.7412
轻耳	-13.7412
春天和	-13.7412
酸笔	-13.7413
热天空	-13.7413
白灯	-13.7413
白桥	-13.7413
坏桥	-13.7413
汽车很大	-13.7414
酸面	-13.7415
高狮	-13.7415
坏头	-13.7415
快乐月亮	-13.7416
先泡茶	-13.7416
近汽车	-13.7416
热耳	-13.7416
轻牛	-13.7416
旧灯	-13.7417
月亮会	-13.7419
矮椅子	-13.7419
长厂	-13.7419
轻眼	-13.7419
鸟在天空	-13.7419
到处都	-13.742
近灯	-13.742
近衣	-13.7421
黑脚	-13.7421
甜发	-13.7421
春天过后	-13.7421
香鹅	-13.7421
酸草	-13.7421
坏公园	-13.7422
远瓜	-13.7422
▁白天	-13.7422
圆菜	-13.7422
高大海	-13.7422
美丽桌子	-13.7422
新米饭	-13.7422
热头	-13.7423
凉水	-13.7424
假鱼	-13.7424
圆龙	-13.7424
新羊	-13.7425
轻学校	-13.7425
能保护	-13.7426
快乐鸟	-13.7426
轻城	-13.7426
温暖车	-13.7427
蓝雪	-13.7428
明亮火	-13.7428
光都	-13.7429
红糖	-13.743
听声音	-13.743
酸窗	-13.7432
我放美丽	-13.7432
轻椅子	-13.7432
高石	-13.7432
香学校	-13.7433
红船	-13.7433
香小猫	-13.7433
圆发	-13.7434
酸口	-13.7434
远厂	-13.7435
新石	-13.7435
远脸	-13.7435
坏火	-13.7437
新龙	-13.7437
长公园	-13.7437
慢蛇	-13.7438
绿雪	-13.7438
互相	-13.7439
酸树	-13.7439
高学校	-13.744
方菜	-13.7441
白鱼	-13.7441
热雨	-13.7441
坏风	-13.7441
明亮茶	-13.7442
轻脚	-13.7443
方马	-13.7443
用嘴	-13.7444
近面	-13.7444
新机	-13.7445
新爸爸	-13.7445
温暖口	-13.7446
远老师	-13.7446
近太阳	-13.7446
我买多	-13.7446
热太阳	-13.7447
影子	-13.7447
远菜	-13.7447
矮口	-13.7448
明亮窗	-13.7448
慢船	-13.7448
慢头	-13.7449
黄太阳	-13.7451
蓝水	-13.7453
吸收水和	-13.7454
长面	-13.7454
真村	-13.7455
方学校	-13.7456
远门	-13.7457
看家	-13.7457
黄书	-13.7458
小明爬	-13.7458
轻茶	-13.7459
远星星	-13.746
慢学校	-13.746
短口	-13.7461
红太阳	-13.7465
方河	-13.7465
方椅子	-13.7466
我养温暖	-13.7467
方雨	-13.7468
绿口	-13.7469
远椅子	-13.7469
方笔	-13.747
香茶	-13.747
真牙	-13.7472
红鱼	-13.7473
多旗	-13.7473
近窗	-13.7474
小猫放	-13.7476
我问明亮	-13.7477
近口	-13.7478
和光	-13.7481
春天过后是	-13.7483
的中文是二	-13.7486
真老师	-13.7486
真眼	-13.7486
▁小明的笔是	-13.7493
方草	-13.7493
多鸭	-13.7493
香树	-13.7495
有雪	-13.7502
地下	-13.7503
少路	-13.7506
快菜	-13.7509
要说对不起	-13.7511
新树	-13.752
中飞	-13.7524
我爬红	-13.7529
重茶	-13.753
多了	-13.7531
吹树叶	-13.7532
▁书里有	-13.754
能放在	-13.7552
真车	-13.7555
沙子	-13.7556
真书	-13.7558
猫在	-13.756
我飞近	-13.7563
真手	-13.7567
我玩假	-13.7574
我飞长	-13.7583
铁和	-13.7588
安静花	-13.7598
我玩美丽	-13.7601
买的	-13.7613
▁出门要穿	-13.7614
你的	-13.7618
我喝圆	-13.7626
dbg	-13.7642
多口	-13.7643
蜜蜂要	-13.765
我帮少	-13.7664
我画大	-13.7683
我织方	-13.7708
长出	-13.7724
白花	-13.7737
我说好	-13.7775
浮上	-13.7777
我跳小	-13.7782
我开坏	-13.7783
种颜色	-13.7784
白米	-13.7784
jec	-13.7788
二本书	-13.7794
进到	-13.7812
变成雪	-13.7826
转到	-13.7836
白果	-13.7839
雨滴落	-13.7852
我爬旧	-13.7856
▁数字五	-13.7865
我走安静	-13.7869
是胖的	-13.7874
▁太阳是	-13.7876
我看假	-13.7889
fjc	-13.7892
我找圆	-13.7892
有时	-13.7894
秋天过后	-13.7907
FAC	-13.7908
书包里	-13.7921
我放好	-13.7926
会氧化	-13.793
我站少	-13.7933
鸟的	-13.7946
有颜色	-13.795
夏天过后	-13.7961
我唱蓝	-13.7966
和人	-13.7974
我做温暖	-13.7985
可以晒	-13.7988
三张桌子	-13.7988
暖不	-13.7994
冬天过后	-13.7994
我写重	-13.8001
我坐小	-13.8001
这些	-13.8009
小鼓	-13.8015
高楼是	-13.8019
我养凉	-13.8027
我跑红	-13.8032
学到	-13.8047
鱼有	-13.8057
我画假	-13.8094
我养甜	-13.8103
▁你会做	-13.8106
猫很甜	-13.8113
▁冷了	-13.8116
cbhj	-13.8117
我问黄	-13.8125
我哭矮	-13.8146
以后	-13.815
河水	-13.8156
▁你会喝	-13.8156
十二	-13.8163
eg	-13.8167
椅子上	-13.8169
我飞多	-13.8179
时人会	-13.8194
ECA	-13.8202
走路要	-13.8212
水很少	-13.8217
多盐	-13.8221
再加	-13.8234
我看明亮	-13.8234
EBD	-13.8241
dà	-13.8246
ajc	-13.8273
▁桌子是	-13.8276
我扫旧	-13.8279
我游绿	-13.8291
ib	-13.8305
鸟在树上	-13.8305
CDFE	-13.8326
我写凉	-13.8336
我开高	-13.8344
我喝凉	-13.8349
我跑少	-13.835
▁书是	-13.8369
CFD	-13.8371
树根	-13.8374
东西放手	-13.8379
送到	-13.8381
我看白	-13.8383
我拿绿	-13.8383
慢慢	-13.8383
▁黄河	-13.8384
爸爸买	-13.8386
elif	-13.839
我吃小	-13.8398
▁电	-13.8402
火车是	-13.8405
所以不能	-13.8409
▁苹果是	-13.8409
我喜欢安静	-13.8413
我买白	-13.8413
jhc	-13.8424
bhe	-13.8435
天气很	-13.8442
fcj	-13.8444
在里面	-13.8446
泡	-13.8471
▁小鱼	-13.8477
热肉	-13.8481
我说少	-13.8488
▁这个杯子	-13.8488
我走可爱	-13.849
五张桌子	-13.8493
鸟叫	-13.8494
云里的水	-13.8496
我拿大	-13.8496
我拿香	-13.8518
我学少	-13.8518
衣服很	-13.8552
▁温泉	-13.8558
杯子里	-13.8571
▁你会写	-13.8572
xiǎng	-13.8574
大瓜	-13.8581
DEC	-13.8597
CDAF	-13.8598
是浅的	-13.8617
我帮近	-13.8619
▁鱼在	-13.8626
CDA	-13.8626
因为猫	-13.8636
我扫红	-13.8638
狗是大	-13.8639
tion	-13.8642
门就	-13.8642
猫是	-13.865
EBAD	-13.8652
小笔	-13.8665
圆形的	-13.8667
我卖方	-13.8669
我学白	-13.8669
火就	-13.8675
放在冰箱里	-13.8677
我想方	-13.8683
里的	-13.8683
▁这个紫色的太阳很	-13.869
然后关	-13.8706
huà	-13.8711
我喝甜	-13.872
▁天上	-13.8729
我跑绿	-13.8734
CEDF	-13.8743
一只手有	-13.8756
我做黑	-13.8762
花很软	-13.8764
▁人从	-13.8785
我洗方	-13.8796
CF	-13.8798
我吃凉	-13.8806
会疼	-13.8821
elf	-13.8833
我拿甜	-13.8838
DAF	-13.8875
▁快米	-13.8882
jī	-13.8894
凌会	-13.8897
是对	-13.89
明亮鸡	-13.8917
BFC	-13.895
石头在	-13.8968
EACD	-13.8969
我笑高	-13.8972
能摸	-13.8977
假村	-13.898
我喝香	-13.8981
小草	-13.8984
▁小红的	-13.8986
▁鸟是	-13.8993
因为太阳发出	-13.8996
=[]	-13.8998
高鞋	-13.9001
修复后	-13.9012
的中文是一	-13.9014
桌子左边	-13.9036
上面是	-13.9053
关上	-13.9059
甜村	-13.9061
我读坏	-13.9069
鞋带	-13.9078
桌子右边	-13.9085
adc	-13.9094
向北方	-13.9103
冰是热的	-13.9107
我买明亮	-13.9113
我看甜	-13.9114
jge	-13.9114
▁你会读	-13.9116
án	-13.9116
我吃少	-13.9121
▁甜米	-13.913
▁床	-13.9137
蓝兔	-13.9139
在山上	-13.9142
yú	-13.9144
大花	-13.9145
小猫说	-13.9149
做错	-13.9156
CEDB	-13.916
里的水	-13.9163
长狮	-13.9165
方桥	-13.9174
▁数字二	-13.9177
▁你会看	-13.9179
白米饭	-13.9182
重米	-13.9183
第二天	-13.9188
轻旗	-13.9189
大田	-13.9203
快蛋	-13.9218
边是东	-13.9221
近耳	-13.9223
ADEF	-13.9226
新旗	-13.9226
美丽米饭	-13.9229
BCD	-13.9231
mǐ	-13.9236
明亮鼓	-13.9236
圆熊	-13.9237
源于	-13.9242
我找重	-13.9254
假脸	-13.9256
我爱近	-13.9261
大象和	-13.9268
gf	-13.9285
甜狮	-13.9286
我哭远	-13.9299
慢钟	-13.9301
轻钟	-13.9301
少盐	-13.9301
红大海	-13.9302
我卖大	-13.9304
粗和细是	-13.9305
可爱厂	-13.9308
我唱长	-13.931
新牙	-13.9314
轻脸	-13.9321
BEF	-13.9321
蓝店	-13.9326
我游快	-13.934
快乐天空	-13.9351
里和外是	-13.9352
shī	-13.9354
好村	-13.9357
方肉	-13.9357
长汽车	-13.9383
FDBC	-13.9383
温暖牛	-13.9396
kū	-13.9425
方耳	-13.9425
会掉到地上	-13.9427
旧钟	-13.9433
我种热	-13.9433
▁大米	-13.9435
▁坏米	-13.9442
我想蓝	-13.9442
近兔	-13.947
黑耳	-13.9471
我坐多	-13.948
就不会	-13.948
我拿方	-13.9498
快乐田	-13.9498
我看黄	-13.9502
我答圆	-13.951
短马	-13.9512
酸糖	-13.9527
我洗凉	-13.9527
▁粗	-13.953
红酒	-13.9534
我去	-13.9549
可以取暖	-13.9555
我跑矮	-13.956
ABF	-13.9566
好眼	-13.9566
妈妈看	-13.9568
明亮旗	-13.9568
多蛋	-13.9581
我跑美丽	-13.9589
会飞	-13.959
明亮糖	-13.9594
短汽车	-13.9594
假狮	-13.9604
▁一只	-13.9604
快乐厂	-13.9605
快乐桥	-13.9617
▁白菜	-13.962
我养真	-13.962
方衣	-13.9623
高熊	-13.9631
蓝糖	-13.9635
我笑温暖	-13.9639
就要小心	-13.9642
可爱米饭	-13.9643
远云	-13.9645
慢店	-13.9654
快乐鞋	-13.9656
黑门	-13.966
热米饭	-13.9664
DCB	-13.9671
我养热	-13.9677
近鼓	-13.9685
真票	-13.9686
真蛋	-13.9688
圆汽车	-13.9695
DEA	-13.9704
夜晚是黑	-13.9706
快乐票	-13.9711
快乐鼓	-13.9717
重龙	-13.9724
就能看	-13.9724
igf	-13.9724
高肉	-13.9726
ebf	-13.9733
少旗	-13.9735
我答快乐	-13.9736
香瓜	-13.9738
快乐米饭	-13.9748
BFA	-13.9751
短天空	-13.9752
坏旗	-13.9765
亮和暗是	-13.9766
不是厚	-13.9768
我玩多	-13.9769
cej	-13.9782
白叶	-13.9789
我种远	-13.979
快乐店	-13.9791
美丽房子	-13.9799
▁春	-13.9802
温暖衣	-13.9811
我走快	-13.9816
慢牙	-13.9824
beg	-13.9826
先洗	-13.9835
是否相	-13.9843
凉盐	-13.9844
我做轻	-13.9845
快乐羊	-13.9845
坏城	-13.9847
黑羊	-13.985
旧店	-13.9855
▁太阳和	-13.9856
安静盐	-13.9856
正常	-13.986
近天空	-13.9865
就是白色	-13.9867
化后变成	-13.9871
我爱坏	-13.9878
高村	-13.9886
酸鼓	-13.9886
ABD	-13.9889
动物园	-13.9891
香盐	-13.9895
月亮是	-13.9898
快乐叶	-13.9898
hcb	-13.9899
安静鼓	-13.9903
我关凉	-13.9903
黑天空	-13.9908
是小明的	-13.9908
小明飞狮	-13.9911
白头	-13.9914
近米饭	-13.9922
美丽街	-13.9923
远鸭	-13.9923
我关近	-13.9925
冒出	-13.9928
轻糖	-13.9936
长羊	-13.9938
酸马	-13.9962
蓝城	-13.9963
dba	-13.9974
黑鸭	-13.9976
我爬甜	-13.9983
一个人	-13.9984
慢田	-13.9989
杯子就是	-14
轻云	-14.0006
快狮	-14.0008
我喝近	-14.0008
铅笔	-14.0009
美丽灯	-14.001
少票	-14.001
热龙	-14.002
红票	-14.0026
可爱船	-14.0027
旧眼	-14.0027
慢鼓	-14.0031
四个苹果	-14.0033
旧米饭	-14.0039
▁蜗牛是	-14.004
我爱绿	-14.0047
旧兔	-14.0049
轻叶	-14.0049
慢糖	-14.005
冰箱是	-14.0053
高牛	-14.0057
我唱新	-14.0059
我关慢	-14.0059
我买真	-14.0063
我帮绿	-14.007
圆房子	-14.0072
真脸	-14.0074
不打伞	-14.0077
会感冒	-14.0077
方酒	-14.0081
高米饭	-14.0086
我吃新	-14.0088
风可以	-14.0089
远鹅	-14.0093
白脸	-14.0097
ibh	-14.01
yuè	-14.0108
是方形的	-14.0112
达	-14.0113
快乐眼	-14.0113
酸酒	-14.0114
白眼	-14.0116
假田	-14.0118
假肉	-14.0123
是高度	-14.013
我种快	-14.013
矮桥	-14.0134
方鹅	-14.0136
圆狮	-14.0145
比石头	-14.0154
短票	-14.0159
真城	-14.0161
热路	-14.0167
着火	-14.0169
多村	-14.017
慢厂	-14.0172
五杯	-14.0175
蓝菜	-14.018
温暖汽车	-14.0182
▁你会跑	-14.0183
红头	-14.0186
我唱香	-14.0187
我爱矮	-14.0188
新火	-14.0188
快乐脸	-14.0188
轻村	-14.0201
圆盐	-14.0202
多狮	-14.0202
stack	-14.0202
我站酸	-14.0203
绿星星	-14.021
要关	-14.0211
可爱公园	-14.0212
长票	-14.0213
三杯	-14.0217
好兔	-14.0222
▁火的	-14.0224
方米	-14.0224
杯子在桌子	-14.0231
可爱大海	-14.0234
adj	-14.0244
▁冰吸收热量	-14.0251
好票	-14.0252
因为鱼	-14.0258
近心	-14.0261
公共子序列	-14.0279
美丽眼	-14.028
然后开	-14.028
安静菜	-14.0282
甜牙	-14.0283
安静钟	-14.0284
我养坏	-14.0285
坏灯	-14.0296
的地	-14.0306
是新	-14.0311
假头	-14.0313
好汽车	-14.0318
我扫短	-14.0325
可爱马	-14.0328
红鼓	-14.0328
旧街	-14.0329
真灯	-14.033
圆门	-14.033
方旗	-14.0334
圆兔	-14.0335
春天是	-14.0345
dgf	-14.0345
猫很香	-14.0347
圆城	-14.035
热盐	-14.035
轻路	-14.0353
坏鹅	-14.0364
酸衣	-14.0365
重鸭	-14.0367
大兔	-14.0369
东西就	-14.037
dfbc	-14.037
卜是	-14.037
高灯	-14.037
我关高	-14.0372
短路	-14.0372
明亮肉	-14.0376
旧石	-14.0379
假大海	-14.038
酸街	-14.0382
我养长	-14.0382
明亮叶	-14.0383
慢衣	-14.0388
我飞远	-14.039
轻鸡	-14.0391
我帮圆	-14.0395
快乐虎	-14.0395
短瓜	-14.04
我帮快	-14.0403
香肉	-14.0405
▁xià	-14.0405
快村	-14.0408
长石	-14.041
黑叶	-14.0411
安静机	-14.0414
香兔	-14.0418
少石	-14.0419
安静灯	-14.042
方脸	-14.042
安静羊	-14.0422
黄票	-14.0429
蓝衣	-14.0433
我关快乐	-14.0435
新蛇	-14.0442
黄眼	-14.0443
白厂	-14.0447
长眼	-14.0452
快乐鸭	-14.0455
我写慢	-14.0455
热菜	-14.0456
红脸	-14.0456
我跑甜	-14.0459
我看大	-14.0459
黄船	-14.0459
慢熊	-14.0464
少桌子	-14.0468
蓝眼	-14.0471
▁你会走	-14.0477
红机	-14.0477
甜眼	-14.0479
美丽汽车	-14.0484
geb	-14.0485
大路	-14.0485
轻星星	-14.0487
坏妈妈	-14.0491
▁数字一	-14.0491
过后是	-14.0496
黑鹅	-14.05
黄脸	-14.0507
近学校	-14.0507
短兔	-14.0508
多路	-14.0508
长蛇	-14.0512
是黄的	-14.0516
绿钟	-14.0516
长钟	-14.0518
矮衣	-14.052
放茶	-14.0524
快路	-14.0525
慢虎	-14.0525
快乐牙	-14.0525
我拿黄	-14.0528
新脚	-14.0531
绿桥	-14.0532
我玩方	-14.0532
新盐	-14.0532
绿羊	-14.0532
美丽鸡	-14.0534
远蛇	-14.0534
明亮鱼	-14.0536
人打	-14.0538
绿马	-14.0541
新公园	-14.0546
蓝火	-14.0553
绿鹅	-14.0553
▁星星在	-14.0554
黄雨	-14.0554
可爱路	-14.0562
绿街	-14.0569
热鸡	-14.0575
圆星星	-14.0577
近云	-14.0585
近鸡	-14.0586
凉头	-14.0589
温暖兔	-14.059
iàng	-14.0591
重鞋	-14.0591
快鸭	-14.0593
可爱钟	-14.0593
近小猫	-14.0594
可爱盐	-14.0599
温暖机	-14.0602
我吃绿	-14.0611
到家	-14.0611
我喝高	-14.0612
▁零加	-14.0613
轻酒	-14.0615
小心	-14.0617
快羊	-14.0618
新老师	-14.0618
我爬可爱	-14.0619
香灯	-14.0621
近小狗	-14.0622
坏米饭	-14.0622
快乐酒	-14.0624
热鸭	-14.0626
白酒	-14.0628
绿老师	-14.0629
矮鞋	-14.0632
gfd	-14.0636
可爱手	-14.0636
half	-14.0636
红灯	-14.0637
香糖	-14.0639
酸鞋	-14.0642
方老师	-14.0643
prev	-14.0644
凉笔	-14.0645
水喝	-14.0646
甜鸭	-14.0646
温暖脸	-14.0649
▁你喜欢什么	-14.0652
温暖马	-14.0652
▁球在	-14.0656
我织旧	-14.0656
温暖街	-14.066
蓝钟	-14.066
可爱汽车	-14.0661
坏虎	-14.0661
安静厂	-14.0664
近菜	-14.0665
好店	-14.0665
轻大海	-14.0669
快熊	-14.0672
安静小猫	-14.0673
绿叶	-14.0674
酸眼	-14.0676
安静妈妈	-14.0676
蓝鹅	-14.0679
凉雪	-14.068
多爸爸	-14.0681
比石头轻	-14.0691
是下面	-14.0693
可爱火	-14.0701
老鼠是	-14.0703
近厂	-14.0705
凉田	-14.0706
我站圆	-14.0712
多耳	-14.0714
我送坏	-14.0715
白面	-14.0717
近店	-14.0717
圆月亮	-14.0718
白雨	-14.0718
白汽车	-14.0719
Node	-14.0724
高雪	-14.0725
热兔	-14.0727
我想高	-14.0729
我说坏	-14.0729
假公园	-14.073
重汽车	-14.0731
白小猫	-14.0738
新鸡	-14.074
凉瓜	-14.0744
高叶	-14.0744
凉汽车	-14.0747
快厂	-14.0748
短妈妈	-14.0749
▁妈妈洗	-14.075
长船	-14.0751
新月亮	-14.0752
近蛋	-14.0753
温暖船	-14.0753
白瓜	-14.0761
重肉	-14.0762
快乐云	-14.0762
红兔	-14.0763
我坐矮	-14.077
多机	-14.0773
明亮路	-14.0775
真风	-14.0777
好鸡	-14.0779
旧旗	-14.078
远牙	-14.0783
我走真	-14.0784
白门	-14.0787
重月亮	-14.079
长蛋	-14.0793
香叶	-14.0794
旧火	-14.0795
安静肉	-14.0797
新发	-14.0798
安静面	-14.0799
ecf	-14.0801
甜票	-14.0803
新茶	-14.0803
早	-14.0806
长脚	-14.0807
二双	-14.0809
出太阳	-14.0812
红老师	-14.0812
高厂	-14.0817
短熊	-14.0819
安静狮	-14.082
香城	-14.0821
黑学校	-14.0825
我答热	-14.0827
花是	-14.0827
酸盐	-14.0831
多大海	-14.0833
坏同学	-14.0834
慢老师	-14.0834
快乐城	-14.0836
矮钟	-14.0836
快乐门	-14.0836
近公园	-14.0836
多虎	-14.0837
多田	-14.084
黄厂	-14.0841
球就是	-14.0842
矮河	-14.0844
温暖鼓	-14.0844
快马	-14.0845
放水	-14.0845
多钟	-14.0845
的书	-14.0846
凉云	-14.0846
真旗	-14.0846
重星星	-14.0848
绿兔	-14.0848
我想短	-14.085
香妈妈	-14.0852
酸虎	-14.0852
短太阳	-14.0855
慢鸭	-14.0861
圆机	-14.0861
热云	-14.0861
矮心	-14.0863
凉狮	-14.0863
圆羊	-14.0863
旧汽车	-14.0865
少蛇	-14.0867
温暖蛋	-14.0867
多云	-14.0871
新房子	-14.0875
重蛋	-14.0878
甜椅子	-14.0878
在那	-14.088
坏牛	-14.088
好云	-14.0881
我画甜	-14.0883
短桥	-14.0885
鸟很矮	-14.0886
碗就是	-14.0886
香鼓	-14.0888
少天空	-14.0889
坏盐	-14.0889
变成红色	-14.0891
高月亮	-14.0891
甜小猫	-14.0892
酸羊	-14.0898
插座	-14.0898
不能用手碰	-14.0899
小明去	-14.09
坏狮	-14.0902
我做小	-14.0902
酸同学	-14.0904
慢米饭	-14.0905
甜房子	-14.0906
我织安静	-14.0908
太	-14.0908
酸蛋	-14.0909
白小狗	-14.0909
▁如果路	-14.091
我买方	-14.0912
凉蛇	-14.0913
快门	-14.0915
短店	-14.0917
我有	-14.092
新船	-14.0921
我找远	-14.0923
重脸	-14.0926
大耳	-14.0928
水很冷	-14.093
远旗	-14.0931
高街	-14.0934
我放近	-14.0936
红苹果	-14.0939
重耳	-14.0939
真雪	-14.0946
热脸	-14.0952
快乐茶	-14.0953
滴	-14.0953
新兔	-14.0953
鱼是	-14.0955
甜熊	-14.0956
慢眼	-14.0957
慢发	-14.0958
不能直接喝	-14.0958
狗是	-14.096
安静票	-14.096
关灯	-14.0962
火是	-14.0963
高房子	-14.0963
好狮	-14.0967
远手	-14.0967
旧熊	-14.0967
黄大海	-14.097
多厂	-14.0972
安静街	-14.0976
今天的	-14.098
长车	-14.098
写在	-14.0981
凉熊	-14.0982
多桥	-14.0982
美丽公园	-14.0983
慢小狗	-14.0983
方船	-14.0983
假老师	-14.0984
远肉	-14.0984
旧桌子	-14.0984
凉肉	-14.0984
美丽手	-14.0985
方票	-14.099
凉旗	-14.0991
真瓜	-14.0993
绿机	-14.0994
绿鸡	-14.0994
FAE	-14.0999
我关旧	-14.1
黄笔	-14.1
短眼	-14.1001
凉鸡	-14.1003
我坐红	-14.1004
温暖叶	-14.1007
黑面	-14.1009
假心	-14.101
短雪	-14.1011
慢房子	-14.1015
多公园	-14.1016
圆茶	-14.1016
美丽蛋	-14.1019
大羊	-14.102
矮风	-14.1026
黑老师	-14.1026
鱼在	-14.1028
pe	-14.1031
远天空	-14.1031
凉门	-14.1033
再泡	-14.1034
可爱羊	-14.1035
我画旧	-14.1036
安静笔	-14.1037
公园里	-14.1037
▁你会画	-14.1038
黑菜	-14.1039
圆桥	-14.1043
黑公园	-14.1045
明亮公园	-14.1046
近马	-14.1049
安静山	-14.105
明亮雨	-14.105
热城	-14.1051
方蛇	-14.1051
een	-14.1052
玻璃很	-14.1057
热票	-14.1058
方鼓	-14.1059
凉同学	-14.106
白蛇	-14.1066
明亮街	-14.1067
坏小狗	-14.1068
ejb	-14.1069
我在山上	-14.107
汽车是	-14.1072
黑月亮	-14.1072
我在学校	-14.1073
我在公园	-14.1073
出门要	-14.1076
暖气	-14.1078
大糖	-14.1081
假火	-14.1084
凉耳	-14.1085
近脚	-14.1086
好糖	-14.1086
远田	-14.1088
圆草	-14.109
轻妈妈	-14.1091
快城	-14.1091
快乐龙	-14.1091
轻船	-14.1093
慢雨	-14.1094
能在水里	-14.1096
尖的	-14.1096
坏船	-14.11
早上	-14.1101
快乐椅子	-14.1101
温暖大海	-14.1101
多椅子	-14.1103
蓝牛	-14.1105
黑票	-14.1106
慢太阳	-14.1107
多龙	-14.1108
安静天空	-14.111
甜窗	-14.1112
圆糖	-14.1112
黑桌子	-14.1113
明亮耳	-14.1113
旧同学	-14.1115
我卖凉	-14.1118
温暖钟	-14.112
远虎	-14.112
快乐雪	-14.1121
蓝机	-14.1124
温暖路	-14.1124
新心	-14.1125
高头	-14.1127
红桌子	-14.1129
矮窗	-14.1138
因为天气	-14.1139
可以保	-14.1144
旧蛋	-14.1144
蓝路	-14.1149
慢路	-14.1151
近同学	-14.1152
白龙	-14.1153
热狮	-14.1155
空调	-14.1157
我读假	-14.1158
红村	-14.1158
旧老师	-14.1159
大店	-14.1161
美丽窗	-14.1163
矮羊	-14.1165
黑路	-14.1168
好草	-14.1171
甜田	-14.1172
圆路	-14.1172
红盐	-14.1172
甜糖	-14.1172
好星星	-14.1174
方汽车	-14.1175
快乐石	-14.1175
明亮爸爸	-14.1176
安静龙	-14.1176
短面	-14.1177
可爱桌子	-14.1178
木头和	-14.1178
圆老师	-14.118
蓝窗	-14.118
慢鸡	-14.118
新口	-14.1182
纸张	-14.1183
香钟	-14.1189
多脸	-14.1191
轻石	-14.1193
真门	-14.1193
旧房子	-14.1197
雨是	-14.1198
泡沫	-14.1199
美丽肉	-14.1199
快乐风	-14.1199
方桌子	-14.12
圆鸟	-14.1206
黑云	-14.1207
香衣	-14.1213
我想凉	-14.1214
钻石是	-14.1215
重学校	-14.1216
手电筒	-14.1216
白路	-14.1219
多心	-14.122
圆牛	-14.1224
蓝同学	-14.1224
甜书	-14.1224
少酒	-14.1225
我坐可爱	-14.1226
我走近	-14.1226
甜脸	-14.1229
好桥	-14.1229
▁前和后是	-14.1229
远汽车	-14.1232
可爱村	-14.1232
先穿	-14.1232
凉眼	-14.1232
真鼓	-14.1233
短树	-14.1233
▁熊猫是	-14.1234
好街	-14.1234
白车	-14.1236
矮鸟	-14.1237
少糖	-14.1239
热店	-14.1243
后面是	-14.1244
热草	-14.1245
马路上	-14.1246
高云	-14.1248
少机	-14.1251
雪是	-14.1252
酸老师	-14.1254
酸头	-14.1254
大山	-14.1256
好学校	-14.1256
圆妈妈	-14.1257
温暖盐	-14.1257
明亮牙	-14.1258
旧山	-14.1261
好钟	-14.1261
坏鸡	-14.1262
高机	-14.1263
dci	-14.1264
我扫长	-14.1264
四杯	-14.1265
因为下雨了	-14.1265
一个蛋	-14.1267
好手	-14.1267
圆笔	-14.1267
温暖面	-14.1269
安静学校	-14.127
大旗	-14.127
快票	-14.1271
绿房子	-14.1272
太阳从东边升起	-14.1273
墨水是黑色的	-14.1273
橘子是橙色的	-14.1273
橙子是橙色的	-14.1274
我爱安静	-14.1275
大牙	-14.1276
兔子跑得很快	-14.1276
慢笔	-14.1276
鲸鱼比大象	-14.1279
▁出门要	-14.1283
圆叶	-14.1283
甜城	-14.1284
大茶	-14.1284
坏面	-14.1285
我站多	-14.1285
山比房子	-14.1286
为什么火	-14.1286
乌龟慢慢	-14.1286
出门要穿	-14.1286
白草	-14.1286
石头很硬	-14.1287
轻鼓	-14.1291
因为下雨	-14.1293
人有一个	-14.1293
真鸡	-14.1296
假灯	-14.1298
明亮书	-14.1301
温暖眼	-14.1301
长爸爸	-14.1301
有一天	-14.1301
白发	-14.1302
黄路	-14.1302
蚂蚁比	-14.1304
车很矮	-14.1306
红天空	-14.1308
红狮	-14.1308
温暖虎	-14.131
圆雨	-14.1313
快乐车	-14.1313
黄茶	-14.1315
圆椅子	-14.1315
安静老师	-14.1317
坏发	-14.132
我玩安静	-14.1321
大牛	-14.1324
新云	-14.1324
快牙	-14.1325
热山	-14.1326
蓝牙	-14.1328
少草	-14.1333
假菜	-14.1337
重糖	-14.1337
黑盐	-14.1338
短鱼	-14.1339
轻米饭	-14.1344
蓝发	-14.1346
近城	-14.1347
酸爸爸	-14.1348
远糖	-14.1349
温暖头	-14.1351
长鞋	-14.1356
绿头	-14.1358
大肉	-14.136
黄风	-14.1361
火很小	-14.1363
▁你会玩	-14.1363
安静脚	-14.1366
红门	-14.1367
甜笔	-14.137
高妈妈	-14.1373
快乐妈妈	-14.1374
错了	-14.1376
树很矮	-14.1377
香票	-14.1379
近票	-14.1381
书很甜	-14.1384
我找绿	-14.1384
热鹅	-14.1384
个手指	-14.1386
快牛	-14.1386
明亮羊	-14.1386
酸星星	-14.1387
重鸟	-14.139
温暖火	-14.139
重羊	-14.1391
温暖脚	-14.1392
短鸟	-14.1392
我吃短	-14.1393
个月	-14.1394
安静风	-14.1399
鱼很矮	-14.1399
短心	-14.14
凉龙	-14.1401
长村	-14.1408
好发	-14.1408
我坐白	-14.141
白桌子	-14.1412
我织圆	-14.1418
安静云	-14.1418
假城	-14.142
放在外面会	-14.1422
买	-14.1423
高龙	-14.1424
绿米饭	-14.1425
我织大	-14.1425
甜河	-14.1425
种子发芽	-14.1426
我做黄	-14.1429
蓝船	-14.1429
可爱星星	-14.1434
白口	-14.1437
绿爸爸	-14.1437
蓝树	-14.1438
短房子	-14.144
多石	-14.1443
快肉	-14.1443
短脚	-14.1445
旧酒	-14.1448
酸鸭	-14.1449
三双	-14.1449
明亮衣	-14.145
黑鸡	-14.1451
旧鸟	-14.1451
快衣	-14.1457
假门	-14.1457
矮老师	-14.1459
绿酒	-14.1459
红蛋	-14.146
短灯	-14.1466
我笑短	-14.1466
快老师	-14.1466
我洗重	-14.1466
红风	-14.1467
钢铁	-14.147
和兔子	-14.1475
我唱假	-14.1475
有五个手	-14.1477
因为冰	-14.1477
冰的	-14.1479
蓝笔	-14.148
真笔	-14.148
红星星	-14.1482
黄羊	-14.1484
甜星星	-14.1485
美丽茶	-14.1485
太阳比	-14.1486
矮路	-14.1486
明亮蛋	-14.1488
绿公园	-14.149
旧笔	-14.149
远店	-14.1493
慢桌子	-14.1493
大心	-14.1494
热椅子	-14.15
凉石	-14.1501
长衣	-14.1502
温暖鸭	-14.1505
甜羊	-14.1505
矮门	-14.1508
坏太阳	-14.1508
黄妈妈	-14.1509
方公园	-14.1509
我跳甜	-14.1509
远树	-14.1512
假鸭	-14.1513
绿汽车	-14.1514
高爸爸	-14.1516
酸龙	-14.1518
长瓜	-14.1519
苹果很矮	-14.1519
我养方	-14.1523
排队	-14.1528
矮云	-14.1531
高城	-14.1531
坏路	-14.1533
绿雨	-14.1536
黄小狗	-14.1537
热牙	-14.1538
远小猫	-14.154
美丽马	-14.154
我站远	-14.1542
四双	-14.1544
近笔	-14.1546
我听安静	-14.1547
旧牛	-14.1549
小鸟飞	-14.1549
凉发	-14.1551
小蛇	-14.1553
蓝旗	-14.1553
少街	-14.1554
苹果是	-14.1556
旧蛇	-14.1559
香马	-14.1559
美丽月亮	-14.156
热妈妈	-14.1562
蓝米饭	-14.1562
多鼓	-14.1562
高茶	-14.1563
大城	-14.1563
说狮	-14.1566
快乐大海	-14.1566
平的	-14.1568
我放甜	-14.1569
车很危险	-14.1569
圆手	-14.1572
蓝山	-14.1573
矮妈妈	-14.1574
明亮门	-14.1574
真马	-14.1574
▁因为火	-14.1575
长耳	-14.1578
酸小狗	-14.158
我洗酸	-14.1581
红学校	-14.1581
近石	-14.1581
甜鹅	-14.1581
快酒	-14.1584
矮大海	-14.1586
矮发	-14.1589
蓝蛇	-14.1591
远月亮	-14.1595
鸟很轻	-14.1595
酸茶	-14.1599
蓝酒	-14.1599
黑米	-14.1603
水结冰了	-14.1604
安静虎	-14.1604
树很危险	-14.1608
矮糖	-14.1608
小牙	-14.1609
狗很危险	-14.1613
▁草是黑	-14.1615
旧爸爸	-14.1617
明亮龙	-14.1619
我画近	-14.1621
少马	-14.1622
轻肉	-14.1622
我读圆	-14.1622
红云	-14.1624
黑眼	-14.1626
快米饭	-14.1628
温暖老师	-14.1636
矮笔	-14.1639
红同学	-14.1639
假鞋	-14.1642
黄鸭	-14.1644
酸熊	-14.1645
快公园	-14.1645
圆山	-14.1646
可以保护	-14.1649
小云	-14.165
ax	-14.1651
甜菜	-14.1652
旧桥	-14.1656
香山	-14.1658
红雪	-14.1658
甜草	-14.1661
五双	-14.1662
远茶	-14.1663
黄面	-14.1663
香火	-14.1666
快糖	-14.1667
▁因为冰	-14.1668
矮眼	-14.167
白月亮	-14.1671
我走少	-14.1672
高糖	-14.1672
大厂	-14.1673
重小狗	-14.1673
轻鸭	-14.1674
远车	-14.1674
[('	-14.1677
条路	-14.1678
在公园	-14.1679
少心	-14.168
我哭白	-14.1681
轻厂	-14.1683
远衣	-14.1686
温暖山	-14.1686
甜火	-14.1687
蓝房子	-14.1687
慢耳	-14.169
香水	-14.1691
美丽车	-14.1691
重妈妈	-14.1692
长头	-14.1698
大虎	-14.1698
abg	-14.1701
长草	-14.1706
近书	-14.1706
少鸟	-14.1708
圆公园	-14.1709
圆小狗	-14.1709
花很安全	-14.171
好口	-14.171
酸城	-14.1712
我帮温暖	-14.1713
甜心	-14.1714
小羊	-14.1715
高太阳	-14.1716
高口	-14.1716
面的东西不在	-14.1717
安静熊	-14.1719
旧鹅	-14.172
小汽车	-14.1721
旧城	-14.1721
少小狗	-14.1721
hcg	-14.1722
黄米	-14.1724
甜机	-14.1724
少衣	-14.1729
远风	-14.1732
轻鸟	-14.1733
多马	-14.1735
的鱼	-14.1735
轻汽车	-14.1735
黑狮	-14.1738
我坐绿	-14.174
多船	-14.174
酸学校	-14.1742
温暖桌子	-14.1742
FD	-14.1743
多鸡	-14.1747
黄车	-14.1747
光很	-14.1747
上有	-14.1748
好门	-14.1749
长长的	-14.1751
香发	-14.1752
桌	-14.1753
▁人在	-14.1754
大手	-14.1754
重米饭	-14.1755
明亮草	-14.1755
我问甜	-14.1756
我织短	-14.1758
红小狗	-14.1758
树很高	-14.176
矮石	-14.1761
我扫远	-14.1763
长熊	-14.1767
快妈妈	-14.1767
变成了水	-14.1768
热风	-14.1769
树很香	-14.1769
酸鹅	-14.1771
重厂	-14.1773
热机	-14.1773
桌子是	-14.1774
多眼	-14.1774
我唱黄	-14.1776
大米饭	-14.1776
ABE	-14.1777
书很安全	-14.1779
真妈妈	-14.1782
快月亮	-14.1782
酸心	-14.1782
矮太阳	-14.1783
白风	-14.1784
甜太阳	-14.1784
白书	-14.1785
车在	-14.1785
黑雨	-14.1785
蓝心	-14.1787
车时	-14.1788
慢票	-14.1788
轻小狗	-14.1788
快和慢不	-14.1791
有三个	-14.1791
轻灯	-14.1795
假票	-14.1796
我看安静	-14.1796
hóng	-14.1799
我写圆	-14.18
绿书	-14.1801
白手	-14.1801
椅子很高	-14.1801
明亮面	-14.1802
要带	-14.1803
慢茶	-14.1804
▁你会吃	-14.1808
真小猫	-14.181
有石头	-14.1811
云是	-14.1811
gl	-14.1811
大大海	-14.1813
为什么树叶	-14.1814
我走新	-14.1816
假汽车	-14.1816
jd	-14.1816
少椅子	-14.1818
身体没	-14.1818
火在	-14.182
修复方法	-14.1821
明亮椅子	-14.1822
旧糖	-14.1825
短机	-14.1826
轻月亮	-14.1826
高小狗	-14.1828
所以要穿	-14.1829
小猫扫米	-14.1829
少耳	-14.183
轻爸爸	-14.1831
黄爸爸	-14.1832
小钟	-14.1835
红爸爸	-14.1835
我飞温暖	-14.1835
热火	-14.1838
短公园	-14.1838
少公园	-14.184
明亮雪	-14.184
我答慢	-14.1842
多同学	-14.1846
明亮笔	-14.1846
酸机	-14.1847
大书	-14.1849
短小猫	-14.1852
黑熊	-14.1854
方头	-14.1855
轻头	-14.1855
cj	-14.186
多书	-14.1868
真口	-14.187
上面有	-14.1871
远龙	-14.1871
坏桌子	-14.1872
少茶	-14.1878
红面	-14.1881
我送香	-14.1884
蓝雨	-14.1885
cg	-14.1888
红椅子	-14.189
星星是	-14.189
大衣	-14.1892
▁西瓜在	-14.1892
美丽鱼	-14.1894
树是	-14.1896
少鱼	-14.1898
好火	-14.1898
坏月亮	-14.1904
方风	-14.191
明亮鸟	-14.1918
红树	-14.192
苹果就是	-14.1921
矮雪	-14.1928
慢机	-14.1928
重车	-14.1928
刀是	-14.1929
大桌子	-14.1929
热面	-14.193
方鱼	-14.1931
安静爸爸	-14.1933
笔用来	-14.1933
fbe	-14.1935
重同学	-14.1937
我买长	-14.1938
黄鸟	-14.1939
我爬好	-14.194
轻公园	-14.194
少火	-14.1941
重脚	-14.1944
圆树	-14.1945
bcj	-14.1946
门外面	-14.1947
椅子在	-14.1948
矮脚	-14.1949
bad	-14.1956
少学校	-14.1958
我问远	-14.1958
明亮风	-14.1959
真脚	-14.1961
我说多	-14.1967
大云	-14.197
轻面	-14.197
快乐山	-14.1971
远学校	-14.1973
高火	-14.1977
真面	-14.1978
我学好	-14.1978
远机	-14.1979
水就变	-14.198
店很快	-14.1982
我的书	-14.1984
我买凉	-14.1985
红窗	-14.199
新水	-14.199
树叶很	-14.199
香爸爸	-14.1991
高脚	-14.1994
蓝面	-14.1995
的太阳很	-14.1995
真太阳	-14.1999
绿鸟	-14.1999
猫很重	-14.1999
车很快	-14.2
我卖重	-14.2001
要跑	-14.2004
明亮树	-14.2007
我画慢	-14.2012
我坐黄	-14.2012
方妈妈	-14.2012
要吹	-14.2014
是厚	-14.2016
绿树	-14.2017
坏树	-14.2018
大龙	-14.202
地球的	-14.2022
小瓜	-14.2025
重树	-14.203
多桌子	-14.2033
人是	-14.2044
鱼在水	-14.2044
所以冰	-14.2044
黄草	-14.2047
长桌子	-14.2048
重笔	-14.205
小明帮妈妈	-14.2051
不然	-14.2052
黄手	-14.2054
鱼很重	-14.2054
蓝书	-14.2054
结冰了	-14.2056
矮米	-14.2059
可以挡雨	-14.206
美丽发	-14.2061
少钟	-14.2061
我放圆	-14.2065
太阳是太阳	-14.207
长门	-14.207
少汽车	-14.2073
店真快	-14.2074
faj	-14.2074
热鸟	-14.2075
甜树	-14.2077
CDE	-14.2077
前和后不	-14.208
酸风	-14.2081
小菜	-14.2082
旧风	-14.2083
轻火	-14.2083
我飞旧	-14.2083
老师在	-14.2085
▁你会听	-14.2085
厚衣服	-14.2087
汽车和	-14.2088
我想绿	-14.2089
月亮上有	-14.2091
温暖水	-14.2094
在墙上面	-14.2094
慢脚	-14.2098
长学校	-14.2102
要听	-14.2102
满	-14.2103
三种	-14.2105
快书	-14.211
少爸爸	-14.2113
少面	-14.2114
今天是	-14.2116
我开慢	-14.2121
我听红	-14.2124
▁椅子在	-14.2127
明天	-14.2135
我放酸	-14.2137
少小猫	-14.2145
为什么冰	-14.2147
我问红	-14.2149
上跑	-14.2152
轻水	-14.2157
▁车在路	-14.2158
多草	-14.216
矮树	-14.2163
四碗	-14.2172
▁你会说	-14.2173
我爱热	-14.2177
多脚	-14.2178
大妈妈	-14.2179
花蜜	-14.218
吃完	-14.2185
飞到	-14.2194
轻的东西	-14.2196
因为推	-14.2198
桌子上面	-14.2199
手有五	-14.22
猫很小	-14.2204
分享	-14.2207
重火	-14.2209
真星星	-14.2209
近树	-14.2209
狗很小	-14.221
一双	-14.2211
我关温暖	-14.2213
方树	-14.2215
真窗	-14.2217
请介绍一下京剧	-14.222
大小狗	-14.2221
假口	-14.2232
车很大	-14.2238
我听少	-14.2238
我种蓝	-14.2242
快发	-14.2244
伞	-14.2246
长水	-14.2247
方窗	-14.225
dcj	-14.2251
我学小	-14.2254
透明的	-14.2263
学到了	-14.2267
少手	-14.2274
真桌子	-14.2275
来和	-14.2281
我读白	-14.2282
星期一	-14.2284
朵	-14.2285
地球是	-14.2286
大笔	-14.2292
▁你会唱	-14.2293
为什么太阳出来	-14.2294
我养大	-14.2297
和营养	-14.2299
椅	-14.23
▁大	-14.2303
FEA	-14.2303
▁水是透明	-14.2304
我放大	-14.2304
多手	-14.2304
人有两	-14.2305
衣服就	-14.2306
▁因为用力	-14.2306
到处	-14.2312
▁你会游	-14.2314
DFE	-14.2314
穿薄	-14.2316
所	-14.2319
然后等	-14.2321
二把	-14.2326
▁你会跳	-14.2327
这是因	-14.2329
到水里会沉	-14.233
▁走路比	-14.234
充了	-14.2341
题	-14.2342
碗很小	-14.2343
BAC	-14.2344
水烧开	-14.2345
CFE	-14.2345
我爬重	-14.2346
▁你会睡	-14.2348
▁爸爸在	-14.2351
蜜蜂采	-14.2351
吹动	-14.2352
我养黑	-14.2352
我笑香	-14.2352
能直接喝	-14.2354
长口	-14.2358
我种酸	-14.2358
▁开和关	-14.2358
是圆形	-14.2359
一起吃	-14.2361
钟表	-14.2362
一闪一闪	-14.2363
快脚	-14.2363
不是暖	-14.2363
dhc	-14.2364
摸了	-14.2364
电脑	-14.2366
子是长	-14.2366
座	-14.2367
照明	-14.2369
参	-14.2369
▁一加一	-14.2369
人很小	-14.237
放在外面	-14.237
考试	-14.2372
比空气轻的气体	-14.2372
电了	-14.2373
课	-14.2373
停	-14.2373
▁猫在桌子上	-14.2373
烧开了	-14.2373
戴	-14.2373
降	-14.2373
一棵	-14.2373
二棵	-14.2374
三棵	-14.2374
冻	-14.2374
五棵	-14.2374
学校开	-14.2374
▁橡皮	-14.2374
四棵	-14.2374
水是温	-14.2374
二辆	-14.2374
泥巴	-14.2374
密	-14.2374
产生升力	-14.2374
么	-14.2374
难	-14.2374
四季	-14.2374
遇冷变成	-14.2374
推门	-14.2374
冰箱里面	-14.2374
化成水	-14.2374
铁比水	-14.2374
橡皮是	-14.2375
连	-14.2375
地球绕着太阳转	-14.2375
太阳是一个巨大的	-14.2375
搬家	-14.2375
不开灯看不见	-14.2375
铁碰到水和空气	-14.2375
大脑	-14.2375
玻璃杯掉地上会	-14.2375
橙	-14.2375
▁飞机飞得	-14.2375
淋	-14.2375
因为吃饭能	-14.2375
塔是尖的	-14.2375
的角度	-14.2375
吃早饭	-14.2375
缺	-14.2375
捕	-14.2375
玻璃杯	-14.2375
丢	-14.2375
察	-14.2375
着太阳的一面是	-14.2375
规律排便	-14.2375
鸟会唱	-14.2375
碰到皮肤	-14.2375
葡萄是紫	-14.2375
识	-14.2375
太烫	-14.2375
规	-14.2375
光穿过	-14.2375
跑得最快	-14.2375
升高了	-14.2375
叶绿素	-14.2375
外出回家后	-14.2375
太阳是最亮的	-14.2375
套	-14.2375
家常菜	-14.2375
少油少盐	-14.2375
开水要吹	-14.2375
掉地上会	-14.2375
整理房间	-14.2375
牙菌	-14.2375
碰到皮肤会烫伤	-14.2375
种子浇	-14.2375
盛	-14.2375
大脑整理	-14.2375
手里沉	-14.2375
能飞上天	-14.2375
记忆	-14.2375
感	-14.2375
气球能飞	-14.2375
鼠	-14.2375
光源	-14.2375
kuài	-14.2375
刮	-14.2375
因为大脑在	-14.2375
拔	-14.2375
什么东西越	-14.2375
吸收阳光	-14.2375
哥哥爱	-14.2375
许	-14.2376
▁种子种	-14.2376
有些鸟会	-14.2376
神经把	-14.2376
要戴	-14.2376
或者想	-14.2376
散射	-14.2376
大脑就	-14.2376
气变成	-14.2376
五把	-14.2376
被弹回来	-14.2377
因为种子	-14.2377
玩具	-14.2377
起来软	-14.2377
停了	-14.2377
狗在屋外	-14.2377
对不起	-14.2377
▁猫在桌子	-14.2377
需要水分	-14.2377
▁因为天黑	-14.2377
爷爷笑	-14.2377
所以浮在	-14.2377
能浮在水上	-14.2377
早睡	-14.2377
能产生升力	-14.2377
过马路要	-14.2377
▁太阳晒	-14.2377
晚上好	-14.2377
表达	-14.2377
鱼在水中	-14.2377
没有空气	-14.2378
就亮了	-14.2378
太重	-14.2378
条腿	-14.2378
地球上	-14.2378
动物都	-14.2378
大家都	-14.2378
▁雨是水	-14.2379
吹凉	-14.2379
里呼	-14.2379
被吹	-14.2379
很高很高	-14.2379
搬家前	-14.2379
考试前	-14.2379
不能直	-14.238
了影子	-14.238
海洋	-14.238
红绿灯	-14.238
提升	-14.238
面的蚂蚁	-14.2381
▁三个绿	-14.2382
在身上	-14.2382
铁是硬的	-14.2382
人帮	-14.2382
气流	-14.2382
四把	-14.2383
因为衣服	-14.2383
▁四个红	-14.2384
温水	-14.2384
少雪	-14.2384
▁小猫在	-14.2385
天亮	-14.2385
用电脑	-14.2385
让身体	-14.2385
在土里	-14.2385
▁四个白	-14.2385
在桌	-14.2385
骨头	-14.2386
最大的动物	-14.2386
太阳让	-14.2386
触电	-14.2386
吹风	-14.2386
▁温泉是	-14.2386
掉到	-14.2387
人和动物	-14.2387
穿厚	-14.2387
非常	-14.2387
能让	-14.2388
▁木头是	-14.2388
上飞	-14.2388
猫在屋里	-14.2388
他们做	-14.2388
不刷	-14.2389
会摔	-14.2389
体的水	-14.2389
画了一	-14.2389
cdf	-14.2389
比棉花	-14.239
▁二个白	-14.239
鱼在屋里	-14.239
冬天穿	-14.2391
看到亮的	-14.2391
水往	-14.2391
月亮没	-14.2391
然后吃	-14.2392
边吃	-14.2393
会长出	-14.2394
会发芽	-14.2395
头上	-14.2395
面很冷	-14.2396
鸟在山上	-14.2398
摸起来很	-14.2398
身体需要	-14.2399
变亮	-14.24
水分子	-14.2401
▁山比	-14.2401
我送酸	-14.2401
▁妈妈在	-14.2402
翅膀可以	-14.2402
四块	-14.2403
老师养	-14.2403
白天是	-14.2404
鱼在路	-14.2404
小马	-14.2404
事情	-14.2405
一把	-14.2405
▁苹果是红	-14.2405
得很慢	-14.2405
▁猫在	-14.2406
▁一个白	-14.2407
会吹	-14.2408
飞机是	-14.2409
书很小	-14.2409
找大	-14.241
球是重的	-14.241
我喝温暖	-14.241
圆月	-14.2411
飞得很	-14.2412
外面很	-14.2412
同学读	-14.2413
jga	-14.2414
▁桌子比	-14.2414
还能	-14.2415
真鱼	-14.2416
树在窗	-14.2418
有十	-14.2418
我们看到的	-14.2418
车很好	-14.242
aje	-14.242
一个东西	-14.2421
里的盐	-14.2421
▁石头有	-14.2422
多水	-14.2422
要穿	-14.2423
我跑方	-14.2423
地图	-14.2425
▁月亮有	-14.2426
大鸟	-14.2426
能要	-14.2427
穿过	-14.2427
因为月亮	-14.2427
小鹅	-14.2429
少米	-14.2429
光从	-14.2431
白天和	-14.2434
▁树比	-14.2436
光合	-14.2437
狗很	-14.2438
不推	-14.2439
交通	-14.244
的水蒸气	-14.2441
石头比	-14.2441
快树	-14.2444
空气中的	-14.2444
笔很小	-14.2446
狗会	-14.2446
关机	-14.2446
我种重	-14.2447
我画温暖	-14.2447
墨水是	-14.2448
所以可以	-14.2448
▁书有	-14.2449
也能	-14.2451
▁太阳从	-14.2451
中文	-14.2457
身上	-14.2458
杯子比	-14.2458
和浅	-14.2459
我关轻	-14.2461
有翅膀	-14.2462
亮是	-14.2463
采花	-14.2463
▁小明在	-14.2463
就可以	-14.2465
饭前	-14.2469
我爱远	-14.247
就是二	-14.2471
蚂蚁大	-14.2473
我吃明亮	-14.2477
碗比	-14.2478
我游美丽	-14.248
猫很	-14.248
我做多	-14.2483
不见	-14.2483
爬得	-14.2484
点大	-14.2484
三是	-14.2488
大口	-14.2494
下长	-14.2498
会跑	-14.2501
▁因为雪	-14.2502
叶公	-14.2505
能不	-14.2506
真美	-14.2507
所以放	-14.2513
铅球是	-14.2514
睡觉时	-14.2518
海是蓝色的	-14.2519
ejd	-14.2522
假苹果	-14.2525
▁五个蓝	-14.2526
火山是	-14.2528
我爬安静	-14.2529
车是什么	-14.2529
结成	-14.2531
鸟飞	-14.2534
我说圆	-14.2538
可爱花	-14.2538
我吃坏	-14.2539
先看	-14.2539
我爬黄	-14.2541
杯子有	-14.2543
花很小	-14.2543
分享让	-14.2548
我关白	-14.2557
头是	-14.2558
面还是	-14.2563
好花	-14.2564
我答黄	-14.2576
衣服能保暖	-14.2582
为什么树	-14.2582
短花	-14.2583
屋子	-14.2588
笔比	-14.2589
比笔	-14.259
瓜是	-14.259
gba	-14.2592
空气中	-14.2593
坐在	-14.2593
有一张	-14.2595
云在	-14.2601
在草地上	-14.2607
草地	-14.2608
冰会	-14.2609
我喝假	-14.2614
采花蜜	-14.2618
猎豹是	-14.2622
多树	-14.263
蓝苹果	-14.2631
花需要	-14.2633
子是什么颜色	-14.2633
人做	-14.2634
做坏	-14.2634
鸟比	-14.2648
就是有一只	-14.2656
圆有	-14.266
▁因为风	-14.2664
我扫黑	-14.2665
我扫安静	-14.2665
jìn	-14.2665
旧花	-14.2672
大狗	-14.2675
白是	-14.2679
叶会	-14.2681
▁因为铁	-14.2685
黑苹果	-14.2688
小脸	-14.2688
地球里面	-14.27
椅子有	-14.2703
船是	-14.2704
用的	-14.2717
洗脸	-14.272
好果	-14.2728
手上	-14.2731
热花	-14.2739
火有	-14.274
楼是	-14.2748
会游	-14.2752
分成	-14.2753
小门	-14.2761
快乐果	-14.2761
太阳是	-14.2767
一下	-14.2772
树在	-14.2779
我哭多	-14.2785
床下面	-14.2791
我种近	-14.2792
穿在	-14.2799
重了	-14.28
吃多	-14.2804
多公	-14.2808
小明写	-14.2819
近花	-14.2834
bca	-14.2836
明亮苹果	-14.2845
▁花是黑	-14.2854
假果	-14.2856
小狗是	-14.2861
在高	-14.2864
在路上	-14.2864
雨会	-14.2866
去是	-14.2873
再长	-14.2874
放在	-14.2874
脚是	-14.2882
美丽果	-14.2893
后长	-14.2899
不穿	-14.2902
我拿重	-14.2906
的营养	-14.291
手是	-14.2919
我哭好	-14.2925
我问短	-14.2926
就融化	-14.2927
▁打雷	-14.2928
香花	-14.2934
不受	-14.294
树会	-14.294
▁橘子在	-14.2941
我看香	-14.2942
我说凉	-14.2947
在黑暗中看	-14.2948
草是绿	-14.2955
我喝矮	-14.2955
的时候是	-14.2955
一颗	-14.2955
肚子会	-14.2966
我写黑	-14.2988
jc	-14.2993
▁多和少	-14.2998
门会	-14.2999
不是蓝	-14.3004
▁金字塔	-14.3005
▁三角形	-14.3005
▁石头在	-14.3013
字是	-14.3016
小鸡	-14.3046
▁老师在	-14.3051
甜果	-14.3053
▁车是	-14.3054
方的	-14.3055
我站黑	-14.3057
长苹果	-14.3067
我唱好	-14.3081
fe	-14.3095
个角的	-14.3096
先写	-14.31
我爬小	-14.3106
是平的	-14.3109
fl	-14.312
面对	-14.3127
DC	-14.3129
在空中	-14.3135
坏果	-14.3138
就是有三只	-14.314
hab	-14.3145
fdh	-14.3146
就是有五只	-14.3147
就是有二只	-14.3148
后结果	-14.3153
雨滴	-14.3162
我坐真	-14.3166
雪花	-14.3169
▁种子发芽	-14.317
▁sel	-14.319
就是有四只	-14.3197
▁一周	-14.3205
AEF	-14.3207
一分	-14.3222
鸟是	-14.3231
sto	-14.3235
近果	-14.3242
高和	-14.3243
我找少	-14.3245
就是有七只	-14.3248
就是有六只	-14.3248
就是有九只	-14.3251
我喜欢长	-14.3256
就是有八只	-14.3261
护眼	-14.3262
小桌子	-14.3271
就是有十只	-14.3276
我织绿	-14.3294
绿果	-14.3302
高苹果	-14.3306
是少	-14.3308
喜欢吃	-14.3313
的月亮很	-14.3316
不吃	-14.3332
黄果	-14.3334
热果	-14.3347
我坐长	-14.3351
BC	-14.3353
是红色	-14.3362
颜色的	-14.3384
小果	-14.3386
颜色有	-14.3393
因为天很	-14.3409
我游热	-14.3429
我吃真	-14.344
我找矮	-14.3465
我学黑	-14.3467
我洗大	-14.3473
就是五	-14.3477
我养好	-14.3484
我吃快乐	-14.3499
▁冰棍是	-14.3529
我关小	-14.3547
gbd	-14.3547
我读新	-14.3578
我问方	-14.3578
我唱凉	-14.3584
我玩高	-14.3584
我织小	-14.3609
xiào	-14.3612
我走酸	-14.3618
我爬酸	-14.3621
DAB	-14.3624
容易被	-14.3637
比较慢	-14.3638
我开快乐	-14.3651
地球有	-14.3665
再穿	-14.3668
猎豹和	-14.3671
我找好	-14.368
气太	-14.369
我跳红	-14.3693
花比	-14.3699
小红的	-14.3699
方苹果	-14.3705
三个角	-14.3733
▁钻石是	-14.3736
我喝安静	-14.3744
我扫热	-14.3746
长果	-14.3748
远果	-14.3803
我写多	-14.3803
我读绿	-14.3805
我跑假	-14.3814
我种坏	-14.3834
新月	-14.3841
我种温暖	-14.3843
▁鲸鱼	-14.3845
我走香	-14.3847
边是太阳	-14.3852
新果	-14.3861
我想圆	-14.3866
▁先穿	-14.3883
到水里	-14.3886
我站坏	-14.3888
小火	-14.3889
我游温暖	-14.3894
大量	-14.3911
▁地上有	-14.3943
我学凉	-14.3949
我飞新	-14.3953
前和后	-14.396
我扫高	-14.3975
我喜欢绿	-14.3976
的香	-14.3983
▁快和慢	-14.3987
▁我有	-14.4002
很柔和	-14.4003
小风	-14.4027
后关灯	-14.4042
个苹果是	-14.405
我拿白	-14.4052
喝开水	-14.4067
红的	-14.4077
我走快乐	-14.4079
形成的	-14.41
我种可爱	-14.4104
我喝热	-14.4108
我读快乐	-14.4114
我看圆	-14.4116
dg	-14.4153
天上	-14.417
EF	-14.4183
我织少	-14.4189
▁汽车是	-14.4189
水没	-14.4221
多花	-14.4222
小山	-14.4224
我跑黑	-14.4232
小窗	-14.4248
▁重米	-14.4263
小爸爸	-14.4271
小茶	-14.4307
▁小	-14.4313
我想轻	-14.4315
我送长	-14.4358
jbe	-14.4359
我放新	-14.4365
hbi	-14.4377
▁白米	-14.4381
我拿近	-14.439
猫和	-14.4399
有花	-14.4418
我放蓝	-14.4419
dag	-14.4422
我养快	-14.4443
and	-14.4452
看不	-14.4469
▁左和右	-14.4488
bed	-14.45
▁新米	-14.4502
▁气球里	-14.4533
我卖蓝	-14.455
▁上和下	-14.4564
我看凉	-14.4599
我爱甜	-14.4606
多果	-14.4611
我听好	-14.4617
我爬明亮	-14.4624
我跳热	-14.4634
河很长	-14.4667
的相	-14.4669
天过后是	-14.4674
我坐方	-14.4676
就是一	-14.4681
我说重	-14.4715
我玩重	-14.4718
我写红	-14.472
我问温暖	-14.4741
是绿的	-14.4761
比房子	-14.4762
我跳轻	-14.4788
成小	-14.4791
我吃白	-14.4796
我买新	-14.4797
我学甜	-14.4798
小明的书	-14.4798
小小猫	-14.4813
我关假	-14.4835
加三	-14.4839
sòng	-14.4847
我唱近	-14.486
我问圆	-14.486
少果	-14.4884
我喝红	-14.4914
木头会	-14.492
我找多	-14.4923
成的	-14.4959
和小	-14.4959
我喜欢蓝	-14.4962
我扫快	-14.5003
什么东西	-14.5006
DB	-14.5067
zhǒng	-14.507
▁吃饭	-14.5071
bāng	-14.5074
用来看	-14.5075
我看远	-14.508
我问旧	-14.5082
tiá	-14.5084
chàng	-14.5098
我画长	-14.5104
我种旧	-14.5114
我种快乐	-14.5128
cai	-14.5129
我听明亮	-14.5135
我画真	-14.5154
fdc	-14.516
快果	-14.5162
我哭方	-14.5164
zhàn	-14.5167
在家里	-14.517
我说美丽	-14.5177
方果	-14.5198
tīng	-14.5202
▁盒子是方	-14.5226
我坐快	-14.523
我帮假	-14.5238
zhǎo	-14.5246
我开旧	-14.5259
tiào	-14.526
yóu	-14.5305
打伞可以	-14.531
水和	-14.5313
感冒	-14.5336
人为什么会	-14.5349
金字塔	-14.5375
三角形	-14.5375
不一	-14.5382
在左	-14.5386
我问轻	-14.5399
我唱快乐	-14.5402
我帮安静	-14.5417
guān	-14.5431
我飞大	-14.5444
▁黑	-14.5445
kāi	-14.5451
jcd	-14.5454
▁亮和暗	-14.5464
igh	-14.5474
我写白	-14.549
wán	-14.5491
wèn	-14.5498
▁铁比	-14.5498
zǒu	-14.5513
我想香	-14.5513
yǎng	-14.5515
二辆车	-14.5524
我买快乐	-14.5527
shuō	-14.5528
▁花有	-14.5537
▁谢谢	-14.554
二把椅子	-14.5546
我想黑	-14.5549
二张桌子	-14.5562
我吃黄	-14.5565
二条鱼	-14.5569
我买高	-14.5572
▁雨是	-14.5585
我想小	-14.5587
我写短	-14.5587
zhī	-14.5595
二支笔	-14.561
太阳可以	-14.5615
ibj	-14.5616
我买蓝	-14.5618
二棵树	-14.562
我飞小	-14.5632
EA	-14.5667
一条鱼	-14.568
kàn	-14.5683
pǎo	-14.5688
我跳美丽	-14.5693
比人	-14.5705
我织凉	-14.5705
长公共子序列	-14.5718
chī	-14.5729
我想黄	-14.574
我答矮	-14.5741
我种黄	-14.5749
我想近	-14.5757
二朵花	-14.5757
太阳发出光	-14.5759
我画热	-14.5768
我放小	-14.5815
香蕉是黄	-14.5836
吸收热量变成水	-14.5838
fàng	-14.585
▁大熊	-14.5851
手边是	-14.5864
在黑	-14.5866
āng	-14.5878
里看	-14.5886
我哭坏	-14.5907
我做甜	-14.5917
三辆车	-14.5927
auxiliary	-14.5932
我养美丽	-14.5934
度很高	-14.5936
我跑坏	-14.5937
少的	-14.594
三把椅子	-14.5944
我学大	-14.5948
我游高	-14.5952
abf	-14.5955
yán	-14.596
三条鱼	-14.5974
我关矮	-14.5975
三支笔	-14.6012
三棵树	-14.6025
ná	-14.6046
我读黑	-14.6048
sǎo	-14.6062
xīng	-14.6064
我喜欢温暖	-14.6073
我做矮	-14.6087
椅子下面	-14.6097
三本书	-14.6119
的光	-14.6147
放到	-14.6154
我说甜	-14.6155
三朵花	-14.6165
TreeNode	-14.617
会用	-14.6174
xiě	-14.6186
已排序	-14.6186
BA	-14.6211
ws	-14.6226
我想慢	-14.6229
我跳安静	-14.6247
我喝绿	-14.6249
efa	-14.6256
是怎么	-14.6269
mài	-14.627
我读近	-14.6285
pá	-14.631
花很矮	-14.6342
石头很	-14.6342
暖和	-14.6346
我坐大	-14.6363
mǎi	-14.6363
fēi	-14.6375
我帮重	-14.6381
gec	-14.6382
我笑新	-14.6382
看天空	-14.6388
粉色的	-14.6393
我买黄	-14.6397
▁玻璃	-14.6411
会往	-14.6437
我答真	-14.6469
是胖	-14.6492
四辆车	-14.6502
四把椅子	-14.6512
ebh	-14.6515
四张桌子	-14.6529
新衣	-14.6538
四条鱼	-14.6551
飞走	-14.6568
▁sǎ	-14.6569
会晒	-14.6583
四支笔	-14.6585
▁树是	-14.6602
四棵树	-14.6603
一辆车	-14.6604
我吃温暖	-14.6615
我哭香	-14.6622
一把椅子	-14.6624
▁过马路	-14.6643
一张桌子	-14.6651
dá	-14.6655
五辆车	-14.6674
我找黑	-14.6676
五把椅子	-14.6682
四本书	-14.669
我哭长	-14.6699
我学多	-14.6705
五条鱼	-14.6719
我哭大	-14.6721
我玩大	-14.6733
四朵花	-14.6748
ACE	-14.6749
hǎo	-14.6751
我跑多	-14.6753
五支笔	-14.6756
屋里走	-14.676
我跑安静	-14.6762
五棵树	-14.6775
我买圆	-14.6791
我扫好	-14.6796
我卖高	-14.6798
天空中	-14.6804
dú	-14.684
fac	-14.6847
五本书	-14.686
▁下雨	-14.6878
我读安静	-14.6916
五朵花	-14.6923
BE	-14.6926
▁白色	-14.6947
先吃饭	-14.697
chb	-14.6997
FDA	-14.7001
我洗小	-14.7004
我喜欢红	-14.7023
我爱可爱	-14.7023
要吹一吹	-14.7024
我听慢	-14.7042
我游大	-14.7059
这里	-14.7079
我学美丽	-14.7109
▁兔子是	-14.711
我说小	-14.7122
我喜欢凉	-14.7172
bci	-14.7193
我走假	-14.7194
▁因为花	-14.7198
FDC	-14.7216
我坐重	-14.7219
我放坏	-14.7248
我拿远	-14.7258
二只鸟	-14.7259
yá	-14.7326
我跳黑	-14.735
我想酸	-14.7358
▁树上	-14.7408
我唱快	-14.7414
我爱假	-14.7447
fb	-14.7466
我坐假	-14.7466
píng	-14.7466
我走蓝	-14.7501
我扫近	-14.7516
我答明亮	-14.752
huā	-14.7523
我看绿	-14.7527
我哭黄	-14.7529
我学坏	-14.7536
我洗甜	-14.7543
有彩虹	-14.755
jg	-14.7579
东边	-14.7601
我洗慢	-14.7608
我洗远	-14.7635
tóu	-14.7638
我放慢	-14.7649
▁泡	-14.7663
能挡	-14.7665
我游黑	-14.7673
我想坏	-14.7674
三只鸟	-14.7674
我问快乐	-14.7675
我送小	-14.7681
我想美丽	-14.7683
一只鸟	-14.7717
▁黑色	-14.7729
我说长	-14.7729
我洗黑	-14.7738
氧	-14.7746
ends	-14.7759
我送方	-14.7834
我关圆	-14.7858
我做假	-14.7861
我写旧	-14.7866
我说安静	-14.7872
chuán	-14.7874
我看小	-14.7877
我卖温暖	-14.7878
我看新	-14.7885
我画新	-14.7886
▁蓝	-14.7888
大石	-14.7897
BAD	-14.7899
头放进	-14.7901
我答多	-14.7913
为天	-14.7927
fej	-14.7931
如果冰放在	-14.7964
高楼	-14.7968
我看旧	-14.7983
酸米	-14.7998
cf	-14.7999
我看可爱	-14.8021
我跑蓝	-14.8023
我做旧	-14.8027
我画圆	-14.8053
我学短	-14.8066
我送明亮	-14.8105
我想新	-14.8117
gib	-14.8135
我做美丽	-14.8136
子去	-14.8152
zhuō	-14.8164
[]):	-14.817
我洗少	-14.8192
冰箱里	-14.8201
我拿小	-14.8219
我爱小	-14.8224
fec	-14.8227
我画白	-14.8231
我做长	-14.8243
四只鸟	-14.8251
我读旧	-14.8258
gōng	-14.8283
我读快	-14.8286
我玩香	-14.8288
我做重	-14.8338
我卖红	-14.8341
eja	-14.8345
tiān	-14.8349
我洗真	-14.8349
我扫小	-14.8398
我放香	-14.8415
五只鸟	-14.843
我跳快乐	-14.8442
shu	-14.845
cia	-14.8452
我看美丽	-14.8452
要穿鞋	-14.8464
我看热	-14.8506
橘子是	-14.8518
yǎn	-14.8529
fáng	-14.8544
二个苹果	-14.8544
我卖可爱	-14.8562
mǎ	-14.8567
我养蓝	-14.8568
AD	-14.8586
我玩慢	-14.861
我放温暖	-14.862
我爱好	-14.8621
好米	-14.8633
māo	-14.8639
zi	-14.867
我问可爱	-14.8699
我飞重	-14.8705
guā	-14.8717
我跑香	-14.8718
我扫慢	-14.8744
我看重	-14.8757
我卖少	-14.8762
▁温	-14.8766
fge	-14.8767
我答大	-14.8774
我学安静	-14.8801
gh	-14.8827
人来	-14.884
chj	-14.8852
我唱酸	-14.8876
大果	-14.8885
不能先穿	-14.8889
我喜欢轻	-14.89
我画快乐	-14.8915
我飞安静	-14.894
我买绿	-14.8946
isi	-14.8958
qì	-14.8969
pre	-14.8983
我扫假小	-14.8985
ghb	-14.899
天很冷	-14.9017
我飞快乐	-14.9038
bia	-14.9044
我游圆	-14.9049
我游安静	-14.9055
我洗白	-14.906
变成雨	-14.9061
yǐ	-14.9084
我帮蓝	-14.9085
dh	-14.9092
▁钢	-14.9098
我问酸	-14.9113
二件	-14.9127
什么时候	-14.9133
▁yu	-14.9138
我找黄	-14.9158
我说矮	-14.9164
我画可爱	-14.9171
我答长	-14.9205
tài	-14.9253
我跳绿	-14.9268
▁石头很	-14.928
我听美丽	-14.9285
▁种子	-14.9287
天下雨了	-14.9294
我站高	-14.9295
我玩热	-14.9393
真米	-14.9431
▁棉花和	-14.9437
路很慢	-14.9466
我写轻	-14.9481
不是绿色	-14.9504
▁热	-14.9506
我喜欢坏	-14.9553
我问多	-14.9556
我哭小	-14.9564
买了	-14.9565
bj	-14.9568
▁乌龟是	-14.9595
我爱快	-14.9607
为什么雪	-14.9623
我种甜	-14.9626
是太阳	-14.9636
我做短	-14.9659
上站	-14.9674
我跑慢	-14.9679
我卖酸	-14.9689
长米	-14.971
我开好	-14.9721
我找美丽	-14.973
我卖多	-14.975
我喝蓝	-14.9786
我爬高	-14.9801
我走白	-14.984
后的	-14.9846
我喜欢新	-14.9857
明亮米	-14.9863
▁窗户	-14.9872
我买短	-14.9873
我听凉	-14.9913
IndexError	-14.9922
我看黑	-14.9927
我答方	-14.9941
我送热	-14.9955
地上有	-14.9963
我开香	-14.9978
我听坏	-14.998
高米	-14.9981
叶很轻	-15.0001
蚂蚁是	-15.0001
慢米	-15.0039
我问香	-15.0041
我吃方	-15.0043
要开	-15.0045
我跑高	-15.0072
会掉到	-15.0076
如果水	-15.0098
山是一种	-15.0102
会笑	-15.0104
这	-15.0121
CBEA	-15.0123
我坐坏	-15.0128
gǒu	-15.0135
ae	-15.0139
热米	-15.0191
fē	-15.021
会自	-15.0211
我跑快	-15.0218
▁li	-15.0257
快和慢	-15.0286
KeyError	-15.0326
我吃近	-15.0353
爱脚	-15.0354
三件	-15.0355
我送重	-15.0357
hea	-15.042
EFB	-15.0436
我种安静	-15.0464
我站快	-15.0468
->	-15.0488
我飞慢	-15.0495
但人	-15.0505
我卖白	-15.0508
▁的最	-15.0535
我问好	-15.0544
▁天气	-15.0545
很热所以	-15.0556
我想温暖	-15.0573
我送矮	-15.058
shallow	-15.0582
做成	-15.0597
▁石头和	-15.0608
我唱甜	-15.0617
你听到	-15.0619
建堆	-15.0628
爱小狗	-15.0652
我爬矮	-15.0691
我爬假	-15.0693
给鸟	-15.0694
车很香	-15.0702
zhòng	-15.0716
课时	-15.0719
▁新	-15.0742
天上飞	-15.0755
AFE	-15.0794
-=	-15.0814
车很可爱	-15.0816
我养黄	-15.0818
我种高	-15.082
我放方	-15.0825
我看真	-15.0835
为什么要洗手	-15.0857
ead	-15.0908
global	-15.0917
我放高	-15.0944
我跳圆	-15.0955
高度	-15.0957
小兔	-15.0986
我跳短	-15.0992
我喝白	-15.0997
我看近	-15.1005
我看快乐	-15.101
我洗快	-15.1019
我爱美丽	-15.1034
会下	-15.1063
鸟很可爱	-15.1073
我关热	-15.1076
我坐旧	-15.1079
二碗	-15.1097
奶奶读米	-15.11
笔很可爱	-15.1103
鱼很可爱	-15.1113
我走美丽	-15.1122
我喜欢真	-15.1137
桌子很矮	-15.1153
小鱼	-15.116
我飞黄	-15.1167
笔很矮	-15.1202
我哭可爱	-15.1223
我听快乐	-15.1247
能照	-15.1249
我走坏	-15.1271
我喜欢黄	-15.1273
我坐蓝	-15.1274
树很甜	-15.1319
笔很甜	-15.1321
我听长	-15.1325
展平	-15.1331
我唱圆	-15.1335
不能随便	-15.1338
水不	-15.1338
我坐短	-15.1344
能在	-15.1346
打雷	-15.1354
我学快米	-15.1358
我听多	-15.1361
jiǎ	-15.1364
我飞圆	-15.1367
raise	-15.1384
出了	-15.1429
我爱酸	-15.1467
桌子很轻	-15.1489
椅子很轻	-15.1497
▁房子	-15.1501
我种真	-15.1504
花很甜	-15.1507
花很轻	-15.1509
▁上	-15.152
四件	-15.1548
▁一天	-15.1571
茶很热	-15.1586
我看红	-15.1594
和空气	-15.1607
我问小	-15.1613
弟弟爬米	-15.1624
一件	-15.164
我问快	-15.1651
xu	-15.1652
有大	-15.1674
厂很快	-15.1675
门开	-15.1679
五件	-15.1681
我做快	-15.1696
桌子有四条	-15.1712
我织长	-15.1722
三碗	-15.1724
书很高	-15.1725
书很香	-15.1726
车很高	-15.1738
需要水	-15.1744
弟弟吃米	-15.176
妈妈织米	-15.176
爸爸卖米	-15.1761
桌子很高	-15.1771
脸很快	-15.1778
椅子很香	-15.1785
鸟很香	-15.1787
笔很高	-15.1792
机很大	-15.1802
叶很快	-15.1805
灰	-15.1806
说对不起	-15.1826
听到	-15.1837
我游慢	-15.1841
我站慢	-15.1845
爸爸很快	-15.1858
哥哥看米	-15.1858
六等于	-15.1862
头很轻	-15.1867
老师很快	-15.1869
lin	-15.1885
妹妹	-15.189
龙很快	-15.1893
心很快	-15.1894
发很快	-15.1907
厂真快	-15.1913
树很快	-15.1918
我玩长	-15.1927
我找可爱	-15.1935
我跑圆	-15.1941
七等于	-15.1947
你画石	-15.1984
脸真快	-15.1985
花很高	-15.2007
菜很快	-15.2022
我画重	-15.2025
我养假	-15.2031
虎很快	-15.2033
妹妹听米	-15.2038
鞋很快	-15.2043
我跳重	-15.2045
口很快	-15.2051
我跑白	-15.2059
鸭很快	-15.2062
天空很快	-15.2066
眼很快	-15.207
爸爸真快	-15.2073
妹妹看米	-15.2077
小狗游米	-15.2077
我跑近	-15.2077
你游熊	-15.2079
书很重	-15.2084
叶真快	-15.209
树真快	-15.2092
鸟很快	-15.2092
龙真快	-15.2093
妈妈读米	-15.2097
因为秋天	-15.2102
喝完	-15.2111
桌子很重	-15.2119
椅子很重	-15.2127
老师真快	-15.2128
头很快	-15.2134
因为天	-15.2136
椅子很快	-15.2137
路很快	-15.214
船很快	-15.2142
石很快	-15.2151
我爱慢	-15.2167
{}	-15.2169
口真快	-15.2176
头很重	-15.218
鞋真快	-15.2185
虎真快	-15.2186
鸟真快	-15.2189
因为狗	-15.2191
菜真快	-15.2192
鸭真快	-15.2193
石头和	-15.2206
眼真快	-15.2213
心真快	-15.2214
天空真快	-15.2214
发真快	-15.2218
因为肚子	-15.2221
我送安静	-15.2226
椅子真快	-15.2227
我笑旧	-15.2227
我爱短	-15.2228
小狗真快	-15.2235
面很快	-15.225
路真快	-15.225
小猫真快	-15.2256
我找白	-15.2266
石真快	-15.2266
船真快	-15.2267
看到的就是	-15.2267
我笑少	-15.2274
因为气球里	-15.2289
猫是一种	-15.2299
头真快	-15.2299
和阳光	-15.2309
ins	-15.2314
我听新	-15.2315
知道	-15.2319
因为阳光	-15.2325
扇	-15.2337
书很大	-15.2341
我放旧	-15.235
为什么打	-15.2351
īng	-15.2354
卖	-15.2365
二朵	-15.2371
源	-15.2371
三朵	-15.2372
▁高	-15.2373
uō	-15.2373
蒸发到天上	-15.2373
输	-15.2374
肚子饿	-15.2374
一辆	-15.2374
菌	-15.2374
顺	-15.2374
三辆	-15.2374
齿	-15.2374
四辆	-15.2374
休	-15.2374
五辆	-15.2374
氦	-15.2374
空气在流动	-15.2374
师	-15.2375
献	-15.2375
突	-15.2375
铁碰到水和	-15.2375
比空气轻	-15.2375
管	-15.2375
因为身体需要	-15.2375
地球绕着	-15.2375
让空气	-15.2376
免	-15.2376
因为身体需要水	-15.2376
检	-15.2376
面真快	-15.2377
七种颜色	-15.2377
猫的眼睛	-15.2377
饿了要吃	-15.2377
四朵	-15.2377
水蒸发到天上	-15.2378
谢	-15.2378
五朵	-15.2378
对着太阳	-15.2381
了比空气轻的气体	-15.2383
就会掉	-15.2384
爱好	-15.2388
越多	-15.2388
空气流	-15.239
鱼很大	-15.2391
脏了	-15.2392
能产生	-15.2392
头上有	-15.2393
小猫很高	-15.2394
椅子很大	-15.2397
五碗	-15.2406
我喝少	-15.2411
手摸	-15.2431
了一条	-15.2431
是空气	-15.2439
因为树	-15.2453
学问	-15.2455
闻到	-15.2458
盐很重	-15.2466
多喝水	-15.247
人开心	-15.2476
我养近	-15.2482
经过	-15.2486
完了	-15.2486
多和少	-15.2489
在晚上	-15.2492
问我	-15.2504
桌子很好	-15.2505
我送温暖	-15.2505
▁因为水	-15.2506
椅子很好	-15.2507
说明	-15.2514
书很好	-15.253
我关明亮	-15.2534
鱼很好	-15.2534
中间	-15.2546
才会	-15.2547
喝熊	-15.2548
我写小	-15.2582
是一种历	-15.2593
我问高	-15.2615
苹果很重	-15.2617
我喜欢少	-15.2642
我玩旧	-15.2649
兔子跑得	-15.2667
是忙	-15.2671
苹果很大	-15.2672
里面的	-15.268
小猫很快	-15.2684
我吃可爱	-15.2691
▁石头是	-15.2696
小狗很快	-15.2698
保持	-15.27
于零	-15.271
我游蓝	-15.2738
果真快	-15.274
因为手	-15.2754
▁二十	-15.2764
我爱温暖	-15.2772
一碗	-15.2785
为什么月亮	-15.2791
光在	-15.2791
▁刀	-15.2799
门外	-15.2812
|	-16.4353
否	-16.5593
触	-16.5901
蔬	-16.5902
磕	-16.5903
橡	-16.5904
柜	-16.5905
枝	-16.5906
骚	-16.5907
育	-16.5908
雕	-16.5909
陌	-16.591
脑	-16.5911
肤	-16.5912
鲁	-16.5913
筷	-16.5914
筒	-16.5915
琴	-16.5916
炉	-16.5917
沫	-16.5918
氢	-16.5919
郑	-16.592
舒	-16.5921
挡	-16.5922
夷	-16.5923
佗	-16.5924
齐	-16.5925
馆	-16.5926
酿	-16.5927
遥	-16.5928
言	-16.5929
良	-16.593
穆	-16.5931
盒	-16.5932
玛	-16.5933
渚	-16.5934
朗	-16.5935
斗	-16.5936
徐	-16.5937
巨	-16.5938
冈	-16.5939
纳	-16.594
灸	-16.5941
墟	-16.5942
震	-16.5943
铅	-16.5944
钙	-16.5945
泰	-16.5946
沈	-16.5947
户	-16.5948
促	-16.5949
众	-16.595
补	-16.5951
甫	-16.5952
杜	-16.5953
寿	-16.5954
唯	-16.5955
鲸	-16.5956
钻	-16.5957
迁	-16.5958
旷	-16.5959
透	-16.596
贯	-16.5961
漫	-16.5962
溢	-16.5963
浪	-16.5964
轼	-16.5965
潼	-16.5966
拳	-16.5967
侯	-16.5968
乙	-16.5969
架	-16.597
墙	-16.5971
棍	-16.5972
屈	-16.5973
灵	-16.5974
旦	-16.5975
充	-16.5976
途	-16.5977
赖	-16.5978
豹	-16.5979
虹	-16.598
猎	-16.5981
渴	-16.5982
岳	-16.5983
卫	-16.5984
蒸	-16.5985
芽	-16.5986
泉	-16.5987
摘	-16.5988
团	-16.5989
肚	-16.599
季	-16.5991
橘	-16.5992
征	-16.5993
富	-16.5994
昆	-16.5995
净	-16.5996
钢	-16.5997
港	-16.5998
陪	-16.5999
纲	-16.6
状	-16.6001
库	-16.6002
魏	-16.6003
蜗	-16.6004
莫	-16.6005
煌	-16.6006
植	-16.6007
敦	-16.6008
凿	-16.6009
—	-16.601
羽	-16.6011
璃	-16.6012
玻	-16.6013
G	-16.6014
控	-16.6015
鹿	-16.6016
颈	-16.6017
铜	-16.6018
薪	-16.6019
操	-16.602
困	-16.6021
允	-16.6022
蝶	-16.6023
蝴	-16.6024
箱	-16.6025
膀	-16.6026
翅	-16.6027
抽	-16.6028
帽	-16.6029
技	-16.603
扩	-16.6031
蚂	-16.6032
蚁	-16.6033
峰	-16.6034
籍	-16.6035
辆	-16.6036
棵	-16.6037
衡	-16.6038
员	-16.6039
御	-16.604
待	-16.6041
逗	-16.6042
偶	-16.6043
供	-16.6044
睛	-16.6045
享	-16.6046
场	-16.6047
足	-16.6048
矩	-16.6049
幂	-16.605
&	-16.6051
限	-16.6052
沿	-16.6053
拓	-16.6054
扑	-16.6055
支	-16.6056
忆	-16.6057
溯	-16.6058
析	-16.6059
缩	-16.606
惰	-16.6061
储	-16.6062
况	-16.6063
律	-16.6064
【	-16.6065
险	-16.6066
朋	-16.6067
友	-16.6068
危	-16.6069
绍	-16.607
介	-16.6071
遵	-16.6072
耗	-16.6073
添	-16.6074
抛	-16.6075
审	-16.6076
信	-16.6077
艺	-16.6078
哪	-16.6079
希	-16.608
辗	-16.6081
命	-16.6082
贝	-16.6083
拷	-16.6084
龄	-16.6085
饰	-16.6086
匹	-16.6087
诺	-16.6088
束	-16.6089
Q	-16.609
塔	-16.6091
汽	-16.6092
执	-16.6093
品	-16.6094
杯	-16.6095
逻	-16.6096
决	-16.6097
择	-16.6098
荐	-16.6099
贪	-16.61
世	-16.6101
洁	-16.6102
波	-16.6103
斐	-16.6104
契	-16.6105
径	-16.6106
例	-16.6107
迭	-16.6108
币	-16.6109
简	-16.611
差	-16.6111
ō	-16.6112
杂	-16.6113
展	-16.6114
紫	-16.6115
叉	-16.6116
括	-16.6117
须	-16.6118
构	-16.6119
嵌	-16.612
链	-16.6121
爷	-16.6122
"	-16.6123
弟	-16.6124
哥	-16.6125
奶	-16.6126
妹	-16.6127
调	-16.6128
姐	-16.6129
默	-16.613
欢	-16.6131
返	-16.6132
统	-16.6133
访	-16.6134
蕉	-16.6135
葡	-16.6136
萄	-16.6137
判	-16.6138
遍	-16.6139
ó	-16.614
什	-16.6141
均	-16.6142
妈	-16.6143
苹	-16.6144
爸	-16.6145
ī	-16.6146
函	-16.6147
平	-16.6148
索	-16.6149
误	-16.615
à	-16.6151
N	-16.6152
ǎ	-16.6153
`	-16.6154
