<unk>	0
<s>	0
</s>	0
<0x00>	0
<0x01>	0
<0x02>	0
<0x03>	0
<0x04>	0
<0x05>	0
<0x06>	0
<0x07>	0
<0x08>	0
<0x09>	0
<0x0A>	0
<0x0B>	0
<0x0C>	0
<0x0D>	0
<0x0E>	0
<0x0F>	0
<0x10>	0
<0x11>	0
<0x12>	0
<0x13>	0
<0x14>	0
<0x15>	0
<0x16>	0
<0x17>	0
<0x18>	0
<0x19>	0
<0x1A>	0
<0x1B>	0
<0x1C>	0
<0x1D>	0
<0x1E>	0
<0x1F>	0
<0x20>	0
<0x21>	0
<0x22>	0
<0x23>	0
<0x24>	0
<0x25>	0
<0x26>	0
<0x27>	0
<0x28>	0
<0x29>	0
<0x2A>	0
<0x2B>	0
<0x2C>	0
<0x2D>	0
<0x2E>	0
<0x2F>	0
<0x30>	0
<0x31>	0
<0x32>	0
<0x33>	0
<0x34>	0
<0x35>	0
<0x36>	0
<0x37>	0
<0x38>	0
<0x39>	0
<0x3A>	0
<0x3B>	0
<0x3C>	0
<0x3D>	0
<0x3E>	0
<0x3F>	0
<0x40>	0
<0x41>	0
<0x42>	0
<0x43>	0
<0x44>	0
<0x45>	0
<0x46>	0
<0x47>	0
<0x48>	0
<0x49>	0
<0x4A>	0
<0x4B>	0
<0x4C>	0
<0x4D>	0
<0x4E>	0
<0x4F>	0
<0x50>	0
<0x51>	0
<0x52>	0
<0x53>	0
<0x54>	0
<0x55>	0
<0x56>	0
<0x57>	0
<0x58>	0
<0x59>	0
<0x5A>	0
<0x5B>	0
<0x5C>	0
<0x5D>	0
<0x5E>	0
<0x5F>	0
<0x60>	0
<0x61>	0
<0x62>	0
<0x63>	0
<0x64>	0
<0x65>	0
<0x66>	0
<0x67>	0
<0x68>	0
<0x69>	0
<0x6A>	0
<0x6B>	0
<0x6C>	0
<0x6D>	0
<0x6E>	0
<0x6F>	0
<0x70>	0
<0x71>	0
<0x72>	0
<0x73>	0
<0x74>	0
<0x75>	0
<0x76>	0
<0x77>	0
<0x78>	0
<0x79>	0
<0x7A>	0
<0x7B>	0
<0x7C>	0
<0x7D>	0
<0x7E>	0
<0x7F>	0
<0x80>	0
<0x81>	0
<0x82>	0
<0x83>	0
<0x84>	0
<0x85>	0
<0x86>	0
<0x87>	0
<0x88>	0
<0x89>	0
<0x8A>	0
<0x8B>	0
<0x8C>	0
<0x8D>	0
<0x8E>	0
<0x8F>	0
<0x90>	0
<0x91>	0
<0x92>	0
<0x93>	0
<0x94>	0
<0x95>	0
<0x96>	0
<0x97>	0
<0x98>	0
<0x99>	0
<0x9A>	0
<0x9B>	0
<0x9C>	0
<0x9D>	0
<0x9E>	0
<0x9F>	0
<0xA0>	0
<0xA1>	0
<0xA2>	0
<0xA3>	0
<0xA4>	0
<0xA5>	0
<0xA6>	0
<0xA7>	0
<0xA8>	0
<0xA9>	0
<0xAA>	0
<0xAB>	0
<0xAC>	0
<0xAD>	0
<0xAE>	0
<0xAF>	0
<0xB0>	0
<0xB1>	0
<0xB2>	0
<0xB3>	0
<0xB4>	0
<0xB5>	0
<0xB6>	0
<0xB7>	0
<0xB8>	0
<0xB9>	0
<0xBA>	0
<0xBB>	0
<0xBC>	0
<0xBD>	0
<0xBE>	0
<0xBF>	0
<0xC0>	0
<0xC1>	0
<0xC2>	0
<0xC3>	0
<0xC4>	0
<0xC5>	0
<0xC6>	0
<0xC7>	0
<0xC8>	0
<0xC9>	0
<0xCA>	0
<0xCB>	0
<0xCC>	0
<0xCD>	0
<0xCE>	0
<0xCF>	0
<0xD0>	0
<0xD1>	0
<0xD2>	0
<0xD3>	0
<0xD4>	0
<0xD5>	0
<0xD6>	0
<0xD7>	0
<0xD8>	0
<0xD9>	0
<0xDA>	0
<0xDB>	0
<0xDC>	0
<0xDD>	0
<0xDE>	0
<0xDF>	0
<0xE0>	0
<0xE1>	0
<0xE2>	0
<0xE3>	0
<0xE4>	0
<0xE5>	0
<0xE6>	0
<0xE7>	0
<0xE8>	0
<0xE9>	0
<0xEA>	0
<0xEB>	0
<0xEC>	0
<0xED>	0
<0xEE>	0
<0xEF>	0
<0xF0>	0
<0xF1>	0
<0xF2>	0
<0xF3>	0
<0xF4>	0
<0xF5>	0
<0xF6>	0
<0xF7>	0
<0xF8>	0
<0xF9>	0
<0xFA>	0
<0xFB>	0
<0xFC>	0
<0xFD>	0
<0xFE>	0
<0xFF>	0
▁=	-0
▁答	-1
▁1	-2
▁解	-3
题目	-4
▁-	-5
▁+	-6
▁=▁1	-7
▁2	-8
▁4	-9
▁m	-10
▁3	-11
▁=▁2	-12
▁=▁-	-13
▁5	-14
▁(	-15
什么	-16
▁x	-17
)▁=	-18
▁×	-19
00	-20
▁6	-21
质量	-22
▁=▁3	-23
▁0	-24
▁+▁1	-25
▁8	-26
'(	-27
▁=▁4	-28
速度	-29
▁g	-30
▁9	-31
▁a	-32
×1	-33
▁的	-34
▁k	-35
▁7	-36
为什么	-37
▁f	-38
▁s	-39
2▁=	-40
运动	-41
⁄2	-42
成语	-43
比喻	-44
多少	-45
中国	-46
cm	-47
2▁-	-48
千米	-49
)/	-50
▁=▁5	-51
2▁=▁1	-52
)。	-53
是多少	-54
15	-55
相对	-56
通过	-57
方程	-58
10	-59
求导	-60
.5	-61
▁n	-62
.0	-63
▁÷	-64
ol	-65
2。	-66
in	-67
▁?	-68
2▁-▁4	-69
:1	-70
(2	-71
▁km	-72
2▁+	-73
分子	-74
分子质量	-75
相对分子质量	-76
通过的	-77
重要	-78
▁=▁?	-79
+1	-80
物体	-81
▁v	-82
这个	-83
▁=▁0	-84
co	-85
cos	-86
20	-87
顶点	-88
太阳	-89
身体	-90
:「	-91
▁d	-92
2,	-93
(3	-94
是什么	-95
积分	-96
∫▁(	-97
▁dx	-98
极限	-99
逐项	-100
))	-101
所以	-102
?(	-103
(2*	-104
▁=▁6	-105
二次	-106
)▁+	-107
小百	-108
小百科	-109
一个	-110
一下	-111
介绍	-112
此外	-113
请介绍	-114
请介绍一下	-115
出自	-116
意思	-117
故事	-118
一个故事	-119
成语出自	-120
是什么意思	-121
这个成语出自	-122
这个成语出自一个故事	-123
计算	-124
▁mol	-125
典故	-126
释义	-127
反而	-128
国人	-129
路程	-130
▁l	-131
60	-132
导数	-133
▁的导数	-134
函数	-135
6。	-136
),	-137
行驶	-138
og	-139
法则	-140
▁=▁8	-141
▁b	-142
1,	-143
ex	-144
exp	-145
▁10	-146
3)	-147
3。	-148
5。	-149
▁y	-150
▁ρ	-151
▁cm	-152
地球	-153
4。	-154
▁=▁10	-155
通过的路程	-156
结果	-157
的相对分子质量	-158
8。	-159
质量是多少	-160
▁所以	-161
▁=▁9	-162
(3*	-163
▁=▁7	-164
组成	-165
竹子	-166
分解	-167
▁kg	-168
:2	-169
▁A	-170
▁I	-171
▁U	-172
▁Ω	-173
电压	-174
1+	-175
末速度	-176
80	-177
数列	-178
主要	-179
xn	-180
50	-181
变化	-182
at	-183
位移	-184
+1⁄2	-185
为什么要	-186
分类	-187
垃圾	-188
保护	-189
减少	-190
洗手	-191
饭前	-192
建议	-193
是中国	-194
人们	-195
利用	-196
40	-197
30	-198
植物	-199
×2	-200
▁C	-201
-1	-202
小值	-203
最小值	-204
▁+▁2	-205
)▁=▁1	-206
最大	-207
)▁=▁0	-208
×3	-209
)▁=▁0;	-210
qr	-211
qrt	-212
▁sin	-213
▁=▁-1	-214
×1×	-215
▁N	-216
树桩	-217
小时	-218
坚不	-219
^3	-220
的人	-221
禾苗	-222
▁+▁3	-223
▁两	-224
同除	-225
画蛇	-226
移项	-227
▁两边	-228
同除以	-229
移项得	-230
解方程	-231
▁两边同除以	-232
^4	-233
楚国人	-234
记号	-235
▁=▁0。	-236
:4	-237
sin	-238
可以	-239
ac	-240
▁Δ	-241
▁因	-242
一元	-243
判别	-244
▁因式	-245
分解得	-246
判别式	-247
解一元	-248
二次方程	-249
▁因式分解得	-250
解一元二次方程	-251
2▁-▁4×1×	-252
氧化	-253
25	-254
黄河	-255
1▁=▁-	-256
▁=▁1⁄2	-257
2▁=▁1⁄2	-258
长江	-259
7。	-260
▁-▁(	-261
中秋	-262
中秋节	-263
春节	-264
故宫	-265
×4	-266
月球	-267
特殊	-268
汽车	-269
蜜蜂	-270
)(	-271
▁cos	-272
熊猫	-273
▁-▁1	-274
▁-▁-	-275
中心	-276
辆汽车	-277
朗玛	-278
珠穆	-279
朗玛峰	-280
珠穆朗玛峰	-281
▁log	-282
不定	-283
求不定	-284
:∫▁(	-285
▁∫▁(	-286
逐项积分	-287
求不定积分	-288
)▁=▁2	-289
一辆汽车	-290
根据	-291
求函数	-292
根据求导	-293
法则逐项	-294
法则逐项求导	-295
根据求导法则逐项求导	-296
▁+▁4	-297
▁=▁2,	-298
▁=▁3,	-299
2▁-▁4×1×(	-300
一共	-301
.3	-302
全长	-303
长河	-304
全长约	-305
拼音	-306
影响	-307
▁h	-308
2▁=▁-	-309
万平	-310
万平方	-311
2▁=▁2	-312
3▁×	-313
);	-314
团圆	-315
高度	-316
广泛	-317
世界	-318
位于	-319
/2。	-320
是世界	-321
)*	-322
sqrt	-323
..	-324
晚上	-325
4,	-326
^2	-327
×10	-328
练习	-329
定律	-330
150	-331
000	-332
▁+▁5	-333
-1)	-334
▁exp	-335
最大值	-336
5,	-337
分为	-338
)/(	-339
作用	-340
▁√	-341
▁=▁√	-342
:5	-343
.9	-344
▁得	-345
体积	-346
密度	-347
体积为	-348
密度为	-349
质量是	-350
的密度为	-351
斜边	-352
直角	-353
斜边长	-354
3,	-355
kg	-356
重力	-357
水是	-358
公式	-359
匀速	-360
▁vt	-361
由公式	-362
的速度	-363
匀速行驶	-364
一辆汽车以	-365
通过的路程是	-366
的速度匀速行驶	-367
通过的路程是多少	-368
▁+▁16	-369
▁的相对分子质量	-370
的相对分子质量为	-371
因为	-372
2+	-373
CO	-374
×5	-375
的天	-376
学习	-377
▁=▁40	-378
喝水	-379
▁V	-380
两端	-381
伏特	-382
导体	-383
欧姆	-384
求它	-385
流为	-386
电阻	-387
▁IR	-388
两端的	-389
由欧姆	-390
电压为	-391
电流为	-392
电阻为	-393
的导体	-394
两端的电压	-395
由欧姆定律	-396
通过的电流为	-397
求它两端的电压	-398
▁S	-399
▁与	-400
等差	-401
1+(	-402
等差数列	-403
节日	-404
▁克	-405
mol	-406
▁nM	-407
▁=▁-2	-408
的质量是多少	-409
^2▁+	-410
:3	-411
2▁=▁3	-412
▁li	-413
▁为	-414
▁的值	-415
特殊角	-416
▁为特殊角	-417
)'	-418
−1,	-419
)'▁=	-420
▁nxn	-421
Ek	-422
mv	-423
▁J	-424
▁焦	-425
动能	-426
▁焦耳	-427
▁物体	-428
▁运动	-429
求动能	-430
▁物体以	-431
矛盾	-432
)▁+▁1	-433
1·	-434
qn	-435
−1	-436
求第	-437
等比	-438
等比数列	-439
▁(-	-440
▁处	-441
事物	-442
发展	-443
口向	-444
坐标	-445
方得	-446
▁处取	-447
坐标与	-448
开口向	-449
求二次	-450
配方得	-451
▁的顶点	-452
事物发展	-453
求二次函数	-454
▁的顶点坐标与	-455
会降	-456
低免	-457
作效	-458
修复	-459
充足	-460
助于	-461
和大	-462
和工	-463
巩固	-464
早点	-465
期熬	-466
疫力	-467
的睡	-468
眠有	-469
睡觉	-470
脑记	-471
作效率	-472
夜会降	-473
忆巩固	-474
晚上要	-475
长期熬	-476
低免疫力	-477
修复和大	-478
充足的睡	-479
助于身体	-480
学习和工	-481
早点睡觉	-482
脑记忆巩固	-483
为什么晚上要	-484
充足的睡眠有	-485
影响学习和工	-486
长期熬夜会降	-487
助于身体修复和大	-488
影响学习和工作效率	-489
为什么晚上要早点睡觉	-490
长期熬夜会降低免疫力	-491
助于身体修复和大脑记忆巩固	-492
规律	-493
11	-494
0+	-495
16	-496
▁匀	-497
加速	-498
初速度	-499
和位移	-500
▁匀加速	-501
▁末速度	-502
物体初速度	-503
▁匀加速运动	-504
▁末速度和位移	-505
1500	-506
▁溶	-507
与新	-508
人体	-509
人每	-510
代谢	-511
体温	-512
成年	-513
毫升	-514
调节	-515
部分	-516
饮水	-517
与新陈	-518
人体的	-519
人每天	-520
多喝水	-521
2000	-522
参与新陈	-523
建议饮水	-524
组成部分	-525
调节体温	-526
人体的重要	-527
成年人每天	-528
参与新陈代谢	-529
为什么要多喝水	-530
水是人体的重要	-531
成年人每天建议饮水	-532
水是人体的重要组成部分	-533
45	-534
于回	-535
化处	-536
和无	-537
污染	-538
环境	-539
约资	-540
能节	-541
于回收	-542
分类便	-543
化处理	-544
和无害	-545
约资源	-546
保护环境	-547
减少污染	-548
于回收利用	-549
垃圾分类便	-550
能节约资源	-551
为什么要分类	-552
和无害化处理	-553
垃圾为什么要分类	-554
垃圾分类便于回收利用	-555
垃圾分类便于回收利用和无害化处理	-556
上容	-557
从口	-558
健康	-559
入的	-560
和病	-561
易沾	-562
染细	-563
风险	-564
减少病	-565
和病毒	-566
手上容	-567
染细菌	-568
要洗手	-569
从口入的	-570
保护身体	-571
洗手可以	-572
为什么饭前	-573
手上容易沾	-574
从口入的风险	-575
保护身体健康	-576
染细菌和病毒	-577
饭前洗手可以	-578
为什么饭前要洗手	-579
减少病从口入的风险	-580
手上容易沾染细菌和病毒	-581
饭前洗手可以减少病从口入的风险	-582
)▁=▁3	-583
上中	-584
健肌	-585
分钟	-586
功能	-587
周进	-588
善情	-589
增强	-590
强度	-591
心肺	-592
肉骨	-593
适量	-594
上中等	-595
分钟以	-596
周进行	-597
善情绪	-598
对身体	-599
建议每	-600
强健肌	-601
肉骨骼	-602
能增强	-603
对身体好	-604
强度运动	-605
心肺功能	-606
改善情绪	-607
适量运动	-608
为什么运动	-609
分钟以上中等	-610
建议每周进行	-611
强健肌肉骨骼	-612
能增强心肺功能	-613
为什么运动对身体好	-614
分钟以上中等强度运动	-615
适量运动能增强心肺功能	-616
9。	-617
细胞	-618
上的	-619
)▁=▁4	-620
90	-621
能量	-622
位置	-623
动物	-624
释放	-625
来了	-626
与洛	-627
值为	-628
必达	-629
方法	-630
求极限	-631
法则等	-632
▁lim	-633
与洛必达	-634
利用重要	-635
方法计算	-636
极限值为	-637
利用重要极限	-638
与洛必达法则等	-639
与洛必达法则等方法计算	-640
后从	-641
log	-642
:6	-643
代入	-644
先求导	-645
再代入	-646
Na	-647
72	-648
×6	-649
2▁=▁6	-650
▁×▁5	-651
生长	-652
相加	-653
^5	-654
没有	-655
▁×▁10	-656
造句	-657
*(	-658
2▁=▁5	-659
组词	-660
60°	-661
18	-662
子很	-663
建筑	-664
句子	-665
不主	-666
不再	-667
从此	-668
作天	-669
侥幸	-670
偶然	-671
兔子	-672
农夫	-673
到撞	-674
动努	-675
天守	-676
妄想	-677
守株	-678
宋国	-679
待兔	-680
得成	-681
死在	-682
不再耕	-683
侥幸获	-684
偶然捡	-685
动努力	-686
天守着	-687
妄想靠	-688
得成功	-689
上的兔子	-690
到撞死在	-691
守株待兔	-692
宋国农夫	-693
比喻不主	-694
不再耕作天	-695
天守着树桩	-696
侥幸获得成功	-697
到撞死在树桩	-698
从此不再耕作天	-699
宋国农夫偶然捡	-700
比喻不主动努力	-701
妄想靠侥幸获得成功	-702
到撞死在树桩上的兔子	-703
从此不再耕作天天守着树桩	-704
昆虫	-705
.8	-706
例句	-707
1。	-708
以对	-709
会怎	-710
刺盾	-711
前后	-712
卖矛	-713
又夸	-714
可破	-715
和盾	-716
夸矛	-717
抵触	-718
无言	-719
样时	-720
用矛	-721
自相	-722
被问	-723
言行	-724
又夸盾	-725
坚不摧	-726
夸矛无	-727
会怎样时	-728
前后抵触	-729
卖矛和盾	-730
坚不可破	-731
无言以对	-732
比喻言行	-733
用矛刺盾	-734
自相矛盾	-735
的人夸矛无	-736
被问用矛刺盾	-737
又夸盾坚不可破	-738
会怎样时无言以对	-739
比喻言行前后抵触	-740
的人夸矛无坚不摧	-741
卖矛和盾的人夸矛无坚不摧	-742
被问用矛刺盾会怎样时无言以对	-743
天体	-744
于求	-745
助长	-746
坏事	-747
得慢	-748
把苗	-749
拔苗	-750
拔高	-751
枯死	-752
违反	-753
于求成	-754
国人嫌	-755
枯死了	-756
禾苗都	-757
禾苗长	-758
反而坏事	-759
宋国人嫌	-760
急于求成	-761
把苗拔高	-762
拔苗助长	-763
比喻违反	-764
禾苗长得慢	-765
结果禾苗都	-766
事物发展规律	-767
急于求成反而坏事	-768
结果禾苗都枯死了	-769
宋国人嫌禾苗长得慢	-770
比喻违反事物发展规律	-771
天来了	-772
88	-773
上脚	-774
了多	-775
余的	-776
先画	-777
关系	-778
巧成	-779
比赛	-780
添足	-781
给蛇	-782
输了	-783
余的事	-784
做了多	-785
先画完	-786
反而弄	-787
巧成拙	-788
添上脚	-789
反而输了	-790
比赛画蛇	-791
画蛇添足	-792
的人给蛇	-793
比喻做了多	-794
反而弄巧成拙	-795
结果反而输了	-796
先画完的人给蛇	-797
楚国人比赛画蛇	-798
比喻做了多余的事	-799
先画完的人给蛇添上脚	-800
30°	-801
上刻	-802
下水	-803
不知	-804
刻舟	-805
剑落	-806
却在	-807
变通	-808
情况	-809
成法	-810
找剑	-811
拘泥	-812
水中	-813
求剑	-814
道随	-815
靠岸	-816
却在船	-817
变化而	-818
处下水	-819
上刻记号	-820
不知道随	-821
刻舟求剑	-822
剑落水中	-823
后从记号	-824
拘泥成法	-825
变化而变通	-826
处下水找剑	-827
不知道随情况	-828
比喻拘泥成法	-829
靠岸后从记号	-830
却在船上刻记号	-831
楚国人剑落水中	-832
不知道随情况变化而变通	-833
靠岸后从记号处下水找剑	-834
46	-835
义词	-836
反义词	-837
2)	-838
不算	-839
丢了	-840
丢过	-841
之后	-842
了问	-843
亡羊	-844
以后	-845
修好	-846
再也	-847
及时	-848
牧民	-849
羊圈	-850
补救	-851
补牢	-852
不算晚	-853
丢了羊	-854
了问题	-855
比喻出	-856
羊再也	-857
之后修好	-858
亡羊补牢	-859
以后及时	-860
没有丢过	-861
还不算晚	-862
牧民丢了羊	-863
之后修好羊圈	-864
以后及时补救	-865
比喻出了问题	-866
羊再也没有丢过	-867
牧民丢了羊之后修好羊圈	-868
比喻出了问题以后及时补救	-869
2-	-870
公转	-871
地球公转	-872
▁×▁2	-873
27	-874
结构	-875
300	-876
48	-877
分布	-878
决定	-879
提供	-880
释放能量	-881
6,	-882
▁+▁6	-883
2▁=▁8	-884
▁=▁12	-885
0.5	-886
4)	-887
二氧化	-888
二氧化碳	-889
▁=▁4,	-890
南方	-891
▁=▁100	-892
17	-893
▁=▁20	-894
▁=▁1。	-895
▁×▁4	-896
:7	-897
▁=▁5,	-898
180	-899
:9	-900
得到	-901
高度和	-902
×9	-903
▁=▁1,	-904
分别	-905
▁c	-906
12	-907
说明	-908
13	-909
花了	-910
一共花了	-911
:8	-912
化学	-913
)▁=▁6	-914
美好	-915
/(	-916
100	-917
生活	-918
6;	-919
▁-▁2	-920
)▁=▁(	-921
464	-922
8.5	-923
物质	-924
东注	-925
东海	-926
中华	-927
于青	-928
亚洲	-929
亲河	-930
发源	-931
含量	-932
因泥	-933
域面	-934
大而	-935
得名	-936
族的	-937
的基	-938
积约	-939
第一	-940
第二	-941
自西	-942
藏高	-943
被誉	-944
东注入	-945
中华民	-946
因泥沙	-947
族的母	-948
是亚洲	-949
流域面	-950
自西向	-951
藏高原	-952
被誉为	-953
5464	-954
6300	-955
发源于青	-956
含量大而	-957
第一长河	-958
第二长河	-959
万平方千米	-960
东注入东海	-961
族的母亲河	-962
流域面积约	-963
长江是亚洲	-964
黄河是中国	-965
含量大而得名	-966
被誉为中华民	-967
发源于青藏高原	-968
自西向东注入东海	-969
因泥沙含量大而得名	-970
长江是亚洲第一长河	-971
黄河是中国第二长河	-972
被誉为中华民族的母亲河	-973
19	-974
变的	-975
人分	-976
先算	-977
再算	-978
人分到	-979
每人分到	-980
14	-981
2▁=▁4	-982
上现	-983
两代	-984
京市	-985
占地	-986
存规	-987
宫殿	-988
明清	-989
木质	-990
的皇	-991
位于北	-992
占地约	-993
古建筑	-994
存规模	-995
家宫殿	-996
是明清	-997
最大的	-998
万平方米	-999
两代的皇	-1000
京市中心	-1001
古建筑群	-1002
木质结构	-1003
上现存规模	-1004
故宫位于北	-1005
两代的皇家宫殿	-1006
最大的木质结构	-1007
是世界上现存规模	-1008
故宫位于北京市中心	-1009
是明清两代的皇家宫殿	-1010
最大的木质结构古建筑群	-1011
.7	-1012
认识	-1013
吃月	-1014
八月	-1015
农历	-1016
十五	-1017
寄托	-1018
期盼	-1019
赏月	-1020
人们对	-1021
吃月饼	-1022
团圆的	-1023
在农历	-1024
寄托着	-1025
人们赏月	-1026
八月十五	-1027
美好期盼	-1028
中秋节在农历	-1029
人们对团圆的	-1030
)/2▁=▁1	-1031
寄托着人们对团圆的	-1032
中秋节在农历八月十五	-1033
寄托着人们对团圆的美好期盼	-1034
一周	-1035
卫星	-1036
唯一	-1037
地月	-1038
月相	-1039
由日	-1040
一周约	-1041
是地球	-1042
然卫星	-1043
27.3	-1044
位置决定	-1045
变化由日	-1046
唯一的天	-1047
地月相对	-1048
月球是地球	-1049
绕地球公转	-1050
月相变化由日	-1051
唯一的天然卫星	-1052
地月相对位置决定	-1053
绕地球公转一周约	-1054
月球是地球唯一的天然卫星	-1055
月相变化由日地月相对位置决定	-1056
一种	-1057
中有	-1058
中起	-1059
会酿	-1060
分工	-1061
和雄	-1062
工蜂	-1063
授粉	-1064
明确	-1065
群体	-1066
蜂王	-1067
蜜的	-1068
和雄蜂	-1069
在植物	-1070
是一种	-1071
中有蜂王	-1072
中起重要	-1073
会酿蜜的	-1074
分工明确	-1075
在植物授粉	-1076
工蜂和雄蜂	-1077
蜜蜂是一种	-1078
中起重要作用	-1079
会酿蜜的昆虫	-1080
群体中有蜂王	-1081
在植物授粉中起重要作用	-1082
蜜蜂是一种会酿蜜的昆虫	-1083
行驶了	-1084
一共行驶了	-1085
传统	-1086
吃年	-1087
夜饭	-1088
征辞	-1089
拜年	-1090
旧迎	-1091
春联	-1092
阖家	-1093
人们贴	-1094
旧迎新	-1095
最重要	-1096
的传统	-1097
象征辞	-1098
吃年夜饭	-1099
阖家团圆	-1100
人们贴春联	-1101
春节是中国	-1102
的传统节日	-1103
象征辞旧迎新	-1104
春节是中国最重要	-1105
春节是中国最重要的传统节日	-1106
→∞	-1107
是禾	-1108
本科	-1109
材用	-1110
极快	-1111
竹笋	-1112
食用	-1113
→∞)	-1114
于中国	-1115
材用途	-1116
可以食用	-1117
广泛分布	-1118
是禾本科	-1119
生长速度	-1120
竹材用途	-1121
于中国南方	-1122
是禾本科植物	-1123
生长速度极快	-1124
竹材用途广泛	-1125
竹笋可以食用	-1126
竹子生长速度极快	-1127
广泛分布于中国南方	-1128
个种	-1129
乌龙	-1130
化已	-1131
千年	-1132
历史	-1133
故乡	-1134
是茶	-1135
有数	-1136
等多	-1137
红茶	-1138
绿茶	-1139
茶叶	-1140
茶文	-1141
个种类	-1142
乌龙茶	-1143
是茶的	-1144
饮茶文	-1145
分为绿茶	-1146
化已有数	-1147
千年历史	-1148
中国是茶的	-1149
乌龙茶等多	-1150
茶叶分为绿茶	-1151
中国是茶的故乡	-1152
饮茶文化已有数	-1153
乌龙茶等多个种类	-1154
饮茶文化已有数千年历史	-1155
价值	-1156
和甘	-1157
四川	-1158
国宝	-1159
山区	-1160
有的	-1161
珍稀	-1162
称为	-1163
肃的	-1164
陕西	-1165
食物	-1166
中国的	-1167
为主要	-1168
以竹子	-1169
在四川	-1170
大熊猫	-1171
特有的	-1172
被称为	-1173
主要生活	-1174
和甘肃的	-1175
珍稀动物	-1176
中国的国宝	-1177
为主要食物	-1178
和甘肃的山区	-1179
大熊猫是中国	-1180
主要生活在四川	-1181
特有的珍稀动物	-1182
以竹子为主要食物	-1183
被称为中国的国宝	-1184
陕西和甘肃的山区	-1185
大熊猫是中国特有的珍稀动物	-1186
光和	-1187
和氦	-1188
核聚	-1189
由氢	-1190
系的	-1191
2),	-1192
为地球	-1193
光和热	-1194
太阳是	-1195
核聚变	-1196
中心天体	-1197
主要由氢	-1198
和氦组成	-1199
太阳系的	-1200
2▁=▁9	-1201
为地球提供	-1202
通过核聚变	-1203
太阳是太阳系的	-1204
为地球提供光和热	-1205
主要由氢和氦组成	-1206
通过核聚变释放能量	-1207
太阳是太阳系的中心天体	-1208
▁+▁8	-1209
Cl	-1210
开口向上	-1211
▁处取最小值	-1212
▁的顶点坐标与最小值	-1213
与尼	-1214
尔边	-1215
山顶	-1216
年积	-1217
拔约	-1218
最高	-1219
.86	-1220
与尼泊	-1221
尔边境	-1222
山顶终	-1223
年积雪	-1224
最高峰	-1225
海拔约	-1226
8848	-1227
位于中国	-1228
与尼泊尔边境	-1229
山顶终年积雪	-1230
是世界最高峰	-1231
8848.86	-1232
位于中国与尼泊尔边境	-1233
珠穆朗玛峰是世界最高峰	-1234
)▁=▁-	-1235
▁=▁3。	-1236
×8	-1237
SO	-1238
1▁=▁5,	-1239
33	-1240
1▁=▁4,	-1241
2▁=▁1⁄2×10	-1242
'(1	-1243
▁+▁9	-1244
)▁+▁1)/(	-1245
氧气	-1246
▁+▁7	-1247
▁-▁3	-1248
8,	-1249
2▁=▁0	-1250
▁=▁2。	-1251
义务	-1252
权利	-1253
ng	-1254
:√	-1255
▁11	-1256
2▁+▁1	-1257
▁×▁6	-1258
三角	-1259
勾股	-1260
定理	-1261
形两	-1262
分别为	-1263
由勾股	-1264
直角边	-1265
三角形两	-1266
斜边长为	-1267
求斜边长	-1268
由勾股定理	-1269
直角三角形两	-1270
直角边分别为	-1271
直角三角形两直角边分别为	-1272
an	-1273
tan	-1274
▁×▁3	-1275
到的	-1276
牛顿	-1277
▁mg	-1278
受到的	-1279
的物体	-1280
质量为	-1281
重力为	-1282
受到的重力	-1283
受到的重力是多少	-1284
gt	-1285
下落	-1286
自由	-1287
▁gt	-1288
求高度和	-1289
物体自由	-1290
物体自由下落	-1291
求高度和末速度	-1292
70	-1293
▁sqrt	-1294
^1	-1295
1▁=▁3,	-1296
'(2	-1297
)^	-1298
45°	-1299
3▁+	-1300
^2▁+▁1	-1301
2▁-▁4×1×(-	-1302
板块	-1303
▁说明	-1304
方程式	-1305
化学方程式	-1306
▁=▁0.5	-1307
1▁=▁2,	-1308
×1▁+▁16	-1309
^6	-1310
9;	-1311
1▁=▁1,	-1312
▁×▁7	-1313
5;	-1314
10。	-1315
硫酸	-1316
×7	-1317
分离	-1318
义得	-1319
对数	-1320
定义得	-1321
由对数	-1322
由对数定义得	-1323
的基本	-1324
Ca	-1325
碳酸	-1326
'(3	-1327
碳酸钙	-1328
CaCO	-1329
我国	-1330
....	-1331
▁L	-1332
制度	-1333
浓度	-1334
的量	-1335
质配	-1336
▁溶液	-1337
求物质	-1338
质配成	-1339
的量浓度	-1340
▁溶质配成	-1341
求物质的量浓度	-1342
7,	-1343
量变	-1344
质变的	-1345
季风	-1346
生字	-1347
OH	-1348
氢氧化	-1349
NaOH	-1350
氢氧化钠	-1351
实践	-1352
气候	-1353
20。	-1354
.2	-1355
2▁=▁1⁄2×1	-1356
44	-1357
普遍	-1358
普遍性	-1359
特殊性	-1360
时间	-1361
▁×▁8	-1362
看到	-1363
能看到	-1364
▁=▁6,	-1365
)/3▁+	-1366
▁×▁9	-1367
▁-▁5	-1368
形成	-1369
▁12	-1370
▁=▁-3	-1371
▁-▁6	-1372
▁例句	-1373
造句练习	-1374
)▁=▁5	-1375
河流	-1376
河流小百科	-1377
▁÷▁3	-1378
按位	-1379
我爱	-1380
/2	-1381
0)	-1382
字组词	-1383
▁-▁4	-1384
组词练习	-1385
4;	-1386
化钠	-1387
氯化钠	-1388
NaCl	-1389
66	-1390
▁÷▁4	-1391
Fe	-1392
+5	-1393
▁=▁11	-1394
)▁=▁2*	-1395
:《	-1396
气很	-1397
短文	-1398
天的天	-1399
天的天气很	-1400
」。	-1401
个盒	-1402
箱子很	-1403
那个盒	-1404
反义词是	-1405
的反义词是	-1406
这个箱子很	-1407
那个盒子很	-1408
×1▁+▁1	-1409
▁÷▁6	-1410
4*	-1411
▁-▁(-	-1412
)▁=▁9	-1413
▁=▁50	-1414
▁=▁√2	-1415
1.0	-1416
▁÷▁5	-1417
节日小百科	-1418
季节	-1419
)▁=▁8	-1420
ǎo	-1421
60。	-1422
▁=▁30	-1423
3/2。	-1424
▁=▁-1。	-1425
2▁=▁0。	-1426
12,	-1427
开口向下	-1428
▁处取最大值	-1429
▁的顶点坐标与最大值	-1430
▁=▁23	-1431
9,	-1432
▁÷▁2	-1433
▁=▁5。	-1434
▁=▁60	-1435
公民	-1436
:0.5	-1437
2▁=▁7	-1438
▁=▁18	-1439
▁+▁0	-1440
对齐	-1441
小数	-1442
小数点	-1443
对齐相加	-1444
小数点对齐相加	-1445
▁÷▁8	-1446
四季	-1447
同时	-1448
▁3。	-1449
16。	-1450
▁=▁-5	-1451
▁÷▁9	-1452
统一	-1453
/(2*	-1454
▁2。	-1455
的关系	-1456
口诀	-1457
▁÷▁7	-1458
二者	-1459
)▁=▁12	-1460
▁单	-1461
▁数	-1462
买了	-1463
总价	-1464
▁4。	-1465
▁单价	-1466
▁数量	-1467
多少元	-1468
▁=▁8。	-1469
一共花了多少元	-1470
▁=▁-4	-1471
导致	-1472
:45	-1473
▁5。	-1474
▁=▁6。	-1475
反应	-1476
4▁=	-1477
加上	-1478
氧核	-1479
脱氧核	-1480
乘法	-1481
加法	-1482
先算乘法	-1483
再算加法	-1484
▁=▁16	-1485
1▁=▁6,	-1486
^2▁+▁1)。	-1487
1;	-1488
去掉	-1489
蝴蝶	-1490
里去掉	-1491
▁×▁0	-1492
▁=▁4。	-1493
政治	-1494
根本	-1495
我国的	-1496
政治制度	-1497
我国的根本	-1498
我国的根本政治制度	-1499
坡度	-1500
密集	-1501
等高	-1502
表示	-1503
坡度越	-1504
等高线	-1505
表示坡度越	-1506
分后	-1507
约分为	-1508
通分后	-1509
结果约分为	-1510
通分后相加	-1511
个小	-1512
分给	-1513
平均	-1514
朋友	-1515
的水	-1516
量词	-1517
个小朋友	-1518
平均分给	-1519
量词练习	-1520
每人分到几	-1521
叶绿	-1522
▁20	-1523
叶绿体	-1524
季风气候	-1525
是认识	-1526
)▁=▁3*	-1527
转化	-1528
必要	-1529
海陆	-1530
'(3)。	-1531
温暖	-1532
)▁-▁1	-1533
相互	-1534
5*	-1535
▁时间	-1536
▁速度	-1537
每小时	-1538
多少千米	-1539
每小时行驶	-1540
/2▁=▁1	-1541
一共行驶了多少千米	-1542
一辆汽车每小时行驶	-1543
15。	-1544
交换	-1545
商品	-1546
价值量	-1547
月亮	-1548
基因	-1549
/3。	-1550
6▁=	-1551
括号	-1552
除法	-1553
先算括号	-1554
再算除法	-1555
▁=▁2*	-1556
美丽	-1557
▁z	-1558
▁=▁9。	-1559
18。	-1560
▁=▁10。	-1561
▁=▁58.5	-1562
2;	-1563
→0)	-1564
▁-▁(-1	-1565
7▁=	-1566
▁((	-1567
→∞)▁((	-1568
'(2)。	-1569
CH	-1570
甲烷	-1571
)*(	-1572
'(1)。	-1573
▁=▁15	-1574
为什么会	-1575
+4	-1576
3▁×▁3	-1577
8▁=	-1578
星星	-1579
:60°	-1580
5▁=	-1581
上不	-1582
40。	-1583
0°	-1584
苹果	-1585
白天	-1586
^(3	-1587
3▁×▁4	-1588
+2	-1589
75	-1590
春天	-1591
^(3/2	-1592
0,	-1593
))。	-1594
:30°	-1595
▁tan	-1596
28	-1597
35	-1598
2▁=▁-5。	-1599
:45°	-1600
生成	-1601
:1。	-1602
2▁=▁6。	-1603
2▁=▁5。	-1604
8;	-1605
▁=▁32	-1606
▁=▁80	-1607
:(	-1608
2▁=▁3。	-1609
和二氧化碳	-1610
▁+▁1)/(	-1611
▁6。	-1612
2▁=▁-2。	-1613
×2▁+▁16	-1614
2▁=▁4。	-1615
1▁=▁0	-1616
1▁=▁0,	-1617
▁=▁16。	-1618
1▁=▁-6,	-1619
2▁=▁-4。	-1620
2×1▁+▁16	-1621
3▁=	-1622
▁=▁2(	-1623
▁-▁-5	-1624
▁O	-1625
2▁+▁3	-1626
▁=▁7。	-1627
▁+▁1)/	-1628
▁-▁0	-1629
90°	-1630
:10	-1631
▁=▁9,	-1632
)▁-	-1633
▁1。	-1634
2▁=▁2。	-1635
24	-1636
1▁=▁-5,	-1637
+6	-1638
氧化铁	-1639
Mn	-1640
MnO	-1641
▁sh	-1642
9▁=▁1	-1643
▁-▁-2	-1644
▁-▁-4	-1645
:16	-1646
1▁=▁-4,	-1647
▁-▁-6	-1648
)/2▁+	-1649
......	-1650
本子	-1651
本本子	-1652
▁=▁3(	-1653
▁=▁8,	-1654
2▁-▁4×1×(0	-1655
3▁=▁3	-1656
▁=▁11.3	-1657
四个	-1658
2▁=▁20	-1659
我们	-1660
7.9	-1661
▁=▁25	-1662
▁=▁1.0	-1663
1▁=▁-2,	-1664
2▁=▁-6。	-1665
1▁=▁-1,	-1666
.25	-1667
一年	-1668
)^2	-1669
一年有	-1670
11.3	-1671
四个季节	-1672
+3	-1673
的铅	-1674
的铅块	-1675
▁×▁40	-1676
铅的密度为	-1677
请介绍一下黄河	-1678
黄河因泥沙含量大而得名	-1679
4▁+	-1680
12。	-1681
和星星	-1682
3▁×▁2	-1683
月亮和星星	-1684
能看到太阳	-1685
能看到月亮和星星	-1686
▁+▁0▁=▁0。	-1687
17。	-1688
个苹果	-1689
▁=▁44	-1690
▁-▁-1	-1691
▁=▁28	-1692
2▁=▁1。	-1693
的铁	-1694
的铁块	-1695
2▁+▁4	-1696
▁=▁24	-1697
▁=▁7,	-1698
铁的密度为	-1699
▁=▁7.9	-1700
:18	-1701
夏天	-1702
炎热	-1703
个气	-1704
个气球	-1705
2▁=▁-1。	-1706
)▁=▁1;	-1707
天空	-1708
相减	-1709
按位相减	-1710
)▁=▁-1	-1711
请介绍一下春节	-1712
春节象征辞旧迎新	-1713
冬天	-1714
寒冷	-1715
iǎo	-1716
一边	-1717
饮品	-1718
饮品小百科	-1719
结成	-1720
动物小百科	-1721
变来	-1722
毛毛	-1723
8.9	-1724
毛毛虫	-1725
)▁=▁4;	-1726
2▁+▁12	-1727
▁=▁20。	-1728
春天来了	-1729
请介绍一下中秋节	-1730
中秋节寄托着人们对团圆的美好期盼	-1731
昆虫小百科	-1732
开了	-1733
花开了	-1734
块橡	-1735
块橡皮	-1736
夏天来了	-1737
1▁=▁-3,	-1738
水蒸	-1739
水蒸气	-1740
天体小百科	-1741
植物小百科	-1742
^(3/2)/3▁+	-1743
糖果	-1744
颗糖果	-1745
−1▁=▁5	-1746
(6	-1747
.6	-1748
▁×▁50	-1749
建筑小百科	-1750
▁=▁40。	-1751
的铜	-1752
的铜块	-1753
铜的密度为	-1754
)▁=▁((	-1755
▁=▁8.9	-1756
2.5	-1757
2▁=▁-3。	-1758
×62▁=▁1	-1759
请介绍一下长江	-1760
长江流域面积约	-1761
三种	-1762
固态	-1763
气态	-1764
水有	-1765
液态	-1766
状态	-1767
的水块	-1768
三种状态	-1769
水的密度为	-1770
请介绍一下月球	-1771
月球月相变化由日地月相对位置决定	-1772
.4	-1773
需要	-1774
2+6	-1775
2.7	-1776
植物的	-1777
冬天来了	-1778
生长需要	-1779
植物的生长需要	-1780
^7	-1781
▁+▁144	-1782
请介绍一下竹子	-1783
竹子竹笋可以食用	-1784
0.2	-1785
▁=▁0.2	-1786
▁=▁2.7	-1787
按位相加	-1788
2▁-▁1	-1789
3▁×▁1	-1790
凉爽	-1791
支铅	-1792
秋天	-1793
支铅笔	-1794
▁=▁2.5	-1795
的铝	-1796
13。	-1797
的铝块	-1798
铝的密度为	-1799
▁=▁-6	-1800
)▁=▁20	-1801
0▁=▁0。	-1802
2*	-1803
▁×▁20	-1804
▁=▁98	-1805
▁=▁18。	-1806
请介绍一下蜜蜂	-1807
蜜蜂在植物授粉中起重要作用	-1808
▁=▁90	-1809
▁+▁18	-1810
)▁=▁10	-1811
请介绍一下太阳	-1812
太阳为地球提供光和热	-1813
((	-1814
55	-1815
▁=▁1(	-1816
请介绍一下故宫	-1817
故宫是世界上现存规模	-1818
请介绍一下珠穆朗玛峰	-1819
珠穆朗玛峰山顶终年积雪	-1820
下来	-1821
落下来	-1822
^3▁+	-1823
+1⁄2×2	-1824
−1▁=▁3	-1825
▁÷▁1	-1826
▁(-1,	-1827
60°▁=▁√	-1828
里的	-1829
+1⁄2×5	-1830
−1▁=▁4	-1831
▁=▁-2(	-1832
▁=▁-2,	-1833
)▁+▁2	-1834
▁=▁13	-1835
▁(1,	-1836
));	-1837
4.0	-1838
请介绍一下茶	-1839
茶饮茶文化已有数千年历史	-1840
小红	-1841
▁=▁56	-1842
)▁=▁9;	-1843
山峰	-1844
山峰小百科	-1845
36	-1846
,9	-1847
1/(	-1848
3*	-1849
11,	-1850
+1⁄2×3	-1851
▁(5,	-1852
▁+▁9。	-1853
:√3/2。	-1854
−1▁=▁1	-1855
请介绍一下熊猫	-1856
熊猫被称为中国的国宝	-1857
▁+▁5。	-1858
:19	-1859
3333	-1860
▁(2,	-1861
)^2。	-1862
^4▁+	-1863
恒星	-1864
恒星小百科	-1865
不可	-1866
在行	-1867
履行	-1868
必须	-1869
2.0	-1870
与义务	-1871
义务相	-1872
使权利	-1873
权利和	-1874
的同时	-1875
不可分离	-1876
公民在行	-1877
公民权利	-1878
履行义务	-1879
义务相统一	-1880
的同时必须	-1881
−1▁=▁2	-1882
与义务的关系	-1883
二者不可分离	-1884
公民在行使权利	-1885
权利和义务相统一	-1886
的同时必须履行义务	-1887
公民权利与义务的关系	-1888
公民在行使权利的同时必须履行义务	-1889
7;	-1890
高温	-1891
:1/2。	-1892
▁=▁-1(	-1893
▁=▁-1,	-1894
▁(0,	-1895
2▁=▁64	-1896
2▁+▁8	-1897
▁=▁1/2。	-1898
▁H	-1899
+1⁄2×4	-1900
:√2	-1901
▁(-5,	-1902
:√2/2。	-1903
45°▁=▁√2	-1904
45°▁=▁√2/2。	-1905
不变	-1906
且方	-1907
倾斜	-1908
北回	-1909
各地	-1910
在南	-1911
地轴	-1912
夜长	-1913
射点	-1914
归线	-1915
正午	-1916
移动	-1917
且方向	-1918
夜长短	-1919
太阳直	-1920
归线间	-1921
时地轴	-1922
有四季	-1923
各地正午	-1924
在南北回	-1925
形成四季	-1926
昼夜长短	-1927
且方向不变	-1928
太阳直射点	-1929
太阳高度和	-1930
归线间移动	-1931
时地轴倾斜	-1932
有四季变化	-1933
)▁=▁15	-1934
导致各地正午	-1935
昼夜长短变化	-1936
为什么会有四季变化	-1937
在南北回归线间移动	-1938
地球公转时地轴倾斜	-1939
太阳高度和昼夜长短变化	-1940
地球公转时地轴倾斜且方向不变	-1941
太阳直射点在南北回归线间移动	-1942
3/3。	-1943
秋天来了	-1944
▁=▁120	-1945
30°▁=▁√	-1946
▁8。	-1947
(4	-1948
▁=▁70	-1949
下雨	-1950
:15	-1951
▁CO	-1952
交界	-1953
六大	-1954
在软	-1955
地震	-1956
处多	-1957
学说	-1958
岩石	-1959
构造	-1960
流层	-1961
漂浮	-1962
火山	-1963
的要	-1964
上不断	-1965
圈分为	-1966
的要点	-1967
交界处多	-1968
六大板块	-1969
在软流层	-1970
板块构造	-1971
板块漂浮	-1972
火山地震	-1973
上不断运动	-1974
学说的要点	-1975
岩石圈分为	-1976
交界处多火山地震	-1977
板块漂浮在软流层	-1978
岩石圈分为六大板块	-1979
板块构造学说的要点	-1980
板块漂浮在软流层上不断运动	-1981
.1	-1982
2↑	-1983
▁100	-1984
▁=▁-3。	-1985
/3	-1986
10,	-1987
120	-1988
▁Cu	-1989
▁(-3,	-1990
▁+▁4。	-1991
▁=▁-6。	-1992
/5	-1993
数数	-1994
▁7。	-1995
:2.5	-1996
▁(-2,	-1997
,8	-1998
点燃	-1999
燃烧	-2000
老师	-2001
在氧气	-2002
在氧气中	-2003
燃烧生成	-2004
÷0.5	-2005
▁0.5	-2006
▁+▁35	-2007
▁+▁15	-2008
▁+▁8。	-2009
AT	-2010
为生	-2011
产生	-2012
呼吸	-2013
命活	-2014
意义	-2015
有机	-2016
ATP	-2017
产生水	-2018
作用的	-2019
动提供	-2020
有机物	-2021
▁(4,	-2022
为生命活	-2023
3▁=▁2	-2024
作用的意义	-2025
分解有机物	-2026
同时产生水	-2027
▁×▁100	-2028
为生命活动提供	-2029
呼吸作用的意义	-2030
分解有机物释放能量	-2031
同时产生水和二氧化碳	-2032
,5	-2033
DN	-2034
单位	-2035
含氮	-2036
喜欢	-2037
由磷	-2038
碱基	-2039
糖和	-2040
苷酸	-2041
DNA	-2042
由磷酸	-2043
含氮碱基	-2044
组成单位	-2045
▁+▁7。	-2046
脱氧核糖和	-2047
脱氧核苷酸	-2048
)▁=▁36;	-2049
的基本组成单位	-2050
脱氧核糖和含氮碱基	-2051
的基本组成单位是什么	-2052
6*	-2053
8.0	-2054
:14	-2055
产者	-2056
态系	-2057
成分	-2058
消费	-2059
物的	-2060
统的	-2061
者和	-2062
非生	-2063
×98	-2064
分解者	-2065
和能量	-2066
生产者	-2067
生态系	-2068
消费者和	-2069
物的物质	-2070
组成成分	-2071
▁+▁2。	-2072
生态系统的	-2073
非生物的物质	-2074
▁=▁-10。	-2075
消费者和分解者	-2076
生态系统的组成成分	-2077
非生物的物质和能量	-2078
,6	-2079
3▁=▁1	-2080
▁=▁45	-2081
加热	-2082
▁(3,	-2083
▁=▁72	-2084
2▁=▁10	-2085
三级	-2086
东低	-2087
地势	-2088
梯状	-2089
特征	-2090
西高	-2091
三级阶	-2092
呈三级阶	-2093
我国地势	-2094
梯状分布	-2095
西高东低	-2096
的基本特征	-2097
呈三级阶梯状分布	-2098
我国地势的基本特征	-2099
÷1	-2100
×18	-2101
×44	-2102
6666	-2103
▁+▁1。	-2104
人民	-2105
代表	-2106
大会	-2107
9.0	-2108
制度是	-2109
人民代表	-2110
大会制度是	-2111
▁=▁-5。	-2112
人民代表大会制度是	-2113
我国的根本政治制度是什么	-2114
/4	-2115
准备	-2116
变是	-2117
必然	-2118
稀疏	-2119
辩证	-2120
变是量	-2121
是量变	-2122
越密集	-2123
越稀疏	-2124
量变与	-2125
量变是	-2126
变的必然	-2127
和质变的	-2128
密集说明	-2129
必要准备	-2130
质变是量	-2131
辩证关系	-2132
变的必然结果	-2133
和质变的统一	-2134
密集说明什么	-2135
等高线越密集	-2136
表示坡度越缓	-2137
表示坡度越陡	-2138
量变与质变的	-2139
量变是质变的	-2140
事物发展是量变	-2141
等高线密集说明什么	-2142
越稀疏表示坡度越缓	-2143
质变是量变的必然结果	-2144
量变与质变的辩证关系	-2145
量变是质变的必要准备	-2146
等高线越密集表示坡度越陡	-2147
事物发展是量变和质变的统一	-2148
→(	-2149
光合	-2150
光照	-2151
光能	-2152
能并	-2153
6+6	-2154
为化学	-2155
作用总	-2156
反应式	-2157
把光能	-2158
能并释放	-2159
光合作用总	-2160
把光能转化	-2161
能并释放氧气	-2162
光合作用总反应式	-2163
把光能转化为化学	-2164
把光能转化为化学能并释放氧气	-2165
冬夏	-2166
力性	-2167
包括	-2168
反向	-2169
向随	-2170
哪些	-2171
差异	-2172
带来	-2173
成因	-2174
气压	-2175
泡和	-2176
质和	-2177
还有	-2178
降水	-2179
00。	-2180
力性质	-2181
夏季风	-2182
海陆热	-2183
液泡和	-2184
的成因	-2185
细胞壁	-2186
细胞核	-2187
细胞膜	-2188
风向随	-2189
中心变化	-2190
冬夏气压	-2191
包括哪些	-2192
季节反向	-2193
差异导致	-2194
带来降水	-2195
植物细胞	-2196
细胞质和	-2197
的基本结构	-2198
还有细胞壁	-2199
形成季风气候	-2200
海陆热力性质	-2201
液泡和叶绿体	-2202
夏季风带来降水	-2203
季风气候的成因	-2204
细胞的基本结构	-2205
细胞质和细胞核	-2206
风向随季节反向	-2207
冬夏气压中心变化	-2208
植物细胞还有细胞壁	-2209
海陆热力性质差异导致	-2210
细胞的基本结构包括哪些	-2211
准和	-2212
动力	-2213
有反	-2214
来源	-2215
检验	-2216
目的	-2217
▁硫酸	-2218
和认识	-2219
对实践	-2220
标准和	-2221
的基础	-2222
的来源	-2223
有反作用	-2224
2▁=▁?	-2225
▁+▁6。	-2226
实践和认识	-2227
实践是认识	-2228
标准和目的	-2229
认识对实践	-2230
▁=▁-2。	-2231
是认识的来源	-2232
)▁=▁16;	-2233
检验标准和目的	-2234
实践和认识的关系	-2235
实践是认识的基础	-2236
认识对实践有反作用	-2237
ān	-2238
一定	-2239
之中	-2240
件下	-2241
包含	-2242
和洋	-2243
因素	-2244
地形	-2245
大气	-2246
寓于	-2247
流等	-2248
环流	-2249
纬度	-2250
联结	-2251
阳光	-2252
2+1	-2253
一定条	-2254
气候的	-2255
矛盾的	-2256
与特殊性	-2257
主要因素	-2258
二者相互	-2259
件下相互	-2260
和洋流等	-2261
在一定条	-2262
大气环流	-2263
海陆位置	-2264
纬度位置	-2265
包含普遍性	-2266
寓于特殊性	-2267
影响气候的	-2268
与特殊性关系	-2269
二者相互联结	-2270
件下相互转化	-2271
矛盾的普遍性	-2272
寓于特殊性之中	-2273
大气环流和洋流等	-2274
特殊性包含普遍性	-2275
影响气候的主要因素	-2276
在一定条件下相互转化	-2277
普遍性寓于特殊性之中	-2278
矛盾的普遍性与特殊性关系	-2279
▁+▁3。	-2280
上下	-2281
为基	-2282
价格	-2283
供求	-2284
劳动	-2285
围绕	-2286
实行	-2287
波动	-2288
由社	-2289
等价	-2290
:13	-2291
为基础	-2292
交换以	-2293
什么是	-2294
价格受	-2295
会必要	-2296
上下波动	-2297
价值规律	-2298
供求关系	-2299
劳动时间	-2300
围绕价值	-2301
实行等价	-2302
价值量由社	-2303
商品交换以	-2304
价值量为基础	-2305
供求关系影响	-2306
劳动时间决定	-2307
实行等价交换	-2308
什么是价值规律	-2309
商品价值量由社	-2310
围绕价值上下波动	-2311
价格受供求关系影响	-2312
会必要劳动时间决定	-2313
商品交换以价值量为基础	-2314
商品价值量由社会必要劳动时间决定	-2315
不同	-2316
体分	-2317
内容	-2318
减数	-2319
分裂	-2320
合子	-2321
同源	-2322
开而	-2323
染色	-2324
等位	-2325
进入	-2326
配子	-2327
分裂时	-2328
基因随	-2329
定律的	-2330
杂合子	-2331
不同配子	-2332
体分开而	-2333
分别进入	-2334
同源染色	-2335
基因分离	-2336
减数分裂时	-2337
定律的内容	-2338
等位基因随	-2339
体分开而分离	-2340
分别进入不同配子	-2341
杂合子减数分裂时	-2342
基因分离定律的内容	-2343
等位基因随同源染色	-2344
等位基因随同源染色体分开而分离	-2345
44。	-2346
7.0	-2347
▁(-4,	-2348
,7	-2349
15,	-2350
▁氧气	-2351
2▁-▁2	-2352
2▁=▁80	-2353
▁=▁15。	-2354
▁水	-2355
)▁=▁25;	-2356
▁=▁160。	-2357
98。	-2358
:11	-2359
▁=▁-8	-2360
:17	-2361
2▁=▁36	-2362
26	-2363
帮助	-2364
▁=▁-7	-2365
50▁×▁0	-2366
×2▁=▁4	-2367
▁=▁-8。	-2368
▁=▁36	-2369
▁=▁1×	-2370
▁=▁100。	-2371
▁60	-2372
'(3)	-2373
8.5。	-2374
计算甲烷	-2375
×1▁+▁1×4	-2376
甲烷的相对分子质量为	-2377
▁=▁12×1▁+▁1×4	-2378
▁氯化钠	-2379
×58.5	-2380
,4	-2381
▁=▁-7。	-2382
3;	-2383
学校	-2384
×100	-2385
▁二氧化碳	-2386
20▁=	-2387
xiǎo	-2388
10(	-2389
2▁+▁2	-2390
2▁=▁25	-2391
3.0	-2392
▁40	-2393
▁=▁14	-2394
▁+▁1))	-2395
▁=▁-9。	-2396
)▁-▁1/(	-2397
▁t	-2398
16▁=	-2399
-5	-2400
)^2;	-2401
00▁×▁0	-2402
(3)。	-2403
.5×1	-2404
58.5。	-2405
计算氯化钠	-2406
)▁=▁1/	-2407
▁=▁-4。	-2408
×1▁+▁35	-2409
)▁-▁1)▁+	-2410
▁=▁58.5。	-2411
×1▁+▁35.5×1	-2412
氯化钠的相对分子质量为	-2413
▁=▁23×1▁+▁35.5×1	-2414
▁碳酸钙	-2415
)2+	-2416
▁zi	-2417
3▁=▁4	-2418
▁80	-2419
▁÷▁10	-2420
+1⁄2×1×	-2421
22	-2422
▁16	-2423
(4)。	-2424
12▁=	-2425
2▁-▁3	-2426
计算水	-2427
(2)。	-2428
▁=▁29	-2429
×1▁=▁18。	-2430
水的相对分子质量为	-2431
▁=▁1×2▁+▁16	-2432
▁=▁25;	-2433
同学	-2434
▁=▁19	-2435
公园	-2436
认真	-2437
19▁=	-2438
)▁=▁-2	-2439
▁=▁150	-2440
/7	-2441
爸爸	-2442
-12	-2443
.5。	-2444
)▁=▁7	-2445
×4▁=▁9	-2446
8*	-2447
▁-▁4)(	-2448
计算氢氧化钠	-2449
×1▁+▁1×1	-2450
▁=▁23×1▁+▁16	-2451
氢氧化钠的相对分子质量为	-2452
×1▁+▁1×1▁=▁40。	-2453
)▁+▁2*	-2454
▁-▁5)(	-2455
80。	-2456
▁0。	-2457
18▁=	-2458
2▁-▁4×1×(2	-2459
▁-▁-5)▁=▁0;	-2460
,3	-2461
▁zh	-2462
100。	-2463
▁-▁8	-2464
13▁=	-2465
计算碳酸钙	-2466
▁-▁0)(	-2467
×3▁=▁100。	-2468
▁=▁40×1▁+▁1	-2469
碳酸钙的相对分子质量为	-2470
0;	-2471
▁18	-2472
▁-▁-6)(	-2473
17▁=	-2474
计算硫酸	-2475
计算二氧化碳	-2476
×2▁=▁44。	-2477
×4▁=▁98。	-2478
▁=▁1×2▁+▁3	-2479
硫酸的相对分子质量为	-2480
▁=▁12×1▁+▁16	-2481
二氧化碳的相对分子质量为	-2482
2×1▁+▁16×4▁=▁98。	-2483
14。	-2484
)▁+▁1/	-2485
)2-	-2486
^2*(	-2487
▁-▁5)▁=▁0;	-2488
▁-▁-2)▁=▁0;	-2489
▁50	-2490
▁氢氧化钠	-2491
)▁=▁6*	-2492
)▁=▁-1/(	-2493
▁-▁6)▁=▁0;	-2494
9▁=	-2495
▁-5	-2496
▁-5。	-2497
▁=▁35	-2498
▁-▁3)▁=▁0;	-2499
明亮	-2500
:12	-2501
160。	-2502
)▁=▁4*	-2503
▁-▁4)▁=▁0;	-2504
^4)	-2505
▁-▁-5)(	-2506
▁-▁0)▁=▁0;	-2507
▁+▁64	-2508
计算氧化铁	-2509
×2▁+▁16×3	-2510
氧化铁的相对分子质量为	-2511
▁=▁56×2▁+▁16×3	-2512
11▁=	-2513
▁+▁4))	-2514
)▁+▁1/(2*	-2515
▁-▁-4)▁=▁0;	-2516
5.0	-2517
×40	-2518
▁=▁225	-2519
▁-▁-4)(	-2520
快乐	-2521
......」	-2522
▁-3。	-2523
▁+▁225	-2524
▁=▁32。	-2525
2▁+▁15	-2526
89▁=▁1	-2527
/6	-2528
▁-7	-2529
▁15	-2530
15▁=	-2531
▁-2。	-2532
▁-7。	-2533
▁=▁-9	-2534
▁-▁2)▁=▁0;	-2535
àng	-2536
▁=▁200	-2537
▁=▁289;	-2538
89▁=▁17。	-2539
2▁=▁82▁+▁15	-2540
2▁=▁64▁+▁225	-2541
▁=▁√289▁=▁17。	-2542
▁-6	-2543
▁17	-2544
▁-6。	-2545
▁-▁-2)(	-2546
▁ch	-2547
▁-▁6)(	-2548
▁-▁-1)(	-2549
50。	-2550
一年有哪	-2551
一年有春	-2552
冬天寒冷	-2553
夏天炎热	-2554
春天温暖	-2555
秋天凉爽	-2556
冬四个季节	-2557
一年有哪四个季节	-2558
学生	-2559
)▁=▁49;	-2560
tā	-2561
一面	-2562
今天	-2563
变暗	-2564
在自	-2565
朝向	-2566
背对	-2567
125	-2568
在自转	-2569
我们这	-2570
一面朝向	-2571
因为地球	-2572
天空变暗	-2573
晚上背对	-2574
为什么白天	-2575
白天我们这	-2576
一面朝向太阳	-2577
晚上背对太阳	-2578
因为地球在自转	-2579
所以能看到太阳	-2580
×42▁=▁80	-2581
就能看到月亮和星星	-2582
为什么白天能看到太阳	-2583
就能看到月亮和星星了	-2584
晚上能看到月亮和星星	-2585
白天我们这一面朝向太阳	-2586
小明	-2587
▁-4	-2588
10▁=	-2589
▁-4。	-2590
/2▁=▁3	-2591
▁-▁3)(	-2592
▁-▁-6)▁=▁0;	-2593
:3。	-2594
▁mā	-2595
▁-▁10	-2596
▁×▁5▁=▁?	-2597
(9	-2598
安静	-2599
7.5	-2600
14▁=	-2601
:100	-2602
▁30	-2603
▁+▁10	-2604
▁=▁17	-2605
)▁=▁5*	-2606
/2▁=▁2	-2607
▁13	-2608
▁=▁100;	-2609
:24	-2610
▁-▁2)(	-2611
▁-▁-1)▁=▁0;	-2612
×22▁=▁20	-2613
妈妈	-2614
10.0	-2615
▁-▁7	-2616
▁+▁3))	-2617
▁-▁1)(	-2618
云里	-2619
冷凝	-2620
到空	-2621
受热	-2622
变成	-2623
地面	-2624
小水	-2625
成云	-2626
来越	-2627
滴越	-2628
▁14	-2629
上的水	-2630
到空中	-2631
小水滴	-2632
形成雨	-2633
来越大	-2634
聚成云	-2635
遇冷凝	-2636
云里的水	-2637
升到空中	-2638
受热变成	-2639
就落下来	-2640
地面上的水	-2641
滴越来越大	-2642
结成小水滴	-2643
为什么会下雨	-2644
受热变成水蒸气	-2645
就落下来形成雨	-2646
遇冷凝结成小水滴	-2647
云里的水滴越来越大	-2648
受热变成水蒸气升到空中	-2649
地面上的水受热变成水蒸气升到空中	-2650
wǒ	-2651
▁p	-2652
化成	-2653
发育	-2654
变态	-2655
幼虫	-2656
是由	-2657
程叫	-2658
蛹里	-2659
6.0	-2660
先结成	-2661
变来的	-2662
最后从	-2663
羽化成	-2664
蝴蝶由	-2665
过程叫	-2666
先结成蛹	-2667
变态发育	-2668
是由什么	-2669
最后从蛹里	-2670
羽化成蝴蝶	-2671
这个过程叫	-2672
蝴蝶是由什么	-2673
蝴蝶由毛毛虫	-2674
3)▁=▁0;	-2675
毛毛虫先结成蛹	-2676
蝴蝶是由什么变来的	-2677
这个过程叫变态发育	-2678
▁-▁1)▁=▁0;	-2679
最后从蛹里羽化成蝴蝶	-2680
▁+▁16▁=▁25;	-2681
发芽	-2682
子从	-2683
小燕	-2684
柳树	-2685
飞回	-2686
.4。	-2687
发芽了	-2688
南方飞回	-2689
小燕子从	-2690
我爱春天	-2691
桃花开了	-2692
▁春天来了	-2693
柳树发芽了	-2694
▁=▁√25	-2695
南方飞回来了	-2696
春天的天气很	-2697
▁=▁169;	-2698
−1▁=▁5×3	-2699
春天的天气很温暖	-2700
2▁+▁42▁=▁9	-2701
小燕子从南方飞回来了	-2702
▁=▁√25▁=▁5。	-2703
2▁=▁32▁+▁42▁=▁9	-2704
11。	-2705
▁=▁48	-2706
▁×▁2▁=▁?	-2707
×62▁=▁180	-2708
了在	-2709
停地	-2710
池塘	-2711
花朵	-2712
))*	-2713
3)(	-2714
^2)	-2715
▁19	-2716
了在树	-2717
停地叫	-2718
里的荷	-2719
我爱夏天	-2720
知了在树	-2721
1▁=▁?	-2722
▁夏天来了	-2723
上不停地叫	-2724
池塘里的荷	-2725
▁+▁1)*	-2726
夏天的天气很	-2727
▁-▁-3)(	-2728
夏天的天气很炎热	-2729
池塘里的荷花开了	-2730
知了在树上不停地叫	-2731
20.0	-2732
▁=▁√16	-2733
9▁=▁13。	-2734
2▁=▁52▁+▁12	-2735
2▁=▁25▁+▁144	-2736
▁=▁√169▁=▁13。	-2737
▁=▁64。	-2738
▁×▁3▁=▁?	-2739
50.0	-2740
每人分到几个	-2741
^3)	-2742
▁-1	-2743
▁-1。	-2744
2▁+▁5	-2745
−1▁=▁5×2	-2746
冰是	-2747
和气态	-2748
是气态	-2749
水有哪	-2750
冰是固态	-2751
水是液态	-2752
水有固态	-2753
▁=▁55	-2754
液态和气态	-2755
2▁=▁81	-2756
水蒸气是气态	-2757
▁=▁√100	-2758
水有哪三种状态	-2759
液态和气态三种状态	-2760
2▁=▁62▁+▁8	-2761
2▁=▁36▁+▁64	-2762
▁=▁√100▁=▁10。	-2763
上飘	-2764
中的	-2765
了雪	-2766
们躲	-2767
养分	-2768
冬了	-2769
分和	-2770
土壤	-2771
来过	-2772
空气	-2773
上飘起	-2774
了雪花	-2775
们躲起	-2776
小动物	-2777
水分和	-2778
中的养分	-2779
天上飘起	-2780
我爱冬天	-2781
来过冬了	-2782
▁冬天来了	-2783
水分和土壤	-2784
冬天的天气很	-2785
小动物们躲起	-2786
天上飘起了雪花	-2787
冬天的天气很寒冷	-2788
植物的生长需要什么	-2789
植物的生长需要阳光	-2790
水分和土壤中的养分	-2791
小动物们躲起来过冬了	-2792
:36	-2793
2▁-▁(	-2794
1▁=▁9,	-2795
−1▁=▁3×2	-2796
高兴	-2797
▁+▁2))	-2798
▁=▁300	-2799
×42▁=▁1	-2800
▁×▁7▁=▁?	-2801
:5。	-2802
óng	-2803
*(2*	-2804
▁=▁65	-2805
▁×▁4▁=▁?	-2806
:4。	-2807
▁+▁14	-2808
▁=▁-10	-2809
▁=▁128。	-2810
▁×▁9▁=▁?	-2811
)▁+▁3	-2812
:2。	-2813
▁45	-2814
▁180	-2815
▁=▁225;	-2816
▁=▁√225	-2817
2▁=▁92▁+▁12	-2818
60°▁=▁√3/2。	-2819
▁-▁-3)▁=▁0;	-2820
2▁=▁81▁+▁144	-2821
▁=▁√225▁=▁15。	-2822
+7	-2823
*(3*	-2824
^2▁+▁9	-2825
▁=▁10,	-2826
▁E	-2827
▁-8	-2828
▁-8。	-2829
1▁=▁7,	-2830
:∫▁(((	-2831
▁∫▁(((	-2832
34	-2833
19。	-2834
:20	-2835
▁hu	-2836
▁-▁(1	-2837
−1▁=▁4×2	-2838
140	-2839
▁-▁15	-2840
200	-2841
▁+▁5))	-2842
−1▁=▁1×3	-2843
−1▁=▁4×3	-2844
uō	-2845
/2▁=▁4	-2846
▁+▁2)*	-2847
×22▁=▁2	-2848
▁+▁1/(2*	-2849
29	-2850
-2)	-2851
(6)。	-2852
:√3。	-2853
▁+▁2*	-2854
60°▁=▁√3。	-2855
65	-2856
:6。	-2857
)▁=▁30	-2858
:∫▁(1/(	-2859
×32▁=▁1	-2860
▁∫▁(1/(	-2861
▁×▁6▁=▁?	-2862
+8	-2863
:1/	-2864
:200	-2865
▁÷▁11	-2866
:32	-2867
^3*(	-2868
30°▁=▁1/2。	-2869
▁+▁1)	-2870
▁+▁24	-2871
−1▁=▁3×3	-2872
▁×▁8▁=▁?	-2873
:0°	-2874
:30	-2875
▁+▁1/	-2876
10(100	-2877
0°▁=▁1。	-2878
−1▁=▁1×2	-2879
−1▁=▁2×3	-2880
ià	-2881
iào	-2882
×52▁=▁1	-2883
−1▁=▁2×2	-2884
aO	-2885
:40	-2886
氧化钙	-2887
^6▁+	-2888
▁CaO	-2889
分解生成	-2890
碳酸钙高温	-2891
)▁=▁16	-2892
分解生成氧化钙	-2893
2▁-▁4×1×(3	-2894
分解生成氧化钙和二氧化碳	-2895
:72	-2896
íng	-2897
▁+▁4)*	-2898
+0)	-2899
2+0	-2900
)/(2*	-2901
▁=▁75	-2902
1▁=▁10,	-2903
▁÷▁3▁=▁?	-2904
与盐	-2905
中和	-2906
发生	-2907
(4*	-2908
aCl	-2909
与盐酸	-2910
▁HCl	-2911
中和反应	-2912
2▁+▁6	-2913
▁=▁22	-2914
▁NaCl	-2915
与盐酸发生	-2916
1▁=▁8,	-2917
与盐酸发生中和反应	-2918
氢氧化钠与盐酸发生中和反应	-2919
.2。	-2920
▁125	-2921
▁=▁38	-2922
)▁=▁64;	-2923
×52▁=▁125	-2924
30°▁=▁√3/2。	-2925
一片	-2926
变黄	-2927
子成	-2928
树叶	-2929
熟了	-2930
田野	-2931
:29	-2932
一片片	-2933
变黄了	-2934
稻子成	-2935
^5▁+	-2936
我爱秋天	-2937
田野里的	-2938
▁秋天来了	-2939
树叶变黄了	-2940
稻子成熟了	-2941
一片片落下来	-2942
秋天的天气很	-2943
×32▁=▁4	-2944
秋天的天气很凉爽	-2945
田野里的稻子成熟了	-2946
:√3/3。	-2947
×22▁=▁1	-2948
30°▁=▁√3/3。	-2949
氢气	-2950
=▁2	-2951
燃烧生成水	-2952
氢气在氧气中	-2953
氢气在氧气中燃烧生成水	-2954
桌子	-2955
.8。	-2956
/4。	-2957
▁=▁145	-2958
ài	-2959
出铜	-2960
溶液	-2961
置换	-2962
铁与	-2963
+3)	-2964
▁Fe	-2965
硫酸铜	-2966
反应置换	-2967
2▁-▁5	-2968
▁CuSO	-2969
▁FeSO	-2970
硫酸铜溶液	-2971
反应置换出铜	-2972
×12▁=▁5	-2973
铁与硫酸铜溶液	-2974
铁与硫酸铜溶液反应置换出铜	-2975
+2)	-2976
)▁+▁3*	-2977
)▁=▁25	-2978
×2▁=▁1	-2979
60°▁=▁1/2。	-2980
▁=▁-12▁-▁4×1×(-	-2981
ǎo▁sh	-2982
÷2▁=▁0	-2983
)▁=▁81;	-2984
45°▁=▁1。	-2985
72。	-2986
/5▁+	-2987
0)▁=▁1;	-2988
+11	-2989
-4)	-2990
30。	-2991
)▁=▁18	-2992
:90°	-2993
▁-▁9	-2994
▁+▁2)	-2995
▁+▁3*	-2996
▁-▁3*	-2997
▁+▁3)*	-2998
90°▁=▁1。	-2999
充分	-3000
可爱	-3001
椅子	-3002
35。	-3003
▁+▁3)	-3004
碳在氧气中	-3005
▁=▁140	-3006
充分燃烧生成	-3007
充分燃烧生成二氧化碳	-3008
碳在氧气中充分燃烧生成二氧化碳	-3009
7*	-3010
92	-3011
)▁=▁24	-3012
95	-3013
▁K	-3014
制取	-3015
酸钾	-3016
高锰	-3017
-3)	-3018
īng	-3019
KMnO	-3020
▁MnO	-3021
分解制取	-3022
酸钾加热	-3023
'(3)▁=	-3024
▁=▁110	-3025
分解制取氧气	-3026
高锰酸钾加热	-3027
▁÷▁4▁=▁?	-3028
高锰酸钾加热分解制取氧气	-3029
+19	-3030
(3)/	-3031
ǎo▁shī	-3032
,2	-3033
9*	-3034
小狗	-3035
+10	-3036
:80	-3037
▁-▁18	-3038
/2▁=▁5	-3039
37	-3040
.3。	-3041
.7。	-3042
*(4*	-3043
▁+▁4)	-3044
▁liàng	-3045
5%	-3046
小丽	-3047
+18	-3048
/5。	-3049
小丽买了	-3050
▁÷▁8▁=▁?	-3051
77	-3052
:500	-3053
0%	-3054
85	-3055
25,	-3056
▁÷▁7▁=▁?	-3057
án	-3058
+17	-3059
(2)*	-3060
9▁=▁?	-3061
+4)	-3062
▁+▁17	-3063
▁+▁2)/	-3064
▁÷▁6▁=▁?	-3065
+15	-3066
×32▁=▁45	-3067
+12	-3068
00;	-3069
^5/5▁+	-3070
)▁=▁-2*	-3071
+16	-3072
110	-3073
^1▁+▁9。	-3074
▁=▁729。	-3075
▁÷▁9▁=▁?	-3076
小猫	-3077
2-8	-3078
▁24	-3079
我喜欢	-3080
▁-▁2*	-3081
×102▁=▁1	-3082
▁+▁6▁=▁0。	-3083
之间	-3084
互相	-3085
应该	-3086
))/(	-3087
*(5*	-3088
之间应该	-3089
互相帮助	-3090
2▁+▁7	-3091
^2▁=▁1	-3092
同学之间应该	-3093
33333333	-3094
▁+▁1)/(4*	-3095
同学之间应该互相帮助	-3096
+9	-3097
wǔ	-3098
大海	-3099
00,	-3100
2+4	-3101
45。	-3102
▁+▁1)/(5*	-3103
▁+▁5)	-3104
▁-▁1/(	-3105
▁=▁02▁-▁4×1×(-	-3106
2-4	-3107
▁-▁14	-3108
▁+▁3)/	-3109
2▁-▁4×1×(6	-3110
(5*	-3111
6)/	-3112
▁xu	-3113
▁-▁6▁=▁0。	-3114
▁=▁12▁-▁4×1×(-	-3115
▁=▁-22▁-▁4×1×(-	-3116
小华	-3117
:22	-3118
^3/	-3119
20)/	-3120
小华买了	-3121
20)/2▁=▁20	-3122
.6。	-3123
240	-3124
▁=▁27	-3125
▁=▁22▁-▁4×1×(-	-3126
5(	-3127
360	-3128
)▁=▁8*	-3129
)▁=▁9*	-3130
6)/2▁=▁6	-3131
▁÷▁5▁=▁?	-3132
2▁+▁9	-3133
)/2▁=▁16	-3134
16)/2▁=▁16	-3135
米饭	-3136
+14	-3137
280	-3138
:28	-3139
:64	-3140
▁=▁26	-3141
▁=▁9(	-3142
)▁=▁100;	-3143
▁-▁12▁=▁0。	-3144
187。	-3145
^2▁+▁2	-3146
▁=▁81。	-3147
▁=▁2187。	-3148
2▁-▁4×1×(-12	-3149
(2)/	-3150
▁+▁4)/	-3151
▁=▁20.0	-3152
57	-3153
160	-3154
2+8	-3155
:50	-3156
:90	-3157
2▁-▁9	-3158
'(2)▁=	-3159
+1⁄2×1	-3160
▁=▁24。	-3161
^1▁+▁5。	-3162
)/2▁=▁12	-3163
12)/2▁=▁12	-3164
-18	-3165
5)/	-3166
▁+▁36	-3167
)▁=▁-3*	-3168
上课	-3169
十分	-3170
+13	-3171
上课听	-3172
2+1,	-3173
▁1),	-3174
▁1);	-3175
十分认真	-3176
小红上课听	-3177
▁=▁12。	-3178
▁=▁256。	-3179
)/2▁=▁19	-3180
19)/2▁=▁19	-3181
上体	-3182
育课	-3183
420	-3184
:54	-3185
没有去	-3186
:250	-3187
:400	-3188
上体育课	-3189
今天下雨	-3190
所以我们	-3191
因为今天下雨	-3192
所以我们没有去	-3193
74	-3194
-16	-3195
130	-3196
:3▁×	-3197
/2▁=▁7	-3198
/2▁=▁8	-3199
/2▁=▁9	-3200
2▁=▁32	-3201
▁=▁27。	-3202
^3▁+▁9。	-3203
^4▁+▁8。	-3204
▁÷▁2▁=▁?	-3205
0。	-3206
▁0),	-3207
▁0);	-3208
小明买了	-3209
▁=▁10.0	-3210
)/2▁=▁18	-3211
18)/2▁=▁18	-3212
42	-3213
yī	-3214
.1。	-3215
ōng	-3216
小红买了	-3217
▁=▁6(	-3218
)/2▁=▁13	-3219
▁÷▁11▁=▁-	-3220
13)/2▁=▁13	-3221
àn	-3222
8)/	-3223
▁yu	-3224
90.0	-3225
2▁-▁6	-3226
3▁=▁?	-3227
)/2▁=▁17	-3228
5)/2▁=▁5	-3229
17)/2▁=▁17	-3230
^2▁+▁1/(2*	-3231
▁+▁12▁=▁0。	-3232
2▁-▁4×1×(12	-3233
)/3	-3234
9)/	-3235
▁+▁20	-3236
▁hóng	-3237
^3/3▁+	-3238
▁+▁5)*	-3239
▁=▁1000	-3240
8)/2▁=▁8	-3241
×102▁=▁2	-3242
xiǎo▁hóng	-3243
sì	-3244
èr	-3245
一起	-3246
晚和	-3247
水果	-3248
水池	-3249
河水	-3250
135	-3251
260	-3252
75。	-3253
我喜欢在	-3254
晚和爸爸	-3255
▁-5),	-3256
▁-5);	-3257
▁=▁49	-3258
▁=▁160	-3259
晚和爸爸一起	-3260
×82▁=▁1	-3261
9)/2▁=▁9	-3262
▁×▁4▁=▁2	-3263
▁+▁1)/(2*	-3264
(1	-3265
^4/	-3266
áng	-3267
/2▁=▁6	-3268
▁=▁400	-3269
^1▁+▁4。	-3270
^2▁+▁4。	-3271
^2▁+▁8。	-3272
^4▁+▁5。	-3273
7)/	-3274
每人分到几本	-3275
lǎo▁shī	-3276
本本子平均分给	-3277
)/2▁=▁11	-3278
11)/2▁=▁11	-3279
2-6	-3280
▁=▁8(	-3281
7)/2▁=▁7	-3282
▁+▁1)▁+▁1)/(	-3283
uǒ	-3284
2);	-3285
3),	-3286
3);	-3287
:160	-3288
▁5),	-3289
▁-3),	-3290
▁-3);	-3291
▁=▁21	-3292
)▁=▁(-	-3293
)▁=▁7*	-3294
▁+▁1)▁+	-3295
▁+▁1)/(3*	-3296
38	-3297
上学	-3298
里开	-3299
480	-3300
了美丽	-3301
的花朵	-3302
:900	-3303
▁5);	-3304
▁6),	-3305
公园里开	-3306
▁-2),	-3307
▁-2);	-3308
▁-7),	-3309
▁-7);	-3310
了美丽的花朵	-3311
^1▁+▁7。	-3312
^3▁+▁2。	-3313
^3▁+▁5。	-3314
)/2▁=▁15	-3315
)▁=▁1/(2*	-3316
15)/2▁=▁15	-3317
:48	-3318
^4*(	-3319
▁6);	-3320
每本本子	-3321
▁-6),	-3322
▁-6);	-3323
▁-▁16	-3324
^(	-3325
:150	-3326
每个气球	-3327
每个苹果	-3328
▁=▁42	-3329
▁=▁48。	-3330
1428	-3331
▁8),	-3332
▁=▁243。	-3333
2▁=▁1⁄2×4	-3334
en	-3335
mā	-3336
^5)	-3337
wǒ▁m	-3338
▁7),	-3339
▁8);	-3340
每支铅笔	-3341
2▁-▁7	-3342
mā▁mā	-3343
▁-4),	-3344
▁-4);	-3345
▁=▁4(	-3346
wǒ▁men	-3347
▁=▁180	-3348
^1▁+▁6。	-3349
^4▁+▁4。	-3350
)/2▁=▁10	-3351
10)/2▁=▁10	-3352
.9。	-3353
▁+▁19	-3354
▁=▁135	-3355
)/2▁=▁14	-3356
14)/2▁=▁14	-3357
生日	-3358
/9。	-3359
ǐ▁zi	-3360
▁7);	-3361
^3▁+▁7。	-3362
^4▁+▁3。	-3363
66666666	-3364
39	-3365
▁3),	-3366
▁3);	-3367
▁=▁130	-3368
×58.5▁=▁29	-3369
32	-3370
妹妹	-3371
400	-3372
一边唱	-3373
一边跳	-3374
000)。	-3375
妹妹一边唱	-3376
2)▁=▁-	-3377
)▁=▁1/(	-3378
^1▁+▁1。	-3379
^2▁+▁3。	-3380
^4▁+▁1。	-3381
2▁=▁1⁄2×7	-3382
▁+▁4▁=▁0。	-3383
56	-3384
:56	-3385
每块橡皮	-3386
▁=▁105	-3387
)▁+▁1)*	-3388
2▁-▁4×1×(4	-3389
3.5	-3390
:88	-3391
/3▁=▁?	-3392
每人分到几颗	-3393
^4▁+▁2。	-3394
颗糖果平均分给	-3395
2▁=▁1⁄2×3	-3396
nǐ	-3397
320	-3398
:44	-3399
▁pi	-3400
▁yú	-3401
每颗糖果	-3402
uō▁zi	-3403
▁=▁-12	-3404
每人分到几块	-3405
个气球平均分给	-3406
块橡皮平均分给	-3407
光明	-3408
月光	-3409
105	-3410
▁4);	-3411
▁-1),	-3412
▁-1);	-3413
▁+▁1),	-3414
▁=▁36。	-3415
^1▁+▁2。	-3416
^1▁+▁8。	-3417
^2▁+▁5。	-3418
个苹果平均分给	-3419
2▁=▁1⁄2×8	-3420
:27	-3421
:49	-3422
▁28	-3423
▁2),	-3424
▁2);	-3425
2▁-▁8	-3426
3▁-▁(	-3427
^2▁+▁9。	-3428
2▁=▁1⁄2×5	-3429
(8	-3430
qì	-3431
我非	-3432
的表	-3433
/6。	-3434
350	-3435
sān	-3436
▁chē	-3437
得到老师	-3438
qì▁chē	-3439
▁=▁220	-3440
得到老师的表	-3441
^3▁+▁1。	-3442
^3▁+▁4。	-3443
^4▁+▁6。	-3444
80.0	-3445
:550	-3446
▁4),	-3447
▁=▁320。	-3448
▁×▁3▁=▁2	-3449
2▁=▁1⁄2×12	-3450
2▁=▁1⁄2×17	-3451
-1)2-	-3452
46.25	-3453
▁+▁25	-3454
▁=▁360	-3455
^2▁+▁7。	-3456
^3▁+▁3。	-3457
^4▁+▁7。	-3458
'(1)▁=▁1	-3459
2▁=▁1⁄2×13	-3460
2▁=▁1⁄2×15	-3461
2▁=▁1⁄2×18	-3462
▁+▁3)▁+▁1)/(	-3463
iě	-3464
,17	-3465
:25	-3466
(9)。	-3467
125)。	-3468
▁-8),	-3469
▁-8);	-3470
▁míng	-3471
7)▁=▁-	-3472
÷1▁=▁1	-3473
▁=▁109	-3474
这个箱子很开	-3475
那个盒子很关	-3476
×62▁=▁3	-3477
xiǎo▁míng	-3478
×58.5▁=▁1	-3479
▁=▁1÷1▁=▁1	-3480
天气	-3481
春光	-3482
春雨	-3483
春风	-3484
3(2	-3485
440	-3486
×20	-3487
25)。	-3488
:350	-3489
▁-▁13	-3490
▁-▁24	-3491
^5▁=▁3	-3492
▁=▁125	-3493
▁=▁16;	-3494
▁=▁80。	-3495
^1▁+▁3。	-3496
^3▁+▁8。	-3497
÷0.5▁=▁1	-3498
▁=▁0.5÷0.5▁=▁1	-3499
,19	-3500
90。	-3501
▁bǐ	-3502
2-12	-3503
:450	-3504
▁-▁17	-3505
▁=▁54	-3506
▁=▁85	-3507
▁=▁88	-3508
/7▁=▁?	-3509
▁=▁54。	-3510
▁yǐ▁zi	-3511
▁+▁3)▁+	-3512
2▁=▁1⁄2×11	-3513
▁=▁62▁-▁4×1×(	-3514
开花	-3515
花园	-3516
▁21	-3517
30.0	-3518
70.0	-3519
+1)2+	-3520
-2)2-	-3521
1▁-▁(	-3522
:∫▁((	-3523
▁+▁11	-3524
▁∫▁((	-3525
:∫▁(2*	-3526
^4/4▁+	-3527
▁=▁500	-3528
▁∫▁(2*	-3529
)▁=▁(3*	-3530
^3▁+▁6。	-3531
÷0.5▁=▁8	-3532
2▁=▁1⁄2×6	-3533
▁=▁4÷0.5▁=▁8	-3534
,16	-3535
,18	-3536
210	-3537
70。	-3538
:650	-3539
6)▁=▁-	-3540
▁=▁-30	-3541
^4▁+▁9。	-3542
40%	-3543
^3*	-3544
-5)2+	-3545
▁-▁20	-3546
^2▁+▁6	-3547
▁=▁-40	-3548
▁×▁40%	-3549
^2▁+▁6。	-3550
2▁=▁1⁄2×14	-3551
76	-3552
2+12	-3553
2▁=▁72	-3554
×62▁=▁2	-3555
×72▁=▁1	-3556
▁+▁4)▁+	-3557
▁=▁108。	-3558
^(3/2)/3	-3559
▁-▁20▁=▁0。	-3560
61。	-3561
2+0,	-3562
▁tiào	-3563
▁=▁240	-3564
/2▁=▁10	-3565
^2▁+▁1/	-3566
▁=▁162。	-3567
2▁=▁1⁄2×9	-3568
2▁=▁1⁄2×16	-3569
▁=▁-62▁-▁4×1×(	-3570
270	-3571
36。	-3572
▁=▁95	-3573
142857	-3574
▁=▁16,	-3575
▁=▁96。	-3576
每人分到几支	-3577
支铅笔平均分给	-3578
20)▁=▁81;	-3579
2▁=▁1⁄2×19	-3580
▁+▁30▁=▁0。	-3581
:0	-3582
115	-3583
145	-3584
32。	-3585
:35	-3586
^6)	-3587
^2▁+▁4	-3588
▁+▁2),	-3589
▁+▁3),	-3590
▁-▁(-5	-3591
▁qì▁chē	-3592
▁=▁1215。	-3593
▁+▁18▁=▁0。	-3594
,13	-3595
25.0	-3596
-4)2-	-3597
▁=▁-20	-3598
▁=▁45。	-3599
×92▁=▁1	-3600
18)▁=▁9;	-3601
42。	-3602
00)。	-3603
^6/6	-3604
^7/7	-3605
:0.25	-3606
▁=▁66	-3607
.9▁=▁?	-3608
^2▁+▁3	-3609
4)▁=▁4;	-3610
^2▁+▁1。	-3611
×102▁=▁5	-3612
÷2▁=▁0.25	-3613
▁=▁10935。	-3614
24)▁=▁100;	-3615
▁-▁24▁=▁0。	-3616
▁=▁0.5÷2▁=▁0.25	-3617
86	-3618
,20	-3619
25。	-3620
^2*	-3621
▁dú	-3622
:700	-3623
+5)2-	-3624
9▁-▁(	-3625
▁xiǎo	-3626
^2▁+▁8	-3627
÷1▁=▁4	-3628
▁=▁115	-3629
))▁+▁1)/(	-3630
10)▁=▁49;	-3631
2▁=▁1⁄2×20	-3632
▁+▁24▁=▁0。	-3633
▁-▁10▁=▁0。	-3634
▁=▁4÷1▁=▁4	-3635
98	-3636
wán	-3637
2+8,	-3638
:128	-3639
:800	-3640
-3)2-	-3641
▁=▁46	-3642
▁=▁7(	-3643
这个箱子很冷	-3644
那个盒子很热	-3645
)▁=▁(2*	-3646
:3▁+▁17	-3647
^2▁+▁2。	-3648
▁+▁2)▁+▁1)/(	-3649
▁=▁-32▁-▁4×1×(-	-3650
84	-3651
2+2	-3652
20%	-3653
330	-3654
390	-3655
500	-3656
80%	-3657
/18。	-3658
:750	-3659
+0)2-	-3660
+1)2-	-3661
+5)2+	-3662
▁-▁19	-3663
▁=▁14。	-3664
▁×▁20%	-3665
▁×▁80%	-3666
2)▁=▁9;	-3667
▁+▁2)▁+	-3668
÷2▁=▁0.5	-3669
▁zhuō▁zi	-3670
▁=▁1÷2▁=▁0.5	-3671
54	-3672
,14	-3673
340	-3674
2-20	-3675
:600	-3676
-5)2-	-3677
▁+▁13	-3678
▁+▁21	-3679
^2▁+▁5	-3680
▁-▁(-9	-3681
这个箱子很前	-3682
这个箱子很长	-3683
那个盒子很后	-3684
那个盒子很短	-3685
8)▁=▁4;	-3686
×102▁=▁3	-3687
▁+▁2)^2。	-3688
▁+▁8▁=▁0。	-3689
43	-3690
62	-3691
,11	-3692
220	-3693
33。	-3694
50%	-3695
▁+▁5),	-3696
▁=▁-36	-3697
▁×▁50%	-3698
这个箱子很快	-3699
那个盒子很慢	-3700
è▁liàng	-3701
5)▁=▁36;	-3702
▁+▁1)^2。	-3703
sh	-3704
.75	-3705
24。	-3706
75%	-3707
▁36	-3708
2+5,	-3709
2+6,	-3710
.5▁=▁?	-3711
2▁-▁(-	-3712
2▁=▁40	-3713
^2▁=▁9	-3714
▁=▁-11	-3715
▁=▁-18	-3716
▁=▁8.0	-3717
▁×▁75%	-3718
这个箱子很大	-3719
那个盒子很小	-3720
▁-▁5▁=▁0。	-3721
▁+▁20▁=▁0。	-3722
▁+▁4)▁+▁1)/(	-3723
25%	-3724
450	-3725
:98	-3726
▁ài	-3727
▁+▁56	-3728
)▁-▁3*	-3729
.8▁=▁?	-3730
▁=▁5.0	-3731
▁×▁25%	-3732
这个箱子很高	-3733
这个箱子很黑	-3734
那个盒子很白	-3735
那个盒子很矮	-3736
×22▁=▁3	-3737
▁-▁2▁=▁0。	-3738
:21	-3739
:42	-3740
2+10	-3741
:300	-3742
3▁=▁5	-3743
▁shuō	-3744
8)▁=▁-	-3745
^6/6▁+	-3746
▁=▁-24	-3747
▁=▁81,	-3748
这个箱子很多	-3749
那个盒子很少	-3750
▁-▁(-10	-3751
▁-▁(-15	-3752
▁+▁3)^2。	-3753
ǎi	-3754
10%	-3755
37。	-3756
▁22	-3757
▁25	-3758
)/((	-3759
2+7,	-3760
:850	-3761
+2)2-	-3762
8▁=▁?	-3763
▁xiào	-3764
^2▁=▁2	-3765
^3▁+▁4	-3766
^7/7▁+	-3767
▁=▁27,	-3768
▁×▁10%	-3769
▁-▁(-11	-3770
▁=▁135。	-3771
÷0.5▁=▁4	-3772
2▁=▁1⁄2×2	-3773
▁+▁15▁=▁0。	-3774
▁=▁2÷0.5▁=▁4	-3775
,15	-3776
170	-3777
34。	-3778
▁bà	-3779
▁zu	-3780
2-16	-3781
:950	-3782
▁xiě	-3783
+3)2-	-3784
.7▁=▁?	-3785
2▁-▁1/(	-3786
:2▁+▁18	-3787
▁-▁(-19	-3788
▁=▁192。	-3789
15)▁=▁4;	-3790
5)▁=▁16;	-3791
8)▁=▁36;	-3792
▁+▁5)▁+▁1)/(	-3793
460	-3794
:26	-3795
2+4,	-3796
▁wán	-3797
7▁-▁(	-3798
▁=▁4÷	-3799
.4▁=▁?	-3800
▁=▁13。	-3801
▁=▁420	-3802
2)▁=▁-1	-3803
▁=▁384。	-3804
▁=▁972。	-3805
)▁=▁121;	-3806
÷1▁=▁0.5	-3807
▁+▁5▁=▁0。	-3808
30)▁=▁121;	-3809
▁-▁30▁=▁0。	-3810
▁=▁4÷2▁=▁2	-3811
333333333333	-3812
▁=▁0.5÷1▁=▁0.5	-3813
2▁-▁4×1×(0)▁=▁4;	-3814
2▁-▁4×1×(6)▁=▁1;	-3815
ěn	-3816
本书	-3817
,10	-3818
60%	-3819
16.0	-3820
2+2,	-3821
▁běn	-3822
▁zhī	-3823
▁=▁5(	-3824
▁=▁-48	-3825
▁=▁11。	-3826
▁=▁280	-3827
▁=▁35。	-3828
▁=▁64,	-3829
▁×▁60%	-3830
)▁=▁12;	-3831
▁běn▁sh	-3832
6)▁=▁25;	-3833
▁-▁8▁=▁0。	-3834
/9	-3835
96	-3836
250	-3837
92。	-3838
真美丽	-3839
2+3,	-3840
▁kàn	-3841
真美丽呀	-3842
(3)/6	-3843
^5▁+▁8	-3844
×2▁=▁3	-3845
▁=▁2.0	-3846
)▁=▁24;	-3847
▁=▁486。	-3848
▁-▁15▁=▁0。	-3849
2▁-▁4×1×(0)▁=▁1;	-3850
23	-3851
47	-3852
▁27	-3853
▁hē	-3854
)^2)。	-3855
▁xīng	-3856
▁yuán	-3857
2▁-▁10	-3858
▁=▁-60	-3859
:5▁+▁15	-3860
▁=▁405。	-3861
4)▁=▁25;	-3862
ōng▁yuán	-3863
▁=▁3645。	-3864
▁-▁4▁=▁0。	-3865
2▁-▁4×1×(4)▁=▁9;	-3866
21	-3867
380	-3868
600	-3869
^4*	-3870
+5×6	-3871
2222	-3872
^5*(	-3873
▁chī	-3874
▁huā	-3875
▁+▁28	-3876
▁=▁58	-3877
▁=▁-50	-3878
▁=▁600	-3879
▁=▁720	-3880
▁+▁5)▁+	-3881
6)▁=▁49;	-3882
15)▁=▁64;	-3883
94	-3884
230	-3885
:96	-3886
▁32	-3887
▁bǎ	-3888
▁gè	-3889
把椅子	-3890
+4×8	-3891
/21。	-3892
10(1	-3893
2-10	-3894
ài▁y	-3895
▁+▁45	-3896
▁10^3	-3897
'(1)▁=	-3898
.6▁=▁?	-3899
^2▁+▁7	-3900
^4▁+▁9	-3901
▁+▁4),	-3902
ài▁yáng	-3903
▁+▁2)*(	-3904
÷0.5▁=▁2	-3905
▁+▁4)^2。	-3906
▁=▁1000,	-3907
▁=▁1458。	-3908
10(1000)。	-3909
▁bǎ▁yǐ▁zi	-3910
▁+▁10▁=▁0。	-3911
▁=▁1÷0.5▁=▁2	-3912
▁10^3▁=▁1000,	-3913
▁=▁-82▁-▁4×1×(	-3914
▁=▁32▁-▁4×1×(-	-3915
▁=▁-102▁-▁4×1×(2	-3916
64	-3917
▁26	-3918
+5×9	-3919
2+20	-3920
34.0	-3921
▁cǎo	-3922
)▁+▁5	-3923
3▁=▁7	-3924
3▁=▁8	-3925
▁=▁33	-3926
.3▁=▁?	-3927
^3▁+▁8	-3928
▁-▁(16	-3929
▁-▁(18	-3930
2▁=▁20。	-3931
▁=▁324。	-3932
▁=▁50.0	-3933
10)▁=▁9;	-3934
ǒu	-3935
2-2	-3936
明亮呀	-3937
+4×5	-3938
:1/1	-3939
:196	-3940
▁gǒu	-3941
真明亮呀	-3942
3▁×▁7	-3943
.0▁=▁?	-3944
▁=▁-15	-3945
▁=▁196	-3946
▁=▁560	-3947
3▁×▁420	-3948
▁-▁(-20	-3949
▁=▁2×98	-3950
▁=▁2916。	-3951
▁=▁2×98▁=▁196	-3952
支笔	-3953
快乐呀	-3954
ǐ▁hu	-3955
真快乐呀	-3956
:1000	-3957
▁+▁27	-3958
▁-▁11	-3959
▁1/2。	-3960
▁=▁34	-3961
÷1▁=▁2	-3962
ǐ▁huān	-3963
▁=▁-16	-3964
▁=▁19。	-3965
▁=▁245	-3966
▁zhī▁bǐ	-3967
3)▁=▁16;	-3968
)▁÷▁3▁=▁?	-3969
▁-▁3▁=▁0。	-3970
▁=▁2÷1▁=▁2	-3971
2▁-▁4×1×(0)▁=▁9;	-3972
真高	-3973
/1。	-3974
/8。	-3975
真高呀	-3976
+5×8	-3977
.33。	-3978
:234	-3979
)▁+▁6	-3980
3▁=▁6	-3981
^3▁+▁5	-3982
▁-▁(10	-3983
▁=▁25。	-3984
▁=▁4.0	-3985
这个箱子很上	-3986
那个盒子很下	-3987
)▁=▁12*	-3988
:4▁+▁16	-3989
^2▁+▁2*	-3990
190	-3991
20;	-3992
:(2	-3993
:38	-3994
^3。	-3995
▁31	-3996
+5×5	-3997
▁huà	-3998
)▁+▁9	-3999
+4)2-	-4000
▁tīng	-4001
^5▁+▁5	-4002
▁=▁20;	-4003
▁+▁1)^2;	-4004
▁+▁2)^2;	-4005
▁-▁3▁=▁?	-4006
-18)▁=▁81;	-4007
▁-▁18▁=▁0。	-4008
/7。	-4009
21。	-4010
28。	-4011
40;	-4012
▁kē	-4013
▁=▁37	-4014
.1▁=▁?	-4015
.2▁=▁?	-4016
2▁+▁10	-4017
2▁=▁56	-4018
^5▁+▁4	-4019
▁chàng	-4020
▁=▁25.0	-4021
▁-▁1▁=▁?	-4022
▁×▁7▁=▁4	-4023
20)/2▁=▁20×1	-4024
-3	-4025
真绿	-4026
720	-4027
:34	-4028
▁29	-4029
很美丽	-4030
真绿呀	-4031
+5×7	-4032
/36。	-4033
:220	-4034
▁guǒ	-4035
)▁+▁4	-4036
▁=▁3*	-4037
/5▁=▁?	-4038
3▁=▁12	-4039
3▁×▁40	-4040
^3▁+▁3	-4041
^4▁+▁2	-4042
▁=▁12;	-4043
▁=▁17。	-4044
▁=▁18;	-4045
▁=▁36;	-4046
3▁×▁230	-4047
íng▁guǒ	-4048
▁+▁5)^2。	-4049
▁×▁6▁=▁4	-4050
19)/2▁=▁19×1	-4051
▁=▁02▁-▁4×1×(	-4052
52	-4053
真矮	-4054
18,	-4055
▁42	-4056
真矮呀	-4057
.25。	-4058
/10。	-4059
13.0	-4060
40.0	-4061
748。	-4062
▁duǒ	-4063
▁=▁64	-4064
2▁=▁8。	-4065
^4▁+▁5	-4066
▁=▁250	-4067
)▁=▁40;	-4068
▁=▁5×44	-4069
▁-▁(-13)	-4070
▁-▁5▁=▁?	-4071
▁=▁8748。	-4072
×32▁=▁128	-4073
▁=▁4×32▁=▁128	-4074
▁=▁5×44▁=▁220	-4075
+0	-4076
13,	-4077
17,	-4078
^2/	-4079
很快乐	-4080
很明亮	-4081
+3×8	-4082
:144	-4083
▁māo	-4084
▁yún	-4085
:8▁+▁1	-4086
^3▁+▁9	-4087
^4▁+▁1	-4088
3▁×▁320	-4089
▁+▁1)*(	-4090
▁=▁125,	-4091
▁=▁1×18	-4092
10(100)。	-4093
×8+1⁄2×3	-4094
▁xǐ▁huān	-4095
^2▁=▁100,	-4096
18)/2▁=▁18×1	-4097
▁10^2▁=▁100,	-4098
▁=▁1×18▁=▁18	-4099
小呀	-4100
1)。	-4101
370	-4102
iān	-4103
▁56	-4104
▁90	-4105
真小呀	-4106
(1)。	-4107
+4×9	-4108
/12。	-4109
18.0	-4110
2+16	-4111
:117	-4112
▁pǎo	-4113
(2)/4	-4114
8▁=▁5	-4115
iān▁k	-4116
▁shān	-4117
^4▁+▁7	-4118
^5▁+▁3	-4119
óng▁xu	-4120
▁=▁12(	-4121
▁=▁30;	-4122
▁=▁36,	-4123
×92▁=▁2	-4124
iān▁kōng	-4125
▁+▁3)^2;	-4126
▁=▁6561。	-4127
▁+▁3▁=▁0。	-4128
▁liàng▁qì▁chē	-4129
2▁-▁4×1×(3)▁=▁4;	-4130
很绿	-4131
(32	-4132
16,	-4133
à▁h	-4134
+5×4	-4135
60.0	-4136
▁5^3	-4137
à▁hǎi	-4138
▁-▁(0	-4139
)▁=▁6;	-4140
6▁=▁0。	-4141
:29.25	-4142
^4▁+▁4	-4143
^5▁+▁1	-4144
^5▁+▁2	-4145
▁=▁2×3	-4146
▁=▁30。	-4147
▁=▁480	-4148
▁=▁490	-4149
3▁×▁370	-4150
5(125)。	-4151
×8+1⁄2×4	-4152
▁×▁5▁=▁3	-4153
▁yuè▁liàng	-4154
▁5^3▁=▁125,	-4155
666666666666	-4156
▁=▁2×32▁=▁64	-4157
×58.5▁=▁29.25	-4158
▁=▁102▁-▁4×1×(2	-4159
很高	-4160
14,	-4161
156	-4162
▁72	-4163
16)。	-4164
2(32	-4165
4444	-4166
1▁÷▁9	-4167
3▁=▁9	-4168
▁=▁2÷	-4169
▁niǎo	-4170
)▁-▁2*	-4171
2(32)。	-4172
2▁+▁11	-4173
2▁=▁90	-4174
:292.5	-4175
:∫▁(4*	-4176
áng▁zi	-4177
▁-▁(20	-4178
▁=▁18,	-4179
▁∫▁(4*	-4180
)▁=▁(6*	-4181
3▁×▁350	-4182
3▁×▁480	-4183
▁=▁5×18	-4184
+4×2▁=▁1	-4185
^5▁=▁32,	-4186
×18▁=▁45	-4187
▁-▁2▁=▁?	-4188
×100▁=▁50	-4189
▁+▁12▁=▁1	-4190
▁+▁2▁=▁0。	-4191
▁2^5▁=▁32,	-4192
▁=▁2÷2▁=▁1	-4193
▁=▁5×18▁=▁90	-4194
×58.5▁=▁292.5	-4195
▁=▁2.5×18▁=▁45	-4196
▁=▁0.5×100▁=▁50	-4197
2▁-▁4×1×(2)▁=▁1;	-4198
96。	-4199
+4×3	-4200
:245	-4201
(16)。	-4202
)▁+▁(	-4203
3▁×▁5	-4204
▁=▁4*	-4205
12▁=▁3	-4206
^3▁+▁6	-4207
^5▁+▁6	-4208
×2▁=▁2	-4209
▁=▁156	-4210
▁=▁1×3	-4211
▁=▁1×98	-4212
▁=▁4×18	-4213
+5×2▁=▁1	-4214
×102▁=▁6	-4215
×22▁=▁16	-4216
×8+1⁄2×5	-4217
×98▁=▁245	-4218
▁÷▁12▁=▁-	-4219
▁÷▁9▁=▁6。	-4220
▁=▁1×32▁=▁32	-4221
▁=▁1×98▁=▁98	-4222
▁=▁4×18▁=▁72	-4223
▁=▁112▁-▁4×1×(3	-4224
▁=▁2.5×98▁=▁245	-4225
1*	-4226
大呀	-4227
很矮	-4228
3(8	-4229
:37	-4230
真大呀	-4231
/63。	-4232
24.0	-4233
38.0	-4234
▁3^4	-4235
▁5^6	-4236
5(156	-4237
8▁=▁6	-4238
3(81)。	-4239
3▁=▁10	-4240
^4▁+▁3	-4241
▁=▁-14	-4242
▁=▁-54	-4243
▁=▁-72	-4244
▁=▁3+1	-4245
3▁×▁390	-4246
×22▁=▁22	-4247
▁-▁4▁=▁?	-4248
5(15625)。	-4249
×40▁=▁100	-4250
▁=▁15625,	-4251
▁3^4▁=▁81,	-4252
16)/2▁=▁16×1	-4253
▁5^6▁=▁15625,	-4254
▁=▁82▁-▁4×1×(	-4255
.3333333333333	-4256
▁=▁2.5×40▁=▁100	-4257
很小	-4258
4.5	-4259
490	-4260
7)。	-4261
×38	-4262
āng	-4263
▁35	-4264
▁48	-4265
可爱呀	-4266
安静呀	-4267
温暖呀	-4268
374。	-4269
8888	-4270
91.0	-4271
▁2^4	-4272
真可爱呀	-4273
真安静呀	-4274
真温暖呀	-4275
3▁÷▁9	-4276
)▁+▁5*	-4277
)▁+▁6*	-4278
/4▁=▁?	-4279
/9▁=▁?	-4280
2(16)。	-4281
:1▁+▁1	-4282
^3▁+▁1	-4283
^3▁+▁7	-4284
^4▁+▁6	-4285
▁-▁(-7	-4286
▁zhāng	-4287
)▁=▁16*	-4288
▁+▁3)*(	-4289
+1⁄2×1×6	-4290
+1⁄2×1×8	-4291
▁+▁12▁=▁2	-4292
2▁=▁1⁄2×1×	-4293
×6+1⁄2×1×6	-4294
×8+1⁄2×1×8	-4295
▁+▁1/2▁=▁?	-4296
▁2^4▁=▁16,	-4297
17)/2▁=▁17×1	-4298
▁zhāng▁zhuō▁zi	-4299
48。	-4300
56。	-4301
+2×5	-4302
37.0	-4303
43)。	-4304
72.0	-4305
:110	-4306
:392	-4307
▁2^2	-4308
▁3^5	-4309
2(4)。	-4310
▁=▁96	-4311
:∫▁(9*	-4312
^4▁+▁8	-4313
^5▁+▁7	-4314
▁=▁392	-4315
▁∫▁(9*	-4316
2▁=▁104	-4317
3(243)。	-4318
3▁×▁280	-4319
4▁=▁40。	-4320
:146.25	-4321
▁-▁(-16	-4322
▁=▁243,	-4323
▁=▁2×44	-4324
▁=▁4×98	-4325
+1⁄2×2×5	-4326
^3▁=▁40。	-4327
▁+▁5)^2;	-4328
▁=▁4374。	-4329
▁=▁4×100	-4330
×32▁=▁160	-4331
▁2^2▁=▁4,	-4332
^(3/2)/3▁-	-4333
×5+1⁄2×2×5	-4334
▁gōng▁yuán	-4335
▁3^5▁=▁243,	-4336
▁=▁2×44▁=▁88	-4337
▁=▁4×98▁=▁392	-4338
▁=▁5×32▁=▁160	-4339
×58.5▁=▁146.25	-4340
▁=▁4×100▁=▁400	-4341
−1▁=▁5×2^3▁=▁40。	-4342
78	-4343
44;	-4344
76。	-4345
88。	-4346
▁54	-4347
很温暖	-4348
(8)。	-4349
45.0	-4350
82.0	-4351
:1/3	-4352
▁zhǐ	-4353
+2×10	-4354
▁+▁40	-4355
▁+▁54	-4356
.2▁=▁1	-4357
2▁=▁96	-4358
3▁×▁60	-4359
▁-▁(15	-4360
▁=▁-35	-4361
)▁=▁18*	-4362
3▁×▁330	-4363
×32▁=▁3	-4364
+1⁄2×1×5	-4365
×102▁=▁7	-4366
×62▁=▁72	-4367
▁×▁7▁=▁2	-4368
'(1)▁=▁2*	-4369
'(2)▁=▁-1	-4370
×10+1⁄2×2	-4371
×44▁=▁110	-4372
×5+1⁄2×1×5	-4373
▁+▁1/1▁=▁?	-4374
×58.5▁=▁117	-4375
▁=▁2.5×44▁=▁110	-4376
▁=▁2×58.5▁=▁117	-4377
,1	-4378
)/2	-4379
10;	-4380
290	-4381
39。	-4382
▁23	-4383
+2×3	-4384
+3×6	-4385
+4×7	-4386
+5×3	-4387
48.0	-4388
7777	-4389
:176	-4390
▁2^3	-4391
▁3^3	-4392
2(8)。	-4393
▁+▁30	-4394
3(27)。	-4395
3▁=▁15	-4396
3▁×▁30	-4397
^5▁+▁9	-4398
×3▁=▁3	-4399
▁=▁234	-4400
▁=▁40;	-4401
▁=▁7+1	-4402
)▁=▁18;	-4403
)▁=▁48;	-4404
3▁×▁190	-4405
3▁×▁300	-4406
3▁×▁380	-4407
▁=▁2×40	-4408
×3+1⁄2×2	-4409
×32▁=▁16	-4410
×32▁=▁80	-4411
×5+1⁄2×4	-4412
×6+1⁄2×3	-4413
×6+1⁄2×5	-4414
×7+1⁄2×5	-4415
×10+1⁄2×1	-4416
×9+1⁄2×1×	-4417
▁2^3▁=▁8,	-4418
▁=▁4×58.5	-4419
▁÷▁7▁=▁8。	-4420
▁÷▁8▁=▁3。	-4421
▁3^3▁=▁27,	-4422
▁=▁100▁×▁0	-4423
▁=▁2×40▁=▁80	-4424
▁=▁2.5×32▁=▁80	-4425
×7+1⁄2×5×72▁=▁1	-4426
▁=▁4×58.5▁=▁234	-4427
68	-4428
很大	-4429
(25	-4430
26。	-4431
48;	-4432
560	-4433
^(7	-4434
×50	-4435
很安静	-4436
)/2。	-4437
+3×9	-4438
.75。	-4439
5(25	-4440
▁-▁(5	-4441
▁=▁84	-4442
)▁=▁-3	-4443
3▁×▁80	-4444
5(25)。	-4445
:∫▁(6*	-4446
^3▁+▁2	-4447
×3▁=▁4	-4448
×3▁=▁5	-4449
▁=▁-25	-4450
▁=▁30,	-4451
▁=▁320	-4452
▁=▁50。	-4453
▁=▁540	-4454
▁∫▁(6*	-4455
3▁×▁200	-4456
3▁×▁440	-4457
^2▁=▁25,	-4458
×4+1⁄2×2	-4459
×9+1⁄2×3	-4460
×9+1⁄2×5	-4461
×98▁=▁49	-4462
▁=▁1×100	-4463
'(1)▁=▁1/	-4464
)^2▁-▁1/(	-4465
▁píng▁guǒ	-4466
▁xiǎo▁gǒu	-4467
▁÷▁4▁=▁7。	-4468
▁÷▁7▁=▁6。	-4469
×5+1⁄2×4×5	-4470
▁+▁16▁=▁0。	-4471
▁5^2▁=▁25,	-4472
▁=▁500▁×▁0	-4473
▁=▁0.5×98▁=▁49	-4474
▁=▁1×100▁=▁100	-4475
▁=▁72▁-▁4×1×(6	-4476
71	-4477
97	-4478
uǐ	-4479
真红	-4480
(72	-4481
5(6	-4482
65。	-4483
9)。	-4484
95。	-4485
真红呀	-4486
+2×9	-4487
+4×6	-4488
26.0	-4489
96.0	-4490
:490	-4491
▁5^4	-4492
▁-▁(6	-4493
▁=▁31	-4494
▁=▁94	-4495
)▁+▁4*	-4496
)▁=▁-5	-4497
/2▁=▁?	-4498
2▁=▁24	-4499
3▁×▁50	-4500
▁-▁(11	-4501
▁=▁56。	-4502
)▁=▁(4*	-4503
3▁×▁150	-4504
3▁×▁260	-4505
5(625)。	-4506
6/2▁=▁1	-4507
×18▁=▁9	-4508
×22▁=▁8	-4509
▁=▁-13。	-4510
▁=▁1×44	-4511
▁=▁5×98	-4512
▁=▁625,	-4513
16)▁=▁0;	-4514
×2+1⁄2×2	-4515
×9+1⁄2×2	-4516
▁-▁(-14)	-4517
▁-▁7▁=▁?	-4518
▁=▁2×100	-4519
▁=▁5×100	-4520
×102▁=▁50	-4521
×62▁=▁126	-4522
▁=▁900▁×▁0	-4523
▁5^4▁=▁625,	-4524
▁=▁1×44▁=▁44	-4525
▁=▁0.5×18▁=▁9	-4526
▁=▁5×98▁=▁490	-4527
▁=▁-92▁-▁4×1×(	-4528
▁=▁2×100▁=▁200	-4529
▁=▁42▁-▁4×1×(0	-4530
▁=▁5×100▁=▁500	-4531
-2	-4532
410	-4533
900	-4534
^2。	-4535
很可爱	-4536
+3×3	-4537
.67。	-4538
2-18	-4539
)▁+▁7	-4540
5▁=▁1	-4541
▁-▁(8	-4542
▁-▁(9	-4543
▁10^4	-4544
▁5/3。	-4545
▁=▁68	-4546
▁=▁74	-4547
▁=▁-28	-4548
▁=▁-80	-4549
▁=▁21。	-4550
▁=▁270	-4551
▁=▁45;	-4552
▁=▁900	-4553
2/2▁=▁1	-4554
×42▁=▁4	-4555
×102▁=▁8	-4556
×2+1⁄2×4	-4557
×22▁=▁18	-4558
×3+1⁄2×1	-4559
×3+1⁄2×3	-4560
'(2)▁=▁2*	-4561
▁=▁10000,	-4562
▁×▁5▁=▁10	-4563
▁÷▁3▁=▁9。	-4564
▁÷▁7▁=▁3。	-4565
)▁+▁2)/(2*	-4566
10(10000)。	-4567
.666666666666	-4568
▁10^4▁=▁10000,	-4569
.66666666666666	-4570
×8+1⁄2×3×82▁=▁1	-4571
▁=▁-42▁-▁4×1×(0	-4572
06	-4573
58	-4574
99	-4575
很红	-4576
(64	-4577
27。	-4578
30;	-4579
5(3	-4580
:23	-4581
:57	-4582
:58	-4583
+2×4	-4584
+2×8	-4585
+4×4	-4586
125,	-4587
:(13	-4588
+5×10	-4589
▁3/4。	-4590
▁=▁86	-4591
(729)。	-4592
/6▁=▁?	-4593
2▁-▁11	-4594
2▁=▁54	-4595
3▁×▁20	-4596
:9▁÷▁3	-4597
▁-▁(-8	-4598
▁=▁-27	-4599
▁=▁-90	-4600
▁=▁176	-4601
▁=▁18(	-4602
▁=▁23。	-4603
▁=▁450	-4604
▁=▁63;	-4605
▁=▁72;	-4606
)▁=▁20;	-4607
)▁=▁30;	-4608
3▁×▁250	-4609
▁-▁(-17	-4610
▁=▁4×44	-4611
'(1)▁=▁2	-4612
4)▁=▁16;	-4613
5(3125)。	-4614
7▁=▁320。	-4615
×102▁=▁9	-4616
×5+1⁄2×5	-4617
×8+1⁄2×2	-4618
▁+▁4)^2;	-4619
▁-▁6▁=▁?	-4620
▁5^5▁=▁3	-4621
50▁×▁0.75	-4622
^6▁=▁320。	-4623
×10+1⁄2×5	-4624
▁tài▁yáng	-4625
▁÷▁3▁=▁8。	-4626
▁÷▁4▁=▁5。	-4627
▁÷▁6▁=▁6。	-4628
8▁=▁10935。	-4629
−1▁=▁5×3^7	-4630
▁+▁1/3▁=▁?	-4631
▁tiān▁kōng	-4632
▁5^5▁=▁3125,	-4633
▁=▁4×44▁=▁176	-4634
▁=▁-42▁-▁4×1×(-	-4635
19,	-4636
:(4	-4637
▁37	-4638
+1×6	-4639
+3×5	-4640
75.0	-4641
▁3^6	-4642
0000,	-4643
3(9)。	-4644
▁10^6	-4645
)▁+▁9*	-4646
0000)。	-4647
▁=▁-21	-4648
▁=▁24(	-4649
▁=▁24;	-4650
▁=▁26。	-4651
▁=▁32,	-4652
▁=▁40,	-4653
▁=▁54,	-4654
▁=▁60。	-4655
3(729)。	-4656
3▁×▁110	-4657
3▁×▁130	-4658
3▁×▁140	-4659
3▁×▁360	-4660
3▁×▁410	-4661
6▁=▁96。	-4662
^2▁=▁9,	-4663
^3▁+▁2*	-4664
▁-▁(-3)	-4665
▁=▁120(	-4666
▁=▁729,	-4667
'(2)▁=▁-	-4668
)▁=▁-12;	-4669
+1⁄2×3×5	-4670
50▁×▁0.8	-4671
×2+1⁄2×1	-4672
×22▁=▁26	-4673
×42▁=▁56	-4674
×62▁=▁10	-4675
'(3)▁=▁-1	-4676
)▁÷▁4▁=▁?	-4677
)▁÷▁9▁=▁?	-4678
6▁=▁1215。	-4679
▁3^2▁=▁9,	-4680
^5▁=▁1215。	-4681
×5+1⁄2×3×5	-4682
:3▁+▁17▁=▁?	-4683
▁10^6▁=▁100	-4684
▁3^6▁=▁729,	-4685
10(1000000)。	-4686
:3▁+▁17▁=▁20。	-4687
▁=▁92▁-▁4×1×(	-4688
▁10^6▁=▁1000000,	-4689
225	-4690
470	-4691
54。	-4692
ǐ▁f	-4693
000,	-4694
12.0	-4695
17.0	-4696
92.0	-4697
)▁+▁8	-4698
6▁=▁1	-4699
ǐ▁fàn	-4700
▁10^5	-4701
▁=▁7*	-4702
)▁=▁8;	-4703
▁+▁12)	-4704
▁=▁24,	-4705
▁=▁31。	-4706
▁=▁32;	-4707
▁=▁38。	-4708
3▁×▁160	-4709
3▁×▁460	-4710
3▁×▁470	-4711
3▁×▁490	-4712
▁-▁(13)	-4713
50▁×▁0.4	-4714
5▁=▁162。	-4715
:10▁+▁10	-4716
×102▁=▁4	-4717
×3+1⁄2×4	-4718
×62▁=▁90	-4719
×9+1⁄2×4	-4720
^4▁=▁162。	-4721
▁-▁12▁=▁-	-4722
▁÷▁2▁=▁3。	-4723
▁÷▁2▁=▁8。	-4724
×102▁=▁150	-4725
×9+1⁄2×1×9	-4726
▁=▁100000,	-4727
10(100000)。	-4728
▁10^5▁=▁100000,	-4729
▁=▁-52▁-▁4×1×(0	-4730
-4	-4731
430	-4732
9.5	-4733
:(7	-4734
:39	-4735
:75	-4736
×30	-4737
2(64	-4738
5555	-4739
:104	-4740
:126	-4741
▁2^6	-4742
)2+1,	-4743
9▁=▁3	-4744
▁-▁(2	-4745
▁4/3。	-4746
2(64)。	-4747
2▁-▁2*	-4748
3▁=▁8。	-4749
▁-▁(19	-4750
▁=▁-45	-4751
▁=▁63,	-4752
)▁=▁56;	-4753
3▁×▁100	-4754
3▁×▁120	-4755
3▁×▁270	-4756
3▁×▁340	-4757
40▁=▁40	-4758
^2▁=▁8。	-4759
▁-▁(14)	-4760
'(2)▁=▁1	-4761
×2+1⁄2×3	-4762
×22▁=▁12	-4763
▁lǎo▁shī	-4764
)▁÷▁5▁=▁?	-4765
▁÷▁2▁=▁9。	-4766
▁÷▁3▁=▁2。	-4767
2▁-▁4▁=▁0。	-4768
▁2^6▁=▁64,	-4769
▁=▁200▁×▁0	-4770
▁=▁1×40▁=▁40	-4771
▁=▁52▁-▁4×1×(0	-4772
×8+1⁄2×4×82▁=▁1	-4773
×9+1⁄2×3×92▁=▁1	-4774
−1▁=▁2×2^2▁=▁8。	-4775
▁=▁-92▁-▁4×1×(2	-4776
-6	-4777
-7	-4778
540	-4779
:70	-4780
:84	-4781
+1×5	-4782
2+30	-4783
46.0	-4784
81.0	-4785
+1×10	-4786
181.0	-4787
▁=▁78	-4788
))/(2*	-4789
.8▁+▁5	-4790
:∫▁(5*	-4791
^2/2▁+	-4792
×4▁=▁7	-4793
×5▁=▁8	-4794
▁+▁24)	-4795
▁=▁20,	-4796
▁=▁33。	-4797
▁=▁44,	-4798
▁=▁630	-4799
▁=▁72,	-4800
▁∫▁(5*	-4801
)▁=▁60;	-4802
3▁=▁16。	-4803
3▁×▁210	-4804
3▁×▁450	-4805
5)▁=▁0;	-4806
▁=▁150(	-4807
▁dà▁hǎi	-4808
'(1)▁=▁-	-4809
6▁=▁729。	-4810
8▁=▁128。	-4811
^2▁=▁16。	-4812
^5▁=▁96。	-4813
×2+1⁄2×5	-4814
×4+1⁄2×5	-4815
×44▁=▁22	-4816
▁fáng▁zi	-4817
^5▁=▁729。	-4818
▁-▁11▁=▁-	-4819
▁xiǎo▁māo	-4820
▁÷▁2▁=▁6。	-4821
▁÷▁3▁=▁5。	-4822
▁÷▁4▁=▁6。	-4823
▁÷▁8▁=▁8。	-4824
▁÷▁9▁=▁3。	-4825
▁÷▁9▁=▁8。	-4826
×5+1⁄2×5×5	-4827
▁+▁25▁=▁0。	-4828
15)/2▁=▁15×1	-4829
▁=▁0.5×32▁=▁16	-4830
▁=▁0.5×44▁=▁22	-4831
▁=▁62▁-▁4×1×(0	-4832
▁=▁92▁-▁4×1×(2	-4833
×9+1⁄2×5×92▁=▁2	-4834
−1▁=▁3×2^5▁=▁96。	-4835
−1▁=▁4×2^2▁=▁16。	-4836
60;	-4837
:(8	-4838
×34	-4839
×72	-4840
▁33	-4841
:50。	-4842
(2)▁+	-4843
3▁÷▁7	-4844
▁2/5。	-4845
2▁-▁25	-4846
2▁=▁60	-4847
3▁=▁23	-4848
3▁=▁9。	-4849
:7▁+▁1	-4850
:∫▁(3*	-4851
▁=▁-33	-4852
▁=▁210	-4853
▁=▁55。	-4854
▁=▁60;	-4855
▁=▁64;	-4856
▁∫▁(3*	-4857
)▁=▁72;	-4858
2▁-▁(-1	-4859
3▁×▁170	-4860
3▁×▁430	-4861
5▁=▁64。	-4862
5▁=▁80。	-4863
6)▁=▁0;	-4864
:12▁+▁8	-4865
:36▁÷▁4	-4866
^2▁=▁9。	-4867
×32▁=▁2	-4868
▁+▁4)*(	-4869
'(3)▁=▁1	-4870
)▁=▁-40;	-4871
7▁=▁192。	-4872
8▁=▁256。	-4873
9)▁=▁36;	-4874
^3▁+▁1)/	-4875
^4▁=▁64。	-4876
×22▁=▁14	-4877
×22▁=▁24	-4878
×42▁=▁32	-4879
×42▁=▁64	-4880
×6+1⁄2×4	-4881
▁tóng▁xu	-4882
'(1)▁=▁3*	-4883
^6▁=▁192。	-4884
▁÷▁5▁=▁6。	-4885
▁÷▁5▁=▁9。	-4886
▁÷▁8▁=▁2。	-4887
25)▁=▁100;	-4888
2▁-▁9▁=▁0。	-4889
×102▁=▁250	-4890
2▁-▁25▁=▁0。	-4891
:2▁+▁18▁=▁?	-4892
:2▁+▁18▁=▁20。	-4893
▁=▁-72▁-▁4×1×(	-4894
−1▁=▁1×3^2▁=▁9。	-4895
▁=▁-52▁-▁4×1×(-	-4896
2▁-▁4×1×(4)▁=▁0;	-4897
−1▁=▁4×2^4▁=▁64。	-4898
▁=▁12▁-▁4×1×(-12	-4899
0*	-4900
22。	-4901
310	-4902
64。	-4903
68。	-4904
▁38	-4905
+3×7	-4906
2+24	-4907
:(17	-4908
(2)/4。	-4909
3▁×▁70	-4910
×4▁=▁4	-4911
×4▁=▁5	-4912
▁=▁27;	-4913
▁=▁50;	-4914
▁=▁75。	-4915
)▁=▁45;	-4916
3▁=▁20。	-4917
3▁×▁290	-4918
3▁×▁310	-4919
:6▁+▁14	-4920
▁=▁2×18	-4921
▁=▁300(	-4922
▁=▁4×40	-4923
▁=▁5×40	-4924
4▁=▁108。	-4925
50▁×▁0.1	-4926
7▁=▁729。	-4927
^2▁=▁20。	-4928
×22▁=▁28	-4929
×40▁=▁20	-4930
×7+1⁄2×3	-4931
▁+▁9▁=▁?	-4932
▁×▁2▁=▁1	-4933
)▁÷▁7▁=▁?	-4934
^3▁=▁108。	-4935
^6▁=▁729。	-4936
^7▁=▁128。	-4937
×4+1⁄2×1×	-4938
×62▁=▁144	-4939
▁÷▁3▁=▁6。	-4940
▁÷▁6▁=▁4。	-4941
▁÷▁8▁=▁4。	-4942
▁÷▁8▁=▁5。	-4943
×102▁=▁300	-4944
▁=▁2×18▁=▁36	-4945
▁=▁4×40▁=▁160	-4946
▁=▁5×40▁=▁200	-4947
▁=▁0.5×40▁=▁20	-4948
−1▁=▁5×2^2▁=▁20。	-4949
▁=▁-112▁-▁4×1×(3	-4950
▁=▁-72▁-▁4×1×(12	-4951
87	-4952
yú	-4953
我画	-4954
我看	-4955
朵花	-4956
580	-4957
700	-4958
840	-4959
:31	-4960
:5/	-4961
^(5	-4962
▁44	-4963
+1×8	-4964
69.0	-4965
2▁+▁0	-4966
▁+▁49	-4967
▁-▁(4	-4968
▁5/2。	-4969
)▁+▁7*	-4970
10▁=▁3	-4971
3▁=▁39	-4972
▁=▁28。	-4973
▁=▁42。	-4974
▁=▁56;	-4975
▁=▁840	-4976
▁=▁90。	-4977
)▁=▁24*	-4978
5▁=▁48。	-4979
6/2▁=▁4	-4980
:1▁+▁19	-4981
×82▁=▁2	-4982
▁-▁(-18	-4983
'(3)▁=▁4	-4984
)▁=▁-18;	-4985
-1)▁=▁4;	-4986
4▁=▁135。	-4987
6▁=▁128。	-4988
6▁=▁972。	-4989
8▁=▁384。	-4990
^3▁-▁1/(	-4991
^4▁=▁48。	-4992
×62▁=▁54	-4993
▁duǒ▁huā	-4994
7▁=▁3645。	-4995
8▁=▁2187。	-4996
^3▁=▁135。	-4997
^5▁=▁128。	-4998
^5▁=▁972。	-4999
^7▁=▁384。	-5000
×7+1⁄2×1×	-5001
▁÷▁2▁=▁7。	-5002
▁÷▁4▁=▁4。	-5003
▁÷▁5▁=▁2。	-5004
▁÷▁5▁=▁8。	-5005
▁÷▁6▁=▁9。	-5006
▁÷▁7▁=▁7。	-5007
2▁-▁1▁=▁0。	-5008
^6▁=▁3645。	-5009
^7▁=▁2187。	-5010
×102▁=▁200	-5011
▁+▁36▁=▁0。	-5012
:1▁+▁19▁=▁?	-5013
:5▁+▁15▁=▁?	-5014
▁-▁(-7)▁=▁-	-5015
14)/2▁=▁14×1	-5016
:1▁+▁19▁=▁20。	-5017
:5▁+▁15▁=▁20。	-5018
▁=▁42▁-▁4×1×(-	-5019
−1▁=▁3×2^4▁=▁48。	-5020
-8	-5021
63	-5022
xu	-5023
我听	-5024
1.5	-5025
375	-5026
49。	-5027
520	-5028
78。	-5029
800	-5030
940	-5031
:(5	-5032
:79	-5033
^5*	-5034
×58	-5035
×68	-5036
(6)/	-5037
)^2*	-5038
+2×7	-5039
/15。	-5040
11.0	-5041
:(16	-5042
▁xuě	-5043
+4×10	-5044
^(7/2	-5045
▁+▁81	-5046
▁3/2。	-5047
10▁=▁4	-5048
12▁=▁6	-5049
3▁=▁33	-5050
3▁=▁37	-5051
:∫▁(7*	-5052
▁-▁(17	-5053
▁=▁-44	-5054
▁=▁-56	-5055
▁=▁-70	-5056
▁=▁26;	-5057
▁=▁520	-5058
▁=▁63。	-5059
▁=▁800	-5060
▁∫▁(7*	-5061
)▁=▁32;	-5062
/2▁=▁15	-5063
3▁×▁240	-5064
▁=▁100(	-5065
▁kē▁cǎo	-5066
'(1)▁=▁3	-5067
^4▁=▁80。	-5068
×22▁=▁10	-5069
×7+1⁄2×2	-5070
▁-▁8▁=▁?	-5071
'(2)▁=▁1/	-5072
7▁=▁1458。	-5073
×10+1⁄2×4	-5074
▁÷▁2▁=▁2。	-5075
▁÷▁3▁=▁4。	-5076
▁÷▁6▁=▁2。	-5077
▁÷▁8▁=▁6。	-5078
^6▁=▁1458。	-5079
×4+1⁄2×1×4	-5080
−1▁=▁5×2^4▁=▁80。	-5081
31	-5082
,25	-5083
63。	-5084
660	-5085
72;	-5086
:(9	-5087
:65	-5088
×52	-5089
×64	-5090
×80	-5091
)/2;	-5092
/16。	-5093
00.0	-5094
2-30	-5095
54.0	-5096
:(18	-5097
:(19	-5098
)/2▁-	-5099
+3×10	-5100
356.0	-5101
7▁=▁2	-5102
8▁=▁2	-5103
▁2/3。	-5104
▁=▁76	-5105
▁=▁9*	-5106
/8▁=▁?	-5107
20▁=▁8	-5108
2▁+▁3*	-5109
3▁=▁16	-5110
3▁×▁90	-5111
4▁=▁8。	-5112
:∫▁(8*	-5113
×5▁=▁9	-5114
▁=▁15(	-5115
▁=▁15;	-5116
▁=▁175	-5117
▁=▁350	-5118
▁=▁440	-5119
▁=▁580	-5120
▁=▁660	-5121
▁=▁700	-5122
▁∫▁(8*	-5123
1)▁=▁0;	-5124
3▁=▁27。	-5125
3▁×▁500	-5126
4▁=▁24。	-5127
4▁=▁27。	-5128
5▁=▁32。	-5129
7▁=▁64。	-5130
^3▁=▁8。	-5131
×22▁=▁6	-5132
50▁×▁0.6	-5133
^3▁=▁24。	-5134
^3▁=▁27。	-5135
^4▁=▁32。	-5136
^6▁=▁64。	-5137
×42▁=▁48	-5138
▁+▁5▁=▁?	-5139
▁-▁9▁=▁?	-5140
'(1)▁=▁1。	-5141
)▁÷▁2▁=▁?	-5142
7▁=▁2187。	-5143
7▁=▁2916。	-5144
^7▁=▁256。	-5145
×10+1⁄2×3	-5146
▁+▁1▁=▁0。	-5147
▁÷▁6▁=▁8。	-5148
▁÷▁7▁=▁4。	-5149
▁÷▁8▁=▁9。	-5150
▁÷▁9▁=▁2。	-5151
▁÷▁9▁=▁5。	-5152
1▁÷▁9▁=▁9。	-5153
^3▁+▁1/(2*	-5154
^6▁=▁2187。	-5155
^6▁=▁2916。	-5156
×7+1⁄2×1×7	-5157
▁-▁(-6)▁=▁-	-5158
▁=▁-32▁-▁4×1×(	-5159
−1▁=▁1×2^3▁=▁8。	-5160
▁=▁-62▁-▁4×1×(0	-5161
2▁-▁4×1×(1)▁=▁0;	-5162
−1▁=▁1×2^6▁=▁64。	-5163
−1▁=▁1×3^3▁=▁27。	-5164
−1▁=▁2×2^4▁=▁32。	-5165
−1▁=▁3×2^3▁=▁24。	-5166
ch	-5167
165	-5168
175	-5169
38。	-5170
80;	-5171
^(9	-5172
▁64	-5173
+1×9	-5174
/25。	-5175
27.0	-5176
:120	-5177
▁120	-5178
(3)▁+	-5179
729.0	-5180
:58.5	-5181
▁3/5。	-5182
▁=▁47	-5183
▁=▁77	-5184
12▁=▁2	-5185
3▁=▁35	-5186
:3▁×▁9	-5187
×9▁=▁1	-5188
▁-▁(3)	-5189
▁=▁-3*	-5190
▁=▁-55	-5191
▁=▁330	-5192
▁=▁35;	-5193
▁=▁39。	-5194
▁=▁61;	-5195
▁=▁70。	-5196
▁=▁72。	-5197
▁=▁810	-5198
▁=▁940	-5199
▁bà▁bà	-5200
3▁×▁400	-5201
9)▁=▁0;	-5202
:19▁-▁1	-5203
▁mǐ▁fàn	-5204
6▁=▁486。	-5205
:1/2▁+▁1	-5206
×42▁=▁24	-5207
▁+▁3▁=▁?	-5208
50▁×▁0.25	-5209
^5▁=▁486。	-5210
×42▁=▁104	-5211
×62▁=▁108	-5212
▁+▁9▁=▁0。	-5213
▁=▁1×58.5	-5214
▁÷▁4▁=▁2。	-5215
▁÷▁4▁=▁8。	-5216
▁÷▁6▁=▁3。	-5217
▁÷▁6▁=▁5。	-5218
3▁÷▁9▁=▁7。	-5219
:4▁+▁16▁=▁?	-5220
:4▁+▁16▁=▁20。	-5221
▁=▁52▁-▁4×1×(-	-5222
▁=▁1×58.5▁=▁58.5	-5223
▁=▁42▁-▁4×1×(-12	-5224
hu	-5225
我说	-5226
*(-	-5227
.0。	-5228
:82	-5229
:86	-5230
:97	-5231
^6*	-5232
▁55	-5233
+1×7	-5234
+2×6	-5235
+3×4	-5236
2+18	-5237
23.0	-5238
:1/4	-5239
:112	-5240
▁112	-5241
6▁=▁2	-5242
▁=▁52	-5243
(3)/6。	-5244
)▁=▁2/	-5245
11▁=▁5	-5246
12▁=▁5	-5247
2▁=▁18	-5248
3▁=▁20	-5249
3▁=▁4。	-5250
▁=▁20(	-5251
▁=▁22。	-5252
▁=▁56,	-5253
)▁+▁1);	-5254
)▁=▁28*	-5255
36)▁=▁1	-5256
3▁=▁45。	-5257
3▁×▁180	-5258
3▁×▁220	-5259
4▁=▁81。	-5260
6/2▁=▁2	-5261
6▁=▁32。	-5262
^2▁=▁4。	-5263
▁=▁-12;	-5264
7▁=▁256。	-5265
^2▁=▁45。	-5266
^3▁=▁81。	-5267
^5▁=▁32。	-5268
×3+1⁄2×5	-5269
×4+1⁄2×3	-5270
×42▁=▁40	-5271
×6+1⁄2×2	-5272
^6▁=▁256。	-5273
▁÷▁5▁=▁4。	-5274
0)▁÷▁5▁=▁?	-5275
36)▁=▁144;	-5276
×100▁=▁250	-5277
▁=▁400▁×▁0	-5278
▁=▁700▁×▁0	-5279
▁=▁800▁×▁0	-5280
2▁-▁36▁=▁0。	-5281
−1▁=▁1×2^2▁=▁4。	-5282
▁=▁82▁-▁4×1×(12	-5283
−1▁=▁1×2^5▁=▁32。	-5284
−1▁=▁3×3^3▁=▁81。	-5285
−1▁=▁5×3^2▁=▁45。	-5286
▁=▁-82▁-▁4×1×(12	-5287
▁=▁2.5×100▁=▁250	-5288
我唱	-5289
))/	-5290
,29	-5291
:3/	-5292
:47	-5293
:60	-5294
:89	-5295
:94	-5296
椅子很	-5297
/24。	-5298
/56。	-5299
43.0	-5300
55.0	-5301
99.0	-5302
:136	-5303
:20。	-5304
164.0	-5305
6▁=▁3	-5306
▁+▁48	-5307
▁-▁(7	-5308
▁4/5。	-5309
▁=▁39	-5310
▁=▁41	-5311
)▁+▁8*	-5312
.2▁+▁2	-5313
.3▁+▁0	-5314
12▁=▁4	-5315
2▁=▁88	-5316
3▁=▁25	-5317
▁-▁(-2	-5318
▁-▁(-6	-5319
▁=▁-13	-5320
▁=▁-88	-5321
▁=▁16(	-5322
▁=▁37。	-5323
▁=▁41。	-5324
)▁=▁(8*	-5325
)▁=▁10*	-5326
)▁=▁90;	-5327
/2▁=▁12	-5328
3▁=▁36。	-5329
^3▁+▁3*	-5330
▁=▁-24;	-5331
▁=▁512。	-5332
'(3)▁=▁-	-5333
'(3)▁=▁6	-5334
)▁=▁-16;	-5335
5▁=▁324。	-5336
5▁=▁405。	-5337
6▁=▁243。	-5338
^2▁=▁27。	-5339
^2▁=▁36。	-5340
×22▁=▁30	-5341
8▁=▁8748。	-5342
^4▁=▁324。	-5343
^4▁=▁405。	-5344
^5▁=▁243。	-5345
×42▁=▁160	-5346
▁+▁11▁=▁?	-5347
▁÷▁8▁=▁7。	-5348
^7▁=▁8748。	-5349
▁-▁(6)▁=▁-	-5350
142857142857	-5351
:36▁÷▁4▁=▁9(	-5352
▁=▁32▁-▁4×1×(	-5353
▁=▁72▁-▁4×1×(	-5354
−1▁=▁3×3^2▁=▁27。	-5355
−1▁=▁4×3^2▁=▁36。	-5356
,26	-5357
,33	-5358
,34	-5359
,75	-5360
50;	-5361
55。	-5362
880	-5363
920	-5364
:41	-5365
:68	-5366
:74	-5367
:76	-5368
:99	-5369
^4,	-5370
^4。	-5371
×48	-5372
×74	-5373
▁39	-5374
▁49	-5375
,3▁×	-5376
/2),	-5377
2-24	-5378
:(10	-5379
:(14	-5380
:2/3	-5381
)^2);	-5382
5▁=▁2	-5383
:200。	-5384
42▁=▁8	-5385
×6▁=▁9	-5386
×8▁=▁1	-5387
▁=▁-49	-5388
▁=▁29。	-5389
▁=▁31;	-5390
▁=▁340	-5391
▁=▁390	-5392
▁=▁44;	-5393
▁=▁54;	-5394
▁=▁65。	-5395
▁=▁880	-5396
)▁=▁15*	-5397
)▁=▁42;	-5398
)▁=▁54;	-5399
4▁=▁32。	-5400
:16▁-▁1	-5401
^2▁+▁6*	-5402
▁=▁-15。	-5403
▁=▁-20。	-5404
▁=▁180(	-5405
50▁×▁0.5	-5406
7▁=▁128。	-5407
^2▁-▁1/(	-5408
^3▁=▁32。	-5409
×42▁=▁72	-5410
×42▁=▁96	-5411
×7+1⁄2×4	-5412
▁+▁6▁=▁?	-5413
)▁÷▁8▁=▁?	-5414
8▁=▁6561。	-5415
^6▁=▁128。	-5416
▁÷▁3▁=▁7。	-5417
▁÷▁4▁=▁9。	-5418
▁÷▁5▁=▁3。	-5419
▁÷▁6▁=▁7。	-5420
▁÷▁7▁=▁2。	-5421
5)/2▁=▁5×2	-5422
^7▁=▁6561。	-5423
▁xīng▁xīng	-5424
▁=▁1000▁×▁0	-5425
▁=▁72▁-▁4×1×(12	-5426
2▁=▁1⁄2×1×42▁=▁8	-5427
−1▁=▁4×2^3▁=▁32。	-5428
我喝	-5429
,50	-5430
:61	-5431
:63	-5432
:77	-5433
:78	-5434
^2,	-5435
×42	-5436
▁34	-5437
▁41	-5438
/4)。	-5439
1000	-5440
47.0	-5441
78.0	-5442
94.0	-5443
:(20	-5444
:25。	-5445
:288	-5446
:306	-5447
972.0	-5448
^(5/2	-5449
▁1/4。	-5450
▁5/4。	-5451
▁=▁43	-5452
▁=▁8;	-5453
▁=▁99	-5454
3▁=▁18	-5455
3▁=▁36	-5456
3▁=▁40	-5457
:3▁×▁6	-5458
:3▁×▁7	-5459
:3▁×▁8	-5460
:8▁÷▁2	-5461
▁+▁72)	-5462
▁-▁(14	-5463
▁-▁(4)	-5464
▁=▁21;	-5465
▁=▁23;	-5466
▁=▁260	-5467
▁=▁29;	-5468
▁=▁34;	-5469
▁=▁46,	-5470
▁=▁460	-5471
▁=▁49,	-5472
▁=▁60(	-5473
▁=▁60,	-5474
▁=▁920	-5475
▁kē▁sh	-5476
▁mā▁mā	-5477
)▁=▁(5*	-5478
)▁=▁14;	-5479
)▁=▁20*	-5480
4▁=▁16。	-5481
4▁=▁54。	-5482
6/2▁=▁3	-5483
▁=▁-19。	-5484
'(2)▁=▁4	-5485
)▁=▁-36;	-5486
)▁=▁-60;	-5487
22222222	-5488
^3▁=▁54。	-5489
^4▁+▁1)/	-5490
×4+1⁄2×4	-5491
×42▁=▁112	-5492
×42▁=▁144	-5493
×62▁=▁306	-5494
▁×▁2▁=▁80	-5495
▁÷▁9▁=▁4。	-5496
×102▁=▁350	-5497
×102▁=▁600	-5498
×6+1⁄2×2×6	-5499
×8+1⁄2×2×8	-5500
▁=▁600▁×▁0	-5501
×9+1⁄2×2×92▁=▁1	-5502
▁+▁1)^2▁+▁1/(2*	-5503
2▁=▁1⁄2×4×22▁=▁8	-5504
−1▁=▁2×3^3▁=▁54。	-5505
61	-5506
二得	-5507
我吃	-5508
,38	-5509
-11	-5510
15;	-5511
315	-5512
810	-5513
85。	-5514
89。	-5515
:(3	-5516
:52	-5517
:59	-5518
:67	-5519
:87	-5520
:95	-5521
×60	-5522
▁yǔ	-5523
桌子很	-5524
:(11	-5525
:270	-5526
:324	-5527
:80。	-5528
^6*(	-5529
▁160	-5530
160.0	-5531
5▁=▁3	-5532
:100。	-5533
▁1/5。	-5534
▁=▁92	-5535
2▁-▁3*	-5536
3▁=▁28	-5537
3▁=▁29	-5538
3▁=▁30	-5539
^4/2▁+	-5540
▁-▁(-3	-5541
▁-▁(12	-5542
▁=▁-42	-5543
▁=▁108	-5544
▁=▁34。	-5545
▁=▁45,	-5546
)▁=▁27*	-5547
)▁=▁27;	-5548
)▁=▁36*	-5549
20▁=▁17	-5550
3▁=▁12。	-5551
:7▁+▁13	-5552
×22▁=▁4	-5553
×6▁=▁10	-5554
×7▁=▁10	-5555
×8▁=▁15	-5556
▁-▁(-14	-5557
▁=▁-11。	-5558
▁=▁-12。	-5559
▁=▁-25。	-5560
▁=▁-29。	-5561
)▁=▁-24;	-5562
)▁=▁-30;	-5563
5▁=▁243。	-5564
8▁=▁512。	-5565
^2▁=▁12。	-5566
^3▁=▁16。	-5567
×22▁=▁34	-5568
×22▁=▁40	-5569
×42▁=▁16	-5570
▁=▁3▁×▁3	-5571
'(3)▁=▁3*	-5572
^4▁=▁243。	-5573
^7▁=▁512。	-5574
×42▁=▁136	-5575
×62▁=▁270	-5576
×62▁=▁288	-5577
▁-▁14▁=▁?	-5578
▁÷▁2▁=▁5。	-5579
▁÷▁4▁=▁3。	-5580
▁÷▁5▁=▁5。	-5581
▁÷▁7▁=▁5。	-5582
'(3)▁=▁-1/	-5583
3▁÷▁7▁=▁9。	-5584
6)/2▁=▁6×2	-5585
6)/2▁=▁6×3	-5586
×102▁=▁100	-5587
▁×▁4▁=▁280	-5588
:7▁+▁13▁=▁?	-5589
:7▁+▁13▁=▁20。	-5590
▁=▁3▁×▁3▁=▁9(	-5591
×8+1⁄2×5×82▁=▁2	-5592
−1▁=▁2×2^3▁=▁16。	-5593
−1▁=▁3×2^2▁=▁12。	-5594
yu	-5595
我跳	-5596
,30	-5597
,44	-5598
,45	-5599
,46	-5600
/2)	-5601
630	-5602
70;	-5603
97。	-5604
:(6	-5605
:33	-5606
:81	-5607
cǎo	-5608
×90	-5609
1111	-5610
14.0	-5611
28.0	-5612
36.5	-5613
:342	-5614
:60。	-5615
▁200	-5616
)/2)/	-5617
:180。	-5618
▁=▁5*	-5619
.7▁+▁3	-5620
19▁=▁9	-5621
▁=▁-26	-5622
▁=▁10;	-5623
▁=▁43。	-5624
▁=▁47。	-5625
▁=▁50,	-5626
▁=▁51。	-5627
▁=▁81;	-5628
(3)▁+▁1	-5629
)▁=▁14*	-5630
)▁=▁15;	-5631
)▁=▁21*	-5632
)▁=▁80;	-5633
3▁=▁18。	-5634
:18▁÷▁2	-5635
×8▁=▁12	-5636
▁=▁-14。	-5637
▁=▁-16。	-5638
▁=▁-50。	-5639
▁=▁200。	-5640
▁=▁3+12	-5641
)▁=▁-48;	-5642
^2▁=▁18。	-5643
tài▁yáng	-5644
)▁÷▁6▁=▁?	-5645
8▁=▁4374。	-5646
yuè▁liàng	-5647
×42▁=▁120	-5648
×62▁=▁324	-5649
×62▁=▁342	-5650
▁+▁11▁=▁-	-5651
▁×▁2▁=▁50	-5652
-16)▁=▁64;	-5653
1428571428	-5654
^7▁=▁4374。	-5655
×102▁=▁750	-5656
×7+1⁄2×2×7	-5657
▁=▁300▁×▁0	-5658
▁×▁5▁=▁10(	-5659
2▁-▁16▁=▁0。	-5660
:8▁+▁12▁=▁?	-5661
:9▁÷▁3▁=▁3(	-5662
:18▁÷▁2▁=▁9(	-5663
▁-▁(-18)▁=▁-	-5664
:8▁+▁12▁=▁20。	-5665
▁=▁2▁×▁5▁=▁10(	-5666
−1▁=▁2×3^2▁=▁18。	-5667
朵云	-5668
+24	-5669
,12	-5670
,31	-5671
,35	-5672
,36	-5673
,70	-5674
195	-5675
6.5	-5676
93。	-5677
^3,	-5678
xiě	-5679
+8×9	-5680
:(15	-5681
:108	-5682
:180	-5683
:216	-5684
(2)*(	-5685
tā▁ài	-5686
▁=▁62	-5687
▁=▁82	-5688
▁shuǐ	-5689
16▁=▁9	-5690
3▁=▁55	-5691
×2▁=▁9	-5692
×5▁=▁7	-5693
×7▁=▁7	-5694
▁+▁63)	-5695
▁-▁(-4	-5696
▁=▁12,	-5697
▁=▁127	-5698
▁=▁28;	-5699
▁=▁41,	-5700
▁=▁44。	-5701
▁=▁58;	-5702
▁=▁66;	-5703
▁=▁90(	-5704
)▁=▁10;	-5705
)▁=▁50;	-5706
2▁=▁252	-5707
7/2▁=▁1	-5708
:16▁+▁4	-5709
:9▁+▁11	-5710
^2▁+▁3*	-5711
▁-▁(-12	-5712
▁-▁(-4)	-5713
▁=▁600。	-5714
▁=▁640。	-5715
'(2)▁=▁2	-5716
)▁=▁-20;	-5717
×22▁=▁36	-5718
▁+▁1▁=▁?	-5719
▁=▁0▁÷▁5	-5720
▁=▁2▁×▁2	-5721
▁duǒ▁yún	-5722
'(3)▁=▁2*	-5723
×62▁=▁216	-5724
▁+▁12▁=▁-	-5725
▁+▁72▁=▁8	-5726
▁-▁10▁=▁?	-5727
▁=▁20▁×▁3	-5728
▁÷▁5▁=▁7。	-5729
'(3)▁=▁-3*	-5730
2▁+▁0▁=▁0。	-5731
×102▁=▁550	-5732
×102▁=▁700	-5733
×102▁=▁900	-5734
:9▁+▁11▁=▁?	-5735
▁-▁(-8)▁=▁-	-5736
▁=▁-11▁÷▁11	-5737
:9▁+▁11▁=▁20。	-5738
▁=▁0▁÷▁5▁=▁0。	-5739
▁=▁2▁×▁2▁=▁4(	-5740
▁=▁02▁-▁4×1×(0	-5741
▁=▁56▁÷▁7▁=▁8。	-5742
×7+1⁄2×4×72▁=▁1	-5743
×8+1⁄2×5×82▁=▁1	-5744
▁=▁-72▁-▁4×1×(6	-5745
pi	-5746
zh	-5747
三得	-5748
(4)	-5749
,32	-5750
,96	-5751
/4)	-5752
58。	-5753
740	-5754
74。	-5755
760	-5756
980	-5757
:66	-5758
:69	-5759
:91	-5760
×54	-5761
+8×7	-5762
/14。	-5763
/20。	-5764
/30。	-5765
/3▁-	-5766
44.0	-5767
59.0	-5768
68.0	-5769
85.0	-5770
:10。	-5771
:152	-5772
:360	-5773
)/3▁-	-5774
+11×5	-5775
▁37.5	-5776
▁=▁51	-5777
.8▁+▁3	-5778
/1▁=▁?	-5779
11▁=▁3	-5780
15▁=▁9	-5781
3▁=▁26	-5782
×6▁=▁4	-5783
▁=▁-32	-5784
▁=▁14(	-5785
▁=▁315	-5786
▁=▁33;	-5787
▁=▁39;	-5788
▁=▁40(	-5789
▁=▁61,	-5790
▁=▁62;	-5791
▁=▁70;	-5792
▁=▁740	-5793
▁=▁760	-5794
▁=▁980	-5795
(2)▁+▁1	-5796
)▁=▁((-	-5797
)▁=▁28;	-5798
)▁=▁66;	-5799
)▁=▁70;	-5800
15▁=▁10	-5801
20▁=▁13	-5802
62▁=▁18	-5803
6▁=▁64。	-5804
:17▁-▁1	-5805
^2▁+▁4*	-5806
^2▁+▁8*	-5807
zhuō▁zi	-5808
▁=▁-100	-5809
▁=▁-17。	-5810
▁=▁-18。	-5811
▁=▁-36;	-5812
'(1)▁=▁4	-5813
'(2)▁=▁3	-5814
)▁=▁(-2*	-5815
)▁=▁-10;	-5816
6▁=▁160。	-5817
8▁=▁640。	-5818
^5▁=▁64。	-5819
×22▁=▁38	-5820
▁+▁7▁=▁?	-5821
^5▁=▁160。	-5822
^7▁=▁640。	-5823
×42▁=▁152	-5824
×44/2▁=▁1	-5825
▁+▁12▁=▁3	-5826
▁+▁42▁=▁5	-5827
▁=▁60▁×▁6	-5828
▁÷▁2▁=▁4。	-5829
▁÷▁3▁=▁3。	-5830
×102▁=▁650	-5831
×102▁=▁800	-5832
▁=▁-12▁÷▁4	-5833
▁=▁66▁÷▁11	-5834
:8▁÷▁2▁=▁4(	-5835
▁=▁-50▁÷▁10	-5836
▁-▁(-17)▁=▁-	-5837
▁gè▁yuè▁liàng	-5838
▁=▁14▁÷▁2▁=▁7。	-5839
▁=▁32▁÷▁8▁=▁4。	-5840
▁=▁36▁÷▁9▁=▁4。	-5841
×6+1⁄2×5×62▁=▁1	-5842
▁=▁66▁÷▁11▁=▁6。	-5843
2▁=▁1⁄2×1×22▁=▁2	-5844
2▁=▁1⁄2×3×22▁=▁6	-5845
−1▁=▁2×2^5▁=▁64。	-5846
▁=▁-12▁÷▁4▁=▁-3。	-5847
+33	-5848
,28	-5849
,90	-5850
-10	-5851
-17	-5852
29。	-5853
680	-5854
860	-5855
86。	-5856
:55	-5857
huà	-5858
×70	-5859
×84	-5860
×92	-5861
+1×3	-5862
+9×6	-5863
/49。	-5864
1200	-5865
:162	-5866
:23。	-5867
:35。	-5868
:37。	-5869
:40。	-5870
hóng	-5871
míng	-5872
▁+▁(	-5873
▁=▁(	-5874
五把椅子	-5875
(3)*(	-5876
+19×4	-5877
9▁=▁7	-5878
:600。	-5879
(3)/2。	-5880
14▁=▁5	-5881
14▁=▁8	-5882
15▁=▁7	-5883
2▁=▁7。	-5884
3▁=▁13	-5885
3▁=▁45	-5886
3▁=▁47	-5887
3▁=▁90	-5888
▁+▁42)	-5889
▁=▁-66	-5890
▁=▁22;	-5891
▁=▁380	-5892
▁=▁43,	-5893
▁=▁57;	-5894
▁=▁57。	-5895
▁=▁59。	-5896
▁=▁640	-5897
▁=▁680	-5898
▁=▁860	-5899
)▁+▁1/(	-5900
19▁=▁15	-5901
5▁=▁81。	-5902
9/2▁=▁1	-5903
:10▁÷▁5	-5904
:30▁÷▁5	-5905
▁+▁5)*(	-5906
▁=▁105。	-5907
▁=▁1200	-5908
▁=▁150。	-5909
▁=▁2+15	-5910
▁=▁408。	-5911
▁=▁7+18	-5912
)▁=▁-80;	-5913
^4▁=▁81。	-5914
×22▁=▁32	-5915
▁=▁2▁×▁7	-5916
▁=▁3▁×▁6	-5917
▁=▁3▁×▁8	-5918
×62▁=▁162	-5919
×62▁=▁360	-5920
▁=▁50▁×▁6	-5921
6)/2▁=▁6×4	-5922
míng▁liàng	-5923
×102▁=▁450	-5924
×102▁=▁850	-5925
×7+1⁄2×3×7	-5926
▁+▁1/6▁=▁?	-5927
▁+▁2/3▁=▁?	-5928
▁=▁-40▁÷▁8	-5929
▁×▁4▁=▁240	-5930
wǔ▁bǎ▁yǐ▁zi	-5931
▁-▁(12)▁=▁-	-5932
13)/2▁=▁13×1	-5933
:10▁÷▁5▁=▁2(	-5934
:30▁÷▁5▁=▁6(	-5935
▁=▁6▁÷▁3▁=▁2。	-5936
▁=▁16▁÷▁2▁=▁8。	-5937
▁=▁2▁×▁7▁=▁14(	-5938
▁=▁3▁×▁6▁=▁18(	-5939
▁=▁3▁×▁8▁=▁24(	-5940
−1▁=▁1×3^4▁=▁81。	-5941
▁=▁-40▁÷▁8▁=▁-5。	-5942
/1	-5943
41	-5944
82	-5945
gā	-5946
+25	-5947
,23	-5948
,24	-5949
,68	-5950
-13	-5951
06。	-5952
2*(	-5953
325	-5954
620	-5955
640	-5956
780	-5957
820	-5958
960	-5959
:92	-5960
gāo	-5961
pǎo	-5962
×62	-5963
×78	-5964
▁43	-5965
▁52	-5966
▁66	-5967
(4)/	-5968
/28。	-5969
/35。	-5970
/40。	-5971
/42。	-5972
/45。	-5973
64.0	-5974
:1/9	-5975
:252	-5976
:31。	-5977
:32。	-5978
:5/3	-5979
:70。	-5980
^(11	-5981
(4)▁+	-5982
(6)▁+	-5983
198.0	-5984
486.0	-5985
9▁=▁2	-5986
:150。	-5987
yī▁zu	-5988
.1▁+▁3	-5989
.6▁+▁4	-5990
10▁=▁2	-5991
13▁=▁6	-5992
19▁=▁7	-5993
20▁=▁9	-5994
2▁=▁66	-5995
3▁=▁32	-5996
3▁=▁56	-5997
:3▁×▁3	-5998
:3▁×▁4	-5999
×9▁=▁9	-6000
▁+▁14)	-6001
▁=▁15,	-6002
▁=▁37;	-6003
▁=▁49。	-6004
▁=▁620	-6005
▁=▁65;	-6006
▁=▁780	-6007
▁=▁820	-6008
▁=▁95。	-6009
▁=▁960	-6010
(3)▁+▁2	-6011
)▁+▁1)/	-6012
)▁=▁(9*	-6013
)▁=▁21;	-6014
+3)2+0,	-6015
16▁=▁10	-6016
16▁=▁12	-6017
18▁=▁10	-6018
20▁=▁10	-6019
5▁=▁16。	-6020
6/2▁=▁9	-6021
^5▁+▁3*	-6022
tā▁tiào	-6023
×9▁=▁16	-6024
▁=▁-26。	-6025
▁=▁-43。	-6026
▁=▁450。	-6027
▁=▁7+10	-6028
)▁=▁-11;	-6029
88888888	-6030
^4▁=▁16。	-6031
▁+▁2▁=▁?	-6032
▁=▁2▁×▁4	-6033
(3)/6▁+▁1	-6034
3▁=▁356.0	-6035
gōng▁yuán	-6036
×42▁=▁128	-6037
×62▁=▁252	-6038
▁(-3,▁0),	-6039
▁(-3,▁0);	-6040
▁=▁40▁×▁4	-6041
×6+1⁄2×3×6	-6042
▁+▁1/4▁=▁?	-6043
▁÷▁11▁=▁-5。	-6044
50▁×▁0.2▁=▁1	-6045
:10▁+▁10▁=▁?	-6046
▁+▁4)^2▁+▁1/	-6047
▁+▁5)^2▁+▁1/	-6048
▁-▁(-16)▁=▁-	-6049
▁=▁2▁×▁4▁=▁8(	-6050
:10▁+▁10▁=▁20。	-6051
▁=▁12▁÷▁2▁=▁6。	-6052
▁=▁12▁÷▁6▁=▁2。	-6053
▁=▁40▁÷▁5▁=▁8。	-6054
▁=▁42▁÷▁7▁=▁6。	-6055
×9+1⁄2×4×92▁=▁1	-6056
èr▁zhāng▁zhuō▁zi	-6057
−1▁=▁1×2^4▁=▁16。	-6058
mě	-6059
,27	-6060
,37	-6061
,40	-6062
,42	-6063
,55	-6064
,57	-6065
12*	-6066
213	-6067
347	-6068
83。	-6069
84。	-6070
94。	-6071
:51	-6072
:62	-6073
^5。	-6074
i▁l	-6075
×53	-6076
×65	-6077
▁96	-6078
四本书	-6079
))*(	-6080
+6×3	-6081
21.0	-6082
9.0。	-6083
:198	-6084
:2/1	-6085
:24。	-6086
:26。	-6087
:4/9	-6088
i▁lì	-6089
shuǐ	-6090
×102	-6091
▁128	-6092
一把椅子	-6093
7▁=▁5	-6094
^(9/2	-6095
tā▁hē	-6096
13▁=▁5	-6097
13▁=▁9	-6098
14▁=▁9	-6099
15▁=▁5	-6100
17▁=▁8	-6101
18▁=▁8	-6102
20▁=▁7	-6103
4181.0	-6104
měi▁lì	-6105
tā▁kàn	-6106
tā▁xiě	-6107
×7▁=▁9	-6108
▁+▁32)	-6109
▁+▁54)	-6110
▁=▁14;	-6111
▁=▁35(	-6112
▁=▁4+7	-6113
▁=▁41;	-6114
▁=▁46。	-6115
▁=▁48,	-6116
▁=▁55;	-6117
▁=▁6+7	-6118
▁=▁66。	-6119
▁=▁84。	-6120
)▁=▁-8;	-6121
)▁=▁44;	-6122
)▁=▁63;	-6123
)▁=▁77;	-6124
+0)2-5,	-6125
19▁=▁10	-6126
19▁=▁16	-6127
20▁=▁15	-6128
3▁=▁347	-6129
6/2▁=▁5	-6130
:18▁÷▁6	-6131
^5▁+▁2*	-6132
tóng▁xu	-6133
×2▁=▁10	-6134
×2▁=▁11	-6135
▁+▁2)▁-	-6136
▁-▁(-13	-6137
▁=▁-27。	-6138
▁=▁-31。	-6139
▁=▁-41。	-6140
▁=▁-49。	-6141
▁=▁112。	-6142
▁=▁3+15	-6143
▁=▁4+14	-6144
)▁=▁-27;	-6145
xiǎo▁gǒu	-6146
xiǎo▁māo	-6147
▁+▁3)/((	-6148
▁+▁8▁=▁?	-6149
▁=▁3▁×▁5	-6150
▁=▁6▁÷▁6	-6151
sì▁běn▁sh	-6152
×62▁=▁198	-6153
▁(0,▁-5),	-6154
▁(0,▁-5);	-6155
▁+▁10▁=▁?	-6156
▁+▁63▁=▁7	-6157
▁-▁15▁=▁?	-6158
▁=▁32▁-▁(	-6159
▁=▁60▁×▁5	-6160
▁×▁4▁=▁80	-6161
3▁=▁4181.0	-6162
8)/2▁=▁8×3	-6163
×102▁=▁400	-6164
×102▁=▁950	-6165
×4+1⁄2×5×4	-6166
▁+▁1/7▁=▁?	-6167
▁+▁3/7▁=▁?	-6168
▁=▁-13▁-▁(	-6169
▁=▁-15▁÷▁5	-6170
▁=▁-18▁÷▁3	-6171
▁=▁-40▁÷▁4	-6172
▁=▁-72▁÷▁9	-6173
▁=▁-80▁÷▁8	-6174
▁=▁44▁÷▁11	-6175
▁=▁77▁÷▁11	-6176
yī▁bǎ▁yǐ▁zi	-6177
▁=▁-60▁÷▁10	-6178
:18▁÷▁6▁=▁3(	-6179
▁=▁6▁÷▁6▁=▁1。	-6180
▁=▁16▁÷▁4▁=▁4。	-6181
▁=▁24▁÷▁6▁=▁4。	-6182
▁=▁24▁÷▁8▁=▁3。	-6183
▁=▁36▁÷▁6▁=▁6。	-6184
▁=▁3▁×▁5▁=▁15(	-6185
▁=▁45▁÷▁5▁=▁9。	-6186
▁+▁2)^2▁+▁1/(2*	-6187
▁=▁122▁-▁4×1×(3	-6188
▁=▁44▁÷▁11▁=▁4。	-6189
▁=▁77▁÷▁11▁=▁7。	-6190
2▁=▁1⁄2×2×22▁=▁4	-6191
▁=▁-15▁÷▁5▁=▁-3。	-6192
▁=▁-18▁÷▁3▁=▁-6。	-6193
▁=▁-72▁÷▁9▁=▁-8。	-6194
,39	-6195
,65	-6196
/49	-6197
31。	-6198
405	-6199
42;	-6200
45;	-6201
47。	-6202
52。	-6203
550	-6204
57。	-6205
62。	-6206
66。	-6207
82。	-6208
850	-6209
90;	-6210
:43	-6211
:46	-6212
:73	-6213
:9。	-6214
×51	-6215
×82	-6216
×88	-6217
▁46	-6218
▁47	-6219
一支笔	-6220
一本书	-6221
二本书	-6222
+6×9	-6223
1080	-6224
11.5	-6225
:1/5	-6226
:2/9	-6227
:22。	-6228
:27。	-6229
:28。	-6230
:38。	-6231
:41。	-6232
:45。	-6233
:75。	-6234
^3▁-	-6235
▁144	-6236
+11×6	-6237
147.0	-6238
183.0	-6239
311.0	-6240
607.0	-6241
:120。	-6242
tā▁dú	-6243
▁67.5	-6244
▁=▁57	-6245
▁=▁6;	-6246
▁=▁8*	-6247
▁÷▁12	-6248
,9▁×▁2	-6249
.1▁+▁4	-6250
.1▁+▁5	-6251
.2▁+▁9	-6252
.3▁+▁1	-6253
.4▁+▁1	-6254
.4▁+▁6	-6255
.4▁+▁8	-6256
.6▁+▁3	-6257
.6▁+▁8	-6258
.7▁+▁4	-6259
14▁=▁6	-6260
15▁=▁3	-6261
16▁=▁8	-6262
17▁=▁1	-6263
17▁=▁7	-6264
19▁=▁1	-6265
19▁=▁8	-6266
2607.0	-6267
3318.0	-6268
3▁=▁17	-6269
3▁=▁24	-6270
:2▁+▁9	-6271
:6▁÷▁3	-6272
:9▁×▁3	-6273
^(11/2	-6274
tā▁wán	-6275
▁+▁4);	-6276
▁-▁(13	-6277
▁3▁×▁3	-6278
▁9▁×▁6	-6279
▁=▁-19	-6280
▁=▁-64	-6281
▁=▁28(	-6282
▁=▁36(	-6283
▁=▁38;	-6284
▁=▁405	-6285
▁=▁42;	-6286
▁=▁550	-6287
▁=▁67;	-6288
▁=▁68;	-6289
▁=▁77。	-6290
)▁=▁(7*	-6291
)▁=▁55;	-6292
+0)2+8,	-6293
+1)2+7,	-6294
+1)2-6,	-6295
-2)2-5,	-6296
/2▁=▁25	-6297
3▁=▁118	-6298
3▁=▁213	-6299
50▁×▁0.	-6300
:11▁+▁9	-6301
:14▁-▁1	-6302
:14▁÷▁2	-6303
:28▁÷▁4	-6304
:36▁÷▁6	-6305
:45▁÷▁5	-6306
:∫▁((2*	-6307
^2▁-▁2*	-6308
^3▁-▁3*	-6309
^4▁+▁2*	-6310
×7▁=▁12	-6311
×9▁=▁12	-6312
▁=▁-108	-6313
▁=▁-23。	-6314
▁=▁-28。	-6315
▁=▁-33。	-6316
▁=▁-36。	-6317
▁=▁-37。	-6318
▁=▁-47。	-6319
▁=▁1+13	-6320
▁=▁1080	-6321
▁=▁120。	-6322
▁=▁125。	-6323
▁=▁180。	-6324
▁=▁225(	-6325
▁=▁225。	-6326
▁=▁480。	-6327
▁=▁9+19	-6328
▁∫▁((2*	-6329
)▁=▁-21;	-6330
)▁=▁-28;	-6331
2▁=▁67.5	-6332
44444444	-6333
77777777	-6334
^4▁-▁1/(	-6335
▁(0,▁8),	-6336
▁(0,▁8);	-6337
▁-▁(-12)	-6338
▁=▁10+10	-6339
▁=▁3▁×▁4	-6340
'(1)▁=▁-1	-6341
+18×5▁=▁9	-6342
yī▁běn▁sh	-6343
yī▁zhī▁bǐ	-6344
èr▁běn▁sh	-6345
▁(-1,▁7),	-6346
▁(-1,▁7);	-6347
▁(2,▁-5),	-6348
▁(2,▁-5);	-6349
▁=▁-6▁÷▁3	-6350
▁=▁20▁×▁6	-6351
▁=▁40▁×▁3	-6352
▁=▁50▁×▁3	-6353
▁=▁70▁×▁2	-6354
'(2)▁=▁-1/	-6355
3▁=▁2607.0	-6356
3▁=▁3318.0	-6357
8)/2▁=▁8×2	-6358
:9▁×▁3▁=▁?	-6359
:9▁÷▁3▁=▁?	-6360
×9+1⁄2×2×9	-6361
▁(-1,▁-6),	-6362
▁(-1,▁-6);	-6363
▁=▁-35▁÷▁5	-6364
▁=▁-36▁÷▁6	-6365
▁=▁-40▁÷▁5	-6366
▁=▁-48▁÷▁1	-6367
▁=▁-48▁÷▁8	-6368
▁=▁55▁÷▁11	-6369
▁÷▁3▁=▁10。	-6370
:54▁÷▁9▁=▁?	-6371
:6▁+▁14▁=▁?	-6372
:6▁÷▁3▁=▁2(	-6373
:9▁÷▁3▁=▁3。	-6374
▁3▁×▁3▁=▁9,	-6375
▁9▁÷▁3▁=▁3。	-6376
▁=▁-12▁÷▁12	-6377
,9▁×▁2▁=▁18;	-6378
:14▁÷▁2▁=▁7(	-6379
:28▁÷▁4▁=▁7(	-6380
:36▁÷▁6▁=▁6(	-6381
:45▁÷▁5▁=▁9(	-6382
:54▁÷▁9▁=▁6。	-6383
:9▁×▁3▁=▁27。	-6384
▁54▁÷▁9▁=▁6。	-6385
▁9▁×▁6▁=▁54,	-6386
▁gè▁píng▁guǒ	-6387
:6▁+▁14▁=▁20。	-6388
▁=▁20▁÷▁4▁=▁5。	-6389
▁=▁3▁×▁4▁=▁12(	-6390
▁=▁48▁÷▁6▁=▁8。	-6391
▁=▁48▁÷▁8▁=▁6。	-6392
▁+▁5)^2▁+▁1/(2*	-6393
▁=▁-6▁÷▁3▁=▁-2。	-6394
▁=▁55▁÷▁11▁=▁5。	-6395
▁=▁-35▁÷▁5▁=▁-7。	-6396
▁=▁-36▁÷▁6▁=▁-6。	-6397
▁=▁-40▁÷▁5▁=▁-8。	-6398
▁=▁-48▁÷▁8▁=▁-6。	-6399
-9	-6400
05	-6401
69	-6402
79	-6403
81	-6404
dà	-6405
hē	-6406
yǔ	-6407
(6*	-6408
,48	-6409
,60	-6410
,80	-6411
33;	-6412
41。	-6413
43。	-6414
60(	-6415
:53	-6416
:71	-6417
:7。	-6418
chī	-6419
ìng	-6420
'(2)	-6421
+6×7	-6422
+6×8	-6423
1215	-6424
35.0	-6425
42.0	-6426
:1/6	-6427
:19。	-6428
:3/5	-6429
:33。	-6430
:5/9	-6431
:55。	-6432
×104	-6433
(9)▁+	-6434
350.0	-6435
382.0	-6436
7▁=▁?	-6437
:3/1。	-6438
:450。	-6439
▁+▁12	-6440
▁1/3。	-6441
▁3/1。	-6442
▁40.5	-6443
▁62.5	-6444
,3▁×▁4	-6445
,4▁×▁5	-6446
.9▁+▁5	-6447
11▁=▁7	-6448
11▁=▁9	-6449
15▁=▁6	-6450
18▁=▁1	-6451
26▁=▁?	-6452
2▁=▁52	-6453
3382.0	-6454
7▁=▁16	-6455
^3/3▁-	-6456
^4/5▁+	-6457
dà▁hǎi	-6458
tā▁huà	-6459
×7▁=▁8	-6460
×8▁=▁9	-6461
▁=▁-22	-6462
▁=▁-58	-6463
▁=▁-84	-6464
▁=▁375	-6465
▁=▁48;	-6466
▁=▁58。	-6467
▁=▁67。	-6468
▁=▁9+7	-6469
)▁=▁32*	-6470
+1)2+1,	-6471
+3)2-8,	-6472
+5)2-6,	-6473
-1)2-7,	-6474
-4)2+0,	-6475
-4)2-1,	-6476
/2▁=▁64	-6477
17▁=▁13	-6478
18▁=▁12	-6479
:13▁-▁1	-6480
tā▁tīng	-6481
×9▁=▁13	-6482
▁=▁-21。	-6483
▁=▁-24。	-6484
▁=▁-35。	-6485
▁=▁-39。	-6486
▁=▁-54。	-6487
▁=▁2+17	-6488
▁=▁288。	-6489
▁=▁4+15	-6490
▁=▁4+16	-6491
▁=▁5+16	-6492
▁=▁5+17	-6493
'(3)▁=▁8	-6494
(2)▁+▁3*	-6495
)▁=▁-15;	-6496
)▁=▁-50;	-6497
2▁=▁62.5	-6498
:1/2▁+▁5	-6499
×62▁=▁36	-6500
▁(4,▁0),	-6501
▁(4,▁0);	-6502
▁=▁0▁÷▁6	-6503
▁=▁2▁×▁8	-6504
▁=▁2▁×▁9	-6505
▁=▁4▁×▁2	-6506
▁=▁4▁×▁7	-6507
'(2)▁=▁3*	-6508
3▁=▁350.0	-6509
×38/2▁=▁2	-6510
▁(-1,▁1),	-6511
▁(-1,▁1);	-6512
▁(1,▁-7),	-6513
▁(1,▁-7);	-6514
▁(4,▁-1),	-6515
▁(4,▁-1);	-6516
▁=▁-2▁-▁(	-6517
▁=▁-9▁÷▁3	-6518
▁=▁0▁÷▁11	-6519
▁=▁12▁÷▁1	-6520
▁=▁20▁×▁5	-6521
▁=▁36▁÷▁1	-6522
▁=▁39▁-▁(	-6523
▁=▁40▁×▁6	-6524
▁=▁42▁-▁(	-6525
▁=▁60▁×▁2	-6526
▁=▁72▁÷▁1	-6527
▁=▁90▁÷▁9	-6528
▁÷▁3▁=▁10	-6529
3▁=▁3382.0	-6530
6)/2▁=▁6×1	-6531
×102▁=▁500	-6532
×4+1⁄2×2×4	-6533
▁(-3,▁-8),	-6534
▁(-3,▁-8);	-6535
▁(-5,▁-6),	-6536
▁(-5,▁-6);	-6537
▁+▁2/7▁=▁?	-6538
▁+▁4/7▁=▁?	-6539
▁4▁×▁7▁=▁2	-6540
▁=▁-12▁-▁(	-6541
▁=▁-16▁÷▁8	-6542
▁=▁-18▁÷▁6	-6543
▁=▁-30▁÷▁3	-6544
▁=▁-54▁÷▁6	-6545
▁=▁-90▁÷▁9	-6546
▁=▁60▁÷▁10	-6547
▁÷▁7▁=▁10。	-6548
:28▁÷▁4▁=▁?	-6549
▁×▁4▁=▁260(	-6550
▁÷▁11▁=▁-2。	-6551
▁÷▁11▁=▁-8。	-6552
▁÷▁12▁=▁-9。	-6553
,3▁×▁4▁=▁12;	-6554
,4▁×▁5▁=▁20;	-6555
:28▁÷▁4▁=▁7。	-6556
▁+▁1)^2▁+▁1/	-6557
▁+▁3)^2▁+▁1/	-6558
▁28▁÷▁4▁=▁7。	-6559
▁4▁×▁7▁=▁28,	-6560
▁=▁0▁÷▁6▁=▁0。	-6561
▁=▁4▁×▁2▁=▁8(	-6562
▁=▁8▁÷▁2▁=▁4。	-6563
▁=▁0▁÷▁11▁=▁0。	-6564
▁=▁10▁÷▁2▁=▁5。	-6565
▁=▁18▁÷▁9▁=▁2。	-6566
▁=▁2▁×▁8▁=▁16(	-6567
▁=▁2▁×▁9▁=▁18(	-6568
▁=▁45▁÷▁9▁=▁5。	-6569
▁=▁4▁×▁7▁=▁28(	-6570
▁=▁81▁÷▁9▁=▁9。	-6571
▁+▁3)^2▁+▁1/(2*	-6572
▁=▁-9▁÷▁3▁=▁-3。	-6573
▁=▁12▁÷▁12▁=▁1。	-6574
▁=▁20▁×▁3▁=▁60(	-6575
▁=▁36▁÷▁12▁=▁3。	-6576
▁=▁60▁÷▁10▁=▁6。	-6577
▁=▁72▁÷▁12▁=▁6。	-6578
▁=▁90▁÷▁9▁=▁10。	-6579
▁=▁-16▁÷▁8▁=▁-2。	-6580
▁=▁-18▁÷▁6▁=▁-3。	-6581
▁=▁-54▁÷▁6▁=▁-9。	-6582
▁=▁65▁×▁4▁=▁260(	-6583
51	-6584
+20	-6585
+23	-6586
+26	-6587
,43	-6588
,58	-6589
,66	-6590
,72	-6591
04。	-6592
18;	-6593
435	-6594
75(	-6595
750	-6596
81。	-6597
×86	-6598
五支笔	-6599
)^2,	-6600
/4▁-	-6601
/5▁-	-6602
2.5。	-6603
29.5	-6604
33.0	-6605
48.5	-6606
:21。	-6607
:3/8	-6608
:30。	-6609
:4/3	-6610
:4/5	-6611
:65。	-6612
^2/(	-6613
^2▁-	-6614
shān	-6615
tiào	-6616
tīng	-6617
▁130	-6618
▁150	-6619
▁176	-6620
260.0	-6621
277.0	-6622
294.0	-6623
361.0	-6624
420.0	-6625
449.0	-6626
9▁=▁6	-6627
:1/1。	-6628
:125。	-6629
:3/2。	-6630
:360。	-6631
:7/6。	-6632
wǔ▁zu	-6633
▁1/1。	-6634
▁22.5	-6635
▁7/6。	-6636
▁=▁9;	-6637
)/2)/(	-6638
)▁=▁7;	-6639
,3▁×▁5	-6640
,4▁×▁2	-6641
.1▁+▁8	-6642
.2▁+▁4	-6643
.4▁+▁2	-6644
.4▁+▁5	-6645
.6▁+▁2	-6646
.7▁+▁5	-6647
.7▁+▁8	-6648
.8▁+▁1	-6649
.8▁+▁2	-6650
.8▁+▁8	-6651
.9▁+▁1	-6652
.9▁+▁6	-6653
11▁=▁2	-6654
1296.0	-6655
13▁=▁8	-6656
14▁=▁7	-6657
1582.0	-6658
16▁=▁5	-6659
16▁=▁7	-6660
2▁-▁12	-6661
:11/6。	-6662
:3▁×▁5	-6663
:4▁×▁3	-6664
:4▁×▁9	-6665
:7▁×▁2	-6666
:7▁×▁5	-6667
^2*(3*	-6668
^2*(4*	-6669
^4/4▁-	-6670
^5/5▁-	-6671
▁11/6。	-6672
▁=▁-34	-6673
▁=▁-77	-6674
▁=▁27(	-6675
▁=▁435	-6676
▁=▁62。	-6677
▁=▁69;	-6678
▁=▁750	-6679
▁=▁80;	-6680
▁=▁88。	-6681
(9)▁-▁1	-6682
)▁=▁96;	-6683
+0)2+3,	-6684
+2)2+5,	-6685
+3)2+1,	-6686
+3)2+6,	-6687
-1)2+6,	-6688
-1)2-4,	-6689
-2)2+5,	-6690
-5)2+3,	-6691
/2▁=▁13	-6692
3▁=▁110	-6693
5/2▁=▁1	-6694
:12▁÷▁2	-6695
:12▁÷▁4	-6696
:14▁+▁6	-6697
:16▁÷▁4	-6698
:18▁÷▁3	-6699
:20▁÷▁4	-6700
:20▁÷▁5	-6701
:32▁÷▁4	-6702
:54▁÷▁6	-6703
fáng▁zi	-6704
nǐ▁shuō	-6705
×7▁=▁13	-6706
×9▁=▁15	-6707
▁+▁4)▁-	-6708
▁-▁(-1)	-6709
▁=▁-120	-6710
▁=▁-30;	-6711
▁=▁-30。	-6712
▁=▁-40。	-6713
▁=▁1350	-6714
▁=▁140(	-6715
▁=▁175。	-6716
▁=▁2+16	-6717
▁=▁300。	-6718
▁=▁360(	-6719
▁=▁360。	-6720
▁=▁4+17	-6721
▁=▁440。	-6722
▁=▁5+11	-6723
▁=▁9+10	-6724
▁=▁9+17	-6725
)▁=▁((2*	-6726
)▁=▁((3*	-6727
)▁=▁-56;	-6728
+8×9▁=▁7	-6729
55555555	-6730
×2▁=▁30;	-6731
×42▁=▁88	-6732
▁(0,▁3),	-6733
▁(0,▁3);	-6734
▁(1,▁6),	-6735
▁(1,▁6);	-6736
▁(2,▁5),	-6737
▁(2,▁5);	-6738
▁(5,▁3),	-6739
▁(5,▁3);	-6740
▁=▁0▁÷▁8	-6741
▁=▁0▁÷▁9	-6742
▁=▁2▁×▁6	-6743
▁=▁3▁×▁2	-6744
▁=▁3▁×▁9	-6745
▁=▁5▁×▁4	-6746
▁=▁5▁×▁7	-6747
▁=▁7▁÷▁7	-6748
(2)/4▁+▁1	-6749
)▁+▁1))/(	-6750
/2▁=▁105。	-6751
3▁=▁420.0	-6752
wǔ▁zhī▁bǐ	-6753
×46/2▁=▁1	-6754
×62▁=▁234	-6755
▁(-2,▁5),	-6756
▁(-2,▁5);	-6757
▁(-3,▁1),	-6758
▁(-3,▁1);	-6759
▁(-3,▁6),	-6760
▁(-3,▁6);	-6761
▁(1,▁-4),	-6762
▁(1,▁-4);	-6763
▁+▁3)^2)。	-6764
▁+▁5)^2)。	-6765
▁=▁-7▁÷▁7	-6766
▁=▁12▁-▁(	-6767
▁=▁30▁×▁3	-6768
▁=▁96▁÷▁1	-6769
'(3)▁=▁1/3	-6770
,7▁×▁3▁=▁2	-6771
3▁=▁1296.0	-6772
3▁=▁1582.0	-6773
7)/2▁=▁7×2	-6774
:3▁×▁9▁=▁?	-6775
:4▁×▁3▁=▁?	-6776
:4▁×▁9▁=▁?	-6777
:7▁×▁2▁=▁?	-6778
:7▁×▁5▁=▁?	-6779
▁+▁3/2▁=▁?	-6780
▁+▁3/4▁=▁?	-6781
▁+▁5/6▁=▁?	-6782
▁=▁-10▁÷▁5	-6783
▁=▁-30▁÷▁5	-6784
▁=▁-54▁÷▁9	-6785
▁÷▁2▁=▁10。	-6786
,4▁×▁2▁=▁8;	-6787
:12▁+▁8▁=▁?	-6788
▁=▁-10▁÷▁10	-6789
▁=▁100▁÷▁10	-6790
▁÷▁11▁=▁-4。	-6791
,3▁×▁5▁=▁15;	-6792
,7▁×▁3▁=▁21;	-6793
:12▁÷▁2▁=▁6(	-6794
:12▁÷▁4▁=▁3(	-6795
:16▁÷▁4▁=▁4(	-6796
:18▁÷▁3▁=▁6(	-6797
:20▁÷▁4▁=▁5(	-6798
:20▁÷▁5▁=▁4(	-6799
:32▁÷▁4▁=▁8(	-6800
:3▁×▁9▁=▁27。	-6801
:4▁×▁3▁=▁12。	-6802
:4▁×▁9▁=▁36。	-6803
:54▁÷▁6▁=▁9(	-6804
:7▁×▁2▁=▁14。	-6805
:7▁×▁5▁=▁35。	-6806
▁+▁3▁×▁5▁=▁?	-6807
▁+▁4▁×▁5▁=▁?	-6808
:12▁+▁8▁=▁20。	-6809
▁+▁5)^2▁-▁1/(	-6810
▁=▁0▁÷▁8▁=▁0。	-6811
▁=▁0▁÷▁9▁=▁0。	-6812
▁=▁3▁×▁2▁=▁6(	-6813
▁=▁4▁÷▁2▁=▁2。	-6814
▁=▁7▁÷▁7▁=▁1。	-6815
▁=▁8▁÷▁4▁=▁2。	-6816
▁+▁15)▁÷▁3▁=▁?	-6817
▁+▁72)▁÷▁8▁=▁?	-6818
▁=▁27▁÷▁9▁=▁3。	-6819
▁=▁2▁×▁6▁=▁12(	-6820
▁=▁36▁÷▁4▁=▁9。	-6821
▁=▁3▁×▁9▁=▁27(	-6822
▁=▁54▁÷▁9▁=▁6。	-6823
▁=▁56▁÷▁8▁=▁7。	-6824
▁=▁5▁×▁4▁=▁20(	-6825
▁=▁5▁×▁7▁=▁35(	-6826
×3+1⁄2×2×32▁=▁3	-6827
×8+1⁄2×2×82▁=▁1	-6828
▁=▁-7▁÷▁7▁=▁-1。	-6829
▁=▁96▁÷▁12▁=▁8。	-6830
▁=▁-10▁÷▁5▁=▁-2。	-6831
▁=▁-122▁-▁4×1×(3	-6832
▁=▁-30▁÷▁5▁=▁-6。	-6833
▁=▁-54▁÷▁9▁=▁-6。	-6834
▁=▁60▁×▁6▁=▁360(	-6835
bǐ	-6836
ku	-6837
kě	-6838
+28	-6839
+46	-6840
,41	-6841
,47	-6842
,59	-6843
,82	-6844
,84	-6845
,88	-6846
,97	-6847
-25	-6848
-26	-6849
-30	-6850
.57	-6851
15*	-6852
570	-6853
63;	-6854
69。	-6855
71。	-6856
99。	-6857
:8。	-6858
^5,	-6859
^6,	-6860
×67	-6861
×69	-6862
×94	-6863
▁5*	-6864
▁lè	-6865
四支笔	-6866
(3)*	-6867
)/4。	-6868
+1×4	-6869
+9×5	-6870
.57。	-6871
.62。	-6872
1260	-6873
1350	-6874
:12。	-6875
:2/5	-6876
:5/4	-6877
:90。	-6878
kuài	-6879
×108	-6880
▁104	-6881
.625。	-6882
108.0	-6883
1▁-▁2	-6884
300.0	-6885
390.0	-6886
513.0	-6887
7▁=▁3	-6888
904.0	-6889
:300。	-6890
^3*(2	-6891
chàng	-6892
kě▁ài	-6893
yǐ▁zi	-6894
▁52.5	-6895
▁87.5	-6896
▁=▁69	-6897
,2▁×▁3	-6898
,9▁×▁5	-6899
.5▁+▁5	-6900
.9▁+▁9	-6901
10▁=▁7	-6902
12▁=▁1	-6903
12▁=▁7	-6904
16▁=▁6	-6905
18▁=▁9	-6906
1▁-▁(9	-6907
2▁=▁28	-6908
2▁=▁78	-6909
3164.0	-6910
3616.0	-6911
3▁=▁22	-6912
50▁=▁?	-6913
:5▁×▁2	-6914
:5▁×▁5	-6915
:8▁÷▁4	-6916
^2*(5*	-6917
^3/4▁+	-6918
sì▁zhǐ	-6919
sān▁zu	-6920
×6▁=▁1	-6921
èr▁zhǐ	-6922
▁=▁-17	-6923
▁=▁-23	-6924
▁=▁-29	-6925
▁=▁-38	-6926
▁=▁-46	-6927
▁=▁170	-6928
▁=▁17;	-6929
▁=▁42,	-6930
▁=▁46;	-6931
▁=▁53。	-6932
▁=▁59;	-6933
▁=▁61。	-6934
▁=▁85。	-6935
▁=▁99。	-6936
(3)▁-▁1	-6937
)▁+▁1)。	-6938
)▁=▁-6;	-6939
)▁=▁35;	-6940
+2)2+4,	-6941
+2)2-3,	-6942
+5)2+6,	-6943
-1)2+7,	-6944
-2)2+1,	-6945
-5)2+5,	-6946
18▁=▁15	-6947
1▁-▁(19	-6948
20▁=▁12	-6949
20▁=▁16	-6950
3/2▁=▁1	-6951
:24▁÷▁3	-6952
:24▁÷▁6	-6953
:27▁÷▁3	-6954
:42▁÷▁6	-6955
kuài▁lè	-6956
▁=▁-42。	-6957
▁=▁-46。	-6958
▁=▁-58。	-6959
▁=▁1+15	-6960
▁=▁126。	-6961
▁=▁135(	-6962
▁=▁240。	-6963
▁=▁3+13	-6964
▁=▁4+12	-6965
▁=▁400。	-6966
▁=▁5+12	-6967
▁=▁6+13	-6968
▁=▁6+15	-6969
▁=▁9+14	-6970
'(2)▁=▁8	-6971
)/2▁+▁5*	-6972
)▁=▁-14;	-6973
)▁=▁-72;	-6974
2▁=▁52.5	-6975
2▁=▁87.5	-6976
^5▁+▁1)/	-6977
▁(1,▁7),	-6978
▁(1,▁7);	-6979
▁(2,▁1),	-6980
▁(2,▁1);	-6981
▁(5,▁5),	-6982
▁(5,▁5);	-6983
▁+▁4▁=▁?	-6984
▁=▁10+15	-6985
▁=▁1▁×▁6	-6986
▁=▁4▁×▁5	-6987
▁=▁4▁×▁6	-6988
3▁=▁108.0	-6989
3▁=▁300.0	-6990
3▁=▁390.0	-6991
3▁=▁513.0	-6992
3▁=▁904.0	-6993
3▁×▁2▁=▁?	-6994
sì▁zhī▁bǐ	-6995
×32/2▁=▁1	-6996
×38/2▁=▁1	-6997
×52/2▁=▁4	-6998
▁(-2,▁4),	-6999
▁(-2,▁4);	-7000
▁(-5,▁6),	-7001
▁(-5,▁6);	-7002
▁+▁2)^2)。	-7003
▁+▁32▁=▁3	-7004
▁+▁32▁=▁4	-7005
▁=▁-2▁÷▁2	-7006
▁=▁20▁×▁2	-7007
▁=▁30▁×▁6	-7008
▁=▁40▁×▁5	-7009
▁=▁45▁×▁3	-7010
▁=▁75▁×▁2	-7011
▁×▁3▁=▁10	-7012
3▁=▁3164.0	-7013
3▁=▁3616.0	-7014
:5▁×▁2▁=▁?	-7015
:5▁×▁5▁=▁?	-7016
^5▁+▁1/(2*	-7017
wǒ▁men▁wán	-7018
×102▁=▁120	-7019
▁(-2,▁-3),	-7020
▁(-2,▁-3);	-7021
▁+▁2/9▁=▁?	-7022
▁+▁3/8▁=▁?	-7023
▁+▁5/7▁=▁?	-7024
▁7▁×▁3▁=▁2	-7025
▁=▁-12▁÷▁6	-7026
▁=▁-21▁÷▁3	-7027
▁=▁-21▁÷▁7	-7028
▁=▁-27▁÷▁3	-7029
▁=▁-28▁÷▁7	-7030
▁=▁-30▁÷▁6	-7031
▁=▁-36▁÷▁1	-7032
▁=▁-42▁÷▁7	-7033
▁=▁-45▁÷▁5	-7034
▁=▁-48▁÷▁6	-7035
▁=▁-60▁÷▁1	-7036
▁=▁-70▁÷▁7	-7037
▁=▁-81▁÷▁9	-7038
▁÷▁5▁=▁10。	-7039
▁÷▁8▁=▁10。	-7040
,2▁×▁3▁=▁6;	-7041
:21▁÷▁7▁=▁?	-7042
:8▁÷▁4▁=▁2(	-7043
▁=▁-80▁÷▁10	-7044
▁×▁4▁=▁240(	-7045
▁×▁4▁=▁280(	-7046
▁÷▁11▁=▁-3。	-7047
,9▁×▁5▁=▁45;	-7048
:21▁÷▁7▁=▁3。	-7049
:24▁÷▁3▁=▁8(	-7050
:24▁÷▁6▁=▁4(	-7051
:27▁÷▁3▁=▁9(	-7052
:42▁÷▁6▁=▁7(	-7053
:5▁×▁2▁=▁10。	-7054
:5▁×▁5▁=▁25。	-7055
▁+▁3▁×▁4▁=▁?	-7056
▁+▁7▁×▁3▁=▁?	-7057
▁+▁9▁×▁2▁=▁?	-7058
▁21▁÷▁7▁=▁3。	-7059
▁7▁×▁3▁=▁21,	-7060
▁gè▁tài▁yáng	-7061
▁÷▁12▁=▁-10。	-7062
▁=▁1▁×▁6▁=▁6(	-7063
▁=▁6▁÷▁2▁=▁3。	-7064
1428571428571。	-7065
▁+▁63)▁÷▁7▁=▁?	-7066
▁=▁18▁÷▁3▁=▁6。	-7067
▁=▁28▁÷▁7▁=▁4。	-7068
▁=▁4▁×▁5▁=▁20(	-7069
▁=▁4▁×▁6▁=▁24(	-7070
33333333333334。	-7071
×7+1⁄2×3×72▁=▁1	-7072
▁=▁-2▁÷▁2▁=▁-1。	-7073
▁=▁30▁÷▁3▁=▁10。	-7074
▁=▁70▁÷▁7▁=▁10。	-7075
▁=▁-12▁÷▁6▁=▁-2。	-7076
▁=▁-21▁÷▁3▁=▁-7。	-7077
▁=▁-21▁÷▁7▁=▁-3。	-7078
▁=▁-27▁÷▁3▁=▁-9。	-7079
▁=▁-28▁÷▁7▁=▁-4。	-7080
▁=▁-30▁÷▁6▁=▁-5。	-7081
▁=▁-42▁÷▁7▁=▁-6。	-7082
▁=▁-45▁÷▁5▁=▁-9。	-7083
▁=▁-48▁÷▁6▁=▁-8。	-7084
▁=▁-81▁÷▁9▁=▁-9。	-7085
▁=▁45▁×▁3▁=▁135(	-7086
▁=▁60▁×▁4▁=▁240(	-7087
▁=▁70▁×▁4▁=▁280(	-7088
▁=▁75▁×▁2▁=▁150(	-7089
矮书	-7090
+22	-7091
+53	-7092
,21	-7093
,49	-7094
,61	-7095
,86	-7096
-24	-7097
245	-7098
25(	-7099
525	-7100
725	-7101
73。	-7102
:85	-7103
kàn	-7104
▁78	-7105
▁88	-7106
五本书	-7107
美丽草	-7108
老师跳	-7109
)/6。	-7110
+6×5	-7111
+8×6	-7112
+8×8	-7113
.22。	-7114
.38。	-7115
/4))	-7116
/4);	-7117
1/2。	-7118
108;	-7119
1170	-7120
1188	-7121
125。	-7122
3.8。	-7123
8.0。	-7124
95.0	-7125
:29。	-7126
:42。	-7127
:5/7	-7128
niǎo	-7129
xīng	-7130
▁108	-7131
▁220	-7132
+19×9	-7133
150.0	-7134
469.0	-7135
6▁=▁?	-7136
712.0	-7137
8▁=▁3	-7138
9▁-▁6	-7139
9▁=▁5	-7140
:280。	-7141
:480。	-7142
wǒ▁dú	-7143
▁=▁61	-7144
(2)/2。	-7145
,2▁+▁3	-7146
,2▁+▁4	-7147
,4▁×▁6	-7148
,5▁×▁4	-7149
,8▁×▁8	-7150
.1▁+▁1	-7151
.1▁+▁9	-7152
.2▁+▁3	-7153
.2▁+▁5	-7154
.2▁+▁6	-7155
.3▁+▁3	-7156
.3▁+▁7	-7157
.4▁+▁0	-7158
.4▁+▁4	-7159
.4▁+▁7	-7160
.4▁+▁9	-7161
.5▁+▁8	-7162
.6▁+▁0	-7163
.6▁+▁1	-7164
.6▁+▁6	-7165
.6▁+▁7	-7166
.8▁+▁0	-7167
13▁=▁3	-7168
13▁=▁7	-7169
16▁=▁3	-7170
17▁=▁3	-7171
17▁=▁5	-7172
2047.0	-7173
20▁=▁6	-7174
3▁=▁80	-7175
84▁=▁?	-7176
:2▁+▁5	-7177
:3▁+▁8	-7178
^2/3▁+	-7179
^3*(3*	-7180
^3*(4*	-7181
tā▁pǎo	-7182
▁+▁1)。	-7183
▁+▁2)。	-7184
▁3▁×▁8	-7185
▁3▁×▁9	-7186
▁9▁×▁8	-7187
▁=▁-2*	-7188
▁=▁-43	-7189
▁=▁-96	-7190
▁=▁25(	-7191
▁=▁43;	-7192
▁=▁49;	-7193
▁=▁525	-7194
▁=▁725	-7195
▁=▁850	-7196
▁=▁87。	-7197
)▁+▁2)*	-7198
)▁=▁2*(	-7199
)▁=▁33;	-7200
)▁=▁99;	-7201
+0)2-2,	-7202
+2)2+8,	-7203
+4)2+2,	-7204
+5)2-5,	-7205
-2)2-1,	-7206
-3)2+2,	-7207
-3)2-2,	-7208
-3)2-7,	-7209
-5)2+0,	-7210
-5)2+1,	-7211
-5)2-2,	-7212
-5)2-4,	-7213
/2▁=▁11	-7214
17▁=▁10	-7215
19▁=▁12	-7216
:15▁÷▁3	-7217
:35▁÷▁5	-7218
:40▁÷▁5	-7219
▁+▁1)▁-	-7220
▁+▁4)))	-7221
▁+▁5)))	-7222
▁-▁(-2)	-7223
▁=▁-110	-7224
▁=▁-34。	-7225
▁=▁-38。	-7226
▁=▁-54;	-7227
▁=▁-62。	-7228
▁=▁156。	-7229
▁=▁2+19	-7230
▁=▁200(	-7231
▁=▁280。	-7232
▁=▁297。	-7233
▁=▁442。	-7234
▁=▁6+16	-7235
▁=▁8+12	-7236
▁=▁8+18	-7237
'(2)▁=▁9	-7238
'(3)▁=▁3	-7239
)▁=▁-55;	-7240
/2▁=▁75。	-7241
2▁-▁(-20	-7242
píng▁guǒ	-7243
▁(3,▁2),	-7244
▁(3,▁2);	-7245
▁(5,▁0),	-7246
▁(5,▁0);	-7247
▁(5,▁1),	-7248
▁(5,▁1);	-7249
▁+▁5)/((	-7250
▁+▁7)/((	-7251
▁=▁1+5×5	-7252
▁=▁10+16	-7253
▁=▁10+17	-7254
▁=▁10+18	-7255
▁=▁1▁×▁8	-7256
▁=▁2▁÷▁2	-7257
▁=▁4▁×▁3	-7258
▁=▁5▁×▁3	-7259
▁=▁5▁×▁5	-7260
3▁=▁150.0	-7261
tiān▁kōng	-7262
wǔ▁běn▁sh	-7263
xīng▁xīng	-7264
×30/2▁=▁1	-7265
×40/2▁=▁1	-7266
▁(-2,▁8),	-7267
▁(-2,▁8);	-7268
▁(-4,▁2),	-7269
▁(-4,▁2);	-7270
▁(0,▁-2),	-7271
▁(0,▁-2);	-7272
▁(2,▁-1),	-7273
▁(2,▁-1);	-7274
▁(3,▁-2),	-7275
▁(3,▁-2);	-7276
▁(3,▁-7),	-7277
▁(3,▁-7);	-7278
▁(5,▁-2),	-7279
▁(5,▁-2);	-7280
▁(5,▁-4),	-7281
▁(5,▁-4);	-7282
▁+▁48▁=▁6	-7283
▁=▁-5▁÷▁5	-7284
▁=▁-8▁÷▁4	-7285
▁=▁0▁÷▁10	-7286
▁=▁30▁×▁2	-7287
▁=▁45▁×▁2	-7288
▁=▁45▁×▁5	-7289
▁=▁47▁-▁(	-7290
▁=▁50▁×▁4	-7291
'(1)▁=▁-1/	-7292
.222222222	-7293
3▁=▁2047.0	-7294
5)/2▁=▁5×1	-7295
:3▁×▁6▁=▁?	-7296
:3▁×▁7▁=▁?	-7297
:3▁×▁8▁=▁?	-7298
:7▁×▁4▁=▁2	-7299
:7▁×▁4▁=▁?	-7300
:7▁×▁7▁=▁4	-7301
:7▁×▁7▁=▁?	-7302
×102▁=▁160	-7303
×4+1⁄2×3×4	-7304
×8+1⁄2×3×8	-7305
▁(-5,▁-5),	-7306
▁(-5,▁-5);	-7307
▁+▁1/9▁=▁?	-7308
▁-▁(7)▁=▁-	-7309
▁8▁×▁3▁=▁2	-7310
▁=▁-14▁÷▁2	-7311
▁=▁-14▁÷▁7	-7312
▁=▁-24▁÷▁8	-7313
▁=▁-25▁÷▁5	-7314
▁=▁-27▁÷▁9	-7315
▁=▁-29▁-▁(	-7316
▁=▁-35▁÷▁7	-7317
▁=▁-36▁÷▁4	-7318
▁=▁-50▁÷▁5	-7319
▁=▁-56▁÷▁8	-7320
▁=▁-60▁÷▁6	-7321
▁=▁-63▁÷▁9	-7322
▁=▁-72▁÷▁8	-7323
▁=▁33▁÷▁11	-7324
▁=▁40▁÷▁10	-7325
▁=▁99▁÷▁11	-7326
▁×▁2▁=▁50(	-7327
▁×▁2▁=▁80(	-7328
:11▁+▁9▁=▁?	-7329
:24▁÷▁3▁=▁?	-7330
:24▁÷▁8▁=▁?	-7331
:27▁÷▁3▁=▁?	-7332
:72▁÷▁9▁=▁?	-7333
▁×▁5▁=▁325(	-7334
'(2)▁=▁-1/49	-7335
(2)/4▁+▁1/2。	-7336
,4▁×▁6▁=▁24;	-7337
,5▁×▁4▁=▁20;	-7338
,8▁×▁8▁=▁64;	-7339
12)/2▁=▁12×4	-7340
50▁×▁0.6▁=▁2	-7341
:15▁÷▁3▁=▁5(	-7342
:24▁÷▁3▁=▁8。	-7343
:24▁÷▁8▁=▁3。	-7344
:27▁÷▁3▁=▁9。	-7345
:35▁÷▁5▁=▁7(	-7346
:3▁×▁6▁=▁18。	-7347
:3▁×▁7▁=▁21。	-7348
:3▁×▁8▁=▁24。	-7349
:40▁÷▁5▁=▁8(	-7350
:72▁÷▁9▁=▁8。	-7351
:7▁×▁4▁=▁28。	-7352
:7▁×▁7▁=▁49。	-7353
lǎo▁shī▁tiào	-7354
xiǎo▁hóng▁dú	-7355
▁-▁(-10)▁=▁-	-7356
▁24▁÷▁3▁=▁8。	-7357
▁24▁÷▁8▁=▁3。	-7358
▁27▁÷▁3▁=▁9。	-7359
▁3▁×▁8▁=▁24,	-7360
▁3▁×▁9▁=▁27,	-7361
▁72▁÷▁9▁=▁8。	-7362
▁8▁×▁3▁=▁24,	-7363
▁9▁×▁8▁=▁72,	-7364
▁=▁-100▁÷▁10	-7365
:11▁+▁9▁=▁20。	-7366
xiǎo▁hóng▁chī	-7367
▁=▁1▁×▁8▁=▁8(	-7368
▁=▁2▁÷▁2▁=▁1。	-7369
.2222222222222	-7370
▁+▁32)▁÷▁4▁=▁?	-7371
▁+▁36)▁÷▁4▁=▁?	-7372
▁=▁0▁÷▁10▁=▁0。	-7373
▁=▁18▁÷▁2▁=▁9。	-7374
▁=▁27▁÷▁3▁=▁9。	-7375
▁=▁30▁÷▁5▁=▁6。	-7376
▁=▁40▁÷▁8▁=▁5。	-7377
▁=▁4▁×▁3▁=▁12(	-7378
▁=▁5▁×▁3▁=▁15(	-7379
▁=▁5▁×▁5▁=▁25(	-7380
▁=▁64▁÷▁8▁=▁8。	-7381
×3+1⁄2×2×32▁=▁2	-7382
×3+1⁄2×3×32▁=▁3	-7383
×9+1⁄2×4×92▁=▁2	-7384
▁=▁-5▁÷▁5▁=▁-1。	-7385
▁=▁-8▁÷▁4▁=▁-2。	-7386
▁=▁25▁×▁2▁=▁50(	-7387
▁=▁33▁÷▁11▁=▁3。	-7388
▁=▁40▁×▁2▁=▁80(	-7389
▁=▁40▁÷▁10▁=▁4。	-7390
▁=▁45▁×▁2▁=▁90(	-7391
▁=▁80▁÷▁8▁=▁10。	-7392
▁=▁99▁÷▁11▁=▁9。	-7393
▁=▁-14▁÷▁2▁=▁-7。	-7394
▁=▁-14▁÷▁7▁=▁-2。	-7395
▁=▁-24▁÷▁8▁=▁-3。	-7396
▁=▁-25▁÷▁5▁=▁-5。	-7397
▁=▁-27▁÷▁9▁=▁-3。	-7398
▁=▁-35▁÷▁7▁=▁-5。	-7399
▁=▁-36▁÷▁4▁=▁-9。	-7400
▁=▁-56▁÷▁8▁=▁-7。	-7401
▁=▁-63▁÷▁9▁=▁-7。	-7402
▁=▁-72▁÷▁8▁=▁-9。	-7403
▁=▁45▁×▁5▁=▁225(	-7404
▁=▁65▁×▁5▁=▁325(	-7405
uǎ	-7406
wē	-7407
三个	-7408
+29	-7409
+2×	-7410
+47	-7411
+48	-7412
,22	-7413
,67	-7414
,73	-7415
,89	-7416
-15	-7417
-32	-7418
11;	-7419
16*	-7420
345	-7421
475	-7422
50(	-7423
625	-7424
6▁+	-7425
77。	-7426
79。	-7427
855	-7428
857	-7429
950	-7430
:(1	-7431
n▁n	-7432
uǎn	-7433
yún	-7434
×55	-7435
×61	-7436
×93	-7437
小红跳	-7438
+9×8	-7439
.29。	-7440
/64。	-7441
1160	-7442
32.0	-7443
:1/7	-7444
:1/8	-7445
:11。	-7446
:3/4	-7447
:36。	-7448
:39。	-7449
:4/7	-7450
:54。	-7451
^(13	-7452
五辆汽车	-7453
+11×9	-7454
.2857	-7455
170.0	-7456
339.0	-7457
3▁-▁5	-7458
424.0	-7459
4▁=▁?	-7460
553.0	-7461
923.0	-7462
:225。	-7463
:240。	-7464
:320。	-7465
:4/3。	-7466
:400。	-7467
:5/3。	-7468
:9.5。	-7469
^2*(-	-7470
wēn▁n	-7471
èr▁zu	-7472
▁-▁(3	-7473
▁31.5	-7474
▁94.5	-7475
▁=▁4;	-7476
(3)/3。	-7477
)▁=▁(3	-7478
)▁=▁5;	-7479
,2▁×▁2	-7480
,2▁×▁7	-7481
,3▁×▁9	-7482
,5▁×▁5	-7483
,8▁×▁4	-7484
.7▁+▁0	-7485
1130.0	-7486
1356.0	-7487
1424.0	-7488
1580.0	-7489
16▁=▁?	-7490
1817.0	-7491
2314.0	-7492
28▁=▁?	-7493
2923.0	-7494
2▁=▁55	-7495
2▁=▁9。	-7496
3634.0	-7497
3▁=▁11	-7498
3▁=▁72	-7499
4746.0	-7500
65▁=▁?	-7501
:2▁×▁2	-7502
:2▁×▁3	-7503
:4▁÷▁2	-7504
:5▁×▁3	-7505
:5▁×▁7	-7506
:6▁×▁8	-7507
:7▁+▁9	-7508
:7▁×▁9	-7509
:8▁×▁7	-7510
:9▁×▁2	-7511
:9▁×▁9	-7512
^2*(2*	-7513
^3*(6*	-7514
tā▁chī	-7515
×6▁=▁8	-7516
▁136.5	-7517
▁2▁×▁3	-7518
▁3▁×▁5	-7519
▁4▁×▁6	-7520
▁5▁×▁2	-7521
▁8▁×▁2	-7522
▁8▁×▁8	-7523
▁=▁-41	-7524
▁=▁-47	-7525
▁=▁-65	-7526
▁=▁-68	-7527
▁=▁-76	-7528
▁=▁-99	-7529
▁=▁19;	-7530
▁=▁2+7	-7531
▁=▁21(	-7532
▁=▁30(	-7533
▁=▁475	-7534
▁=▁51;	-7535
▁=▁52。	-7536
▁=▁570	-7537
▁=▁855	-7538
(2)▁-▁1	-7539
)▁=▁84;	-7540
+0)2+1,	-7541
+0)2+4,	-7542
+1)2+0,	-7543
+1)2+2,	-7544
+1)2-2,	-7545
+3)2-3,	-7546
+3)2-7,	-7547
+4)2+7,	-7548
+5)2+5,	-7549
+5)2-7,	-7550
-1)2-5,	-7551
-1)2-8,	-7552
-2)2-3,	-7553
-2)2-4,	-7554
-2)2-6,	-7555
-3)2-5,	-7556
-4)2-6,	-7557
-4)2-7,	-7558
-5)2-7,	-7559
/2▁=▁16	-7560
12▁=▁10	-7561
13▁=▁11	-7562
2▁-▁(-8	-7563
:12▁÷▁3	-7564
:16▁÷▁2	-7565
:24▁÷▁4	-7566
:30▁÷▁6	-7567
:48▁÷▁6	-7568
▁+▁2)^2	-7569
▁+▁25)。	-7570
▁=▁-10;	-7571
▁=▁-18;	-7572
▁=▁-32;	-7573
▁=▁-45。	-7574
▁=▁-48。	-7575
▁=▁-52。	-7576
▁=▁-63。	-7577
▁=▁1160	-7578
▁=▁130,	-7579
▁=▁130;	-7580
▁=▁275。	-7581
▁=▁3+19	-7582
▁=▁4+10	-7583
▁=▁5+10	-7584
▁=▁6+14	-7585
▁=▁7+13	-7586
▁=▁8+14	-7587
▁=▁855。	-7588
▁=▁9.5。	-7589
'(1)▁=▁5	-7590
)▁=▁(-3*	-7591
)▁=▁-22;	-7592
)▁=▁-35;	-7593
)▁=▁-54;	-7594
2▁=▁94.5	-7595
^2▁+▁10*	-7596
wēn▁nuǎn	-7597
×2▁=▁32;	-7598
▁(0,▁1),	-7599
▁(0,▁1);	-7600
▁(0,▁4),	-7601
▁(0,▁4);	-7602
▁+▁4▁×▁5	-7603
▁=▁0▁÷▁3	-7604
▁=▁0▁÷▁4	-7605
▁=▁10+12	-7606
▁=▁1▁×▁3	-7607
▁=▁1▁×▁7	-7608
▁=▁2▁×▁3	-7609
▁=▁4▁×▁4	-7610
▁=▁4▁×▁9	-7611
▁=▁5▁÷▁5	-7612
▁=▁9+4×3	-7613
▁÷▁6▁=▁4	-7614
'(1)▁=▁2。	-7615
3▁=▁170.0	-7616
3▁=▁339.0	-7617
3▁=▁553.0	-7618
×50/2▁=▁1	-7619
×66/2▁=▁2	-7620
×66/2▁=▁4	-7621
×70/2▁=▁3	-7622
▁(-1,▁0),	-7623
▁(-1,▁0);	-7624
▁(-1,▁2),	-7625
▁(-1,▁2);	-7626
▁(-4,▁7),	-7627
▁(-4,▁7);	-7628
▁(-5,▁5),	-7629
▁(-5,▁5);	-7630
▁(1,▁-5),	-7631
▁(1,▁-5);	-7632
▁(1,▁-8),	-7633
▁(1,▁-8);	-7634
▁(2,▁-3),	-7635
▁(2,▁-3);	-7636
▁(2,▁-4),	-7637
▁(2,▁-4);	-7638
▁(2,▁-6),	-7639
▁(2,▁-6);	-7640
▁(3,▁-5),	-7641
▁(3,▁-5);	-7642
▁(4,▁-6),	-7643
▁(4,▁-6);	-7644
▁(4,▁-7),	-7645
▁(4,▁-7);	-7646
▁(5,▁-7),	-7647
▁(5,▁-7);	-7648
▁+▁1)^2)。	-7649
▁+▁42▁=▁4	-7650
▁=▁-8▁÷▁2	-7651
▁=▁24▁÷▁1	-7652
▁=▁25▁×▁4	-7653
▁=▁30▁×▁4	-7654
▁=▁30▁×▁5	-7655
▁=▁33▁-▁(	-7656
▁=▁50▁×▁2	-7657
▁=▁60▁×▁3	-7658
▁=▁60▁÷▁1	-7659
▁=▁84▁÷▁1	-7660
▁×▁9▁=▁90	-7661
+19×9▁=▁17	-7662
,6▁×▁4▁=▁2	-7663
,7▁×▁5▁=▁3	-7664
,7▁×▁6▁=▁4	-7665
3▁=▁1130.0	-7666
3▁=▁1356.0	-7667
3▁=▁1424.0	-7668
3▁=▁1580.0	-7669
3▁=▁1817.0	-7670
3▁=▁2314.0	-7671
3▁=▁2923.0	-7672
3▁=▁3634.0	-7673
3▁=▁4746.0	-7674
7)/2▁=▁7×5	-7675
9)/2▁=▁9×2	-7676
:2▁×▁2▁=▁?	-7677
:2▁×▁3▁=▁?	-7678
:5▁×▁3▁=▁?	-7679
:5▁×▁7▁=▁?	-7680
:6▁×▁7▁=▁4	-7681
:6▁×▁7▁=▁?	-7682
:6▁×▁8▁=▁?	-7683
:6▁÷▁2▁=▁?	-7684
:7▁×▁9▁=▁?	-7685
:8▁×▁7▁=▁?	-7686
:9▁×▁2▁=▁?	-7687
:9▁×▁9▁=▁?	-7688
▁(-1,▁-2),	-7689
▁(-1,▁-2);	-7690
▁(-3,▁-3),	-7691
▁(-3,▁-3);	-7692
▁(-3,▁-7),	-7693
▁(-3,▁-7);	-7694
▁(-5,▁-7),	-7695
▁(-5,▁-7);	-7696
▁+▁4/5▁=▁?	-7697
▁=▁-12▁÷▁2	-7698
▁=▁-16▁÷▁4	-7699
▁=▁-18▁÷▁9	-7700
▁=▁-20▁÷▁2	-7701
▁=▁-20▁÷▁4	-7702
▁=▁-20▁÷▁5	-7703
▁=▁-24▁÷▁4	-7704
▁=▁-32▁÷▁4	-7705
▁=▁-36▁÷▁9	-7706
▁=▁-56▁÷▁7	-7707
▁=▁108▁÷▁1	-7708
▁=▁22▁÷▁11	-7709
▁=▁90▁÷▁10	-7710
▁×▁2▁=▁100	-7711
▁×▁5▁=▁10;	-7712
▁÷▁4▁=▁10。	-7713
'(2)▁=▁-1/9	-7714
(3)▁+▁2)/6。	-7715
,2▁×▁2▁=▁4;	-7716
:10▁÷▁5▁=▁?	-7717
:15▁÷▁3▁=▁?	-7718
:16▁÷▁8▁=▁?	-7719
:24▁÷▁4▁=▁?	-7720
:2▁×▁2▁=▁4。	-7721
:2▁×▁3▁=▁6。	-7722
:4▁÷▁2▁=▁2(	-7723
:64▁÷▁8▁=▁?	-7724
:6▁÷▁2▁=▁3。	-7725
lǎo▁shī▁pǎo	-7726
lǎo▁shī▁xiě	-7727
▁2▁×▁3▁=▁6,	-7728
▁6▁÷▁2▁=▁3。	-7729
▁=▁-20▁÷▁10	-7730
▁=▁-90▁÷▁10	-7731
▁gè▁tóng▁xu	-7732
(3)/6▁+▁1/3。	-7733
,2▁×▁5▁=▁10;	-7734
,2▁×▁7▁=▁14;	-7735
,3▁×▁9▁=▁27;	-7736
,5▁×▁5▁=▁25;	-7737
,6▁×▁4▁=▁24;	-7738
,7▁×▁5▁=▁35;	-7739
,7▁×▁6▁=▁42;	-7740
,8▁×▁4▁=▁32;	-7741
571428571428	-7742
:10▁÷▁5▁=▁2。	-7743
:12▁÷▁3▁=▁4(	-7744
:15▁÷▁3▁=▁5。	-7745
:16▁÷▁2▁=▁8(	-7746
:16▁÷▁8▁=▁2。	-7747
:24▁÷▁4▁=▁6(	-7748
:24▁÷▁4▁=▁6。	-7749
:30▁÷▁6▁=▁5(	-7750
:48▁÷▁6▁=▁8(	-7751
:5▁×▁3▁=▁15。	-7752
:5▁×▁7▁=▁35。	-7753
:64▁÷▁8▁=▁8。	-7754
:6▁×▁7▁=▁42。	-7755
:6▁×▁8▁=▁48。	-7756
:7▁×▁9▁=▁63。	-7757
:8▁×▁7▁=▁56。	-7758
:9▁×▁2▁=▁18。	-7759
:9▁×▁9▁=▁81。	-7760
▁+▁2▁×▁2▁=▁?	-7761
▁+▁2▁×▁3▁=▁?	-7762
▁+▁2▁×▁5▁=▁?	-7763
▁+▁4▁×▁2▁=▁?	-7764
▁+▁9▁×▁5▁=▁?	-7765
▁10▁÷▁5▁=▁2。	-7766
▁15▁÷▁3▁=▁5。	-7767
▁16▁÷▁8▁=▁2。	-7768
▁24▁÷▁4▁=▁6。	-7769
▁3▁×▁5▁=▁15,	-7770
▁4▁×▁6▁=▁24,	-7771
▁5▁×▁2▁=▁10,	-7772
▁64▁÷▁8▁=▁8。	-7773
▁8▁×▁2▁=▁16,	-7774
▁8▁×▁8▁=▁64,	-7775
▁=▁4+4×2▁=▁1	-7776
▁=▁0▁÷▁3▁=▁0。	-7777
▁=▁0▁÷▁4▁=▁0。	-7778
▁=▁1▁×▁3▁=▁3(	-7779
▁=▁1▁×▁7▁=▁7(	-7780
▁=▁2▁×▁3▁=▁6(	-7781
▁=▁5▁÷▁5▁=▁1。	-7782
xiǎo▁hóng▁tiào	-7783
▁+▁12)▁÷▁6▁=▁?	-7784
▁+▁14)▁÷▁7▁=▁?	-7785
▁+▁18)▁÷▁6▁=▁?	-7786
▁+▁42)▁÷▁6▁=▁?	-7787
▁=▁12▁÷▁3▁=▁4。	-7788
▁=▁12▁÷▁4▁=▁3。	-7789
▁=▁15▁÷▁3▁=▁5。	-7790
▁=▁15▁÷▁5▁=▁3。	-7791
▁=▁16▁÷▁8▁=▁2。	-7792
▁=▁21▁÷▁7▁=▁3。	-7793
▁=▁24▁÷▁3▁=▁8。	-7794
▁=▁24▁÷▁4▁=▁6。	-7795
▁=▁25▁÷▁5▁=▁5。	-7796
▁=▁4▁×▁4▁=▁16(	-7797
▁=▁4▁×▁9▁=▁36(	-7798
▁=▁54▁÷▁6▁=▁9。	-7799
.28571428571428	-7800
wǔ▁liàng▁qì▁chē	-7801
yī▁liàng▁qì▁chē	-7802
×3+1⁄2×1×32▁=▁1	-7803
×5+1⁄2×1×52▁=▁3	-7804
×6+1⁄2×1×62▁=▁4	-7805
▁+▁4)^2▁+▁1/(2*	-7806
▁=▁-8▁÷▁2▁=▁-4。	-7807
▁=▁22▁÷▁11▁=▁2。	-7808
▁=▁24▁÷▁12▁=▁2。	-7809
▁=▁50▁÷▁5▁=▁10。	-7810
▁=▁60▁÷▁12▁=▁5。	-7811
▁=▁84▁÷▁12▁=▁7。	-7812
▁=▁90▁÷▁10▁=▁9。	-7813
▁=▁-12▁÷▁2▁=▁-6。	-7814
▁=▁-16▁÷▁4▁=▁-4。	-7815
▁=▁-18▁÷▁9▁=▁-2。	-7816
▁=▁-20▁÷▁4▁=▁-5。	-7817
▁=▁-20▁÷▁5▁=▁-4。	-7818
▁=▁-24▁÷▁4▁=▁-6。	-7819
▁=▁-32▁÷▁4▁=▁-8。	-7820
▁=▁-36▁÷▁9▁=▁-4。	-7821
▁=▁-56▁÷▁7▁=▁-8。	-7822
▁=▁108▁÷▁12▁=▁9。	-7823
▁=▁25▁×▁4▁=▁100(	-7824
▁=▁40▁×▁3▁=▁120(	-7825
▁=▁50▁×▁6▁=▁300(	-7826
▁=▁60▁×▁5▁=▁300(	-7827
▁=▁70▁×▁2▁=▁140(	-7828
89	-7829
bà	-7830
+21	-7831
+31	-7832
,62	-7833
,74	-7834
,79	-7835
,92	-7836
-28	-7837
.16	-7838
1▁+	-7839
329	-7840
5.5	-7841
675	-7842
67。	-7843
945	-7844
:83	-7845
▁53	-7846
▁75	-7847
小明跳	-7848
小红吃	-7849
小红说	-7850
我们吃	-7851
我们画	-7852
*(9*	-7853
+6×4	-7854
.17。	-7855
.86。	-7856
1050	-7857
1400	-7858
16▁+	-7859
2.0。	-7860
43.5	-7861
458。	-7862
51.0	-7863
7.0。	-7864
75.5	-7865
:13。	-7866
:18。	-7867
:3/7	-7868
:44。	-7869
:5/6	-7870
:5/8	-7871
:52。	-7872
:56。	-7873
:62。	-7874
:95。	-7875
^4▁-	-7876
▁110	-7877
▁114	-7878
▁126	-7879
▁192	-7880
三把椅子	-7881
二辆汽车	-7882
四辆汽车	-7883
(1)▁+	-7884
)▁-▁(	-7885
002.0	-7886
115.0	-7887
158.0	-7888
230.0	-7889
267.0	-7890
270.0	-7891
280.0	-7892
320.0	-7893
340.0	-7894
3▁+▁7	-7895
3▁×▁9	-7896
445.0	-7897
452.0	-7898
534.0	-7899
621.0	-7900
864.0	-7901
945.0	-7902
975.0	-7903
9▁-▁2	-7904
:112。	-7905
:160。	-7906
:210。	-7907
:375。	-7908
bà▁bà	-7909
sì▁zu	-7910
▁+▁7*	-7911
▁-▁50	-7912
▁47.5	-7913
▁=▁59	-7914
)▁=▁2;	-7915
)▁=▁9。	-7916
,2▁+▁1	-7917
,2▁+▁2	-7918
,2▁×▁8	-7919
,3▁×▁3	-7920
,5▁×▁3	-7921
,7▁×▁8	-7922
,8▁×▁7	-7923
,8▁×▁9	-7924
,9▁×▁7	-7925
,9▁×▁9	-7926
.1▁+▁6	-7927
.1▁+▁7	-7928
.2▁+▁0	-7929
.2▁+▁7	-7930
.3▁+▁2	-7931
.3▁+▁4	-7932
.3▁+▁9	-7933
.7▁+▁6	-7934
.8▁+▁4	-7935
.8▁+▁6	-7936
1053.0	-7937
10▁=▁5	-7938
1107.0	-7939
1188.0	-7940
15▁=▁8	-7941
16▁=▁1	-7942
17▁=▁6	-7943
18▁=▁5	-7944
1975.0	-7945
2054.0	-7946
20▁=▁?	-7947
2528.0	-7948
2599.0	-7949
2670.0	-7950
2844.0	-7951
29▁=▁?	-7952
2▁=▁84	-7953
3002.0	-7954
31▁=▁?	-7955
3476.0	-7956
35▁=▁?	-7957
3792.0	-7958
3▁=▁70	-7959
5537.0	-7960
81▁=▁?	-7961
86▁=▁?	-7962
93▁=▁?	-7963
96▁=▁?	-7964
:2▁×▁9	-7965
:4.33。	-7966
:5▁+▁7	-7967
:6▁×▁3	-7968
:6▁×▁6	-7969
:9▁×▁5	-7970
^2*(6*	-7971
^2*(8*	-7972
^5*(5*	-7973
wǔ▁zhǐ	-7974
×7▁=▁1	-7975
▁+▁9);	-7976
▁143.5	-7977
▁5▁×▁6	-7978
▁6▁×▁3	-7979
▁6▁×▁6	-7980
▁6▁×▁9	-7981
▁7▁×▁8	-7982
▁8▁×▁5	-7983
▁=▁-31	-7984
▁=▁-39	-7985
▁=▁290	-7986
▁=▁45(	-7987
▁=▁47;	-7988
▁=▁5+7	-7989
▁=▁625	-7990
▁=▁675	-7991
▁=▁69。	-7992
▁=▁8+7	-7993
▁=▁82。	-7994
▁=▁945	-7995
(6)▁+▁1	-7996
)▁=▁11;	-7997
)▁=▁63*	-7998
+0)2-6,	-7999
+1)2+3,	-8000
+1)2+5,	-8001
+1)2+6,	-8002
+1)2-8,	-8003
+2)2-4,	-8004
+4)2+6,	-8005
+4)2-2,	-8006
+5)2+0,	-8007
+5)2+3,	-8008
+5)2-3,	-8009
-1)2+5,	-8010
-1)2+8,	-8011
-1)2-1,	-8012
-1)2-2,	-8013
-1)2-3,	-8014
-2)2+0,	-8015
-2)2-2,	-8016
-4)2+1,	-8017
-4)2+2,	-8018
-4)2-3,	-8019
-4)2-5,	-8020
/2▁=▁20	-8021
/2▁=▁40	-8022
19▁=▁13	-8023
20▁=▁18	-8024
3▁=▁105	-8025
3▁=▁133	-8026
6/2▁=▁7	-8027
7▁-▁(3)	-8028
:10.67。	-8029
:10▁÷▁2	-8030
:11.33。	-8031
:11▁+▁6	-8032
:12▁-▁7	-8033
:12▁÷▁6	-8034
:15▁÷▁5	-8035
^4▁+▁3*	-8036
tā▁shuō	-8037
wǒ▁tiào	-8038
×8▁=▁10	-8039
▁+▁16);	-8040
▁+▁4)/(	-8041
▁-▁(12)	-8042
▁=▁-21;	-8043
▁=▁-44。	-8044
▁=▁-55。	-8045
▁=▁-76。	-8046
▁=▁-90;	-8047
▁=▁1+16	-8048
▁=▁1+18	-8049
▁=▁10+7	-8050
▁=▁1050	-8051
▁=▁110。	-8052
▁=▁118,	-8053
▁=▁1400	-8054
▁=▁165(	-8055
▁=▁175(	-8056
▁=▁2+18	-8057
▁=▁3+14	-8058
▁=▁304。	-8059
▁=▁330(	-8060
▁=▁375。	-8061
▁=▁420。	-8062
▁=▁5+14	-8063
▁=▁5+19	-8064
▁=▁7+15	-8065
▁=▁8+13	-8066
▁=▁8+17	-8067
▁=▁8+19	-8068
'(1)▁=▁6	-8069
'(1)▁=▁7	-8070
'(2)▁=▁6	-8071
))▁+▁1)/	-8072
)/2▁+▁3*	-8073
)▁=▁-45;	-8074
)▁=▁1/((	-8075
+2×2▁=▁1	-8076
+3×2▁=▁1	-8077
/2▁=▁100	-8078
/4▁+▁2)。	-8079
2▁=▁47.5	-8080
3▁=▁80.0	-8081
7▁=▁161。	-8082
^6▁+▁1)/	-8083
×2▁=▁20;	-8084
×2▁=▁21;	-8085
×2▁=▁36;	-8086
×42▁=▁44	-8087
▁(1,▁5),	-8088
▁(1,▁5);	-8089
▁(1,▁8),	-8090
▁(1,▁8);	-8091
▁(2,▁0),	-8092
▁(2,▁0);	-8093
▁(4,▁1),	-8094
▁(4,▁1);	-8095
▁(4,▁2),	-8096
▁(4,▁2);	-8097
▁=▁3▁×▁7	-8098
▁=▁5▁×▁9	-8099
▁=▁8+3×3	-8100
▁=▁9+4×8	-8101
▁=▁9▁÷▁9	-8102
▁×▁5▁=▁2	-8103
▁×▁7▁+▁3	-8104
▁×▁7▁+▁8	-8105
▁÷▁8▁=▁8	-8106
+11×3▁=▁3	-8107
+19×4▁=▁8	-8108
3▁=▁158.0	-8109
3▁=▁230.0	-8110
3▁=▁267.0	-8111
3▁=▁270.0	-8112
3▁=▁280.0	-8113
3▁=▁320.0	-8114
3▁=▁340.0	-8115
3▁=▁445.0	-8116
3▁=▁452.0	-8117
3▁=▁534.0	-8118
3▁=▁621.0	-8119
3▁=▁729.0	-8120
3▁=▁864.0	-8121
3▁=▁945.0	-8122
3▁×▁7▁=▁?	-8123
×34/2▁=▁1	-8124
×42/2▁=▁3	-8125
×48/2▁=▁1	-8126
×48/2▁=▁2	-8127
×50/2▁=▁2	-8128
×50/2▁=▁3	-8129
×58/2▁=▁3	-8130
×68/2▁=▁3	-8131
×72/2▁=▁3	-8132
×76/2▁=▁3	-8133
▁(-1,▁3),	-8134
▁(-1,▁3);	-8135
▁(-1,▁5),	-8136
▁(-1,▁5);	-8137
▁(-1,▁6),	-8138
▁(-1,▁6);	-8139
▁(-4,▁6),	-8140
▁(-4,▁6);	-8141
▁(-5,▁0),	-8142
▁(-5,▁0);	-8143
▁(-5,▁3),	-8144
▁(-5,▁3);	-8145
▁(0,▁-6),	-8146
▁(0,▁-6);	-8147
▁(1,▁-1),	-8148
▁(1,▁-1);	-8149
▁(1,▁-2),	-8150
▁(1,▁-2);	-8151
▁(1,▁-3),	-8152
▁(1,▁-3);	-8153
▁(2,▁-2),	-8154
▁(2,▁-2);	-8155
▁(4,▁-3),	-8156
▁(4,▁-3);	-8157
▁(4,▁-5),	-8158
▁(4,▁-5);	-8159
▁+▁32▁=▁5	-8160
▁+▁4)^2)。	-8161
▁+▁63▁=▁6	-8162
▁+▁72▁=▁9	-8163
▁=▁-8▁÷▁8	-8164
▁=▁-9▁÷▁9	-8165
▁=▁31▁-▁(	-8166
▁=▁35▁×▁5	-8167
▁=▁48▁÷▁1	-8168
▁=▁55▁×▁3	-8169
▁=▁55▁×▁6	-8170
▁=▁70▁×▁4	-8171
▁=▁70▁×▁6	-8172
▁=▁75▁×▁4	-8173
▁×▁2▁=▁10	-8174
▁÷▁8▁=▁10	-8175
(2)▁+▁1/2。	-8176
3▁=▁1053.0	-8177
3▁=▁1107.0	-8178
3▁=▁1188.0	-8179
3▁=▁1975.0	-8180
3▁=▁2054.0	-8181
3▁=▁2528.0	-8182
3▁=▁2599.0	-8183
3▁=▁2670.0	-8184
3▁=▁2844.0	-8185
3▁=▁3002.0	-8186
3▁=▁3476.0	-8187
3▁=▁3792.0	-8188
3▁=▁5537.0	-8189
5)/2▁=▁5×3	-8190
:2▁×▁9▁=▁?	-8191
:6▁×▁3▁=▁?	-8192
:6▁×▁6▁=▁?	-8193
:9▁×▁5▁=▁?	-8194
tā▁xǐ▁huān	-8195
wǒ▁men▁chī	-8196
wǒ▁men▁huà	-8197
×102▁=▁110	-8198
×32▁=▁22.5	-8199
×4+1⁄2×4×4	-8200
▁(-1,▁-8),	-8201
▁(-1,▁-8);	-8202
▁(-2,▁-4),	-8203
▁(-2,▁-4);	-8204
▁(-4,▁-2),	-8205
▁(-4,▁-2);	-8206
▁(-5,▁-3),	-8207
▁(-5,▁-3);	-8208
▁+▁1/5▁=▁?	-8209
▁+▁1/8▁=▁?	-8210
▁+▁2/1▁=▁?	-8211
▁+▁2/5▁=▁?	-8212
▁+▁4/3▁=▁?	-8213
▁+▁5/3▁=▁?	-8214
▁+▁5/4▁=▁?	-8215
▁-▁(8)▁=▁-	-8216
▁7▁×▁6▁=▁4	-8217
▁7▁×▁7▁=▁4	-8218
▁9▁×▁3▁=▁2	-8219
▁=▁-15▁÷▁3	-8220
▁=▁-24▁÷▁6	-8221
▁=▁-42▁÷▁6	-8222
▁=▁-49▁÷▁7	-8223
▁=▁11▁÷▁11	-8224
▁=▁50▁÷▁10	-8225
▁=▁80▁÷▁10	-8226
▁×▁7▁=▁280	-8227
▁×▁7▁=▁560	-8228
,3▁×▁3▁=▁9;	-8229
:18▁÷▁6▁=▁?	-8230
:27▁÷▁9▁=▁?	-8231
:30▁÷▁5▁=▁?	-8232
:36▁÷▁6▁=▁?	-8233
:40▁÷▁8▁=▁?	-8234
:42▁÷▁7▁=▁?	-8235
:49▁÷▁7▁=▁?	-8236
:54▁÷▁6▁=▁?	-8237
:56▁÷▁7▁=▁?	-8238
▁=▁-30▁÷▁10	-8239
▁=▁-70▁÷▁10	-8240
▁=▁110▁÷▁11	-8241
▁×▁2▁=▁110(	-8242
▁×▁3▁=▁105(	-8243
▁÷▁11▁=▁-9。	-8244
▁÷▁12▁=▁-7。	-8245
,2▁×▁8▁=▁16;	-8246
,5▁×▁3▁=▁15;	-8247
,7▁×▁8▁=▁56;	-8248
,8▁×▁7▁=▁56;	-8249
,8▁×▁9▁=▁72;	-8250
,9▁×▁7▁=▁63;	-8251
,9▁×▁9▁=▁81;	-8252
14)/2▁=▁14×7	-8253
:10▁÷▁2▁=▁5(	-8254
:12▁÷▁6▁=▁2(	-8255
:15▁÷▁5▁=▁3(	-8256
:18▁÷▁6▁=▁3。	-8257
:27▁÷▁9▁=▁3。	-8258
:2▁×▁9▁=▁18。	-8259
:30▁÷▁5▁=▁6。	-8260
:36▁÷▁6▁=▁6。	-8261
:40▁÷▁8▁=▁5。	-8262
:42▁÷▁7▁=▁6。	-8263
:49▁÷▁7▁=▁7。	-8264
:54▁÷▁6▁=▁9。	-8265
:56▁÷▁7▁=▁8。	-8266
:6▁×▁3▁=▁18。	-8267
:6▁×▁6▁=▁36。	-8268
:9▁×▁5▁=▁45。	-8269
sān▁bǎ▁yǐ▁zi	-8270
xiǎo▁míng▁dú	-8271
×46/2▁=▁161。	-8272
▁+▁2▁×▁7▁=▁?	-8273
▁+▁2▁×▁8▁=▁?	-8274
▁18▁÷▁6▁=▁3。	-8275
▁27▁÷▁9▁=▁3。	-8276
▁30▁÷▁5▁=▁6。	-8277
▁36▁÷▁6▁=▁6。	-8278
▁40▁÷▁8▁=▁5。	-8279
▁42▁÷▁7▁=▁6。	-8280
▁49▁÷▁7▁=▁7。	-8281
▁54▁÷▁6▁=▁9。	-8282
▁56▁÷▁7▁=▁8。	-8283
▁5▁×▁6▁=▁30,	-8284
▁6▁×▁3▁=▁18,	-8285
▁6▁×▁6▁=▁36,	-8286
▁6▁×▁9▁=▁54,	-8287
▁7▁×▁6▁=▁42,	-8288
▁7▁×▁7▁=▁49,	-8289
▁7▁×▁8▁=▁56,	-8290
▁8▁×▁5▁=▁40,	-8291
▁9▁×▁3▁=▁27,	-8292
2▁-▁(-12)▁=▁-	-8293
2▁=▁9×3+1⁄2×4	-8294
▁+▁4)^2▁-▁1/(	-8295
▁+▁4)▁÷▁2▁=▁?	-8296
▁=▁8+3×3▁=▁17	-8297
▁=▁9+4×3▁=▁21	-8298
▁=▁9▁÷▁9▁=▁1。	-8299
▁×▁2▁=▁50▁×▁2	-8300
.8571428571428	-8301
xiǎo▁hóng▁shuō	-8302
xiǎo▁míng▁tiào	-8303
▁+▁18)▁÷▁3▁=▁?	-8304
▁+▁21)▁÷▁3▁=▁?	-8305
▁+▁24)▁÷▁4▁=▁?	-8306
▁+▁25)▁÷▁5▁=▁?	-8307
▁+▁28)▁÷▁4▁=▁?	-8308
▁+▁45)▁÷▁9▁=▁?	-8309
▁+▁49)▁÷▁7▁=▁?	-8310
▁+▁56)▁÷▁8▁=▁?	-8311
▁+▁72)▁÷▁9▁=▁?	-8312
▁=▁20▁÷▁5▁=▁4。	-8313
▁=▁32▁÷▁4▁=▁8。	-8314
▁=▁3▁×▁7▁=▁21(	-8315
▁=▁49▁÷▁7▁=▁7。	-8316
▁=▁5▁×▁9▁=▁45(	-8317
.16666666666666	-8318
sì▁liàng▁qì▁chē	-8319
×3+1⁄2×3×32▁=▁1	-8320
×5+1⁄2×2×52▁=▁7	-8321
èr▁liàng▁qì▁chē	-8322
▁=▁-8▁÷▁8▁=▁-1。	-8323
▁=▁-9▁÷▁9▁=▁-1。	-8324
▁=▁11▁÷▁11▁=▁1。	-8325
▁=▁20▁×▁2▁=▁40(	-8326
▁=▁20▁÷▁2▁=▁10。	-8327
▁=▁40▁÷▁4▁=▁10。	-8328
▁=▁48▁÷▁12▁=▁4。	-8329
▁=▁50▁÷▁10▁=▁5。	-8330
▁=▁80▁÷▁10▁=▁8。	-8331
▁=▁-15▁÷▁3▁=▁-5。	-8332
▁=▁-24▁÷▁6▁=▁-4。	-8333
▁=▁-42▁÷▁6▁=▁-7。	-8334
▁=▁-49▁÷▁7▁=▁-7。	-8335
▁=▁20▁×▁6▁=▁120(	-8336
▁=▁30▁×▁6▁=▁180(	-8337
▁=▁35▁×▁3▁=▁105(	-8338
▁=▁35▁×▁5▁=▁175(	-8339
▁=▁50▁×▁2▁=▁100(	-8340
▁=▁55▁×▁2▁=▁110(	-8341
▁=▁55▁×▁3▁=▁165(	-8342
▁=▁55▁×▁6▁=▁330(	-8343
▁=▁60▁×▁2▁=▁120(	-8344
▁=▁60▁×▁3▁=▁180(	-8345
▁=▁75▁×▁4▁=▁300(	-8346
59	-8347
dú	-8348
yí	-8349
五个	-8350
四得	-8351
大笔	-8352
大鸟	-8353
红树	-8354
+1×	-8355
+3×	-8356
+54	-8357
,51	-8358
,56	-8359
,64	-8360
,76	-8361
,83	-8362
,87	-8363
,94	-8364
-14	-8365
-20	-8366
13;	-8367
25;	-8368
275	-8369
276	-8370
364	-8371
46。	-8372
51。	-8373
5▁-	-8374
770	-8375
xuě	-8376
×75	-8377
×87	-8378
▁70	-8379
▁84	-8380
大小狗	-8381
大椅子	-8382
妈妈唱	-8383
妈妈跳	-8384
小桌子	-8385
小红听	-8386
我们唱	-8387
矮爸爸	-8388
绿太阳	-8389
)*((	-8390
.12。	-8391
.83。	-8392
.89。	-8393
1125	-8394
192。	-8395
25▁+	-8396
8.9。	-8397
92.5	-8398
:15。	-8399
:34。	-8400
:43。	-8401
:59。	-8402
▁102	-8403
▁168	-8404
▁171	-8405
▁190	-8406
▁208	-8407
▁300	-8408
四把椅子	-8409
安静小狗	-8410
安静星星	-8411
安静爸爸	-8412
快乐小狗	-8413
快乐汽车	-8414
明亮米饭	-8415
.125。	-8416
.375。	-8417
130.0	-8418
134.0	-8419
140.0	-8420
162.0	-8421
210.0	-8422
226.0	-8423
395.0	-8424
400.0	-8425
407.0	-8426
430.0	-8427
480.0	-8428
490.0	-8429
503.0	-8430
649.0	-8431
765.0	-8432
791.0	-8433
7▁=▁9	-8434
810.0	-8435
842.0	-8436
869.0	-8437
918.0	-8438
:2/3。	-8439
:250。	-8440
:420。	-8441
:5/6。	-8442
:9/4。	-8443
^3*(-	-8444
nǐ▁hē	-8445
▁13.5	-8446
▁5/6。	-8447
▁72.5	-8448
▁9/4。	-8449
▁=▁53	-8450
▁=▁6*	-8451
▁=▁67	-8452
▁=▁91	-8453
,2▁×▁4	-8454
,2▁×▁6	-8455
,4▁×▁3	-8456
,5▁×▁2	-8457
,5▁×▁6	-8458
,5▁×▁8	-8459
,5▁×▁9	-8460
,6▁×▁9	-8461
,8▁×▁2	-8462
,9▁×▁4	-8463
.3▁+▁5	-8464
.8▁=▁7	-8465
00▁=▁?	-8466
1134.0	-8467
1335.0	-8468
18▁=▁7	-8469
21▁=▁?	-8470
2765.0	-8471
27▁=▁?	-8472
2▁=▁30	-8473
3503.0	-8474
3649.0	-8475
3729.0	-8476
3842.0	-8477
38▁=▁?	-8478
3955.0	-8479
3▁=▁54	-8480
3▁=▁60	-8481
4407.0	-8482
44▁=▁?	-8483
5198.0	-8484
5424.0	-8485
64▁=▁?	-8486
70▁=▁?	-8487
72▁=▁?	-8488
7▁=▁23	-8489
95▁=▁?	-8490
99▁=▁?	-8491
:2▁+▁2	-8492
:2▁×▁4	-8493
:2▁×▁6	-8494
:2▁×▁7	-8495
:2▁×▁8	-8496
:5▁×▁8	-8497
:6▁×▁2	-8498
:6▁÷▁2	-8499
:7▁×▁8	-8500
:8▁×▁2	-8501
:8▁×▁8	-8502
:8▁×▁9	-8503
^7/7▁-	-8504
▁+▁1);	-8505
▁+▁16*	-8506
▁+▁2)^	-8507
▁2▁×▁9	-8508
▁3▁×▁6	-8509
▁4▁×▁5	-8510
▁8▁×▁9	-8511
▁9▁×▁7	-8512
▁=▁-2;	-8513
▁=▁-37	-8514
▁=▁-86	-8515
▁=▁1+1	-8516
▁=▁1+7	-8517
▁=▁13;	-8518
▁=▁190	-8519
▁=▁32(	-8520
▁=▁345	-8521
▁=▁53;	-8522
▁=▁6+9	-8523
▁=▁68。	-8524
▁=▁70(	-8525
▁=▁76。	-8526
▁=▁92。	-8527
(2)▁+▁2	-8528
)▁=▁13*	-8529
)▁=▁22;	-8530
+0)2+0,	-8531
+0)2-3,	-8532
+1)2-4,	-8533
+2)2+3,	-8534
+2)2+7,	-8535
+2)2-5,	-8536
+2)2-6,	-8537
+2)2-8,	-8538
+3)2-4,	-8539
+4)2+0,	-8540
+4)2+1,	-8541
+4)2+8,	-8542
+4)2-3,	-8543
+5)2+2,	-8544
-1)2+1,	-8545
-2)2+4,	-8546
-2)2-7,	-8547
-3)2+1,	-8548
-3)2+7,	-8549
-3)2-1,	-8550
-3)2-8,	-8551
-4)2-2,	-8552
-5)2+4,	-8553
-5)2+6,	-8554
-5)2+7,	-8555
-5)2+8,	-8556
-5)2-1,	-8557
/2▁=▁36	-8558
15▁=▁13	-8559
16▁=▁11	-8560
2▁=▁208	-8561
5▁=▁75。	-8562
6/2▁=▁6	-8563
7/2▁=▁8	-8564
:10.33。	-8565
:12▁+▁4	-8566
:13▁+▁7	-8567
:15▁+▁5	-8568
:25▁÷▁5	-8569
^2▁-▁3*	-8570
^3▁+▁4*	-8571
^3▁-▁2*	-8572
nǐ▁tīng	-8573
×5▁=▁10	-8574
×8▁=▁11	-8575
×8▁=▁13	-8576
×9▁=▁14	-8577
▁+▁5)),	-8578
▁+▁5)▁-	-8579
▁=▁-22。	-8580
▁=▁-35;	-8581
▁=▁-60;	-8582
▁=▁-60。	-8583
▁=▁-72;	-8584
▁=▁-79。	-8585
▁=▁-86。	-8586
▁=▁1+14	-8587
▁=▁1+17	-8588
▁=▁10+9	-8589
▁=▁100,	-8590
▁=▁102。	-8591
▁=▁104。	-8592
▁=▁1125	-8593
▁=▁1170	-8594
▁=▁125(	-8595
▁=▁1260	-8596
▁=▁127,	-8597
▁=▁130(	-8598
▁=▁160(	-8599
▁=▁176。	-8600
▁=▁189。	-8601
▁=▁2+12	-8602
▁=▁240(	-8603
▁=▁250。	-8604
▁=▁3+16	-8605
▁=▁3+18	-8606
▁=▁4+19	-8607
▁=▁495。	-8608
▁=▁5+18	-8609
▁=▁520。	-8610
▁=▁585。	-8611
▁=▁6+10	-8612
▁=▁6+12	-8613
▁=▁6+17	-8614
▁=▁7+14	-8615
▁=▁8+11	-8616
▁=▁9+13	-8617
▁=▁9+15	-8618
▁=▁9+16	-8619
'(3)▁=▁5	-8620
)▁=▁-2/(	-8621
+6×6▁=▁4	-8622
/2▁=▁110	-8623
2▁=▁40.5	-8624
2▁=▁72.5	-8625
3▁=▁54.0	-8626
5▁=▁110。	-8627
×3▁=▁50;	-8628
▁(0,▁0),	-8629
▁(0,▁0);	-8630
▁(1,▁1),	-8631
▁(1,▁1);	-8632
▁(2,▁4),	-8633
▁(2,▁4);	-8634
▁(3,▁1),	-8635
▁(3,▁1);	-8636
▁(3,▁7),	-8637
▁(3,▁7);	-8638
▁(5,▁4),	-8639
▁(5,▁4);	-8640
▁(5,▁6),	-8641
▁(5,▁6);	-8642
▁(5,▁7),	-8643
▁(5,▁7);	-8644
▁(5,▁8),	-8645
▁(5,▁8);	-8646
▁+▁7▁×▁8	-8647
▁=▁0▁÷▁7	-8648
▁=▁1+4×5	-8649
▁=▁10+13	-8650
▁=▁1▁×▁2	-8651
▁=▁2+4×7	-8652
▁=▁3+5×7	-8653
▁=▁4+4×9	-8654
▁=▁4▁×▁8	-8655
▁=▁4▁÷▁4	-8656
▁=▁5+5×8	-8657
▁=▁5▁×▁8	-8658
▁=▁8+4×5	-8659
▁×▁9▁+▁9	-8660
▁÷▁4▁=▁8	-8661
▁÷▁5▁=▁7	-8662
▁÷▁7▁=▁9	-8663
)▁=▁-100;	-8664
)▁=▁-120;	-8665
/2▁=▁440。	-8666
/2▁=▁520。	-8667
17▁=▁442。	-8668
3▁=▁130.0	-8669
3▁=▁140.0	-8670
3▁=▁162.0	-8671
3▁=▁210.0	-8672
3▁=▁226.0	-8673
3▁=▁395.0	-8674
3▁=▁400.0	-8675
3▁=▁430.0	-8676
3▁=▁480.0	-8677
3▁=▁490.0	-8678
3▁=▁791.0	-8679
3▁=▁810.0	-8680
3▁=▁869.0	-8681
3▁=▁918.0	-8682
wǔ▁kē▁cǎo	-8683
×40/2▁=▁2	-8684
×50/2▁=▁4	-8685
×60/2▁=▁3	-8686
×62▁=▁102	-8687
×64/2▁=▁2	-8688
×82▁=▁208	-8689
▁(-2,▁3),	-8690
▁(-2,▁3);	-8691
▁(-2,▁7),	-8692
▁(-2,▁7);	-8693
▁(-4,▁0),	-8694
▁(-4,▁0);	-8695
▁(-4,▁1),	-8696
▁(-4,▁1);	-8697
▁(-4,▁8),	-8698
▁(-4,▁8);	-8699
▁(-5,▁2),	-8700
▁(-5,▁2);	-8701
▁(0,▁-3),	-8702
▁(0,▁-3);	-8703
▁(2,▁-7),	-8704
▁(2,▁-7);	-8705
▁(3,▁-1),	-8706
▁(3,▁-1);	-8707
▁(3,▁-8),	-8708
▁(3,▁-8);	-8709
▁(4,▁-2),	-8710
▁(4,▁-2);	-8711
▁(5,▁-1),	-8712
▁(5,▁-1);	-8713
▁+▁13▁=▁1	-8714
▁+▁14▁=▁?	-8715
▁-▁16▁=▁?	-8716
▁-▁17▁=▁?	-8717
▁-▁3▁=▁3。	-8718
▁-▁7▁=▁1。	-8719
▁=▁-4▁÷▁2	-8720
▁=▁-4▁÷▁4	-8721
▁=▁-6▁÷▁2	-8722
▁=▁10+5×9	-8723
▁=▁2+2×10	-8724
▁=▁25▁×▁5	-8725
▁=▁35▁×▁2	-8726
▁=▁65▁×▁2	-8727
▁×▁2▁=▁40	-8728
▁×▁3▁=▁90	-8729
▁×▁7▁=▁80	-8730
+11×9▁=▁10	-8731
,7▁×▁4▁=▁2	-8732
.888888888	-8733
0)▁÷▁6▁=▁?	-8734
3▁=▁1134.0	-8735
3▁=▁1335.0	-8736
3▁=▁2765.0	-8737
3▁=▁3503.0	-8738
3▁=▁3649.0	-8739
3▁=▁3729.0	-8740
3▁=▁3842.0	-8741
3▁=▁3955.0	-8742
3▁=▁4407.0	-8743
3▁=▁5198.0	-8744
3▁=▁5424.0	-8745
:2▁×▁4▁=▁?	-8746
:2▁×▁6▁=▁?	-8747
:2▁×▁7▁=▁?	-8748
:2▁×▁8▁=▁?	-8749
:350▁×▁60%	-8750
:3▁×▁3▁=▁?	-8751
:3▁×▁4▁=▁?	-8752
:5▁×▁8▁=▁?	-8753
:6▁×▁2▁=▁?	-8754
:7▁×▁6▁=▁4	-8755
:7▁×▁6▁=▁?	-8756
:7▁×▁8▁=▁?	-8757
:8▁×▁2▁=▁?	-8758
:8▁×▁8▁=▁?	-8759
:8▁×▁9▁=▁?	-8760
^4▁+▁1/(2*	-8761
mā▁mā▁tiào	-8762
wǒ▁men▁xiě	-8763
×102▁=▁190	-8764
×3+1⁄2×2×3	-8765
×32▁=▁40.5	-8766
▁(-1,▁-4),	-8767
▁(-1,▁-4);	-8768
▁(-2,▁-5),	-8769
▁(-2,▁-5);	-8770
▁(-2,▁-6),	-8771
▁(-2,▁-6);	-8772
▁(-2,▁-8),	-8773
▁(-2,▁-8);	-8774
▁(-3,▁-4),	-8775
▁(-3,▁-4);	-8776
▁(-4,▁-3),	-8777
▁(-4,▁-3);	-8778
▁+▁3/5▁=▁?	-8779
▁+▁5/9▁=▁?	-8780
▁=▁-12▁÷▁3	-8781
▁=▁-16▁÷▁2	-8782
▁=▁-24▁÷▁1	-8783
▁=▁-28▁÷▁4	-8784
▁=▁-32▁÷▁8	-8785
▁=▁-43▁-▁(	-8786
▁=▁10▁÷▁10	-8787
▁×▁4▁=▁160	-8788
▁×▁4▁=▁80(	-8789
'(1)▁=▁3/2。	-8790
,2▁×▁4▁=▁8;	-8791
5)/2▁=▁5×30	-8792
:14▁+▁6▁=▁?	-8793
:18▁÷▁2▁=▁?	-8794
:18▁÷▁3▁=▁?	-8795
:20▁÷▁4▁=▁?	-8796
:2▁×▁4▁=▁8。	-8797
:3▁×▁3▁=▁9。	-8798
:63▁÷▁9▁=▁?	-8799
:6▁÷▁2▁=▁3(	-8800
:72▁÷▁8▁=▁?	-8801
mā▁mā▁chàng	-8802
sì▁bǎ▁yǐ▁zi	-8803
▁-▁(-2)▁=▁-	-8804
▁=▁-40▁÷▁10	-8805
▁×▁3▁=▁210(	-8806
▁×▁5▁=▁375(	-8807
▁÷▁11▁=▁-6。	-8808
▁÷▁11▁=▁-7。	-8809
▁÷▁12▁=▁-8。	-8810
,2▁×▁6▁=▁12;	-8811
,4▁×▁3▁=▁12;	-8812
,5▁×▁2▁=▁10;	-8813
,5▁×▁6▁=▁30;	-8814
,5▁×▁8▁=▁40;	-8815
,5▁×▁9▁=▁45;	-8816
,6▁×▁9▁=▁54;	-8817
,7▁×▁4▁=▁28;	-8818
,8▁×▁2▁=▁16;	-8819
,9▁×▁4▁=▁36;	-8820
10)/2▁=▁10×3	-8821
:18▁÷▁2▁=▁9。	-8822
:18▁÷▁3▁=▁6。	-8823
:20▁÷▁4▁=▁5。	-8824
:25▁÷▁5▁=▁5(	-8825
:2▁×▁6▁=▁12。	-8826
:2▁×▁7▁=▁14。	-8827
:2▁×▁8▁=▁16。	-8828
:3▁×▁4▁=▁12。	-8829
:5▁×▁8▁=▁40。	-8830
:63▁÷▁9▁=▁7。	-8831
:6▁×▁2▁=▁12。	-8832
:72▁÷▁8▁=▁9。	-8833
:7▁×▁6▁=▁42。	-8834
:7▁×▁8▁=▁56。	-8835
:8▁×▁2▁=▁16。	-8836
:8▁×▁8▁=▁64。	-8837
:8▁×▁9▁=▁72。	-8838
wǒ▁men▁chàng	-8839
xiǎo▁hóng▁hē	-8840
×10+1⁄2×1×10	-8841
×44/2▁=▁110。	-8842
▁+▁2)^2▁+▁1/	-8843
▁+▁2▁×▁4▁=▁?	-8844
▁+▁3▁×▁9▁=▁?	-8845
▁+▁4▁×▁3▁=▁?	-8846
▁+▁4▁×▁6▁=▁?	-8847
▁+▁5▁×▁3▁=▁?	-8848
▁+▁5▁×▁5▁=▁?	-8849
▁+▁7▁×▁5▁=▁?	-8850
▁+▁8▁×▁4▁=▁?	-8851
▁18▁÷▁2▁=▁9。	-8852
▁18▁÷▁3▁=▁6。	-8853
▁20▁÷▁4▁=▁5。	-8854
▁2▁×▁9▁=▁18,	-8855
▁3▁×▁6▁=▁18,	-8856
▁4▁×▁5▁=▁20,	-8857
▁63▁÷▁9▁=▁7。	-8858
▁72▁÷▁8▁=▁9。	-8859
▁8▁×▁9▁=▁72,	-8860
▁9▁×▁7▁=▁63,	-8861
▁=▁9+5×2▁=▁1	-8862
▁×▁8▁+▁7▁×▁8	-8863
▁÷▁11▁=▁-10。	-8864
20)/2▁=▁20×18	-8865
:14▁+▁6▁=▁20。	-8866
^(3/2)/3▁+▁7*	-8867
▁+▁3)^2▁-▁1/(	-8868
▁=▁0▁÷▁7▁=▁0。	-8869
▁=▁1▁×▁2▁=▁2(	-8870
▁=▁3+1×8▁=▁11	-8871
▁=▁4▁÷▁4▁=▁1。	-8872
▁×▁4▁=▁40▁×▁4	-8873
▁×▁4▁=▁70▁×▁4	-8874
.8888888888888	-8875
2▁=▁2×10+1⁄2×2	-8876
:350▁×▁60%▁=▁3	-8877
xiǎo▁hóng▁tīng	-8878
▁+▁12)▁÷▁3▁=▁?	-8879
▁+▁12)▁÷▁4▁=▁?	-8880
▁+▁16)▁÷▁2▁=▁?	-8881
▁+▁24)▁÷▁6▁=▁?	-8882
▁+▁48)▁÷▁8▁=▁?	-8883
▁+▁54)▁÷▁6▁=▁?	-8884
▁=▁10▁÷▁5▁=▁2。	-8885
▁=▁14▁÷▁7▁=▁2。	-8886
▁=▁2+2×10▁=▁22	-8887
▁=▁21▁÷▁3▁=▁7。	-8888
▁=▁28▁÷▁4▁=▁7。	-8889
▁=▁30▁÷▁6▁=▁5。	-8890
▁=▁35▁÷▁7▁=▁5。	-8891
▁=▁4▁×▁8▁=▁32(	-8892
▁=▁5▁×▁8▁=▁40(	-8893
▁=▁63▁÷▁9▁=▁7。	-8894
▁=▁72▁÷▁8▁=▁9。	-8895
▁=▁72▁÷▁9▁=▁8。	-8896
2▁=▁3×8+1⁄2×1×8	-8897
50▁×▁0.6▁=▁210。	-8898
×3+1⁄2×4×32▁=▁4	-8899
×3+1⁄2×5×32▁=▁4	-8900
×6+1⁄2×4×62▁=▁1	-8901
▁=▁-4▁÷▁2▁=▁-2。	-8902
▁=▁-4▁÷▁4▁=▁-1。	-8903
▁=▁-6▁÷▁2▁=▁-3。	-8904
▁=▁10▁÷▁10▁=▁1。	-8905
▁=▁20▁×▁4▁=▁80(	-8906
▁=▁30▁×▁2▁=▁60(	-8907
▁=▁30▁×▁3▁=▁90(	-8908
▁=▁35▁×▁2▁=▁70(	-8909
▁=▁-12▁÷▁3▁=▁-4。	-8910
▁=▁-16▁÷▁2▁=▁-8。	-8911
▁=▁-28▁÷▁4▁=▁-7。	-8912
▁=▁-32▁÷▁8▁=▁-4。	-8913
▁=▁20▁×▁5▁=▁100(	-8914
▁=▁25▁×▁5▁=▁125(	-8915
▁=▁40▁×▁4▁=▁160(	-8916
▁=▁40▁×▁6▁=▁240(	-8917
▁=▁50▁×▁3▁=▁150(	-8918
▁=▁65▁×▁2▁=▁130(	-8919
▁=▁70▁×▁3▁=▁210(	-8920
▁=▁75▁×▁5▁=▁375(	-8921
83	-8922
+27	-8923
+32	-8924
+34	-8925
+40	-8926
+55	-8927
+56	-8928
+81	-8929
,52	-8930
,81	-8931
,91	-8932
-21	-8933
-23	-8934
-31	-8935
-45	-8936
05。	-8937
142	-8938
18*	-8939
35;	-8940
36;	-8941
385	-8942
495	-8943
49;	-8944
4▁-	-8945
665	-8946
735	-8947
765	-8948
81;	-8949
875	-8950
88;	-8951
99;	-8952
^2;	-8953
^6;	-8954
^7,	-8955
huā	-8956
▁51	-8957
三支笔	-8958
五朵花	-8959
喝天空	-8960
妈妈喝	-8961
妈妈看	-8962
妈妈说	-8963
小明唱	-8964
我们说	-8965
(9)/	-8966
.44。	-8967
.78。	-8968
/2)*	-8969
/72。	-8970
1015	-8971
1035	-8972
1120	-8973
112。	-8974
36▁+	-8975
39.0	-8976
57.5	-8977
7.9。	-8978
93.0	-8979
:17。	-8980
:2/7	-8981
:48。	-8982
:72。	-8983
:74。	-8984
shuō	-8985
×101	-8986
▁132	-8987
▁162	-8988
三辆汽车	-8989
我们喜欢	-8990
(6))*	-8991
)/6▁+	-8992
)▁-▁2	-8993
110.0	-8994
178.0	-8995
190.0	-8996
204.0	-8997
237.0	-8998
243.0	-8999
250.0	-9000
3▁+▁8	-9001
3▁×▁6	-9002
403.0	-9003
422.0	-9004
474.0	-9005
501.0	-9006
555.0	-9007
675.0	-9008
678.0	-9009
808.0	-9010
9/25。	-9011
9▁+▁5	-9012
9▁-▁3	-9013
:137。	-9014
:162。	-9015
:440。	-9016
:5/4。	-9017
:7.5。	-9018
▁+▁6*	-9019
▁+▁80	-9020
▁-▁40	-9021
▁16.5	-9022
▁19.5	-9023
▁80.5	-9024
▁=▁81	-9025
)▁=▁3;	-9026
,3▁×▁6	-9027
,6▁×▁5	-9028
,6▁×▁6	-9029
,7▁+▁6	-9030
,9▁×▁6	-9031
,9▁×▁8	-9032
.1▁+▁0	-9033
.2▁=▁4	-9034
.3▁+▁6	-9035
.4▁+▁3	-9036
.5▁+▁1	-9037
.5▁+▁2	-9038
.5▁+▁6	-9039
.6▁+▁9	-9040
.7▁+▁2	-9041
.7▁+▁7	-9042
.8▁+▁7	-9043
.8▁+▁9	-9044
.9▁+▁2	-9045
.9▁+▁7	-9046
1027.0	-9047
10▁=▁8	-9048
10▁=▁?	-9049
11▁=▁6	-9050
11▁=▁8	-9051
11▁=▁?	-9052
1243.0	-9053
1350.0	-9054
13▁=▁2	-9055
13▁=▁?	-9056
1422.0	-9057
1501.0	-9058
15▁=▁?	-9059
1659.0	-9060
1738.0	-9061
1780.0	-9062
1808.0	-9063
20▁=▁1	-9064
2133.0	-9065
2136.0	-9066
2147.0	-9067
2260.0	-9068
2403.0	-9069
2492.0	-9070
2848.0	-9071
2937.0	-9072
2▁+▁2*	-9073
2▁-▁(2	-9074
2▁=▁76	-9075
30▁=▁?	-9076
3160.0	-9077
3204.0	-9078
3293.0	-9079
32▁=▁?	-9080
34▁=▁?	-9081
3555.0	-9082
3713.0	-9083
3738.0	-9084
3▁=▁75	-9085
4094.0	-9086
4183.0	-9087
444444	-9088
48▁=▁?	-9089
4972.0	-9090
5311.0	-9091
55▁=▁?	-9092
56▁=▁?	-9093
68▁=▁?	-9094
73▁=▁?	-9095
76▁=▁?	-9096
:10.5。	-9097
:11.5。	-9098
:5▁×▁4	-9099
:5▁×▁6	-9100
:6▁×▁5	-9101
:6▁×▁9	-9102
:8.33。	-9103
:8▁×▁3	-9104
:9▁×▁7	-9105
^6/6▁-	-9106
mǐ▁fàn	-9107
nǐ▁kàn	-9108
wǒ▁kàn	-9109
×2▁=▁5	-9110
×6▁=▁7	-9111
▁+▁6)*	-9112
▁+▁6),	-9113
▁+▁64)	-9114
▁+▁654	-9115
▁-▁(2)	-9116
▁157.5	-9117
▁211.5	-9118
▁2▁×▁2	-9119
▁2▁×▁8	-9120
▁3▁×▁2	-9121
▁3▁×▁4	-9122
▁4▁×▁8	-9123
▁5▁×▁4	-9124
▁5▁×▁9	-9125
▁6▁×▁5	-9126
▁=▁-59	-9127
▁=▁-74	-9128
▁=▁165	-9129
▁=▁35,	-9130
▁=▁42(	-9131
▁=▁48(	-9132
▁=▁495	-9133
▁=▁52;	-9134
▁=▁665	-9135
▁=▁73。	-9136
▁=▁765	-9137
▁=▁78。	-9138
▁=▁83。	-9139
▁=▁86。	-9140
▁=▁875	-9141
▁=▁90;	-9142
▁=▁93。	-9143
)▁+▁32。	-9144
)▁=▁-4;	-9145
)▁=▁-6*	-9146
+1)2+4,	-9147
+1)2+8,	-9148
+1)2-7,	-9149
+2)2+6,	-9150
+2)2-1,	-9151
+3)2+8,	-9152
+4)2+5,	-9153
+4)2-5,	-9154
+5)2+1,	-9155
+5)2-4,	-9156
+5)2-8,	-9157
,12▁+▁2	-9158
,8▁+▁18	-9159
-1)2+2,	-9160
-2)2+2,	-9161
-3)2+0,	-9162
-3)2-3,	-9163
-4)2+4,	-9164
-5)2-3,	-9165
-5)2-6,	-9166
14▁=▁11	-9167
14▁=▁12	-9168
16▁=▁13	-9169
16▁=▁14	-9170
18▁=▁13	-9171
18▁=▁14	-9172
2/2▁=▁5	-9173
2▁=▁80。	-9174
3▁=▁115	-9175
5▁=▁18,	-9176
5▁=▁55。	-9177
8/2▁=▁1	-9178
:12▁+▁3	-9179
:12▁+▁5	-9180
:12▁-▁3	-9181
:12▁-▁9	-9182
:15▁-▁1	-9183
:2▁+▁16	-9184
^(7/2),	-9185
^3*(27*	-9186
wǒ▁shuō	-9187
▁+▁16)。	-9188
▁+▁3)))	-9189
▁+▁3)^2	-9190
▁+▁6)/(	-9191
▁=▁-16;	-9192
▁=▁-20;	-9193
▁=▁-27;	-9194
▁=▁-57。	-9195
▁=▁-64。	-9196
▁=▁-65。	-9197
▁=▁-68。	-9198
▁=▁1+12	-9199
▁=▁1+19	-9200
▁=▁1015	-9201
▁=▁1035	-9202
▁=▁1120	-9203
▁=▁114。	-9204
▁=▁119。	-9205
▁=▁1215	-9206
▁=▁137。	-9207
▁=▁144。	-9208
▁=▁195(	-9209
▁=▁196。	-9210
▁=▁2+14	-9211
▁=▁234。	-9212
▁=▁264。	-9213
▁=▁3+10	-9214
▁=▁385。	-9215
▁=▁390(	-9216
▁=▁4+18	-9217
▁=▁420(	-9218
▁=▁429。	-9219
▁=▁462。	-9220
▁=▁468。	-9221
▁=▁7+12	-9222
▁=▁7+17	-9223
▁=▁7+19	-9224
▁=▁7.5。	-9225
▁=▁8+16	-9226
'(2)▁=▁5	-9227
'(3)▁=▁2	-9228
'(3)▁=▁7	-9229
(3)▁+▁2*	-9230
(6)▁+▁2*	-9231
)▁=▁(-6*	-9232
)▁=▁(1▁+	-9233
)▁=▁-63;	-9234
)▁=▁-70;	-9235
)▁=▁108;	-9236
)▁=▁110;	-9237
.5▁=▁50。	-9238
/2▁=▁60。	-9239
11111111	-9240
2▁=▁80.5	-9241
3▁=▁50.0	-9242
3▁=▁60.0	-9243
3▁=▁81.0	-9244
6/2▁=▁10	-9245
:1/2▁+▁2	-9246
:1/2▁+▁4	-9247
:19▁-▁18	-9248
:5/2▁+▁5	-9249
^5▁-▁1/(	-9250
mā▁mā▁hē	-9251
×2▁=▁24;	-9252
×2▁=▁27;	-9253
×2▁=▁34;	-9254
×2▁=▁44;	-9255
×3▁=▁40;	-9256
×92▁=▁20	-9257
▁(1,▁2),	-9258
▁(1,▁2);	-9259
▁(2,▁2),	-9260
▁(2,▁2);	-9261
▁(3,▁0),	-9262
▁(3,▁0);	-9263
▁(4,▁4),	-9264
▁(4,▁4);	-9265
▁+▁2▁×▁6	-9266
▁+▁7▁×▁6	-9267
▁+▁9)/((	-9268
▁=▁-100。	-9269
▁=▁0+4×6	-9270
▁=▁1+2×7	-9271
▁=▁1+5×9	-9272
▁=▁11.5。	-9273
▁=▁1▁×▁5	-9274
▁=▁2+3×6	-9275
▁=▁2+3×8	-9276
▁=▁2+4×5	-9277
▁=▁3▁÷▁3	-9278
▁=▁4+5×8	-9279
▁=▁4+5×9	-9280
▁=▁5+5×4	-9281
▁=▁6+4×8	-9282
▁=▁6+5×6	-9283
▁=▁6▁×▁2	-9284
▁=▁7+5×6	-9285
▁=▁8+4×7	-9286
▁=▁9+4×5	-9287
▁=▁9+5×6	-9288
▁×▁7▁+▁4	-9289
▁×▁7▁+▁6	-9290
▁÷▁7▁=▁5	-9291
▁÷▁9▁=▁4	-9292
'(1)▁=▁7。	-9293
'(2)▁=▁16	-9294
'(3)▁=▁24	-9295
'(3)▁=▁27	-9296
)▁=▁((-3*	-9297
)▁=▁-110;	-9298
.44444444	-9299
.4▁=▁280。	-9300
.5▁=▁100。	-9301
/2▁=▁210。	-9302
/2▁=▁408。	-9303
/2▁=▁539。	-9304
/2▁=▁585。	-9305
/2▁=▁855。	-9306
2)▁=▁-18;	-9307
2/2▁=▁55。	-9308
3▁=▁110.0	-9309
3▁=▁178.0	-9310
3▁=▁190.0	-9311
3▁=▁237.0	-9312
3▁=▁243.0	-9313
3▁=▁250.0	-9314
3▁=▁474.0	-9315
3▁=▁675.0	-9316
3▁=▁678.0	-9317
3▁=▁972.0	-9318
mā▁mā▁kàn	-9319
×34/2▁=▁2	-9320
×36/2▁=▁1	-9321
×36/2▁=▁2	-9322
×38/2▁=▁3	-9323
×42/2▁=▁1	-9324
×68/2▁=▁2	-9325
×82▁=▁200	-9326
×86/2▁=▁8	-9327
▁(-1,▁4),	-9328
▁(-1,▁4);	-9329
▁(-1,▁8),	-9330
▁(-1,▁8);	-9331
▁(-2,▁6),	-9332
▁(-2,▁6);	-9333
▁(-3,▁8),	-9334
▁(-3,▁8);	-9335
▁(-4,▁5),	-9336
▁(-4,▁5);	-9337
▁(-5,▁1),	-9338
▁(-5,▁1);	-9339
▁(3,▁-3),	-9340
▁(3,▁-3);	-9341
▁(5,▁-3),	-9342
▁(5,▁-3);	-9343
▁(5,▁-6),	-9344
▁(5,▁-6);	-9345
▁+▁48▁=▁5	-9346
▁+▁72▁=▁7	-9347
▁-▁5▁=▁5。	-9348
▁=▁10▁×▁6	-9349
▁=▁53▁-▁(	-9350
▁=▁59▁-▁(	-9351
▁=▁6+2×10	-9352
▁=▁60▁÷▁6	-9353
▁=▁65▁×▁3	-9354
▁=▁65▁×▁6	-9355
▁=▁80▁×▁5	-9356
▁×▁7▁=▁20	-9357
(3)/6▁-▁2*	-9358
,7▁×▁2▁=▁1	-9359
,8▁×▁6▁=▁4	-9360
.25▁=▁125。	-9361
3▁=▁1027.0	-9362
3▁=▁1243.0	-9363
3▁=▁1350.0	-9364
3▁=▁1422.0	-9365
3▁=▁1501.0	-9366
3▁=▁1659.0	-9367
3▁=▁1738.0	-9368
3▁=▁1780.0	-9369
3▁=▁1808.0	-9370
3▁=▁2133.0	-9371
3▁=▁2136.0	-9372
3▁=▁2147.0	-9373
3▁=▁2260.0	-9374
3▁=▁2403.0	-9375
3▁=▁2492.0	-9376
3▁=▁2848.0	-9377
3▁=▁2937.0	-9378
3▁=▁3160.0	-9379
3▁=▁3204.0	-9380
3▁=▁3293.0	-9381
3▁=▁3555.0	-9382
3▁=▁3713.0	-9383
3▁=▁3738.0	-9384
3▁=▁4094.0	-9385
3▁=▁4183.0	-9386
3▁=▁4972.0	-9387
3▁=▁5311.0	-9388
:100▁×▁50%	-9389
:200▁×▁50%	-9390
:4▁÷▁2▁=▁?	-9391
:500▁×▁25%	-9392
:5▁×▁4▁=▁?	-9393
:5▁×▁6▁=▁?	-9394
:6▁-▁3▁=▁?	-9395
:6▁×▁5▁=▁?	-9396
:6▁×▁9▁=▁?	-9397
:6▁÷▁3▁=▁?	-9398
:700▁×▁40%	-9399
:7▁×▁3▁=▁2	-9400
:7▁×▁3▁=▁?	-9401
:8▁×▁3▁=▁?	-9402
:9▁×▁7▁=▁?	-9403
lǎo▁shī▁dú	-9404
mā▁mā▁shuō	-9405
sān▁kē▁cǎo	-9406
sān▁zhī▁bǐ	-9407
wǔ▁duǒ▁huā	-9408
×102▁=▁130	-9409
×102▁=▁220	-9410
×3+1⁄2×1×3	-9411
×32▁=▁16.5	-9412
×32▁=▁31.5	-9413
▁(-1,▁-7),	-9414
▁(-1,▁-7);	-9415
▁(-2,▁-1),	-9416
▁(-2,▁-1);	-9417
▁(-4,▁-5),	-9418
▁(-4,▁-5);	-9419
▁(-5,▁-4),	-9420
▁(-5,▁-4);	-9421
▁(-5,▁-8),	-9422
▁(-5,▁-8);	-9423
▁+▁4/9▁=▁?	-9424
▁+▁5/2▁=▁?	-9425
▁+▁5/8▁=▁?	-9426
▁-▁(2)▁=▁-	-9427
▁-▁10▁=▁6。	-9428
▁-▁14▁=▁2。	-9429
▁3▁×▁7▁=▁2	-9430
▁7▁×▁2▁=▁1	-9431
▁=▁-10▁÷▁2	-9432
▁=▁-19▁-▁(	-9433
▁=▁-64▁÷▁8	-9434
▁=▁-72▁÷▁1	-9435
▁×▁7▁=▁140	-9436
▁×▁7▁=▁630	-9437
:12▁÷▁3▁=▁?	-9438
:14▁÷▁7▁=▁?	-9439
:16▁÷▁2▁=▁?	-9440
:20▁÷▁5▁=▁?	-9441
:21▁÷▁3▁=▁?	-9442
:30▁÷▁6▁=▁?	-9443
:32▁÷▁4▁=▁?	-9444
:45▁÷▁5▁=▁?	-9445
:4▁÷▁2▁=▁2。	-9446
:6▁-▁3▁=▁3。	-9447
:6▁÷▁3▁=▁2。	-9448
wǒ▁men▁shuō	-9449
▁2▁×▁2▁=▁4,	-9450
▁3▁×▁2▁=▁6,	-9451
▁4▁÷▁2▁=▁2。	-9452
▁6▁÷▁3▁=▁2。	-9453
'(1)▁=▁1/2▁+	-9454
,32▁÷▁3▁=▁10	-9455
,3▁×▁6▁=▁18;	-9456
,6▁×▁5▁=▁30;	-9457
,6▁×▁6▁=▁36;	-9458
,7▁×▁2▁=▁14;	-9459
,8▁×▁6▁=▁48;	-9460
,9▁×▁6▁=▁54;	-9461
,9▁×▁8▁=▁72;	-9462
2▁-▁(-2)▁=▁-	-9463
50▁×▁0.4▁=▁2	-9464
50▁×▁0.4▁=▁3	-9465
777777777777	-9466
:12▁÷▁3▁=▁4。	-9467
:14▁÷▁7▁=▁2。	-9468
:16▁÷▁2▁=▁8。	-9469
:19▁-▁12▁=▁?	-9470
:20▁÷▁5▁=▁4。	-9471
:21▁÷▁3▁=▁7。	-9472
:30▁÷▁6▁=▁5。	-9473
:32▁÷▁4▁=▁8。	-9474
:45▁÷▁5▁=▁9。	-9475
:5▁×▁4▁=▁20。	-9476
:5▁×▁6▁=▁30。	-9477
:6▁×▁5▁=▁30。	-9478
:6▁×▁9▁=▁54。	-9479
:7▁×▁3▁=▁21。	-9480
:8▁×▁3▁=▁24。	-9481
:9▁×▁7▁=▁63。	-9482
×52/2▁=▁442。	-9483
▁+▁2▁×▁6▁=▁?	-9484
▁+▁5▁×▁2▁=▁?	-9485
▁+▁5▁×▁8▁=▁?	-9486
▁+▁7▁×▁6▁=▁?	-9487
▁+▁7▁×▁8▁=▁?	-9488
▁+▁8▁×▁2▁=▁?	-9489
▁+▁8▁×▁7▁=▁?	-9490
▁+▁8▁×▁8▁=▁?	-9491
▁+▁9▁×▁4▁=▁?	-9492
▁12▁÷▁3▁=▁4。	-9493
▁14▁÷▁7▁=▁2。	-9494
▁16▁÷▁2▁=▁8。	-9495
▁20▁÷▁5▁=▁4。	-9496
▁21▁÷▁3▁=▁7。	-9497
▁2▁×▁8▁=▁16,	-9498
▁30▁÷▁6▁=▁5。	-9499
▁32▁÷▁4▁=▁8。	-9500
▁3▁×▁4▁=▁12,	-9501
▁3▁×▁7▁=▁21,	-9502
▁45▁÷▁5▁=▁9。	-9503
▁4▁×▁8▁=▁32,	-9504
▁5▁×▁4▁=▁20,	-9505
▁5▁×▁9▁=▁45,	-9506
▁6▁×▁5▁=▁30,	-9507
▁7▁×▁2▁=▁14,	-9508
▁=▁3+1×2▁=▁5	-9509
▁×▁9▁+▁9▁×▁9	-9510
20)/2▁=▁20×10	-9511
2▁=▁0×6+1⁄2×4	-9512
2▁=▁3×2+1⁄2×1	-9513
2▁=▁9×2+1⁄2×5	-9514
2▁=▁9×8+1⁄2×4	-9515
:19▁-▁12▁=▁7。	-9516
xiǎo▁hóng▁wán	-9517
xiǎo▁hóng▁xiě	-9518
▁+▁2)^2▁-▁1/(	-9519
▁+▁6)▁÷▁3▁=▁?	-9520
▁+▁8)▁÷▁2▁=▁?	-9521
▁=▁0+4×6▁=▁24	-9522
▁=▁1+2×7▁=▁15	-9523
▁=▁1+5×5▁=▁26	-9524
▁=▁1▁×▁5▁=▁5(	-9525
▁=▁2+3×6▁=▁20	-9526
▁=▁2+3×8▁=▁26	-9527
▁=▁3▁÷▁3▁=▁1。	-9528
▁=▁9+4×8▁=▁41	-9529
▁=▁9+5×2▁=▁19	-9530
▁×▁5▁=▁80▁×▁5	-9531
▁×▁6▁=▁10▁×▁6	-9532
14285714285714	-9533
2▁=▁6×10+1⁄2×2	-9534
wǒ▁men▁xǐ▁huān	-9535
▁+▁16)▁÷▁4▁=▁?	-9536
▁+▁20)▁÷▁5▁=▁?	-9537
▁+▁21)▁÷▁7▁=▁?	-9538
▁+▁24)▁÷▁3▁=▁?	-9539
▁+▁30)▁÷▁5▁=▁?	-9540
▁+▁30)▁÷▁6▁=▁?	-9541
▁+▁35)▁÷▁5▁=▁?	-9542
▁+▁42)▁÷▁7▁=▁?	-9543
▁+▁45)▁÷▁5▁=▁?	-9544
▁+▁54)▁÷▁9▁=▁?	-9545
▁+▁63)▁÷▁9▁=▁?	-9546
▁=▁6+2×10▁=▁26	-9547
▁=▁63▁÷▁7▁=▁9。	-9548
▁=▁6▁×▁2▁=▁12(	-9549
'(2)▁=▁1/2▁+▁3*	-9550
.44444444444444	-9551
2▁=▁1×5+1⁄2×5×5	-9552
2▁=▁1×7+1⁄2×2×7	-9553
2▁=▁2×6+1⁄2×3×6	-9554
xiǎo▁míng▁chàng	-9555
▁=▁60▁÷▁6▁=▁10。	-9556
sān▁liàng▁qì▁chē	-9557
wǔ▁zhāng▁zhuō▁zi	-9558
yī▁zhāng▁zhuō▁zi	-9559
×5+1⁄2×5×52▁=▁10	-9560
▁=▁-10▁÷▁2▁=▁-5。	-9561
▁=▁-64▁÷▁8▁=▁-8。	-9562
▁=▁65▁×▁3▁=▁195(	-9563
▁=▁65▁×▁6▁=▁390(	-9564
▁=▁70▁×▁6▁=▁420(	-9565
二个	-9566
,69	-9567
-22	-9568
08。	-9569
116	-9570
237	-9571
255	-9572
53。	-9573
575	-9574
585	-9575
690	-9576
727	-9577
87。	-9578
910	-9579
990	-9580
×63	-9581
×81	-9582
▁59	-9583
▁76	-9584
二朵花	-9585
四朵云	-9586
妈妈吃	-9587
妈妈听	-9588
小明喝	-9589
我们听	-9590
我们爱	-9591
我们跳	-9592
老师唱	-9593
老师画	-9594
老师看	-9595
*(7*	-9596
*(8*	-9597
+8×4	-9598
.56。	-9599
.71。	-9600
/7▁+	-9601
122。	-9602
1250	-9603
1450	-9604
15.0	-9605
309。	-9606
6.0。	-9607
7/2。	-9608
73.0	-9609
83.0	-9610
96)。	-9611
:102	-9612
:105	-9613
:115	-9614
:47。	-9615
:58。	-9616
:61。	-9617
:88。	-9618
:92。	-9619
▁136	-9620
▁152	-9621
▁184	-9622
▁260	-9623
五个苹果	-9624
学校很矮	-9625
老师喜欢	-9626
)))/(	-9627
161.0	-9628
200.0	-9629
291.0	-9630
297.0	-9631
310.0	-9632
316.0	-9633
351.0	-9634
360.0	-9635
370.0	-9636
405.0	-9637
410.0	-9638
440.0	-9639
540.0	-9640
565.0	-9641
602.0	-9642
633.0	-9643
711.0	-9644
756.0	-9645
783.0	-9646
790.0	-9647
7▁-▁3	-9648
7▁=▁1	-9649
859.0	-9650
890.0	-9651
921.0	-9652
948.0	-9653
9▁+▁3	-9654
9▁+▁6	-9655
9▁+▁8	-9656
:110。	-9657
:220。	-9658
:337。	-9659
:5/2。	-9660
:520。	-9661
:6.5。	-9662
:760。	-9663
nǐ▁dú	-9664
▁25.5	-9665
▁34.5	-9666
▁405。	-9667
▁58.5	-9668
▁73.5	-9669
▁=▁73	-9670
▁=▁79	-9671
▁=▁87	-9672
公园很快乐	-9673
学校真矮呀	-9674
)▁=▁0。	-9675
,2▁×▁9	-9676
,4▁×▁9	-9677
,5▁×▁7	-9678
.2▁=▁2	-9679
.2▁=▁5	-9680
.5▁+▁9	-9681
.8▁=▁8	-9682
1017.0	-9683
10▁=▁6	-9684
1157.0	-9685
1161.0	-9686
1215.0	-9687
1269.0	-9688
12▁=▁9	-9689
1602.0	-9690
17▁=▁9	-9691
17▁=▁?	-9692
1921.0	-9693
19▁=▁4	-9694
19▁=▁?	-9695
2225.0	-9696
2291.0	-9697
22▁=▁?	-9698
2370.0	-9699
2373.0	-9700
2449.0	-9701
2486.0	-9702
2938.0	-9703
2▁=▁45	-9704
2▁=▁95	-9705
2▁=▁99	-9706
3081.0	-9707
3277.0	-9708
3471.0	-9709
36▁=▁?	-9710
3950.0	-9711
3▁=▁44	-9712
3▁=▁50	-9713
4294.0	-9714
4361.0	-9715
4450.0	-9716
4633.0	-9717
4859.0	-9718
5085.0	-9719
61▁=▁?	-9720
6▁=▁15	-9721
71▁=▁?	-9722
78▁=▁?	-9723
85▁=▁?	-9724
88▁=▁?	-9725
92▁=▁?	-9726
:2▁+▁7	-9727
:2▁×▁5	-9728
:4▁×▁5	-9729
:4▁×▁6	-9730
:5▁×▁9	-9731
:7▁+▁6	-9732
:9▁-▁3	-9733
:9▁×▁4	-9734
^3*(8*	-9735
^4*(4*	-9736
^5*(6*	-9737
^6/7▁+	-9738
nǐ▁chī	-9739
nǐ▁pǎo	-9740
yī▁zhī	-9741
×8▁=▁8	-9742
▁+▁4)。	-9743
▁+▁40)	-9744
▁+▁9)。	-9745
▁103.5	-9746
▁148.5	-9747
▁2▁×▁6	-9748
▁4▁×▁2	-9749
▁4▁×▁4	-9750
▁4▁×▁9	-9751
▁5▁×▁3	-9752
▁7▁×▁9	-9753
▁9▁×▁2	-9754
▁9▁×▁9	-9755
▁=▁-53	-9756
▁=▁-67	-9757
▁=▁-6;	-9758
▁=▁-78	-9759
▁=▁-94	-9760
▁=▁102	-9761
▁=▁195	-9762
▁=▁47,	-9763
▁=▁5+3	-9764
▁=▁54(	-9765
▁=▁575	-9766
▁=▁690	-9767
▁=▁7+2	-9768
▁=▁735	-9769
▁=▁910	-9770
▁=▁950	-9771
▁=▁990	-9772
公园真快乐呀	-9773
(1)▁-▁1	-9774
)▁-▁1)*	-9775
)▁=▁-9;	-9776
)▁=▁45*	-9777
+0)2+5,	-9778
+0)2+7,	-9779
+0)2-4,	-9780
+0)2-7,	-9781
+1)2-1,	-9782
+2)2+0,	-9783
+3)2+3,	-9784
+3)2+7,	-9785
+4)2-1,	-9786
+4)2-4,	-9787
+5)2+4,	-9788
+5)2+8,	-9789
+5)2-2,	-9790
-1)2+3,	-9791
-1)2+4,	-9792
-1)2-6,	-9793
-2)2+3,	-9794
-2)2+6,	-9795
-2)2+8,	-9796
-3)2+3,	-9797
-3)2+5,	-9798
-3)2-4,	-9799
-5)2+2,	-9800
/2▁=▁17	-9801
1.0▁+▁7	-9802
17▁=▁12	-9803
2/2▁=▁3	-9804
20▁=▁11	-9805
555555。	-9806
5▁=▁25,	-9807
5▁=▁36,	-9808
5▁=▁60。	-9809
5▁=▁85。	-9810
5▁=▁90。	-9811
6▁=▁81。	-9812
9/2▁=▁5	-9813
9/2▁=▁8	-9814
:11/18。	-9815
:13▁+▁3	-9816
:13▁-▁4	-9817
:13▁-▁6	-9818
:15▁-▁6	-9819
:17▁+▁3	-9820
:19/18。	-9821
:19▁-▁5	-9822
:∫▁((4*	-9823
:∫▁((7*	-9824
sān▁zhǐ	-9825
▁+▁3)/(	-9826
▁+▁3)▁-	-9827
▁11/18。	-9828
▁19/18。	-9829
▁=▁-14;	-9830
▁=▁-40;	-9831
▁=▁-42;	-9832
▁=▁-50;	-9833
▁=▁-51。	-9834
▁=▁-53。	-9835
▁=▁-59。	-9836
▁=▁-72。	-9837
▁=▁-80。	-9838
▁=▁-88;	-9839
▁=▁-94。	-9840
▁=▁110;	-9841
▁=▁1150	-9842
▁=▁115;	-9843
▁=▁117。	-9844
▁=▁1250	-9845
▁=▁1450	-9846
▁=▁147。	-9847
▁=▁2+10	-9848
▁=▁2+13	-9849
▁=▁210(	-9850
▁=▁224。	-9851
▁=▁245。	-9852
▁=▁287。	-9853
▁=▁3+17	-9854
▁=▁306。	-9855
▁=▁325。	-9856
▁=▁337。	-9857
▁=▁378。	-9858
▁=▁4+13	-9859
▁=▁425。	-9860
▁=▁6.5。	-9861
▁=▁663。	-9862
▁=▁7+16	-9863
▁=▁741。	-9864
▁=▁760。	-9865
▁=▁8+10	-9866
▁=▁8+15	-9867
▁=▁9+11	-9868
▁=▁9+12	-9869
▁pǎo▁sh	-9870
▁∫▁((4*	-9871
▁∫▁((7*	-9872
'(1)▁=▁8	-9873
'(2)▁=▁7	-9874
(2)▁+▁2*	-9875
(2)▁-▁3*	-9876
(9)▁+▁2*	-9877
)▁=▁(-4*	-9878
)▁=▁(12*	-9879
)▁=▁(16*	-9880
)▁=▁-42;	-9881
)▁=▁-90;	-9882
)▁=▁2*(-	-9883
+8×3▁=▁3	-9884
+9×8▁=▁7	-9885
.1▁=▁80。	-9886
.6▁=▁60。	-9887
/2▁=▁85。	-9888
1▁-▁(-1)	-9889
2▁-▁(-10	-9890
2▁=▁25.5	-9891
2▁=▁252。	-9892
2▁=▁58.5	-9893
2▁=▁73.5	-9894
54/2▁=▁1	-9895
56/2▁=▁1	-9896
7▁=▁196。	-9897
9▁=▁288。	-9898
9▁=▁297。	-9899
:3/2▁+▁1	-9900
^(3/2)*(	-9901
nǐ▁chàng	-9902
×2▁=▁29;	-9903
×2▁=▁33;	-9904
×2▁=▁35;	-9905
×2▁=▁43;	-9906
×3▁=▁30;	-9907
×4▁=▁49;	-9908
×4▁=▁59;	-9909
▁(0,▁5),	-9910
▁(0,▁5);	-9911
▁(0,▁7),	-9912
▁(0,▁7);	-9913
▁(1,▁3),	-9914
▁(1,▁3);	-9915
▁(1,▁4),	-9916
▁(1,▁4);	-9917
▁(2,▁3),	-9918
▁(2,▁3);	-9919
▁(2,▁6),	-9920
▁(2,▁6);	-9921
▁(2,▁8),	-9922
▁(2,▁8);	-9923
▁(3,▁3),	-9924
▁(3,▁3);	-9925
▁(3,▁5),	-9926
▁(3,▁5);	-9927
▁(5,▁2),	-9928
▁(5,▁2);	-9929
▁+▁1)^2*	-9930
▁+▁5)^2*	-9931
▁=▁0▁÷▁1	-9932
▁=▁1+3×8	-9933
▁=▁1+4×8	-9934
▁=▁10.5。	-9935
▁=▁1▁×▁4	-9936
▁=▁1▁×▁9	-9937
▁=▁2+1×9	-9938
▁=▁2+4×4	-9939
▁=▁3+2×8	-9940
▁=▁3+3×8	-9941
▁=▁3+3×9	-9942
▁=▁3+5×9	-9943
▁=▁4+2×3	-9944
▁=▁4+2×5	-9945
▁=▁5+2×6	-9946
▁=▁5▁×▁6	-9947
▁=▁6+5×4	-9948
▁=▁6▁×▁7	-9949
▁=▁6▁×▁9	-9950
▁=▁7+3×5	-9951
▁=▁7+4×7	-9952
▁=▁7+5×7	-9953
▁=▁8+2×4	-9954
▁=▁8+2×8	-9955
▁=▁8+4×3	-9956
▁=▁8+4×9	-9957
▁=▁8▁÷▁8	-9958
▁=▁9+3×3	-9959
▁=▁9+5×4	-9960
▁=▁9+5×9	-9961
▁×▁7▁+▁7	-9962
▁×▁9▁+▁7	-9963
▁÷▁6▁=▁3	-9964
▁÷▁7▁=▁6	-9965
)▁=▁((-2*	-9966
+2×3▁=▁16	-9967
+2×9▁=▁28	-9968
.2▁=▁180。	-9969
.4▁=▁360。	-9970
/2▁=▁270。	-9971
/2▁=▁390。	-9972
/2▁=▁450。	-9973
/2▁=▁663。	-9974
/2▁=▁765。	-9975
/2▁=▁780。	-9976
/2▁=▁900。	-9977
2▁=▁103.5	-9978
3▁=▁160.0	-9979
3▁=▁200.0	-9980
3▁=▁297.0	-9981
3▁=▁310.0	-9982
3▁=▁316.0	-9983
3▁=▁351.0	-9984
3▁=▁360.0	-9985
3▁=▁370.0	-9986
3▁=▁405.0	-9987
3▁=▁410.0	-9988
3▁=▁440.0	-9989
3▁=▁540.0	-9990
3▁=▁565.0	-9991
3▁=▁711.0	-9992
3▁=▁712.0	-9993
3▁=▁756.0	-9994
3▁=▁783.0	-9995
3▁=▁790.0	-9996
3▁=▁890.0	-9997
3▁=▁948.0	-9998
3▁×▁4▁=▁?	-9999
4/2▁=▁60。	-10000
6/2▁=▁90。	-10001
7/2▁=▁81。	-10002
mā▁mā▁chī	-10003
wǒ▁men▁ài	-10004
×44/2▁=▁2	-10005
×46/2▁=▁4	-10006
×58/2▁=▁2	-10007
×62/2▁=▁2	-10008
×74/2▁=▁3	-10009
×8▁=▁121;	-10010
×8▁=▁130;	-10011
×9▁=▁118;	-10012
▁(-2,▁0),	-10013
▁(-2,▁0);	-10014
▁(-3,▁3),	-10015
▁(-3,▁3);	-10016
▁(-3,▁7),	-10017
▁(-3,▁7);	-10018
▁(-5,▁4),	-10019
▁(-5,▁4);	-10020
▁(-5,▁8),	-10021
▁(-5,▁8);	-10022
▁(0,▁-4),	-10023
▁(0,▁-4);	-10024
▁(0,▁-7),	-10025
▁(0,▁-7);	-10026
▁(1,▁-6),	-10027
▁(1,▁-6);	-10028
▁(3,▁-4),	-10029
▁(3,▁-4);	-10030
▁+▁6▁=▁6。	-10031
▁+▁7▁=▁7。	-10032
▁-▁7▁=▁9。	-10033
▁=▁-6▁÷▁6	-10034
▁=▁35▁×▁6	-10035
▁=▁43▁-▁(	-10036
▁=▁5+5×10	-10037
▁=▁50▁×▁5	-10038
▁=▁6▁-▁(6	-10039
▁=▁70▁×▁3	-10040
▁=▁7▁-▁(7	-10041
▁×▁8▁=▁20	-10042
▁×▁8▁=▁30	-10043
▁×▁9▁=▁80	-10044
'(2)▁=▁-3*	-10045
'(3)▁=▁108	-10046
'(3)▁=▁145	-10047
(3)/6▁+▁3*	-10048
,4▁×▁7▁=▁2	-10049
.25▁=▁225。	-10050
.555555555	-10051
.75▁=▁600。	-10052
3▁=▁1017.0	-10053
3▁=▁1157.0	-10054
3▁=▁1161.0	-10055
3▁=▁1215.0	-10056
3▁=▁1269.0	-10057
3▁=▁1602.0	-10058
3▁=▁1921.0	-10059
3▁=▁2225.0	-10060
3▁=▁2291.0	-10061
3▁=▁2370.0	-10062
3▁=▁2373.0	-10063
3▁=▁2449.0	-10064
3▁=▁2486.0	-10065
3▁=▁2938.0	-10066
3▁=▁3081.0	-10067
3▁=▁3277.0	-10068
3▁=▁3471.0	-10069
3▁=▁3950.0	-10070
3▁=▁4294.0	-10071
3▁=▁4361.0	-10072
3▁=▁4450.0	-10073
3▁=▁4633.0	-10074
3▁=▁4859.0	-10075
3▁=▁5085.0	-10076
6/2▁=▁196。	-10077
8)/2▁=▁8×4	-10078
:100▁×▁60%	-10079
:2▁×▁5▁=▁?	-10080
:3▁×▁5▁=▁?	-10081
:450▁×▁10%	-10082
:450▁×▁75%	-10083
:4▁×▁5▁=▁?	-10084
:4▁×▁6▁=▁?	-10085
:550▁×▁80%	-10086
:5▁×▁9▁=▁?	-10087
:800▁×▁10%	-10088
:800▁×▁75%	-10089
:8▁-▁7▁=▁?	-10090
:8▁÷▁4▁=▁?	-10091
:900▁×▁20%	-10092
:900▁×▁25%	-10093
:900▁×▁40%	-10094
:950▁×▁10%	-10095
:9▁-▁3▁=▁?	-10096
:9▁×▁4▁=▁?	-10097
mā▁mā▁tīng	-10098
sì▁duǒ▁yún	-10099
×102▁=▁260	-10100
×3+1⁄2×4×3	-10101
èr▁duǒ▁huā	-10102
▁(-1,▁-1),	-10103
▁(-1,▁-1);	-10104
▁(-4,▁-1),	-10105
▁(-4,▁-1);	-10106
▁(-4,▁-4),	-10107
▁(-4,▁-4);	-10108
▁(-5,▁-2),	-10109
▁(-5,▁-2);	-10110
▁+▁2▁=▁20。	-10111
▁+▁8▁=▁24。	-10112
▁-▁11▁=▁5。	-10113
▁-▁14▁=▁1。	-10114
▁-▁14▁=▁4。	-10115
▁-▁15▁=▁3。	-10116
▁-▁5▁=▁13。	-10117
▁6▁×▁4▁=▁2	-10118
▁6▁×▁7▁=▁4	-10119
▁7▁×▁4▁=▁2	-10120
▁7▁×▁5▁=▁3	-10121
▁8▁×▁6▁=▁4	-10122
▁=▁-18▁÷▁2	-10123
▁=▁-21▁-▁(	-10124
▁=▁-22▁-▁(	-10125
▁=▁-24▁÷▁3	-10126
▁=▁-42▁-▁(	-10127
▁=▁-45▁÷▁9	-10128
▁=▁20▁÷▁10	-10129
▁=▁70▁÷▁10	-10130
▁×▁2▁=▁10(	-10131
▁×▁3▁=▁150	-10132
▁×▁3▁=▁210	-10133
▁×▁7▁=▁210	-10134
'(1)▁=▁1/4。	-10135
(2)▁+▁2)/4。	-10136
5)/2▁=▁5×34	-10137
:12▁÷▁2▁=▁?	-10138
:13▁-▁4▁=▁?	-10139
:13▁-▁6▁=▁?	-10140
:15▁-▁6▁=▁?	-10141
:15▁÷▁5▁=▁?	-10142
:16▁÷▁4▁=▁?	-10143
:18▁÷▁9▁=▁?	-10144
:19▁-▁5▁=▁?	-10145
:24▁÷▁6▁=▁?	-10146
:28▁÷▁7▁=▁?	-10147
:35▁÷▁7▁=▁?	-10148
:36▁÷▁4▁=▁?	-10149
:42▁÷▁6▁=▁?	-10150
:48▁÷▁8▁=▁?	-10151
:63▁÷▁7▁=▁?	-10152
:81▁÷▁9▁=▁?	-10153
:8▁-▁7▁=▁1。	-10154
:8▁÷▁4▁=▁2。	-10155
:9▁-▁3▁=▁6。	-10156
lǎo▁shī▁huà	-10157
lǎo▁shī▁kàn	-10158
lǎo▁shī▁wán	-10159
wǒ▁men▁tiào	-10160
wǒ▁men▁tīng	-10161
×102▁=▁1000	-10162
▁+▁10▁=▁16。	-10163
▁4▁×▁2▁=▁8,	-10164
▁8▁÷▁4▁=▁2。	-10165
'(1)▁=▁13/2。	-10166
'(2)▁=▁1/2▁+	-10167
,11▁+▁72▁=▁8	-10168
,2▁×▁9▁=▁18;	-10169
,31▁÷▁3▁=▁10	-10170
,4▁×▁7▁=▁28;	-10171
,4▁×▁9▁=▁36;	-10172
,5▁×▁7▁=▁35;	-10173
:12▁÷▁2▁=▁6。	-10174
:13▁-▁4▁=▁9。	-10175
:13▁-▁6▁=▁7。	-10176
:15▁-▁6▁=▁9。	-10177
:15▁÷▁5▁=▁3。	-10178
:16▁÷▁4▁=▁4。	-10179
:18▁÷▁9▁=▁2。	-10180
:24▁÷▁6▁=▁4。	-10181
:28▁÷▁7▁=▁4。	-10182
:2▁×▁5▁=▁10。	-10183
:35▁÷▁7▁=▁5。	-10184
:36▁÷▁4▁=▁9。	-10185
:3▁×▁5▁=▁15。	-10186
:42▁÷▁6▁=▁7。	-10187
:48▁÷▁8▁=▁6。	-10188
:4▁×▁5▁=▁20。	-10189
:4▁×▁6▁=▁24。	-10190
:5▁×▁9▁=▁45。	-10191
:63▁÷▁7▁=▁9。	-10192
:81▁÷▁9▁=▁9。	-10193
:9▁×▁4▁=▁36。	-10194
xiǎo▁míng▁hē	-10195
×64/2▁=▁288。	-10196
×66/2▁=▁297。	-10197
▁+▁5▁×▁4▁=▁?	-10198
▁+▁5▁×▁9▁=▁?	-10199
▁+▁7▁×▁2▁=▁?	-10200
▁+▁8▁×▁9▁=▁?	-10201
▁-▁13▁=▁-13。	-10202
▁12▁÷▁2▁=▁6。	-10203
▁15▁÷▁5▁=▁3。	-10204
▁16▁÷▁4▁=▁4。	-10205
▁18▁÷▁9▁=▁2。	-10206
▁24▁÷▁6▁=▁4。	-10207
▁28▁÷▁7▁=▁4。	-10208
▁2▁×▁6▁=▁12,	-10209
▁35▁÷▁7▁=▁5。	-10210
▁36▁÷▁4▁=▁9。	-10211
▁42▁÷▁6▁=▁7。	-10212
▁48▁÷▁8▁=▁6。	-10213
▁4▁×▁4▁=▁16,	-10214
▁4▁×▁9▁=▁36,	-10215
▁5▁×▁3▁=▁15,	-10216
▁63▁÷▁7▁=▁9。	-10217
▁6▁×▁4▁=▁24,	-10218
▁6▁×▁7▁=▁42,	-10219
▁7▁×▁4▁=▁28,	-10220
▁7▁×▁5▁=▁35,	-10221
▁7▁×▁9▁=▁63,	-10222
▁81▁÷▁9▁=▁9。	-10223
▁8▁×▁6▁=▁48,	-10224
▁9▁×▁2▁=▁18,	-10225
▁9▁×▁9▁=▁81,	-10226
▁=▁-13▁-▁(-1	-10227
▁=▁4+5×2▁=▁1	-10228
▁=▁450▁×▁0.1	-10229
▁=▁550▁×▁0.8	-10230
▁=▁9+4×2▁=▁1	-10231
▁=▁950▁×▁0.1	-10232
'(2)▁=▁-1/9▁+	-10233
,8▁+▁18▁=▁26;	-10234
16)/2▁=▁16×10	-10235
2▁=▁5×2+1⁄2×3	-10236
2▁=▁7×2+1⁄2×2	-10237
2▁=▁8×4+1⁄2×2	-10238
2▁=▁9×3+1⁄2×3	-10239
:19▁-▁5▁=▁14。	-10240
^(3/2)/3▁+▁3*	-10241
lǎo▁shī▁chàng	-10242
xiǎo▁míng▁xiě	-10243
▁+▁6)▁÷▁2▁=▁?	-10244
▁+▁9)▁÷▁3▁=▁?	-10245
▁=▁1+3×8▁=▁25	-10246
▁=▁1+4×5▁=▁21	-10247
▁=▁10+4×2▁=▁1	-10248
▁=▁1▁×▁4▁=▁4(	-10249
▁=▁1▁×▁9▁=▁9(	-10250
▁=▁2+1×9▁=▁11	-10251
▁=▁2+4×7▁=▁30	-10252
▁=▁3+1×9▁=▁12	-10253
▁=▁3+2×8▁=▁19	-10254
▁=▁3+3×8▁=▁27	-10255
▁=▁3+3×9▁=▁30	-10256
▁=▁3+5×7▁=▁38	-10257
▁=▁4+2×3▁=▁10	-10258
▁=▁4+2×5▁=▁14	-10259
▁=▁450▁×▁0.75	-10260
▁=▁5+2×6▁=▁17	-10261
▁=▁5+3×2▁=▁11	-10262
▁=▁5+5×8▁=▁45	-10263
▁=▁6+4×8▁=▁38	-10264
▁=▁7+1×9▁=▁16	-10265
▁=▁7+2×2▁=▁11	-10266
▁=▁7+3×5▁=▁22	-10267
▁=▁8+2×4▁=▁16	-10268
▁=▁8+2×8▁=▁24	-10269
▁=▁8▁÷▁8▁=▁1。	-10270
▁=▁9+3×3▁=▁18	-10271
▁=▁9+5×4▁=▁29	-10272
▁×▁3▁=▁50▁×▁3	-10273
▁×▁3▁=▁70▁×▁3	-10274
▁×▁6▁=▁50▁×▁6	-10275
2▁=▁5×10+1⁄2×5	-10276
:1/1▁+▁2/3▁=▁?	-10277
:1/2▁+▁1/1▁=▁?	-10278
wǔ▁gè▁píng▁guǒ	-10279
▁+▁12)▁÷▁2▁=▁?	-10280
▁+▁14)▁÷▁2▁=▁?	-10281
▁+▁18)▁÷▁9▁=▁?	-10282
▁+▁24)▁÷▁8▁=▁?	-10283
▁+▁27)▁÷▁3▁=▁?	-10284
▁+▁36)▁÷▁9▁=▁?	-10285
▁+▁40)▁÷▁8▁=▁?	-10286
▁+▁64)▁÷▁8▁=▁?	-10287
▁=▁0▁÷▁12▁=▁0。	-10288
▁=▁10+2×3▁=▁16	-10289
▁=▁10+2×9▁=▁28	-10290
▁=▁18▁÷▁6▁=▁3。	-10291
▁=▁42▁÷▁6▁=▁7。	-10292
▁=▁5+5×10▁=▁55	-10293
▁=▁5▁×▁2▁=▁10(	-10294
▁=▁5▁×▁6▁=▁30(	-10295
▁=▁6▁×▁7▁=▁42(	-10296
▁=▁6▁×▁9▁=▁54(	-10297
'(3)▁=▁1/3▁+▁2*	-10298
2▁=▁1×5+1⁄2×4×5	-10299
2▁=▁1×8+1⁄2×3×8	-10300
2▁=▁2×9+1⁄2×1×9	-10301
2▁=▁3×8+1⁄2×2×8	-10302
2▁=▁3×9+1⁄2×1×9	-10303
2▁=▁4×5+1⁄2×2×5	-10304
2▁=▁5×6+1⁄2×2×6	-10305
2▁=▁7×5+1⁄2×3×5	-10306
2▁=▁7×9+1⁄2×1×9	-10307
2▁=▁9×4+1⁄2×5×4	-10308
lǎo▁shī▁xǐ▁huān	-10309
×3+1⁄2×2×32▁=▁1	-10310
×5+1⁄2×1×52▁=▁2	-10311
×5+1⁄2×4×52▁=▁7	-10312
×7+1⁄2×2×72▁=▁9	-10313
▁=▁-6▁÷▁6▁=▁-1。	-10314
▁=▁20▁÷▁10▁=▁2。	-10315
▁=▁6▁-▁(6)▁=▁0;	-10316
▁=▁70▁÷▁10▁=▁7。	-10317
▁=▁7▁-▁(7)▁=▁0;	-10318
sì▁zhāng▁zhuō▁zi	-10319
×3+1⁄2×2×32▁=▁21	-10320
×3+1⁄2×2×32▁=▁39	-10321
×7+1⁄2×3×72▁=▁10	-10322
▁=▁-18▁÷▁2▁=▁-9。	-10323
▁=▁-24▁÷▁3▁=▁-8。	-10324
▁=▁-45▁÷▁9▁=▁-5。	-10325
▁=▁30▁×▁5▁=▁150(	-10326
▁=▁35▁×▁6▁=▁210(	-10327
大书	-10328
大水	-10329
小树	-10330
小草	-10331
小鱼	-10332
矮雨	-10333
红花	-10334
绿笔	-10335
绿雨	-10336
高书	-10337
高雪	-10338
高鸟	-10339
(15	-10340
(9*	-10341
+45	-10342
+51	-10343
+52	-10344
+69	-10345
,77	-10346
,95	-10347
,99	-10348
-19	-10349
-33	-10350
-47	-10351
-56	-10352
03。	-10353
10*	-10354
12;	-10355
16;	-10356
20(	-10357
23。	-10358
46,	-10359
46;	-10360
54;	-10361
59。	-10362
6/2	-10363
60*	-10364
84;	-10365
870	-10366
91。	-10367
^4;	-10368
^8;	-10369
^9,	-10370
×71	-10371
▁65	-10372
▁68	-10373
▁81	-10374
▁95	-10375
▁98	-10376
一朵花	-10377
三朵花	-10378
二支笔	-10379
可爱书	-10380
可爱草	-10381
妈妈爱	-10382
安静书	-10383
安静雪	-10384
安静鸟	-10385
小学校	-10386
小小狗	-10387
小明画	-10388
小明看	-10389
小汽车	-10390
小红喝	-10391
小红画	-10392
小红看	-10393
快乐书	-10394
快乐树	-10395
明亮书	-10396
明亮雨	-10397
温暖山	-10398
矮老师	-10399
红学校	-10400
红爸爸	-10401
红米饭	-10402
绿天空	-10403
绿学校	-10404
美丽书	-10405
美丽水	-10406
美丽笔	-10407
美丽雪	-10408
老师说	-10409
高同学	-10410
高星星	-10411
高椅子	-10412
高汽车	-10413
(24*	-10414
))▁-	-10415
+8×5	-10416
.14。	-10417
.428	-10418
.43。	-10419
/6▁+	-10420
1.0。	-10421
1.4。	-10422
1040	-10423
1150	-10424
1300	-10425
178。	-10426
20▁+	-10427
22.5	-10428
3.0。	-10429
30.5	-10430
4.0。	-10431
467。	-10432
482。	-10433
66.5	-10434
71.5	-10435
:(12	-10436
:130	-10437
:16。	-10438
:66。	-10439
:67。	-10440
:84。	-10441
:85。	-10442
^4/(	-10443
▁135	-10444
▁140	-10445
▁198	-10446
▁210	-10447
▁216	-10448
▁224	-10449
▁230	-10450
▁240	-10451
▁250	-10452
▁270	-10453
▁290	-10454
三个月亮	-10455
安静小猫	-10456
安静桌子	-10457
小明喜欢	-10458
快乐大海	-10459
快乐月亮	-10460
快乐苹果	-10461
明亮爸爸	-10462
明亮老师	-10463
温暖太阳	-10464
温暖老师	-10465
美丽大海	-10466
(2))*	-10467
/4)▁+	-10468
/400。	-10469
005.0	-10470
135.0	-10471
1▁+▁7	-10472
1▁+▁8	-10473
1▁+▁9	-10474
216.0	-10475
272.0	-10476
324.0	-10477
3▁+▁5	-10478
3▁+▁9	-10479
432.0	-10480
450.0	-10481
567.0	-10482
623.0	-10483
648.0	-10484
7/36。	-10485
702.0	-10486
7▁+▁3	-10487
7▁-▁2	-10488
7▁-▁8	-10489
827.0	-10490
999.0	-10491
9▁+▁2	-10492
:108。	-10493
:130。	-10494
:144。	-10495
:156。	-10496
:170。	-10497
:175。	-10498
:232。	-10499
:252。	-10500
:275。	-10501
:287。	-10502
:380。	-10503
:4.5。	-10504
:412。	-10505
:560。	-10506
:616。	-10507
:7.4。	-10508
:7/3。	-10509
:8.5。	-10510
:8/9。	-10511
▁+▁34	-10512
▁+▁9*	-10513
▁-▁12	-10514
▁-▁30	-10515
▁28.5	-10516
▁57.5	-10517
▁7/3。	-10518
▁8/9。	-10519
▁82.5	-10520
▁=▁63	-10521
▁=▁83	-10522
椅子很美丽	-10523
(6)/2。	-10524
(6)/4。	-10525
)▁+▁(-	-10526
)▁+▁2/	-10527
)▁+▁9。	-10528
)▁=▁6。	-10529
,3▁×▁7	-10530
,3▁×▁8	-10531
,4▁×▁4	-10532
,4▁×▁8	-10533
,6▁×▁8	-10534
,7▁×▁9	-10535
,8▁×▁5	-10536
.1▁+▁2	-10537
.2▁+▁1	-10538
.2▁+▁8	-10539
.2▁=▁8	-10540
.5▁=▁5	-10541
.7▁+▁1	-10542
.9▁+▁8	-10543
06▁=▁?	-10544
1068.0	-10545
1185.0	-10546
1246.0	-10547
12▁=▁8	-10548
12▁=▁?	-10549
1469.0	-10550
14▁-▁4	-10551
14▁=▁?	-10552
1695.0	-10553
1896.0	-10554
18▁=▁3	-10555
18▁=▁6	-10556
20▁=▁5	-10557
2212.0	-10558
23▁=▁?	-10559
24▁=▁?	-10560
2581.0	-10561
2▁=▁50	-10562
2▁=▁68	-10563
3026.0	-10564
30▁-▁2	-10565
33▁=▁?	-10566
37▁+▁7	-10567
3827.0	-10568
3916.0	-10569
4005.0	-10570
40▁=▁?	-10571
4272.0	-10572
46▁=▁?	-10573
51▁=▁?	-10574
59▁=▁?	-10575
72▁=▁1	-10576
74▁=▁?	-10577
79▁=▁?	-10578
7▁-▁(7	-10579
8▁=▁13	-10580
90▁=▁?	-10581
94▁=▁?	-10582
97▁-▁7	-10583
97▁=▁?	-10584
:11.4。	-10585
:2▁-▁1	-10586
:3▁+▁9	-10587
:3▁×▁2	-10588
:4▁×▁2	-10589
:4▁×▁4	-10590
:5.33。	-10591
:5▁+▁9	-10592
:5▁-▁3	-10593
:6▁+▁3	-10594
:7.67。	-10595
:7/10。	-10596
:8▁×▁4	-10597
:9▁×▁8	-10598
^(9/2)	-10599
^2*(9*	-10600
^2▁+▁(	-10601
^4*(3*	-10602
^5/6▁+	-10603
nǐ▁wán	-10604
wǒ▁xiě	-10605
▁+▁1)^	-10606
▁+▁18*	-10607
▁+▁3.9	-10608
▁+▁32。	-10609
▁+▁6))	-10610
▁+▁7),	-10611
▁+▁8))	-10612
▁+▁9)*	-10613
▁-▁(0)	-10614
▁-▁6)*	-10615
▁122.5	-10616
▁130.5	-10617
▁171.5	-10618
▁292.5	-10619
▁4▁×▁3	-10620
▁5▁×▁7	-10621
▁5▁×▁8	-10622
▁6▁×▁8	-10623
▁7/10。	-10624
▁8▁×▁4	-10625
▁8▁×▁7	-10626
▁9▁×▁5	-10627
▁=▁-51	-10628
▁=▁-57	-10629
▁=▁-63	-10630
▁=▁-69	-10631
▁=▁-75	-10632
▁=▁-79	-10633
▁=▁-8;	-10634
▁=▁0+1	-10635
▁=▁1+9	-10636
▁=▁106	-10637
▁=▁2+1	-10638
▁=▁2+9	-10639
▁=▁3+3	-10640
▁=▁325	-10641
▁=▁385	-10642
▁=▁5+2	-10643
▁=▁7+7	-10644
▁=▁7+9	-10645
▁=▁74。	-10646
▁=▁8+1	-10647
▁=▁870	-10648
椅子真美丽呀	-10649
(1)▁+▁1	-10650
(2)/4)。	-10651
)▁=▁-4*	-10652
)▁=▁11*	-10653
+0)2+6,	-10654
+0)2-8,	-10655
+1)2-3,	-10656
+1)2-5,	-10657
+2)2+1,	-10658
+3)2+4,	-10659
+3)2+5,	-10660
+3)2-1,	-10661
+3)2-2,	-10662
+4)2+3,	-10663
+4)2+4,	-10664
+5)2+7,	-10665
,12▁+▁3	-10666
,2▁+▁18	-10667
,34▁÷▁3	-10668
-3)2+6,	-10669
-3)2+8,	-10670
-3)2-6,	-10671
-4)2+3,	-10672
-4)2+7,	-10673
-4)2+8,	-10674
-4)2-4,	-10675
-5)2-5,	-10676
-5)2-8,	-10677
1.0▁+▁4	-10678
13▁=▁10	-10679
15▁=▁12	-10680
16▁+▁2*	-10681
17▁=▁14	-10682
1▁-▁(17	-10683
2▁-▁(-2	-10684
2▁-▁1)*	-10685
2▁=▁10。	-10686
2▁=▁50。	-10687
2▁=▁70。	-10688
3/2▁=▁9	-10689
3▁-▁(17	-10690
3▁=▁195	-10691
5▁=▁17,	-10692
5▁=▁40。	-10693
5▁=▁50。	-10694
5▁=▁65。	-10695
5▁=▁95。	-10696
6▁=▁17,	-10697
6▁=▁25,	-10698
6▁=▁26,	-10699
6▁=▁90。	-10700
7/2▁=▁2	-10701
7▁=▁44,	-10702
9/2▁=▁2	-10703
92▁=▁40	-10704
9▁-▁(11	-10705
:12▁-▁1	-10706
:12▁-▁2	-10707
:15▁-▁4	-10708
:18▁-▁1	-10709
:19▁-▁9	-10710
:21▁÷▁3	-10711
:3▁+▁15	-10712
^2▁+▁5*	-10713
^2▁+▁7*	-10714
^5▁-▁3*	-10715
^6▁+▁6*	-10716
wǒ▁tīng	-10717
xǐ▁huān	-10718
×5▁=▁12	-10719
×8▁=▁14	-10720
×8▁=▁16	-10721
▁+▁2)),	-10722
▁+▁2)/(	-10723
▁+▁4)),	-10724
▁=▁-28;	-10725
▁=▁-32。	-10726
▁=▁-44;	-10727
▁=▁-56。	-10728
▁=▁-61。	-10729
▁=▁-66。	-10730
▁=▁-67。	-10731
▁=▁-70。	-10732
▁=▁-74。	-10733
▁=▁-78。	-10734
▁=▁-89。	-10735
▁=▁1+10	-10736
▁=▁10+5	-10737
▁=▁1040	-10738
▁=▁120,	-10739
▁=▁120;	-10740
▁=▁127;	-10741
▁=▁1300	-10742
▁=▁141。	-10743
▁=▁145;	-10744
▁=▁154。	-10745
▁=▁168。	-10746
▁=▁188。	-10747
▁=▁195。	-10748
▁=▁247。	-10749
▁=▁252。	-10750
▁=▁266。	-10751
▁=▁276。	-10752
▁=▁308。	-10753
▁=▁352。	-10754
▁=▁374。	-10755
▁=▁412。	-10756
▁=▁414。	-10757
▁=▁5+15	-10758
▁=▁560。	-10759
▁=▁6+19	-10760
▁=▁616。	-10761
▁=▁646。	-10762
▁=▁7+11	-10763
▁=▁9+18	-10764
'(3)▁=▁9	-10765
(4)▁+▁2*	-10766
)^3▁+▁4*	-10767
)▁-▁1)/(	-10768
)▁=▁(15*	-10769
)▁=▁(3▁-	-10770
)▁=▁-32;	-10771
)▁=▁-33;	-10772
)▁=▁-99;	-10773
)▁=▁120;	-10774
+1×6▁=▁8	-10775
+1×8▁=▁8	-10776
+1×9▁=▁9	-10777
+6×2▁=▁1	-10778
+9×3▁=▁3	-10779
,14▁+▁18	-10780
,17▁+▁24	-10781
,18▁+▁27	-10782
.4▁=▁40。	-10783
/2▁=▁50。	-10784
/2▁=▁70。	-10785
/2▁=▁90。	-10786
/2▁=▁95。	-10787
14/2▁=▁7	-10788
2▁-▁(-14	-10789
2▁=▁57.5	-10790
2▁=▁82.5	-10791
3▁=▁90.0	-10792
5▁=▁105。	-10793
7▁=▁105。	-10794
7▁=▁175。	-10795
9▁=▁342。	-10796
:12▁-▁11	-10797
:5/2▁+▁1	-10798
^2▁+▁8))	-10799
mā▁mā▁dú	-10800
mā▁mā▁ài	-10801
sì▁kē▁sh	-10802
wǔ▁kē▁sh	-10803
×2▁=▁25;	-10804
×2▁=▁28;	-10805
×2▁=▁39;	-10806
×2▁=▁41;	-10807
×3▁=▁46;	-10808
×3▁=▁48;	-10809
×3▁=▁49;	-10810
×3▁=▁52;	-10811
×3▁=▁56;	-10812
×3▁=▁60;	-10813
×3▁=▁61;	-10814
×4▁=▁42;	-10815
×4▁=▁53;	-10816
×4▁=▁76;	-10817
×5▁=▁66;	-10818
×5▁=▁75;	-10819
×5▁=▁89;	-10820
×62▁=▁96	-10821
▁(0,▁6),	-10822
▁(0,▁6);	-10823
▁(3,▁6),	-10824
▁(3,▁6);	-10825
▁(3,▁8),	-10826
▁(3,▁8);	-10827
▁(4,▁3),	-10828
▁(4,▁3);	-10829
▁(4,▁7),	-10830
▁(4,▁7);	-10831
▁(4,▁8),	-10832
▁(4,▁8);	-10833
▁+▁1/2)*	-10834
▁+▁1▁×▁5	-10835
▁+▁3)^2*	-10836
▁+▁7▁×▁5	-10837
▁+▁8▁×▁8	-10838
▁=▁0+2×9	-10839
▁=▁0▁÷▁2	-10840
▁=▁1+3×3	-10841
▁=▁1+3×9	-10842
▁=▁1+4×3	-10843
▁=▁1+5×6	-10844
▁=▁10+14	-10845
▁=▁11.4。	-10846
▁=▁2+3×3	-10847
▁=▁2+4×3	-10848
▁=▁4+1×6	-10849
▁=▁4+3×9	-10850
▁=▁4+5×5	-10851
▁=▁5+1×5	-10852
▁=▁5+4×5	-10853
▁=▁6+1×9	-10854
▁=▁6+2×9	-10855
▁=▁7+2×5	-10856
▁=▁7+4×6	-10857
▁=▁8+4×8	-10858
▁=▁8+5×6	-10859
▁=▁8+5×8	-10860
▁=▁9+1×3	-10861
▁=▁9+3×7	-10862
▁=▁9+5×5	-10863
▁×▁7▁+▁9	-10864
▁÷▁3▁=▁7	-10865
▁÷▁5▁=▁5	-10866
▁÷▁5▁=▁8	-10867
▁÷▁6▁=▁5	-10868
▁÷▁6▁=▁7	-10869
▁÷▁6▁=▁9	-10870
▁÷▁8▁=▁3	-10871
▁÷▁8▁=▁6	-10872
▁÷▁9▁=▁5	-10873
▁÷▁9▁=▁6	-10874
▁÷▁9▁=▁8	-10875
▁÷▁9▁=▁9	-10876
'(2)▁=▁1。	-10877
'(2)▁=▁20	-10878
'(2)▁=▁5*	-10879
)▁+▁1)/((	-10880
+1×5▁=▁15	-10881
+2×5▁=▁20	-10882
+4×8▁=▁42	-10883
.4▁=▁200。	-10884
.5▁=▁200。	-10885
.5▁=▁250。	-10886
.6▁=▁600。	-10887
.8▁=▁480。	-10888
/2▁=▁153。	-10889
/2▁=▁420。	-10890
/2▁=▁468。	-10891
/2▁=▁480。	-10892
/2▁=▁486。	-10893
/2▁=▁495。	-10894
/2▁=▁540。	-10895
/2▁=▁646。	-10896
/2▁=▁833。	-10897
/2▁=▁945。	-10898
/2▁=▁990。	-10899
10/2▁=▁10	-10900
11▁=▁319。	-10901
13▁=▁585。	-10902
13▁=▁663。	-10903
28/2▁=▁12	-10904
3▁=▁135.0	-10905
3▁=▁216.0	-10906
3▁=▁260.0	-10907
3▁=▁324.0	-10908
3▁=▁432.0	-10909
3▁=▁450.0	-10910
3▁=▁567.0	-10911
3▁=▁623.0	-10912
3▁=▁648.0	-10913
3▁=▁702.0	-10914
3▁=▁999.0	-10915
40/2▁=▁11	-10916
6/2▁=▁40。	-10917
6/2▁=▁65。	-10918
92▁=▁40.5	-10919
sān▁kē▁sh	-10920
yī▁kē▁cǎo	-10921
×40/2▁=▁3	-10922
×52/2▁=▁2	-10923
×52/2▁=▁3	-10924
×56/2▁=▁3	-10925
×62/2▁=▁4	-10926
×64/2▁=▁3	-10927
×69/2▁=▁6	-10928
×6▁=▁106;	-10929
×72/2▁=▁6	-10930
×7▁=▁127;	-10931
×80/2▁=▁7	-10932
èr▁zhī▁bǐ	-10933
▁(-2,▁1),	-10934
▁(-2,▁1);	-10935
▁(-3,▁4),	-10936
▁(-3,▁4);	-10937
▁(-3,▁5),	-10938
▁(-3,▁5);	-10939
▁(-4,▁3),	-10940
▁(-4,▁3);	-10941
▁(-4,▁4),	-10942
▁(-4,▁4);	-10943
▁(-5,▁7),	-10944
▁(-5,▁7);	-10945
▁(0,▁-8),	-10946
▁(0,▁-8);	-10947
▁(3,▁-6),	-10948
▁(3,▁-6);	-10949
▁(4,▁-4),	-10950
▁(4,▁-4);	-10951
▁(5,▁-5),	-10952
▁(5,▁-5);	-10953
▁(5,▁-8),	-10954
▁(5,▁-8);	-10955
▁+▁12▁=▁4	-10956
▁+▁2)^2);	-10957
▁+▁2▁=▁2。	-10958
▁+▁3)^2);	-10959
▁-▁13▁=▁1	-10960
▁-▁1▁=▁7。	-10961
▁-▁1▁=▁9。	-10962
▁-▁2▁=▁4。	-10963
▁-▁5▁=▁1。	-10964
▁-▁5▁=▁3。	-10965
▁-▁5▁=▁9。	-10966
▁-▁9▁=▁5。	-10967
▁=▁-3▁÷▁3	-10968
▁=▁22▁-▁(	-10969
▁=▁2▁-▁(2	-10970
▁=▁51▁-▁(	-10971
▁=▁52▁-▁(	-10972
▁=▁6+1×10	-10973
▁=▁60▁×▁4	-10974
▁=▁8+1×10	-10975
▁×▁3▁=▁60	-10976
▁×▁7▁=▁30	-10977
▁×▁7▁=▁40	-10978
▁×▁7▁=▁60	-10979
▁×▁7▁=▁70	-10980
▁×▁8▁=▁70	-10981
▁×▁9▁=▁10	-10982
'(1)▁=▁-2*	-10983
'(2)▁=▁(3*	-10984
(3)▁+▁1/3。	-10985
)▁+▁1)/(2*	-10986
,7▁×▁7▁=▁4	-10987
,8▁×▁3▁=▁2	-10988
.75▁=▁375。	-10989
19▁=▁1045。	-10990
3▁=▁1068.0	-10991
3▁=▁1185.0	-10992
3▁=▁1246.0	-10993
3▁=▁1469.0	-10994
3▁=▁1695.0	-10995
3▁=▁1896.0	-10996
3▁=▁2212.0	-10997
3▁=▁2581.0	-10998
3▁=▁3026.0	-10999
3▁=▁3827.0	-11000
3▁=▁3916.0	-11001
3▁=▁4005.0	-11002
3▁=▁4272.0	-11003
:100▁×▁40%	-11004
:250▁×▁20%	-11005
:250▁×▁80%	-11006
:350▁×▁20%	-11007
:3▁×▁2▁=▁?	-11008
:400▁×▁50%	-11009
:4▁×▁2▁=▁?	-11010
:4▁×▁4▁=▁?	-11011
:4▁×▁7▁=▁2	-11012
:4▁×▁7▁=▁?	-11013
:500▁×▁40%	-11014
:500▁×▁50%	-11015
:500▁×▁75%	-11016
:550▁×▁25%	-11017
:5▁-▁3▁=▁?	-11018
:600▁×▁80%	-11019
:650▁×▁80%	-11020
:750▁×▁60%	-11021
:7▁+▁9▁=▁?	-11022
:8▁×▁4▁=▁?	-11023
:9▁×▁8▁=▁?	-11024
nǐ▁xǐ▁huān	-11025
yī▁duǒ▁huā	-11026
×102▁=▁140	-11027
×102▁=▁210	-11028
×102▁=▁230	-11029
×102▁=▁270	-11030
×102▁=▁290	-11031
×32▁=▁28.5	-11032
▁(-1,▁-3),	-11033
▁(-1,▁-3);	-11034
▁(-1,▁-5),	-11035
▁(-1,▁-5);	-11036
▁(-3,▁-1),	-11037
▁(-3,▁-1);	-11038
▁(-3,▁-2),	-11039
▁(-3,▁-2);	-11040
▁+▁3.9▁=▁?	-11041
▁-▁13▁=▁3。	-11042
▁-▁3▁=▁-3。	-11043
▁-▁4▁=▁12。	-11044
▁-▁5▁=▁-5。	-11045
▁6▁×▁2▁=▁1	-11046
▁=▁-3▁-▁(-	-11047
▁=▁-47▁-▁(	-11048
▁=▁-63▁÷▁7	-11049
▁=▁-72▁-▁(	-11050
▁=▁120▁÷▁1	-11051
▁×▁2▁=▁160	-11052
▁×▁4▁=▁200	-11053
▁×▁6▁=▁300	-11054
▁×▁7▁=▁420	-11055
'(3)▁=▁-1/6	-11056
(2)/4▁+▁32。	-11057
(9)▁-▁1/49。	-11058
)▁=▁8▁-▁1/(	-11059
,26▁÷▁6▁=▁4	-11060
5)/2▁=▁5×20	-11061
5)/2▁=▁5×38	-11062
5)/2▁=▁5×42	-11063
6)/2▁=▁6×30	-11064
7)/2▁=▁7×30	-11065
:1000▁×▁60%	-11066
:10▁-▁5▁=▁?	-11067
:12▁÷▁4▁=▁?	-11068
:12▁÷▁6▁=▁?	-11069
:13▁+▁7▁=▁?	-11070
:15▁-▁4▁=▁?	-11071
:16▁+▁4▁=▁?	-11072
:16▁-▁1▁=▁?	-11073
:18▁-▁5▁=▁?	-11074
:19▁-▁9▁=▁?	-11075
:32▁÷▁8▁=▁?	-11076
:35▁÷▁5▁=▁?	-11077
:3▁×▁2▁=▁6。	-11078
:40▁÷▁5▁=▁?	-11079
:45▁÷▁9▁=▁?	-11080
:48▁÷▁6▁=▁?	-11081
:4▁×▁2▁=▁8。	-11082
:56▁÷▁8▁=▁?	-11083
:5▁-▁3▁=▁2。	-11084
sān▁duǒ▁huā	-11085
▁+▁10▁=▁17。	-11086
▁+▁11▁=▁19。	-11087
▁+▁12▁=▁18。	-11088
▁+▁12▁=▁19。	-11089
▁+▁15▁=▁15。	-11090
▁+▁16▁=▁32。	-11091
▁+▁16▁=▁36。	-11092
▁+▁2)▁+▁1)*	-11093
▁=▁-5▁-▁(-5	-11094
▁=▁15▁-▁(15	-11095
▁=▁250▁×▁0.	-11096
▁=▁350▁×▁0.	-11097
▁×▁4▁=▁220(	-11098
▁×▁6▁=▁450(	-11099
'(1)▁=▁1/2▁-	-11100
'(3)▁=▁-1/25	-11101
,11▁+▁12▁=▁2	-11102
,18▁+▁32▁=▁5	-11103
,3▁×▁7▁=▁21;	-11104
,3▁×▁8▁=▁24;	-11105
,4▁×▁4▁=▁16;	-11106
,4▁×▁8▁=▁32;	-11107
,6▁×▁8▁=▁48;	-11108
,7▁×▁7▁=▁49;	-11109
,7▁×▁9▁=▁63;	-11110
,8▁×▁3▁=▁24;	-11111
,8▁×▁5▁=▁40;	-11112
10)/2▁=▁10×4	-11113
10/2▁=▁1045。	-11114
14)/2▁=▁14×9	-11115
:10▁-▁5▁=▁5。	-11116
:12▁÷▁4▁=▁3。	-11117
:12▁÷▁6▁=▁2。	-11118
:15▁-▁14▁=▁?	-11119
:16▁-▁11▁=▁?	-11120
:16▁-▁14▁=▁?	-11121
:21▁÷▁3▁=▁7(	-11122
:32▁÷▁8▁=▁4。	-11123
:35▁÷▁5▁=▁7。	-11124
:40▁÷▁5▁=▁8。	-11125
:45▁÷▁9▁=▁5。	-11126
:48▁÷▁6▁=▁8。	-11127
:4▁×▁4▁=▁16。	-11128
:4▁×▁7▁=▁28。	-11129
:56▁÷▁8▁=▁7。	-11130
:7▁+▁9▁=▁16。	-11131
:8▁×▁4▁=▁32。	-11132
:9▁×▁8▁=▁72。	-11133
lǎo▁shī▁shuō	-11134
sān▁zhǐ▁niǎo	-11135
×50/2▁=▁175。	-11136
×58/2▁=▁319。	-11137
×76/2▁=▁342。	-11138
×90/2▁=▁585。	-11139
▁+▁3▁×▁3▁=▁?	-11140
▁+▁3▁×▁7▁=▁?	-11141
▁+▁4▁×▁7▁=▁?	-11142
▁+▁5▁×▁6▁=▁?	-11143
▁+▁6▁×▁4▁=▁?	-11144
▁+▁6▁×▁6▁=▁?	-11145
▁+▁7▁×▁4▁=▁?	-11146
▁+▁7▁×▁9▁=▁?	-11147
▁+▁8▁×▁6▁=▁?	-11148
▁12▁÷▁4▁=▁3。	-11149
▁12▁÷▁6▁=▁2。	-11150
▁32▁÷▁8▁=▁4。	-11151
▁35▁÷▁5▁=▁7。	-11152
▁40▁÷▁5▁=▁8。	-11153
▁45▁÷▁9▁=▁5。	-11154
▁48▁÷▁6▁=▁8。	-11155
▁4▁×▁3▁=▁12,	-11156
▁56▁÷▁8▁=▁7。	-11157
▁5▁×▁7▁=▁35,	-11158
▁5▁×▁8▁=▁40,	-11159
▁6▁×▁2▁=▁12,	-11160
▁6▁×▁8▁=▁48,	-11161
▁8▁×▁4▁=▁32,	-11162
▁8▁×▁7▁=▁56,	-11163
▁9▁×▁5▁=▁45,	-11164
▁=▁0+1×8▁=▁8	-11165
▁=▁0+1×9▁=▁9	-11166
▁=▁1+5×2▁=▁1	-11167
▁=▁2+1×6▁=▁8	-11168
▁=▁250▁×▁0.8	-11169
▁=▁3+3×2▁=▁9	-11170
▁=▁3+5×2▁=▁1	-11171
▁=▁5+2×2▁=▁9	-11172
▁=▁6+4×2▁=▁1	-11173
▁=▁650▁×▁0.8	-11174
▁=▁7+4×2▁=▁1	-11175
▁=▁750▁×▁0.6	-11176
▁=▁8+4×2▁=▁1	-11177
▁×▁8▁+▁8▁×▁8	-11178
▁×▁9▁+▁7▁×▁9	-11179
'(1)▁=▁1▁+▁2*	-11180
'(1)▁=▁1▁+▁3*	-11181
2▁=▁1×3+1⁄2×3	-11182
2▁=▁3×2+1⁄2×3	-11183
2▁=▁4×2+1⁄2×4	-11184
2▁=▁5×2+1⁄2×2	-11185
2▁=▁8×2+1⁄2×1	-11186
2▁=▁9×3+1⁄2×1	-11187
2▁=▁9×6+1⁄2×5	-11188
:13▁+▁7▁=▁20。	-11189
:15▁-▁14▁=▁1。	-11190
:15▁-▁4▁=▁11。	-11191
:16▁+▁4▁=▁20。	-11192
:16▁-▁11▁=▁5。	-11193
:16▁-▁14▁=▁2。	-11194
:16▁-▁1▁=▁15。	-11195
:18▁-▁5▁=▁13。	-11196
:19▁-▁9▁=▁10。	-11197
^(3/2)/3▁+▁2*	-11198
xiǎo▁hóng▁huà	-11199
xiǎo▁hóng▁kàn	-11200
xiǎo▁hóng▁pǎo	-11201
xiǎo▁míng▁huà	-11202
xiǎo▁míng▁kàn	-11203
xiǎo▁míng▁wán	-11204
×102/2▁=▁663。	-11205
▁+▁8)▁÷▁4▁=▁?	-11206
▁=▁0+2×9▁=▁18	-11207
▁=▁0▁÷▁2▁=▁0。	-11208
▁=▁1+3×3▁=▁10	-11209
▁=▁1+3×9▁=▁28	-11210
▁=▁2+3×3▁=▁11	-11211
▁=▁2+4×5▁=▁22	-11212
▁=▁4+1×6▁=▁10	-11213
▁=▁4+3×9▁=▁31	-11214
▁=▁4+4×2▁=▁12	-11215
▁=▁4+4×9▁=▁40	-11216
▁=▁5+1×5▁=▁10	-11217
▁=▁550▁×▁0.25	-11218
▁=▁6+1×9▁=▁15	-11219
▁=▁6+2×9▁=▁24	-11220
▁=▁7+1×5▁=▁12	-11221
▁=▁7+2×5▁=▁17	-11222
▁=▁7+5×7▁=▁42	-11223
▁=▁8+1×2▁=▁10	-11224
▁=▁8+4×3▁=▁20	-11225
▁=▁8+4×5▁=▁28	-11226
▁=▁8+5×8▁=▁48	-11227
▁=▁9+1×3▁=▁12	-11228
▁=▁9+3×7▁=▁30	-11229
▁=▁9+4×5▁=▁29	-11230
▁=▁9+5×6▁=▁39	-11231
▁×▁2▁=▁40▁×▁2	-11232
▁×▁3▁=▁20▁×▁3	-11233
▁×▁5▁=▁10▁×▁5	-11234
▁×▁5▁=▁40▁×▁5	-11235
▁×▁5▁=▁60▁×▁5	-11236
▁×▁6▁=▁20▁×▁6	-11237
▁×▁6▁=▁40▁×▁6	-11238
'(2)▁=▁-1/49▁+	-11239
,34▁÷▁3▁=▁11.3	-11240
.7777777777777	-11241
.8333333333333	-11242
2▁=▁0×9+1⁄2×1×	-11243
2▁=▁10×8+1⁄2×4	-11244
2▁=▁6×10+1⁄2×1	-11245
2▁=▁8×10+1⁄2×1	-11246
:1/1▁+▁1/3▁=▁?	-11247
:1/2▁+▁1/2▁=▁?	-11248
:1/2▁+▁5/2▁=▁?	-11249
:5/4▁+▁1/1▁=▁?	-11250
▁+▁15)▁÷▁5▁=▁?	-11251
▁+▁16)▁÷▁8▁=▁?	-11252
▁+▁27)▁÷▁9▁=▁?	-11253
▁+▁35)▁÷▁7▁=▁?	-11254
▁+▁36)▁÷▁6▁=▁?	-11255
▁+▁40)▁÷▁5▁=▁?	-11256
▁=▁10+1×5▁=▁15	-11257
▁=▁10+2×5▁=▁20	-11258
▁=▁10+4×8▁=▁42	-11259
▁=▁10+5×9▁=▁55	-11260
▁=▁6+1×10▁=▁16	-11261
▁=▁8+1×10▁=▁18	-11262
.14285714285714	-11263
2▁=▁0×8+1⁄2×1×8	-11264
2▁=▁0×9+1⁄2×2×9	-11265
2▁=▁2×5+1⁄2×4×5	-11266
2▁=▁2×6+1⁄2×1×6	-11267
2▁=▁6×9+1⁄2×1×9	-11268
2▁=▁7×5+1⁄2×1×5	-11269
2▁=▁7×5+1⁄2×2×5	-11270
2▁=▁8×5+1⁄2×4×5	-11271
2▁=▁9×5+1⁄2×4×5	-11272
tā▁hē▁tiān▁kōng	-11273
×4+1⁄2×1×42▁=▁1	-11274
×7+1⁄2×1×72▁=▁3	-11275
▁=▁-3▁÷▁3▁=▁-1。	-11276
▁=▁2▁-▁(2)▁=▁0;	-11277
2▁=▁10×5+1⁄2×1×5	-11278
sān▁gè▁yuè▁liàng	-11279
×3+1⁄2×4×32▁=▁42	-11280
×5+1⁄2×2×52▁=▁75	-11281
×6+1⁄2×1×62▁=▁42	-11282
▁=▁-63▁÷▁7▁=▁-9。	-11283
▁=▁30▁×▁4▁=▁120(	-11284
▁=▁40▁×▁5▁=▁200(	-11285
▁=▁50▁×▁4▁=▁200(	-11286
▁=▁55▁×▁4▁=▁220(	-11287
▁=▁75▁×▁6▁=▁450(	-11288
3/	-11289
67	-11290
^8	-11291
(12	-11292
+30	-11293
+50	-11294
+68	-11295
+73	-11296
+80	-11297
,53	-11298
,93	-11299
-29	-11300
-36	-11301
-44	-11302
-50	-11303
-54	-11304
13*	-11305
19;	-11306
20*	-11307
285	-11308
387	-11309
425	-11310
510	-11311
77;	-11312
919	-11313
:93	-11314
^3;	-11315
×32	-11316
×79	-11317
×85	-11318
▁58	-11319
▁99	-11320
小明吃	-11321
小明爱	-11322
我说明	-11323
明亮鸟	-11324
爱老师	-11325
老师喝	-11326
鱼很高	-11327
(32*	-11328
)/15	-11329
+8×3	-11330
.88。	-11331
/4),	-11332
10▁+	-11333
3.1。	-11334
485。	-11335
78.5	-11336
79.0	-11337
83.5	-11338
86.0	-11339
:113	-11340
:122	-11341
:125	-11342
:133	-11343
:46。	-11344
:49。	-11345
:51。	-11346
:53。	-11347
:57。	-11348
:63。	-11349
:77。	-11350
^6/(	-11351
▁105	-11352
▁138	-11353
▁234	-11354
▁330	-11355
▁340	-11356
一个月亮	-11357
二把椅子	-11358
妈妈喜欢	-11359
我说明亮	-11360
明亮大海	-11361
明亮小猫	-11362
树很明亮	-11363
笔很快乐	-11364
米饭很大	-11365
鱼真高呀	-11366
(12)。	-11367
(3)▁-	-11368
(4))*	-11369
))/6。	-11370
)/36。	-11371
*(-3*	-11372
.875。	-11373
120.0	-11374
1429。	-11375
1▁-▁3	-11376
1▁-▁7	-11377
240.0	-11378
290.0	-11379
330.0	-11380
380.0	-11381
3▁+▁6	-11382
3▁-▁1	-11383
3▁-▁2	-11384
3▁-▁3	-11385
459.0	-11386
460.0	-11387
470.0	-11388
632.0	-11389
6▁-▁3	-11390
6▁=▁5	-11391
759.0	-11392
7▁-▁6	-11393
871.0	-11394
891.0	-11395
9/16。	-11396
979.0	-11397
9▁=▁8	-11398
:102。	-11399
:132。	-11400
:174。	-11401
:212。	-11402
:237。	-11403
:262。	-11404
:288。	-11405
:3/4。	-11406
:340。	-11407
:487。	-11408
:500。	-11409
:637。	-11410
:7/9。	-11411
:720。	-11412
:9/7。	-11413
^2)*(	-11414
^5*(-	-11415
wǒ▁ài	-11416
▁+▁4*	-11417
▁+▁96	-11418
▁-▁34	-11419
▁32.5	-11420
▁49.5	-11421
▁7/9。	-11422
▁9/7。	-11423
公园很美丽	-11424
小猫很可爱	-11425
树真明亮呀	-11426
笔真快乐呀	-11427
米饭真大呀	-11428
)/15▁+	-11429
)/20▁+	-11430
)▁+▁6。	-11431
)▁=▁1。	-11432
)▁=▁2。	-11433
,6▁+▁6	-11434
,6▁×▁2	-11435
,8▁+▁1	-11436
.42857	-11437
05▁=▁?	-11438
1026.0	-11439
10▁=▁1	-11440
10▁=▁9	-11441
1323.0	-11442
1343.0	-11443
1513.0	-11444
15▁=▁1	-11445
1691.0	-11446
1958.0	-11447
19▁=▁5	-11448
2712.0	-11449
2759.0	-11450
2825.0	-11451
2▁+▁20	-11452
3051.0	-11453
3115.0	-11454
37▁=▁?	-11455
3871.0	-11456
39▁=▁?	-11457
40▁+▁6	-11458
5650.0	-11459
56▁-▁4	-11460
60▁=▁?	-11461
6▁=▁12	-11462
82▁=▁?	-11463
8▁=▁23	-11464
8▁=▁26	-11465
98▁=▁?	-11466
9▁-▁(9	-11467
:11/8。	-11468
:12.5。	-11469
:12/7。	-11470
:14/9。	-11471
:22.4。	-11472
:3▁-▁1	-11473
:4▁×▁8	-11474
:5▁+▁1	-11475
:5▁+▁5	-11476
:6.25。	-11477
:6▁×▁4	-11478
:8.25。	-11479
:8▁×▁5	-11480
:8▁×▁6	-11481
:9.75。	-11482
:9▁×▁6	-11483
^(3/2)	-11484
^2*(7*	-11485
^2/2▁-	-11486
^3*(5*	-11487
wǒ▁chī	-11488
wǒ▁huà	-11489
wǒ▁pǎo	-11490
wǒ▁wán	-11491
×3▁=▁6	-11492
×9▁=▁8	-11493
▁+▁0.5	-11494
▁+▁10)	-11495
▁+▁20)	-11496
▁+▁3)。	-11497
▁+▁4)^	-11498
▁+▁6)。	-11499
▁107.5	-11500
▁108.5	-11501
▁11/8。	-11502
▁12/7。	-11503
▁14/9。	-11504
▁175.5	-11505
▁178.5	-11506
▁202.5	-11507
▁229.5	-11508
▁283.5	-11509
▁2▁×▁7	-11510
▁=▁1+4	-11511
▁=▁117	-11512
▁=▁13*	-11513
▁=▁14,	-11514
▁=▁2+4	-11515
▁=▁230	-11516
▁=▁255	-11517
▁=▁285	-11518
▁=▁3+7	-11519
▁=▁3+9	-11520
▁=▁425	-11521
▁=▁5+1	-11522
▁=▁510	-11523
▁=▁56(	-11524
▁=▁585	-11525
▁=▁71;	-11526
▁=▁71。	-11527
▁=▁75(	-11528
▁=▁770	-11529
▁=▁79。	-11530
▁=▁82;	-11531
▁=▁94。	-11532
▁=▁98。	-11533
公园真美丽呀	-11534
小猫真可爱呀	-11535
(4)▁+▁1	-11536
(9)▁+▁1	-11537
)▁=▁-7;	-11538
)▁=▁2/(	-11539
)▁=▁30*	-11540
)▁=▁56*	-11541
)▁=▁88;	-11542
+0)2-1,	-11543
+2)2+2,	-11544
+2)2-2,	-11545
+3)2+2,	-11546
+3)2-6,	-11547
+4)2-6,	-11548
+4)2-7,	-11549
,12▁+▁4	-11550
,14▁+▁8	-11551
,18▁+▁6	-11552
,19▁÷▁2	-11553
,23▁÷▁2	-11554
,2▁+▁24	-11555
,2▁+▁45	-11556
,3▁+▁16	-11557
,4▁+▁24	-11558
,4▁+▁36	-11559
,5▁+▁56	-11560
,7▁+▁24	-11561
,8▁+▁64	-11562
-2)2+7,	-11563
-3)2+4,	-11564
-4)2+6,	-11565
-4)2-8,	-11566
1/2▁=▁1	-11567
11▁=▁40	-11568
13▁=▁33	-11569
14▁=▁10	-11570
17▁=▁15	-11571
19▁=▁14	-11572
20▁=▁14	-11573
2▁-▁(4)	-11574
2▁=▁105	-11575
2▁=▁20;	-11576
2▁=▁60。	-11577
2▁=▁68。	-11578
3▁=▁120	-11579
5▁=▁12,	-11580
5▁=▁31,	-11581
6▁=▁11,	-11582
6▁=▁21,	-11583
6▁=▁36,	-11584
6▁=▁36。	-11585
6▁=▁48。	-11586
6▁=▁49,	-11587
6▁=▁99。	-11588
7▁=▁21,	-11589
7▁=▁22,	-11590
7▁=▁91。	-11591
8▁=▁30,	-11592
8▁=▁43,	-11593
9▁=▁57,	-11594
9▁=▁60,	-11595
:12▁+▁2	-11596
:12▁+▁6	-11597
:13/10。	-11598
:13▁-▁7	-11599
:15▁-▁5	-11600
:19▁-▁4	-11601
:19▁-▁6	-11602
:23/12。	-11603
:29/30。	-11604
:∫▁((3*	-11605
:∫▁(2*(	-11606
^(9/2),	-11607
^2*(24*	-11608
^4▁-▁2*	-11609
×2▁=▁20	-11610
×3▁=▁10	-11611
×4▁=▁11	-11612
×6▁=▁12	-11613
×7▁=▁14	-11614
▁+▁15)*	-11615
▁+▁5)/(	-11616
▁13/10。	-11617
▁23/12。	-11618
▁29/30。	-11619
▁=▁-114	-11620
▁=▁-48;	-11621
▁=▁-56;	-11622
▁=▁-63;	-11623
▁=▁-66;	-11624
▁=▁-69。	-11625
▁=▁-71。	-11626
▁=▁-73。	-11627
▁=▁-75。	-11628
▁=▁-77。	-11629
▁=▁-81;	-11630
▁=▁-93。	-11631
▁=▁-96;	-11632
▁=▁124。	-11633
▁=▁148。	-11634
▁=▁153。	-11635
▁=▁165。	-11636
▁=▁171。	-11637
▁=▁174。	-11638
▁=▁182。	-11639
▁=▁187。	-11640
▁=▁198。	-11641
▁=▁2+11	-11642
▁=▁203。	-11643
▁=▁204。	-11644
▁=▁237。	-11645
▁=▁250(	-11646
▁=▁261。	-11647
▁=▁262。	-11648
▁=▁285。	-11649
▁=▁286。	-11650
▁=▁3+11	-11651
▁=▁301。	-11652
▁=▁351。	-11653
▁=▁357。	-11654
▁=▁4+11	-11655
▁=▁4.5。	-11656
▁=▁416。	-11657
▁=▁465。	-11658
▁=▁469。	-11659
▁=▁487。	-11660
▁=▁494。	-11661
▁=▁555。	-11662
▁=▁567。	-11663
▁=▁6+18	-11664
▁=▁637。	-11665
▁=▁651。	-11666
▁=▁728。	-11667
▁=▁783。	-11668
▁∫▁((3*	-11669
▁∫▁(2*(	-11670
(1)▁+▁3*	-11671
(3)▁+▁1。	-11672
(4)▁-▁2*	-11673
(6)▁-▁2*	-11674
)^2▁+▁2*	-11675
)▁=▁(2*(	-11676
)▁=▁(2▁-	-11677
)▁=▁-49;	-11678
)▁=▁-88;	-11679
+1×5▁=▁9	-11680
+1×6▁=▁6	-11681
,11▁+▁54	-11682
,13▁+▁18	-11683
,13▁+▁45	-11684
,14▁+▁24	-11685
,15▁+▁24	-11686
,16▁+▁21	-11687
,16▁+▁54	-11688
,19▁+▁36	-11689
,20▁+▁24	-11690
.1▁=▁90。	-11691
.2▁=▁20。	-11692
.2▁=▁80。	-11693
.4▁=▁80。	-11694
.8▁+▁5.1	-11695
/2▁=▁129	-11696
/2▁=▁72。	-11697
/2▁=▁84。	-11698
11▁=▁49,	-11699
12▁=▁27,	-11700
12▁=▁60,	-11701
13▁=▁44,	-11702
13▁=▁87,	-11703
14▁=▁32,	-11704
16▁=▁48,	-11705
17▁=▁130	-11706
17▁=▁50,	-11707
18/2▁=▁8	-11708
18▁=▁60,	-11709
18▁=▁89,	-11710
19▁=▁150	-11711
19▁=▁76,	-11712
19▁=▁92,	-11713
1▁-▁(-11	-11714
20▁=▁81,	-11715
20▁=▁83,	-11716
2▁=▁232。	-11717
30/2▁=▁9	-11718
39/2▁=▁1	-11719
3▁=▁30.0	-11720
3▁=▁40.0	-11721
6▁=▁108。	-11722
6▁=▁111。	-11723
6▁=▁126。	-11724
6▁=▁141。	-11725
6▁=▁144。	-11726
6▁=▁159。	-11727
7)▁=▁-9;	-11728
7▁=▁210。	-11729
7▁=▁238。	-11730
8▁=▁156。	-11731
8▁=▁268。	-11732
9▁=▁315。	-11733
:1/2▁+▁3	-11734
:13▁-▁11	-11735
:17▁-▁13	-11736
^4▁+▁12*	-11737
^4▁+▁16*	-11738
tā▁chàng	-11739
wǒ▁chàng	-11740
×2▁=▁23;	-11741
×2▁=▁37;	-11742
×2▁=▁40;	-11743
×2▁=▁42;	-11744
×3▁=▁37;	-11745
×3▁=▁38;	-11746
×3▁=▁42;	-11747
×3▁=▁43;	-11748
×3▁=▁44;	-11749
×3▁=▁57;	-11750
×3▁=▁63;	-11751
×4▁=▁47;	-11752
×4▁=▁50;	-11753
×4▁=▁61;	-11754
×4▁=▁64;	-11755
×4▁=▁70;	-11756
×4▁=▁77;	-11757
×4▁=▁79;	-11758
×5▁=▁72;	-11759
×5▁=▁84;	-11760
×5▁=▁86;	-11761
×7▁=▁71;	-11762
×7▁=▁73;	-11763
×7▁=▁87;	-11764
×7▁=▁94;	-11765
×9▁=▁91;	-11766
▁(2,▁7),	-11767
▁(2,▁7);	-11768
▁(3,▁4),	-11769
▁(3,▁4);	-11770
▁(4,▁6),	-11771
▁(4,▁6);	-11772
▁+▁0▁×▁8	-11773
▁+▁1))/(	-11774
▁+▁3)*((	-11775
▁+▁5)*((	-11776
▁+▁9▁×▁8	-11777
▁=▁-114。	-11778
▁=▁0+3×6	-11779
▁=▁0+3×7	-11780
▁=▁0+3×8	-11781
▁=▁0+4×8	-11782
▁=▁0+4×9	-11783
▁=▁0+5×3	-11784
▁=▁0+5×5	-11785
▁=▁0+5×7	-11786
▁=▁1+5×8	-11787
▁=▁10+11	-11788
▁=▁2+2×9	-11789
▁=▁2+4×9	-11790
▁=▁2+5×3	-11791
▁=▁2+5×6	-11792
▁=▁2+5×7	-11793
▁=▁2+5×8	-11794
▁=▁2+6×7	-11795
▁=▁22.4。	-11796
▁=▁3+2×4	-11797
▁=▁3+4×4	-11798
▁=▁3+4×6	-11799
▁=▁3+5×5	-11800
▁=▁4+1×8	-11801
▁=▁4+2×6	-11802
▁=▁4+3×8	-11803
▁=▁4+4×8	-11804
▁=▁4+5×4	-11805
▁=▁4+5×6	-11806
▁=▁4+5×7	-11807
▁=▁4+8×7	-11808
▁=▁5+1×6	-11809
▁=▁5+3×7	-11810
▁=▁5+4×3	-11811
▁=▁5+5×6	-11812
▁=▁5+5×9	-11813
▁=▁6+2×3	-11814
▁=▁6+3×8	-11815
▁=▁6+3×9	-11816
▁=▁6+5×3	-11817
▁=▁6+5×5	-11818
▁=▁6+5×9	-11819
▁=▁6▁×▁6	-11820
▁=▁6▁×▁8	-11821
▁=▁7+2×7	-11822
▁=▁7+3×4	-11823
▁=▁7+4×5	-11824
▁=▁7+5×3	-11825
▁=▁8+1×7	-11826
▁=▁8+2×6	-11827
▁=▁8+5×7	-11828
▁=▁9+1×6	-11829
▁=▁9+4×4	-11830
▁=▁9+4×9	-11831
▁=▁9+5×8	-11832
▁=▁9.75。	-11833
▁×▁9▁+▁3	-11834
▁×▁9▁+▁6	-11835
▁÷▁3▁=▁8	-11836
▁÷▁5▁=▁9	-11837
▁÷▁6▁=▁6	-11838
▁÷▁6▁=▁8	-11839
▁÷▁7▁=▁4	-11840
▁÷▁7▁=▁8	-11841
▁÷▁8▁=▁4	-11842
▁÷▁8▁=▁5	-11843
▁÷▁8▁=▁7	-11844
▁÷▁9▁=▁7	-11845
'(1)▁=▁0。	-11846
'(1)▁=▁5*	-11847
'(1)▁=▁9。	-11848
'(2)▁=▁4*	-11849
'(3)▁=▁12	-11850
'(3)▁=▁18	-11851
(2)▁+▁32。	-11852
(3)/6▁+▁2	-11853
)▁=▁-108;	-11854
+1×7▁=▁17	-11855
+2×2▁=▁13	-11856
+2×4▁=▁18	-11857
.25▁=▁25。	-11858
.25▁=▁50。	-11859
.4▁=▁120。	-11860
.5▁=▁450。	-11861
.5▁=▁500。	-11862
.8▁=▁400。	-11863
.8▁=▁720。	-11864
/2▁=▁159。	-11865
/2▁=▁252。	-11866
/2▁=▁268。	-11867
/2▁=▁378。	-11868
/2▁=▁407。	-11869
/2▁=▁650。	-11870
/2▁=▁728。	-11871
/2▁=▁800。	-11872
/2▁=▁837。	-11873
/2▁=▁840。	-11874
/2▁=▁893。	-11875
11)▁=▁36;	-11876
11▁=▁220。	-11877
11▁=▁330。	-11878
11▁=▁385。	-11879
11▁=▁407。	-11880
11▁=▁539。	-11881
12▁=▁192。	-11882
12▁=▁390。	-11883
13▁=▁111,	-11884
13▁=▁247。	-11885
13▁=▁338。	-11886
13▁=▁429。	-11887
13▁=▁741。	-11888
14▁=▁118,	-11889
14▁=▁266。	-11890
14▁=▁833。	-11891
15▁=▁121,	-11892
15▁=▁855。	-11893
15▁=▁975。	-11894
16▁=▁107,	-11895
16▁=▁130,	-11896
16▁=▁408。	-11897
16▁=▁872。	-11898
17▁=▁149,	-11899
18▁=▁621。	-11900
18▁=▁837。	-11901
19▁=▁760。	-11902
19▁=▁893。	-11903
2)▁=▁-12;	-11904
2/2▁=▁36。	-11905
20▁=▁161,	-11906
20▁=▁860。	-11907
20▁=▁900。	-11908
28/2▁=▁10	-11909
3/2▁=▁99。	-11910
3▁=▁120.0	-11911
3▁=▁240.0	-11912
3▁=▁290.0	-11913
3▁=▁330.0	-11914
3▁=▁380.0	-11915
3▁=▁459.0	-11916
3▁=▁460.0	-11917
3▁=▁470.0	-11918
3▁=▁632.0	-11919
3▁=▁891.0	-11920
3▁=▁979.0	-11921
3▁×▁9▁=▁?	-11922
6/2▁=▁91。	-11923
70/2▁=▁17	-11924
^(5/2)/2;	-11925
^(7/2)/2;	-11926
^(7/2)/2。	-11927
mā▁mā▁xiě	-11928
×22/2▁=▁1	-11929
×42/2▁=▁2	-11930
×44/2▁=▁3	-11931
×51/2▁=▁3	-11932
×53/2▁=▁2	-11933
×54/2▁=▁1	-11934
×56/2▁=▁2	-11935
×5▁=▁100;	-11936
×66/2▁=▁5	-11937
×6▁=▁109;	-11938
×76/2▁=▁4	-11939
×7▁=▁107;	-11940
×7▁=▁115;	-11941
×80/2▁=▁6	-11942
×85/2▁=▁5	-11943
×8▁=▁113;	-11944
×8▁=▁154;	-11945
×8▁=▁161;	-11946
×96/2▁=▁9	-11947
×9▁=▁111;	-11948
×9▁=▁149;	-11949
èr▁kē▁cǎo	-11950
▁(-2,▁2),	-11951
▁(-2,▁2);	-11952
▁(-3,▁2),	-11953
▁(-3,▁2);	-11954
▁(0,▁-1),	-11955
▁(0,▁-1);	-11956
▁(4,▁-8),	-11957
▁(4,▁-8);	-11958
▁+▁1)^2);	-11959
▁+▁5)^2);	-11960
▁-▁2▁=▁6。	-11961
▁-▁2▁=▁8。	-11962
▁-▁3▁=▁4。	-11963
▁-▁4▁=▁4。	-11964
▁-▁6▁=▁2。	-11965
▁-▁9▁=▁6。	-11966
▁-▁9▁=▁7。	-11967
▁=▁0+2×10	-11968
▁=▁10+5×3	-11969
▁=▁20▁×▁4	-11970
▁=▁25▁×▁3	-11971
▁=▁25▁×▁6	-11972
▁=▁37▁-▁(	-11973
▁=▁4+1×10	-11974
▁=▁41▁-▁(	-11975
▁=▁45▁×▁4	-11976
▁=▁5+11×5	-11977
▁=▁5+19×4	-11978
▁=▁57▁-▁(	-11979
▁=▁63▁-▁(	-11980
▁=▁7+3×10	-11981
▁=▁70▁×▁5	-11982
▁=▁8+5×10	-11983
▁=▁83▁-▁(	-11984
▁=▁9+2×10	-11985
▁=▁9+5×10	-11986
▁×▁2▁=▁20	-11987
▁×▁7▁=▁50	-11988
▁×▁7▁=▁90	-11989
▁×▁9▁=▁20	-11990
▁×▁9▁=▁50	-11991
'(1)▁=▁-3*	-11992
'(1)▁=▁1▁-	-11993
'(3)▁=▁(3*	-11994
'(3)▁=▁405	-11995
(2)▁-▁1/9。	-11996
)▁-▁1)▁+▁(	-11997
.75▁=▁150。	-11998
/2▁=▁1026。	-11999
/2▁=▁1240。	-12000
16▁=▁1120。	-12001
17▁=▁1309。	-12002
2/2▁=▁126。	-12003
20▁=▁1700。	-12004
3▁=▁1026.0	-12005
3▁=▁1323.0	-12006
3▁=▁1343.0	-12007
3▁=▁1513.0	-12008
3▁=▁1691.0	-12009
3▁=▁1958.0	-12010
3▁=▁2712.0	-12011
3▁=▁2759.0	-12012
3▁=▁2825.0	-12013
3▁=▁3051.0	-12014
3▁=▁3115.0	-12015
3▁=▁3871.0	-12016
3▁=▁5650.0	-12017
6/2▁=▁108。	-12018
7/2▁=▁111。	-12019
7/2▁=▁141。	-12020
9/2▁=▁156。	-12021
9/2▁=▁872。	-12022
:100▁×▁20%	-12023
:100▁×▁25%	-12024
:150▁×▁50%	-12025
:150▁×▁75%	-12026
:200▁×▁25%	-12027
:200▁×▁40%	-12028
:200▁×▁75%	-12029
:250▁×▁25%	-12030
:300▁×▁40%	-12031
:350▁×▁75%	-12032
:3▁-▁1▁=▁?	-12033
:400▁×▁20%	-12034
:450▁×▁25%	-12035
:450▁×▁40%	-12036
:4▁×▁8▁=▁?	-12037
:500▁×▁80%	-12038
:550▁×▁50%	-12039
:5▁+▁5▁=▁?	-12040
:650▁×▁75%	-12041
:6▁-▁2▁=▁?	-12042
:6▁×▁4▁=▁?	-12043
:750▁×▁40%	-12044
:750▁×▁80%	-12045
:850▁×▁75%	-12046
:8▁-▁1▁=▁?	-12047
:8▁×▁5▁=▁?	-12048
:8▁×▁6▁=▁?	-12049
:900▁×▁10%	-12050
:900▁×▁50%	-12051
:900▁×▁80%	-12052
:9▁×▁6▁=▁?	-12053
lǎo▁shī▁hē	-12054
lǎo▁shī▁ài	-12055
wǒ▁xǐ▁huān	-12056
×102/2▁=▁8	-12057
×102▁=▁330	-12058
×102▁=▁340	-12059
×104/2▁=▁6	-12060
×108/2▁=▁9	-12061
×3+1⁄2×5×3	-12062
×32▁=▁34.5	-12063
▁(-2,▁-2),	-12064
▁(-2,▁-2);	-12065
▁(-3,▁-6),	-12066
▁(-3,▁-6);	-12067
▁(-4,▁-6),	-12068
▁(-4,▁-6);	-12069
▁(-4,▁-7),	-12070
▁(-4,▁-7);	-12071
▁+▁0.5▁=▁?	-12072
▁+▁1▁=▁13。	-12073
▁+▁1▁=▁19。	-12074
▁+▁3▁=▁15。	-12075
▁+▁4▁=▁-8。	-12076
▁+▁4▁=▁18。	-12077
▁+▁5)/20▁+	-12078
▁+▁5▁=▁29。	-12079
▁+▁6▁=▁26。	-12080
▁+▁7▁=▁-2。	-12081
▁-▁13▁=▁1。	-12082
▁-▁15▁=▁1。	-12083
▁-▁3▁=▁15。	-12084
▁-▁7▁=▁-7。	-12085
▁-▁8▁=▁-2。	-12086
▁5▁×▁5▁=▁2	-12087
▁=▁-63▁-▁(	-12088
▁=▁13▁-▁(1	-12089
▁=▁29▁-▁(5	-12090
▁=▁88▁÷▁11	-12091
▁×▁2▁=▁120	-12092
▁×▁2▁=▁140	-12093
▁×▁3▁=▁120	-12094
▁×▁4▁=▁120	-12095
▁×▁5▁=▁350	-12096
▁×▁7▁=▁350	-12097
▁×▁9▁=▁810	-12098
'(2)▁=▁9/2。	-12099
)▁+▁1)/2)/(	-12100
)▁=▁3▁-▁1/(	-12101
)▁=▁9▁-▁1/(	-12102
+18×5▁=▁92;	-12103
+19×4▁=▁83;	-12104
,37▁÷▁5▁=▁7	-12105
14/2▁=▁741。	-12106
14/2▁=▁855。	-12107
1428571429。	-12108
19/2▁=▁833。	-12109
30/2▁=▁975。	-12110
6)/2▁=▁6×53	-12111
7)/2▁=▁7×60	-12112
8)/2▁=▁8×67	-12113
:1000▁×▁50%	-12114
:10▁-▁1▁=▁?	-12115
:12▁-▁7▁=▁?	-12116
:13▁+▁3▁=▁?	-12117
:13▁-▁1▁=▁?	-12118
:13▁-▁7▁=▁?	-12119
:14▁-▁9▁=▁?	-12120
:14▁÷▁2▁=▁?	-12121
:15▁-▁5▁=▁?	-12122
:16▁-▁4▁=▁?	-12123
:19▁-▁1▁=▁?	-12124
:19▁-▁4▁=▁?	-12125
:19▁-▁6▁=▁?	-12126
:25▁÷▁5▁=▁?	-12127
:3▁-▁1▁=▁2。	-12128
:6▁-▁2▁=▁4。	-12129
:8▁+▁11▁=▁?	-12130
:8▁-▁1▁=▁7。	-12131
×92▁=▁202.5	-12132
èr▁bǎ▁yǐ▁zi	-12133
▁+▁11▁=▁47。	-12134
▁+▁12▁=▁17。	-12135
▁+▁12▁=▁28。	-12136
▁+▁14▁=▁18。	-12137
▁+▁14▁=▁32。	-12138
▁-▁16▁=▁-4。	-12139
▁-▁18▁=▁-6。	-12140
▁=▁-12▁-▁(-	-12141
▁=▁-2▁-▁(-8	-12142
▁=▁-7▁-▁(-7	-12143
▁=▁-8▁-▁(4)	-12144
▁=▁15▁-▁(3)	-12145
▁×▁5▁=▁275(	-12146
▁×▁5▁=▁350(	-12147
'(3)▁=▁1/3▁-	-12148
,12▁+▁12▁=▁2	-12149
,13▁+▁12▁=▁2	-12150
,18▁+▁12▁=▁3	-12151
,18▁÷▁2▁=▁9。	-12152
,19▁+▁72▁=▁9	-12153
,35▁÷▁5▁=▁7。	-12154
,6▁×▁2▁=▁12;	-12155
.8▁+▁5.1▁=▁?	-12156
12)/2▁=▁12×1	-12157
12)/2▁=▁12×3	-12158
14)/2▁=▁14×4	-12159
40/2▁=▁1120。	-12160
54/2▁=▁1309。	-12161
70/2▁=▁1700。	-12162
:10▁-▁1▁=▁9。	-12163
:12▁-▁7▁=▁5。	-12164
:13▁-▁11▁=▁?	-12165
:13▁-▁7▁=▁6。	-12166
:14▁-▁9▁=▁5。	-12167
:14▁÷▁2▁=▁7。	-12168
:16▁-▁12▁=▁?	-12169
:17▁-▁12▁=▁?	-12170
:17▁-▁13▁=▁?	-12171
:18▁-▁14▁=▁?	-12172
:18▁-▁15▁=▁?	-12173
:25▁÷▁5▁=▁5。	-12174
:4▁×▁8▁=▁32。	-12175
:5▁+▁5▁=▁10。	-12176
:6▁×▁4▁=▁24。	-12177
:8▁×▁5▁=▁40。	-12178
:8▁×▁6▁=▁48。	-12179
:9▁×▁6▁=▁54。	-12180
xiǎo▁míng▁ài	-12181
×32/2▁=▁192。	-12182
×38/2▁=▁247。	-12183
×38/2▁=▁266。	-12184
×40/2▁=▁220。	-12185
×48/2▁=▁144。	-12186
×51/2▁=▁408。	-12187
×52/2▁=▁338。	-12188
×60/2▁=▁330。	-12189
×65/2▁=▁390。	-12190
×66/2▁=▁429。	-12191
×68/2▁=▁238。	-12192
×69/2▁=▁621。	-12193
×70/2▁=▁315。	-12194
×74/2▁=▁407。	-12195
×80/2▁=▁760。	-12196
×86/2▁=▁860。	-12197
×90/2▁=▁900。	-12198
×93/2▁=▁837。	-12199
×94/2▁=▁893。	-12200
×98/2▁=▁539。	-12201
▁+▁2▁×▁9▁=▁?	-12202
▁+▁3▁×▁8▁=▁?	-12203
▁+▁4▁×▁8▁=▁?	-12204
▁+▁56▁=▁616。	-12205
▁+▁5▁×▁7▁=▁?	-12206
▁+▁6▁×▁8▁=▁?	-12207
▁+▁8▁×▁5▁=▁?	-12208
▁+▁9▁×▁8▁=▁?	-12209
▁-▁13▁=▁-49。	-12210
▁-▁14▁=▁-14。	-12211
▁-▁14▁=▁-26。	-12212
▁-▁15▁=▁-33。	-12213
▁14▁÷▁2▁=▁7。	-12214
▁25▁÷▁5▁=▁5。	-12215
▁2▁×▁7▁=▁14,	-12216
▁5▁×▁5▁=▁25,	-12217
▁=▁-4▁-▁(-16	-12218
▁=▁-6▁-▁(-18	-12219
▁=▁0+1×6▁=▁6	-12220
▁=▁1+4×2▁=▁9	-12221
▁=▁150▁×▁0.5	-12222
▁=▁3+1×3▁=▁6	-12223
▁=▁4+1×5▁=▁9	-12224
▁=▁450▁×▁0.4	-12225
▁=▁5+1×4▁=▁9	-12226
▁=▁550▁×▁0.5	-12227
▁=▁7+5×2▁=▁1	-12228
▁=▁750▁×▁0.4	-12229
▁=▁750▁×▁0.8	-12230
▁×▁8▁+▁0▁×▁8	-12231
▁×▁8▁+▁9▁×▁8	-12232
'(1)▁=▁1▁-▁3*	-12233
'(2)▁=▁161/2。	-12234
,14▁+▁8▁=▁22。	-12235
,8▁+▁12▁=▁20;	-12236
12)/2▁=▁12×10	-12237
2▁=▁0×3+1⁄2×5	-12238
2▁=▁0×6+1⁄2×3	-12239
2▁=▁1×6+1⁄2×5	-12240
2▁=▁4×2+1⁄2×5	-12241
2▁=▁6×2+1⁄2×4	-12242
2▁=▁6×4+1⁄2×5	-12243
2▁=▁6×6+1⁄2×5	-12244
2▁=▁9×2+1⁄2×2	-12245
2▁=▁9×2+1⁄2×4	-12246
:13▁+▁3▁=▁16。	-12247
:13▁-▁11▁=▁2。	-12248
:13▁-▁1▁=▁12。	-12249
:15▁-▁5▁=▁10。	-12250
:16▁-▁12▁=▁4。	-12251
:16▁-▁4▁=▁12。	-12252
:17▁-▁12▁=▁5。	-12253
:17▁-▁13▁=▁4。	-12254
:18▁-▁14▁=▁4。	-12255
:18▁-▁15▁=▁3。	-12256
:19▁-▁1▁=▁18。	-12257
:19▁-▁4▁=▁15。	-12258
:19▁-▁6▁=▁13。	-12259
:8▁+▁11▁=▁19。	-12260
^(3/2)/3▁+▁9*	-12261
mā▁mā▁xǐ▁huān	-12262
xiǎo▁míng▁chī	-12263
▁-▁(-14)▁=▁0;	-12264
▁=▁-33▁-▁(-15	-12265
▁=▁0+3×6▁=▁18	-12266
▁=▁0+3×7▁=▁21	-12267
▁=▁0+3×8▁=▁24	-12268
▁=▁0+4×8▁=▁32	-12269
▁=▁0+4×9▁=▁36	-12270
▁=▁0+5×3▁=▁15	-12271
▁=▁0+5×5▁=▁25	-12272
▁=▁0+5×7▁=▁35	-12273
▁=▁1+4×8▁=▁33	-12274
▁=▁1+5×6▁=▁31	-12275
▁=▁150▁×▁0.75	-12276
▁=▁2+2×9▁=▁20	-12277
▁=▁2+4×2▁=▁10	-12278
▁=▁2+4×3▁=▁14	-12279
▁=▁2+5×7▁=▁37	-12280
▁=▁2+5×8▁=▁42	-12281
▁=▁250▁×▁0.25	-12282
▁=▁3+2×4▁=▁11	-12283
▁=▁3+5×9▁=▁48	-12284
▁=▁350▁×▁0.75	-12285
▁=▁4+1×8▁=▁12	-12286
▁=▁4+2×6▁=▁16	-12287
▁=▁4+3×8▁=▁28	-12288
▁=▁4+5×2▁=▁14	-12289
▁=▁4+5×8▁=▁44	-12290
▁=▁450▁×▁0.25	-12291
▁=▁5+1×6▁=▁11	-12292
▁=▁5+3×7▁=▁26	-12293
▁=▁6+2×3▁=▁12	-12294
▁=▁6+3×8▁=▁30	-12295
▁=▁6+3×9▁=▁33	-12296
▁=▁6+4×2▁=▁14	-12297
▁=▁6+5×4▁=▁26	-12298
▁=▁6+5×6▁=▁36	-12299
▁=▁650▁×▁0.75	-12300
▁=▁7+1×3▁=▁10	-12301
▁=▁7+1×4▁=▁11	-12302
▁=▁7+1×8▁=▁15	-12303
▁=▁7+2×7▁=▁21	-12304
▁=▁7+3×4▁=▁19	-12305
▁=▁7+5×6▁=▁37	-12306
▁=▁8+1×7▁=▁15	-12307
▁=▁8+2×6▁=▁20	-12308
▁=▁8+4×8▁=▁40	-12309
▁=▁8+4×9▁=▁44	-12310
▁=▁8+5×6▁=▁38	-12311
▁=▁8+5×7▁=▁43	-12312
▁=▁850▁×▁0.75	-12313
▁=▁9+1×6▁=▁15	-12314
▁=▁9+2×2▁=▁13	-12315
▁=▁9+4×2▁=▁17	-12316
▁=▁9+5×5▁=▁34	-12317
▁=▁9+5×9▁=▁54	-12318
▁×▁2▁=▁80▁×▁2	-12319
▁×▁3▁=▁30▁×▁3	-12320
▁×▁4▁=▁30▁×▁4	-12321
▁×▁4▁=▁50▁×▁4	-12322
▁×▁5▁=▁20▁×▁5	-12323
▁×▁5▁=▁70▁×▁5	-12324
▁×▁6▁=▁60▁×▁6	-12325
,18▁+▁27▁=▁45;	-12326
,19▁÷▁2▁=▁9.5。	-12327
,37▁÷▁5▁=▁7.4。	-12328
.7142857142857	-12329
2▁=▁0×10+1⁄2×2	-12330
2▁=▁10×2+1⁄2×4	-12331
2▁=▁10×2+1⁄2×5	-12332
2▁=▁10×4+1⁄2×2	-12333
2▁=▁7×10+1⁄2×3	-12334
2▁=▁8×10+1⁄2×5	-12335
2▁=▁9×10+1⁄2×2	-12336
2▁=▁9×10+1⁄2×5	-12337
:1/1▁+▁1/2▁=▁?	-12338
:1/3▁+▁1/3▁=▁?	-12339
:1/4▁+▁1/1▁=▁?	-12340
▁+▁10)▁÷▁2▁=▁?	-12341
▁+▁10)▁÷▁5▁=▁?	-12342
▁+▁18)▁÷▁2▁=▁?	-12343
▁+▁20)▁÷▁4▁=▁?	-12344
▁+▁28)▁÷▁7▁=▁?	-12345
▁+▁32)▁÷▁8▁=▁?	-12346
▁+▁48)▁÷▁6▁=▁?	-12347
▁+▁81)▁÷▁9▁=▁?	-12348
▁=▁-26▁-▁(-14)	-12349
▁=▁-49▁-▁(-13)	-12350
▁=▁0+2×10▁=▁20	-12351
▁=▁1+5×2▁=▁11;	-12352
▁=▁10+1×7▁=▁17	-12353
▁=▁10+2×4▁=▁18	-12354
▁=▁10+4×2▁=▁18	-12355
▁=▁10+5×2▁=▁20	-12356
▁=▁2+4×4▁=▁18;	-12357
▁=▁2+6×7▁=▁44;	-12358
▁=▁4+1×10▁=▁14	-12359
▁=▁4+4×2▁=▁12;	-12360
▁=▁4+8×7▁=▁60;	-12361
▁=▁5+5×4▁=▁25;	-12362
▁=▁6▁×▁6▁=▁36(	-12363
▁=▁6▁×▁8▁=▁48(	-12364
▁=▁7+3×10▁=▁37	-12365
▁=▁8+4×7▁=▁36;	-12366
▁=▁8+5×10▁=▁58	-12367
▁=▁9+2×10▁=▁29	-12368
▁=▁9+5×10▁=▁59	-12369
,23▁÷▁2▁=▁11.5。	-12370
2▁=▁0×5+1⁄2×5×5	-12371
2▁=▁0×6+1⁄2×1×6	-12372
2▁=▁0×7+1⁄2×3×7	-12373
2▁=▁0×8+1⁄2×3×8	-12374
2▁=▁2×3+1⁄2×4×3	-12375
2▁=▁2×9+1⁄2×2×9	-12376
2▁=▁3×4+1⁄2×2×4	-12377
2▁=▁4×6+1⁄2×2×6	-12378
2▁=▁4×8+1⁄2×1×8	-12379
2▁=▁5×4+1⁄2×1×4	-12380
2▁=▁7×3+1⁄2×1×3	-12381
2▁=▁7×4+1⁄2×1×4	-12382
2▁=▁7×4+1⁄2×3×4	-12383
2▁=▁7×8+1⁄2×1×8	-12384
2▁=▁8×6+1⁄2×2×6	-12385
2▁=▁8×7+1⁄2×1×7	-12386
2▁=▁9×6+1⁄2×1×6	-12387
wǔ▁zhǐ▁xiǎo▁māo	-12388
yí▁gè▁yuè▁liàng	-12389
×3+1⁄2×4×32▁=▁2	-12390
×5+1⁄2×1×52▁=▁1	-12391
×5+1⁄2×5×52▁=▁9	-12392
×7+1⁄2×2×72▁=▁1	-12393
▁=▁2+16×3▁=▁50;	-12394
▁=▁2+18×5▁=▁92;	-12395
▁=▁25▁×▁3▁=▁75(	-12396
▁=▁3+12×7▁=▁87;	-12397
▁=▁3+15×3▁=▁48;	-12398
▁=▁4+17×5▁=▁89;	-12399
▁=▁4+18×4▁=▁76;	-12400
▁=▁5+11×2▁=▁27;	-12401
▁=▁5+11×5▁=▁60;	-12402
▁=▁5+19×4▁=▁81;	-12403
▁=▁6+13×2▁=▁32;	-12404
▁=▁7+19×4▁=▁83;	-12405
▁=▁8+12×3▁=▁44;	-12406
▁=▁88▁÷▁11▁=▁8。	-12407
▁=▁9+10×4▁=▁49;	-12408
▁=▁9+17×3▁=▁60;	-12409
2▁=▁10×7+1⁄2×1×7	-12410
×3+1⁄2×2×32▁=▁27	-12411
×6+1⁄2×1×62▁=▁48	-12412
×7+1⁄2×2×72▁=▁98	-12413
▁=▁1+13×9▁=▁118;	-12414
▁=▁2+15×7▁=▁107;	-12415
▁=▁25▁×▁6▁=▁150(	-12416
▁=▁3+12×9▁=▁111;	-12417
▁=▁45▁×▁4▁=▁180(	-12418
▁=▁5+16×9▁=▁149;	-12419
▁=▁50▁×▁5▁=▁250(	-12420
▁=▁55▁×▁5▁=▁275(	-12421
▁=▁70▁×▁5▁=▁350(	-12422
▁=▁9+14×8▁=▁121;	-12423
▁=▁9+19×8▁=▁161;	-12424
49	-12425
7/	-12426
^9	-12427
听树	-12428
说雨	-12429
(40	-12430
+39	-12431
+43	-12432
+44	-12433
+49	-12434
+57	-12435
+71	-12436
+74	-12437
+75	-12438
,54	-12439
,63	-12440
,85	-12441
-27	-12442
-34	-12443
-35	-12444
-37	-12445
-38	-12446
-39	-12447
-46	-12448
-55	-12449
-57	-12450
129	-12451
14*	-12452
14;	-12453
177	-12454
17;	-12455
1▁-	-12456
2/(	-12457
21*	-12458
24*	-12459
269	-12460
27*	-12461
339	-12462
346	-12463
368	-12464
407	-12465
426	-12466
429	-12467
439	-12468
448	-12469
455	-12470
478	-12471
48*	-12472
56;	-12473
617	-12474
64;	-12475
66;	-12476
717	-12477
726	-12478
7▁-	-12479
8▁-	-12480
96;	-12481
^10	-12482
^5;	-12483
×56	-12484
×73	-12485
×83	-12486
×89	-12487
▁85	-12488
一朵云	-12489
三朵云	-12490
二朵云	-12491
听妈妈	-12492
四朵花	-12493
小红唱	-12494
小红爱	-12495
树很绿	-12496
看大海	-12497
笔很小	-12498
老师爱	-12499
雪很高	-12500
'(1)	-12501
(-2)	-12502
(1)*	-12503
(1)/	-12504
)/2,	-12505
,635	-12506
,704	-12507
,733	-12508
,841	-12509
,933	-12510
.11。	-12511
1100	-12512
111。	-12513
12.5	-12514
128。	-12515
143。	-12516
150。	-12517
167。	-12518
197。	-12519
2/3。	-12520
20.5	-12521
2977	-12522
300。	-12523
38.5	-12524
449。	-12525
4518	-12526
47.5	-12527
5/2。	-12528
56.5	-12529
74.5	-12530
:101	-12531
:114	-12532
:146	-12533
:14。	-12534
:635	-12535
:68。	-12536
:704	-12537
:733	-12538
:76。	-12539
:78。	-12540
:82。	-12541
:83。	-12542
:841	-12543
:87。	-12544
:91。	-12545
:933	-12546
^3/(	-12547
^5/(	-12548
^5▁-	-12549
▁117	-12550
▁119	-12551
▁170	-12552
▁232	-12553
▁280	-12554
二个苹果	-12555
四个同学	-12556
四个月亮	-12557
大海很红	-12558
大海很高	-12559
妈妈很高	-12560
小红喜欢	-12561
我说美丽	-12562
树真绿呀	-12563
桌子很高	-12564
水很安静	-12565
爸爸很绿	-12566
笔真小呀	-12567
米饭很绿	-12568
花很明亮	-12569
草很美丽	-12570
雪真高呀	-12571
鱼很温暖	-12572
(2)▁-	-12573
(3))。	-12574
(4)▁-	-12575
(6)/3	-12576
(9))*	-12577
)^2*(	-12578
*(-2*	-12579
*(15*	-12580
*(2*(	-12581
100.0	-12582
180.0	-12583
3/50。	-12584
378.0	-12585
397.0	-12586
3▁+▁2	-12587
3▁+▁3	-12588
3▁×▁8	-12589
4/25。	-12590
4▁+▁7	-12591
4▁-▁1	-12592
594.0	-12593
5▁+▁5	-12594
5▁+▁8	-12595
5▁-▁1	-12596
5▁-▁4	-12597
6▁-▁1	-12598
7/98。	-12599
837.0	-12600
8▁+▁6	-12601
8▁+▁7	-12602
8▁+▁8	-12603
9▁+▁7	-12604
9▁-▁1	-12605
9▁-▁7	-12606
:104。	-12607
:140。	-12608
:168。	-12609
:171。	-12610
:188。	-12611
:260。	-12612
:264。	-12613
:276。	-12614
:301。	-12615
:312。	-12616
:390。	-12617
:399。	-12618
:4/9。	-12619
:405。	-12620
:416。	-12621
:5.8。	-12622
:5/7。	-12623
:5/8。	-12624
:6/5。	-12625
:7.6。	-12626
:7/4。	-12627
:7/5。	-12628
:7/8。	-12629
:8/3。	-12630
wǒ▁hē	-12631
▁-▁4*	-12632
▁-▁60	-12633
▁10.5	-12634
▁12.5	-12635
▁4/9。	-12636
▁42.5	-12637
▁43.5	-12638
▁5/7。	-12639
▁5/8。	-12640
▁6/5。	-12641
▁7/4。	-12642
▁7/5。	-12643
▁7/8。	-12644
▁77.5	-12645
▁8/3。	-12646
▁=▁71	-12647
▁=▁97	-12648
大海很安静	-12649
大海真红呀	-12650
大海真高呀	-12651
天空很明亮	-12652
妈妈真高呀	-12653
小狗很温暖	-12654
小猫很快乐	-12655
小猫很温暖	-12656
我喜欢美丽	-12657
桌子真高呀	-12658
水真安静呀	-12659
爸爸真绿呀	-12660
米饭真绿呀	-12661
花真明亮呀	-12662
草真美丽呀	-12663
鱼真温暖呀	-12664
(2)*(-	-12665
(6)/3。	-12666
))▁+▁(	-12667
)/(2*(	-12668
)▁+▁1)	-12669
)▁+▁16	-12670
)▁+▁3。	-12671
)▁+▁5;	-12672
)▁+▁7;	-12673
,2▁+▁6	-12674
,2▁+▁7	-12675
,5▁+▁4	-12676
,9▁÷▁2	-12677
.0▁+▁2	-12678
.0▁+▁6	-12679
.0▁+▁9	-12680
.1▁=▁8	-12681
.5▁+▁4	-12682
.6▁+▁5	-12683
.7▁+▁9	-12684
.9▁+▁4	-12685
.9▁=▁2	-12686
1080.0	-12687
1106.0	-12688
11▁+▁7	-12689
1264.0	-12690
13▁-▁4	-12691
14▁-▁3	-12692
1869.0	-12693
18▁-▁1	-12694
18▁-▁5	-12695
19▁+▁7	-12696
1▁-▁(5	-12697
2034.0	-12698
20▁-▁2	-12699
21▁+▁7	-12700
21▁-▁5	-12701
26▁+▁8	-12702
28▁+▁7	-12703
28▁-▁3	-12704
2▁+▁60	-12705
2▁=▁65	-12706
2▁=▁85	-12707
30▁+▁7	-12708
3239.0	-12709
3397.0	-12710
35▁-▁4	-12711
375/3。	-12712
37▁-▁1	-12713
37▁-▁3	-12714
4068.0	-12715
44▁+▁3	-12716
44▁+▁7	-12717
44▁-▁4	-12718
4520.0	-12719
45▁+▁6	-12720
45▁-▁3	-12721
48▁+▁7	-12722
53▁=▁?	-12723
56▁+▁4	-12724
57▁=▁?	-12725
58▁=▁?	-12726
60▁-▁1	-12727
63▁=▁?	-12728
64▁-▁6	-12729
66▁=▁?	-12730
6▁=▁13	-12731
70▁-▁2	-12732
74▁-▁2	-12733
77▁-▁2	-12734
77▁=▁?	-12735
7▁=▁13	-12736
80▁-▁5	-12737
83▁=▁?	-12738
86▁+▁8	-12739
87▁=▁?	-12740
8▁=▁24	-12741
90▁-▁6	-12742
95▁-▁2	-12743
95▁-▁3	-12744
9▁=▁36	-12745
:10/9。	-12746
:11/7。	-12747
:13/6。	-12748
:13/9。	-12749
:26.2。	-12750
:28.5。	-12751
:2▁+▁3	-12752
:2▁+▁4	-12753
:2▁+▁6	-12754
:2▁+▁8	-12755
:33.8。	-12756
:37.2。	-12757
:3▁+▁1	-12758
:50.7。	-12759
:5▁-▁2	-12760
:5▁-▁4	-12761
:7.33。	-12762
:7.62。	-12763
:7/12。	-12764
:7▁-▁5	-12765
:7▁-▁7	-12766
:8▁+▁9	-12767
:9.25。	-12768
:94.3。	-12769
:9▁+▁9	-12770
:9▁-▁4	-12771
^(13/2	-12772
^3*(9*	-12773
^4*(2*	-12774
^4*(5*	-12775
▁+▁1.0	-12776
▁+▁3);	-12777
▁+▁400	-12778
▁+▁7)*	-12779
▁+▁7.9	-12780
▁+▁9))	-12781
▁-▁3)*	-12782
▁10/9。	-12783
▁11/7。	-12784
▁112.5	-12785
▁129.5	-12786
▁13/6。	-12787
▁13/9。	-12788
▁220.5	-12789
▁238.5	-12790
▁247.5	-12791
▁256.5	-12792
▁2▁×▁4	-12793
▁2▁×▁5	-12794
▁7/12。	-12795
▁=▁-4;	-12796
▁=▁-73	-12797
▁=▁-83	-12798
▁=▁-85	-12799
▁=▁-89	-12800
▁=▁-95	-12801
▁=▁-98	-12802
▁=▁-9;	-12803
▁=▁275	-12804
▁=▁455	-12805
▁=▁5+8	-12806
▁=▁73;	-12807
▁=▁9+6	-12808
▁=▁9+9	-12809
▁=▁91。	-12810
大海真安静呀	-12811
天空真明亮呀	-12812
小狗真温暖呀	-12813
小猫真快乐呀	-12814
小猫真温暖呀	-12815
(2)/25。	-12816
(3)/6▁+	-12817
(4))/4。	-12818
(4096)。	-12819
(6)▁+▁4	-12820
(9))/6。	-12821
))▁+▁1/	-12822
)/2▁+▁1	-12823
)/2▁+▁2	-12824
)▁+▁(3*	-12825
)▁+▁24*	-12826
)▁+▁36*	-12827
)▁=▁-2;	-12828
)▁=▁-5;	-12829
)▁=▁-9*	-12830
)▁=▁40*	-12831
)▁=▁48*	-12832
+0)2+2,	-12833
+2)2-7,	-12834
+4)2-8,	-12835
+5)2-1,	-12836
,11▁+▁8	-12837
,12▁+▁6	-12838
,12▁+▁8	-12839
,13▁÷▁2	-12840
,17▁+▁6	-12841
,17▁+▁8	-12842
,24▁÷▁2	-12843
,2▁+▁20	-12844
,38▁÷▁4	-12845
,39▁÷▁4	-12846
,3▁+▁24	-12847
,42▁÷▁4	-12848
,4▁+▁18	-12849
,5▁+▁15	-12850
,5▁+▁20	-12851
,5▁+▁45	-12852
,68▁÷▁6	-12853
,6▁+▁36	-12854
,7▁+▁35	-12855
,7▁+▁63	-12856
,8▁+▁24	-12857
,8▁+▁36	-12858
,9▁+▁56	-12859
-1)2+0,	-12860
-2)2-8,	-12861
-4)2+5,	-12862
.7▁=▁61	-12863
/4)/3▁+	-12864
1.0▁+▁9	-12865
1/2▁=▁2	-12866
10▁=▁50	-12867
11▁=▁24	-12868
16▁+▁3*	-12869
16▁=▁90	-12870
18▁=▁16	-12871
19▁=▁68	-12872
2.0▁+▁0	-12873
2.5▁+▁6	-12874
2/2▁=▁7	-12875
2/2▁=▁8	-12876
2/2▁=▁9	-12877
2▁-▁(-4	-12878
2▁-▁(-6	-12879
2▁=▁108	-12880
2▁=▁52。	-12881
2▁=▁72。	-12882
3.5▁+▁7	-12883
3▁=▁100	-12884
4/2▁=▁3	-12885
5▁=▁15,	-12886
5▁=▁23,	-12887
5▁=▁35,	-12888
5▁=▁35。	-12889
5▁=▁37;	-12890
5▁=▁40,	-12891
5▁=▁45。	-12892
5▁=▁70。	-12893
6▁=▁20,	-12894
6▁=▁28,	-12895
6▁=▁29,	-12896
6▁=▁31,	-12897
6▁=▁39,	-12898
6▁=▁44,	-12899
6▁=▁46,	-12900
6▁=▁57。	-12901
7.5▁+▁6	-12902
7/2▁=▁3	-12903
7/2▁=▁6	-12904
7▁-▁(18	-12905
7▁=▁43,	-12906
7▁=▁46,	-12907
7▁=▁49,	-12908
7▁=▁57,	-12909
7▁=▁58,	-12910
7▁=▁77。	-12911
8.5▁+▁3	-12912
8▁=▁18,	-12913
8▁=▁23,	-12914
8▁=▁24,	-12915
8▁=▁58,	-12916
8▁=▁60,	-12917
8▁=▁66,	-12918
8▁=▁88。	-12919
9.0▁+▁2	-12920
9.5▁+▁4	-12921
96▁+▁14	-12922
9▁=▁21,	-12923
9▁=▁67,	-12924
:11/10。	-12925
:11▁-▁3	-12926
:12▁+▁1	-12927
:12▁+▁7	-12928
:12▁-▁8	-12929
:13/18。	-12930
:13/21。	-12931
:13▁-▁2	-12932
:13▁-▁9	-12933
:14▁-▁8	-12934
:15▁-▁2	-12935
:15▁-▁8	-12936
:16▁-▁8	-12937
:19/21。	-12938
:19/28。	-12939
:19▁-▁7	-12940
:22/21。	-12941
:2▁+▁15	-12942
:31/40。	-12943
:43▁×▁7	-12944
^(13/2)	-12945
^(3/2),	-12946
^(5/2),	-12947
^2▁+▁9*	-12948
^3▁+▁5*	-12949
^5▁+▁4*	-12950
^5▁-▁2*	-12951
×6▁=▁13	-12952
▁+▁10)*	-12953
▁+▁14)*	-12954
▁+▁18);	-12955
▁+▁9))。	-12956
▁-▁3)/(	-12957
▁11/10。	-12958
▁13/18。	-12959
▁13/21。	-12960
▁19/21。	-12961
▁19/28。	-12962
▁22/21。	-12963
▁31/40。	-12964
▁=▁-15;	-12965
▁=▁-22;	-12966
▁=▁-45;	-12967
▁=▁-64;	-12968
▁=▁-77;	-12969
▁=▁-82。	-12970
▁=▁-83。	-12971
▁=▁-84;	-12972
▁=▁-84。	-12973
▁=▁-85。	-12974
▁=▁-88。	-12975
▁=▁-92。	-12976
▁=▁-95。	-12977
▁=▁-98。	-12978
▁=▁0+3×	-12979
▁=▁106。	-12980
▁=▁1100	-12981
▁=▁113,	-12982
▁=▁115。	-12983
▁=▁143。	-12984
▁=▁150;	-12985
▁=▁184。	-12986
▁=▁185。	-12987
▁=▁208。	-12988
▁=▁221。	-12989
▁=▁238。	-12990
▁=▁296。	-12991
▁=▁390。	-12992
▁=▁4+1×	-12993
▁=▁406。	-12994
▁=▁448。	-12995
▁=▁456。	-12996
▁=▁476。	-12997
▁=▁5+13	-12998
▁=▁588。	-12999
▁=▁6+11	-13000
▁=▁801。	-13001
▁=▁969。	-13002
(1)▁+▁1。	-13003
(1)▁+▁2*	-13004
(2)▁+▁1。	-13005
(2)▁-▁2*	-13006
(3)▁+▁3*	-13007
(4)▁+▁3*	-13008
(6)▁+▁3*	-13009
)▁+▁1)▁-	-13010
)▁=▁(20*	-13011
)▁=▁(24*	-13012
)▁=▁(27*	-13013
)▁=▁(4▁-	-13014
)▁=▁(5▁-	-13015
)▁=▁-25;	-13016
+1×5▁=▁5	-13017
+1×5▁=▁7	-13018
+1×8▁=▁9	-13019
+2×3▁=▁6	-13020
+2×3▁=▁7	-13021
+3×3▁=▁9	-13022
,10▁+▁18	-13023
,11▁+▁18	-13024
,11▁+▁24	-13025
,11▁+▁30	-13026
,13▁+▁10	-13027
,13▁+▁15	-13028
,13▁+▁20	-13029
,14▁+▁21	-13030
,14▁+▁28	-13031
,14▁+▁36	-13032
,15▁+▁16	-13033
,15▁+▁20	-13034
,15▁+▁27	-13035
,16▁+▁18	-13036
,16▁+▁28	-13037
,17▁+▁18	-13038
,17▁+▁40	-13039
,18▁+▁28	-13040
,18▁+▁56	-13041
,19▁+▁15	-13042
,19▁+▁24	-13043
,20▁+▁40	-13044
.1▁=▁20。	-13045
.1▁=▁50。	-13046
.1▁=▁70。	-13047
.3▁+▁0.9	-13048
.6▁+▁4.6	-13049
.8▁+▁3.0	-13050
.8▁=▁80。	-13051
/2▁=▁45。	-13052
/4▁+▁6)。	-13053
10▁=▁20,	-13054
10▁=▁55,	-13055
10▁=▁64,	-13056
10▁=▁91,	-13057
11▁=▁30,	-13058
12▁=▁42,	-13059
12▁=▁68,	-13060
13/2▁=▁9	-13061
13▁=▁63,	-13062
13▁=▁99,	-13063
14▁=▁59,	-13064
14▁=▁75,	-13065
15▁=▁46,	-13066
15▁=▁64,	-13067
16▁=▁34,	-13068
17▁=▁100	-13069
17▁=▁84,	-13070
17▁=▁85,	-13071
18▁=▁140	-13072
18▁=▁86,	-13073
19▁=▁43,	-13074
19▁=▁44,	-13075
19▁=▁61,	-13076
19▁=▁63,	-13077
19▁=▁93,	-13078
19▁=▁99,	-13079
20▁=▁78,	-13080
20▁=▁80,	-13081
20▁=▁99,	-13082
24/2▁=▁9	-13083
2▁-▁(-15	-13084
2▁=▁366。	-13085
2▁=▁37.5	-13086
2▁=▁42.5	-13087
2▁=▁77.5	-13088
3/2▁=▁10	-13089
32/2▁=▁1	-13090
3▁=▁70.0	-13091
42/2▁=▁1	-13092
46/2▁=▁1	-13093
48/2▁=▁1	-13094
58/2▁=▁1	-13095
64/2▁=▁1	-13096
7▁=▁119。	-13097
7▁=▁133。	-13098
7▁=▁147。	-13099
7▁=▁182。	-13100
7▁=▁203。	-13101
7▁=▁231。	-13102
8▁=▁136。	-13103
8▁=▁212。	-13104
8▁=▁232。	-13105
8▁=▁272。	-13106
9▁=▁117。	-13107
9▁=▁126。	-13108
9▁=▁153。	-13109
9▁=▁171。	-13110
9▁=▁234。	-13111
9▁=▁306。	-13112
9▁=▁324。	-13113
9▁=▁333。	-13114
:(12▁+▁2	-13115
:17▁-▁10	-13116
:17▁-▁14	-13117
:18▁-▁17	-13118
:19▁-▁13	-13119
:19▁-▁15	-13120
:5/2▁+▁4	-13121
^(7/2)▁+	-13122
^(9/2)▁+	-13123
^2▁+▁3))	-13124
^2▁+▁6))	-13125
×10▁=▁13	-13126
×10▁=▁17	-13127
×2▁=▁18;	-13128
×2▁=▁19;	-13129
×2▁=▁26;	-13130
×2▁=▁31;	-13131
×3▁=▁36;	-13132
×3▁=▁53;	-13133
×3▁=▁55;	-13134
×4▁=▁46;	-13135
×4▁=▁52;	-13136
×4▁=▁58;	-13137
×4▁=▁60;	-13138
×4▁=▁63;	-13139
×4▁=▁73;	-13140
×4▁=▁78;	-13141
×5▁=▁63;	-13142
×5▁=▁81;	-13143
×5▁=▁85;	-13144
×5▁=▁90;	-13145
×5▁=▁97;	-13146
×5▁=▁99;	-13147
×6▁=▁91;	-13148
×6▁=▁93;	-13149
×7▁=▁58;	-13150
×8▁=▁60;	-13151
×8▁=▁99;	-13152
×92▁=▁25	-13153
▁(0,▁2),	-13154
▁(0,▁2);	-13155
▁(1,▁0),	-13156
▁(1,▁0);	-13157
▁(4,▁5),	-13158
▁(4,▁5);	-13159
▁+▁2)/((	-13160
▁+▁2)^2*	-13161
▁+▁2▁×▁9	-13162
▁+▁5▁×▁5	-13163
▁+▁6▁×▁6	-13164
▁+▁8▁×▁9	-13165
▁=▁-101。	-13166
▁=▁0+2×8	-13167
▁=▁0+3×5	-13168
▁=▁0+4×4	-13169
▁=▁0+5×4	-13170
▁=▁0+5×8	-13171
▁=▁1+3×6	-13172
▁=▁1+4×4	-13173
▁=▁1+4×6	-13174
▁=▁1+4×7	-13175
▁=▁1+5×4	-13176
▁=▁1+5×7	-13177
▁=▁10+19	-13178
▁=▁1008。	-13179
▁=▁12.5。	-13180
▁=▁2+2×4	-13181
▁=▁2+3×4	-13182
▁=▁2+3×5	-13183
▁=▁2+3×7	-13184
▁=▁2+4×8	-13185
▁=▁2+5×9	-13186
▁=▁26.2。	-13187
▁=▁3+2×9	-13188
▁=▁3+3×4	-13189
▁=▁3+3×5	-13190
▁=▁3+3×6	-13191
▁=▁3+4×8	-13192
▁=▁3+5×4	-13193
[...]
